{
  "version": "1.0",
  "truncation": null,
  "padding": null,
  "added_tokens": [
    {
      "id": 0,
      "content": "[PAD]",
      "single_word": false,
      "lstrip": false,
      "rstrip": false,
      "normalized": false,
      "special": true
    },
    {
      "id": 1,
      "content": "[UNK]",
      "single_word": false,
      "lstrip": false,
      "rstrip": false,
      "normalized": false,
      "special": true
    },
    {
      "id": 2,
      "content": "[BOS]",
      "single_word": false,
      "lstrip": false,
      "rstrip": false,
      "normalized": false,
      "special": true
    },
    {
      "id": 3,
      "content": "[EOS]",
      "single_word": false,
      "lstrip": false,
      "rstrip": false,
      "normalized": false,
      "special": true
    }
  ],
  "normalizer": null,
  "pre_tokenizer": {
    "type": "Whitespace"
  },
  "post_processor": null,
  "decoder": null,
  "model": {
    "type": "BPE",
    "dropout": null,
    "unk_token": "[UNK]",
    "continuing_subword_prefix": null,
    "end_of_word_suffix": null,
    "fuse_unk": false,
    "byte_fallback": false,
    "ignore_merges": false,
    "vocab": {
      "[PAD]": 0,
      "[UNK]": 1,
      "[BOS]": 2,
      "[EOS]": 3,
      "!": 4,
      "\"": 5,
      "'": 6,
      "(": 7,
      ")": 8,
      "+": 9,
      "-": 10,
      ".": 11,
      "/": 12,
      "0": 13,
      "1": 14,
      "2": 15,
      "3": 16,
      "4": 17,
      "5": 18,
      "7": 19,
      "8": 20,
      "9": 21,
      ":": 22,
      ";": 23,
      "=": 24,
      ">": 25,
      "?": 26,
      "\\": 27,
      "]": 28,
      "{": 29,
      "}": 30,
      "ª": 31,
      "´": 32,
      "·": 33,
      "Б": 34,
      "Г": 35,
      "а": 36,
      "в": 37,
      "е": 38,
      "з": 39,
      "и": 40,
      "к": 41,
      "р": 42,
      "у": 43,
      "ш": 44,
      "я": 45,
      "ا": 46,
      "س": 47,
      "ن": 48,
      "ک": 49,
      "ی": 50,
      "ँ": 51,
      "ं": 52,
      "ः": 53,
      "अ": 54,
      "आ": 55,
      "इ": 56,
      "ई": 57,
      "उ": 58,
      "ऊ": 59,
      "ऋ": 60,
      "ए": 61,
      "ऐ": 62,
      "ऑ": 63,
      "ओ": 64,
      "औ": 65,
      "क": 66,
      "ख": 67,
      "ग": 68,
      "घ": 69,
      "ङ": 70,
      "च": 71,
      "छ": 72,
      "ज": 73,
      "झ": 74,
      "ञ": 75,
      "ट": 76,
      "ठ": 77,
      "ड": 78,
      "ढ": 79,
      "ण": 80,
      "त": 81,
      "थ": 82,
      "द": 83,
      "ध": 84,
      "न": 85,
      "प": 86,
      "फ": 87,
      "ब": 88,
      "भ": 89,
      "म": 90,
      "य": 91,
      "र": 92,
      "ऱ": 93,
      "ल": 94,
      "ळ": 95,
      "व": 96,
      "श": 97,
      "ष": 98,
      "स": 99,
      "ह": 100,
      "ऺ": 101,
      "़": 102,
      "ऽ": 103,
      "ा": 104,
      "ि": 105,
      "ी": 106,
      "ु": 107,
      "ू": 108,
      "ृ": 109,
      "ॅ": 110,
      "े": 111,
      "ै": 112,
      "ॉ": 113,
      "ॊ": 114,
      "ो": 115,
      "ौ": 116,
      "्": 117,
      "ॐ": 118,
      "क़": 119,
      "ख़": 120,
      "ग़": 121,
      "ज़": 122,
      "ड़": 123,
      "ढ़": 124,
      "फ़": 125,
      "।": 126,
      "॥": 127,
      "‌": 128,
      "‍": 129,
      "‘": 130,
      "’": 131,
      "ना": 132,
      "रे": 133,
      "का": 134,
      "को": 135,
      "ता": 136,
      "ते": 137,
      "रा": 138,
      "के": 139,
      "ने": 140,
      "जा": 141,
      "बा": 142,
      "ड़": 143,
      "दा": 144,
      "मे": 145,
      "ंग": 146,
      "नि": 147,
      "हो": 148,
      "ले": 149,
      "मा": 150,
      "गे": 151,
      "ला": 152,
      "या": 153,
      "सा": 154,
      "गा": 155,
      "रि": 156,
      "ति": 157,
      "दो": 158,
      "मि": 159,
      "से": 160,
      "आः": 161,
      "चि": 162,
      "सि": 163,
      "अः": 164,
      "ोः": 165,
      "बे": 166,
      "कु": 167,
      "्र": 168,
      "पा": 169,
      "ताइ": 170,
      "नेआ": 171,
      "सो": 172,
      "इनि": 173,
      "केना": 174,
      "मेना": 175,
      "वा": 176,
      "जि": 177,
      "कि": 178,
      "सु": 179,
      "र्": 180,
      "जाना": 181,
      "स्": 182,
      "एः": 183,
      "मो": 184,
      "हा": 185,
      "यो": 186,
      "दु": 187,
      "केदा": 188,
      "दि": 189,
      "इन": 190,
      "मेन": 191,
      "पु": 192,
      "चा": 193,
      "राः": 194,
      "टा": 195,
      "होबा": 196,
      "लि": 197,
      "ताइकेना": 198,
      "गो": 199,
      "ड़ा": 200,
      "बु": 201,
      "लो": 202,
      "हि": 203,
      "नो": 204,
      "ड़ो": 205,
      "रो": 206,
      "तु": 207,
      "तान": 208,
      "ताना": 209,
      "लेका": 210,
      "द्": 211,
      "वि": 212,
      "आञ": 213,
      "क्": 214,
      "पे": 215,
      "नु": 216,
      "रिका": 217,
      "रआः": 218,
      "जु": 219,
      "जो": 220,
      "सोबे": 221,
      "जी": 222,
      "ड़ा": 223,
      "ड़ि": 224,
      "एन": 225,
      "इनिः": 226,
      "रेआ": 227,
      "टे": 228,
      "बि": 229,
      "रेन": 230,
      "गि": 231,
      "सोबेन": 232,
      "मु": 233,
      "ओः": 234,
      "आते": 235,
      "री": 236,
      "हु": 237,
      "ड़ि": 238,
      "जना": 239,
      "इंग": 240,
      "तना": 241,
      "रू": 242,
      "मेनाः": 243,
      "बो": 244,
      "तन": 245,
      "प्र": 246,
      "एना": 247,
      "न्": 248,
      "कोआ": 249,
      "कान": 250,
      "दे": 251,
      "भा": 252,
      "डि": 253,
      "गु": 254,
      "कन": 255,
      "ओड़": 256,
      "हिजु": 257,
      "ंगा": 258,
      "गर": 259,
      ":।": 260,
      "काना": 261,
      "रेअः": 262,
      "ओड़ो": 263,
      "बाइ": 264,
      "मेनते": 265,
      "डा": 266,
      "लेल": 267,
      "आद": 268,
      "नी": 269,
      "ड़ु": 270,
      "जे": 271,
      "केआते": 272,
      "आर": 273,
      "नेया": 274,
      "्य": 275,
      "सेन": 276,
      "डो": 277,
      "ली": 278,
      "तइ": 279,
      "मेनदो": 280,
      "ती": 281,
      "होड़ो": 282,
      "ओड़ोः": 283,
      "टि": 284,
      "कार": 285,
      "मिआद": 286,
      "कजि": 287,
      "गार": 288,
      "पि": 289,
      "ड़ो": 290,
      "टो": 291,
      "ल्": 292,
      "त्": 293,
      "यु": 294,
      "रु": 295,
      "मी": 296,
      "सं": 297,
      "योम": 298,
      "सी": 299,
      "किन": 300,
      "त्र": 301,
      "ओआ": 302,
      "टी": 303,
      "ताः": 304,
      "सिदा": 305,
      "जान": 306,
      "कामि": 307,
      "होड़ो": 308,
      "ओको": 309,
      "नाति": 310,
      "क्ष": 311,
      "म्": 312,
      "ब्": 313,
      "बेसे": 314,
      "अर": 315,
      "काजि": 316,
      "पो": 317,
      "लोः": 318,
      "जन": 319,
      "होन": 320,
      "नेका": 321,
      "तो": 322,
      "लेना": 323,
      "दी": 324,
      "इनकु": 325,
      "धा": 326,
      "सर": 327,
      "गेन": 328,
      "अम": 329,
      "ंड": 330,
      "आए": 331,
      "आम": 332,
      "नाः": 333,
      "गी": 334,
      "एटा": 335,
      "ताइना": 336,
      "चे": 337,
      "निः": 338,
      "आपा": 339,
      "एटे": 340,
      "कमि": 341,
      "मं": 342,
      "लागा": 343,
      "कना": 344,
      "उड़ु": 345,
      "रेगे": 346,
      "इसु": 347,
      "ङा": 348,
      "मान": 349,
      "आपान": 350,
      "तर": 351,
      "ताइन": 352,
      "हे": 353,
      "अइंग": 354,
      "पी": 355,
      "ओम": 356,
      "शा": 357,
      "होरा": 358,
      "जगर": 359,
      "रेओ": 360,
      "राङ": 361,
      "कोआः": 362,
      "केद": 363,
      "ंगि": 364,
      "तइन": 365,
      "वे": 366,
      "सन": 367,
      "एआ": 368,
      "राज": 369,
      "जागार": 370,
      "ड़ु": 371,
      "रअ": 372,
      "बर": 373,
      "हिजुः": 374,
      "प्": 375,
      "शि": 376,
      "बइ": 377,
      "नाम": 378,
      "इतु": 379,
      "ओडो": 380,
      "टु": 381,
      "आञा": 382,
      "ष्": 383,
      "कोरे": 384,
      "सम": 385,
      "इनिआः": 386,
      "दाड़ि": 387,
      "उदु": 388,
      "तायोम": 389,
      "लका": 390,
      "तइकेना": 391,
      "टर": 392,
      "सुम": 393,
      "आले": 394,
      "गेआ": 395,
      "दिसुम": 396,
      "आउ": 397,
      "भार": 398,
      "तेगे": 399,
      "खा": 400,
      "चिलका": 401,
      "ची": 402,
      "बी": 403,
      "पुर": 404,
      "कर": 405,
      "माजा": 406,
      "श्": 407,
      "ड़े": 408,
      "सोमा": 409,
      "तार": 410,
      "लागाति": 411,
      "पुराः": 412,
      "की": 413,
      "रंग": 414,
      "सिङ": 415,
      "तइना": 416,
      "होड़ोको": 417,
      "सोमाए": 418,
      "फि": 419,
      "सुकु": 420,
      "मिय": 421,
      "नातिन": 422,
      "पुरा": 423,
      "फा": 424,
      "बुगि": 425,
      "ञा": 426,
      "था": 427,
      "यर": 428,
      "बान": 429,
      "ज्": 430,
      "वी": 431,
      "ओड़ा": 432,
      "नेता": 433,
      "्रे": 434,
      "साना": 435,
      "आन": 436,
      "ड़ी": 437,
      "केद्": 438,
      "सिर": 439,
      "सिका": 440,
      "आमा": 441,
      "नम": 442,
      "ओड़": 443,
      "ड़े": 444,
      "जोगा": 445,
      "इदि": 446,
      "ओःआ": 447,
      "धि": 448,
      "नगा": 449,
      "ंगे": 450,
      "गोनो": 451,
      "तानाः": 452,
      "हर": 453,
      "सेनोः": 454,
      "आं": 455,
      "्री": 456,
      "जां": 457,
      "नअः": 458,
      "तुम": 459,
      "ंद": 460,
      "नगेन": 461,
      "गोटा": 462,
      "ओड़ोः": 463,
      "डु": 464,
      "ओल": 465,
      "भारत": 466,
      "डी": 467,
      "काएः": 468,
      "काए": 469,
      "सार": 470,
      "मोयो": 471,
      "हुड़ि": 472,
      "आया": 473,
      "चु": 474,
      "इं": 475,
      "रोम": 476,
      "सिरमा": 477,
      "लु": 478,
      "चिम": 479,
      "स्ट": 480,
      "केदाए": 481,
      "उनु": 482,
      "रेदो": 483,
      "दाड़ि": 484,
      "केदाएः": 485,
      "लागातिङा": 486,
      "बिनगा": 487,
      "लगा": 488,
      "पुलि": 489,
      "पू": 490,
      "तादा": 491,
      "डे": 492,
      "तिंग": 493,
      "चेतान": 494,
      "कोम": 495,
      "शन": 496,
      "बार": 497,
      "त्री": 498,
      "ओकोए": 499,
      "आकाना": 500,
      "खि": 501,
      "मला": 502,
      "नागेन": 503,
      "काको": 504,
      "आञाः": 505,
      "मिन": 506,
      "एस": 507,
      "खो": 508,
      "सिंग": 509,
      "सेनो": 510,
      "एटेः": 511,
      "साः": 512,
      "पुलिस": 513,
      "इम": 514,
      "सेसेन": 515,
      "कोअः": 516,
      "इनी": 517,
      "मेनअः": 518,
      "उड़ु": 519,
      "रिया": 520,
      "चार": 521,
      "नुतुम": 522,
      "फो": 523,
      "यना": 524,
      "पर": 525,
      "बै": 526,
      "किना": 527,
      "लाः": 528,
      "जाकेद": 529,
      "होबाओआ": 530,
      "युम": 531,
      "चो": 532,
      "दड़ि": 533,
      "राम": 534,
      "लाए": 535,
      "आएः": 536,
      "आइंग": 537,
      "ट्": 538,
      "मोयोद": 539,
      "समा": 540,
      "ही": 541,
      "तिसिङ": 542,
      "बोरो": 543,
      "जादा": 544,
      "उदुब": 545,
      "इआ": 546,
      "वर": 547,
      "सें": 548,
      "आमाः": 549,
      "ओकोआ": 550,
      "तयोम": 551,
      "तेबा": 552,
      "बारा": 553,
      "निया": 554,
      "हारा": 555,
      "इनु": 556,
      "लेकाते": 557,
      "अबु": 558,
      "कुड़ि": 559,
      "चानाः": 560,
      "जोम": 561,
      "एटाः": 562,
      "अप": 563,
      "कारी": 564,
      "माराङ": 565,
      "बुगिन": 566,
      "आकान": 567,
      "कम": 568,
      "कू": 569,
      "बानोः": 570,
      "ंदा": 571,
      "ठा": 572,
      "तअः": 573,
      "नवा": 574,
      "देश": 575,
      "देंगा": 576,
      "होनको": 577,
      "शु": 578,
      "लाङ": 579,
      "ओनो": 580,
      "नेताः": 581,
      "नेल": 582,
      "हुड़ि": 583,
      "आना": 584,
      "थि": 585,
      "यू": 586,
      "मोने": 587,
      "डिया": 588,
      "ङगि": 589,
      "सरा": 590,
      "बद": 591,
      "बल": 592,
      "बारि": 593,
      "कुल": 594,
      "वार": 595,
      "सानाङ": 596,
      "कृ": 597,
      "पं": 598,
      "हातु": 599,
      "जपा": 600,
      "परि": 601,
      "मंत्री": 602,
      "अले": 603,
      "्या": 604,
      "नावा": 605,
      "ंग्रे": 606,
      "सिं": 607,
      "ड़ाओ": 608,
      "ओमा": 609,
      "काम": 610,
      "चना": 611,
      "लाई": 612,
      "मोय": 613,
      "दिन": 614,
      "नाआः": 615,
      "मेद": 616,
      "होडो": 617,
      "र्ट": 618,
      "लेकान": 619,
      "टोओ": 620,
      "समय": 621,
      "णा": 622,
      "मू": 623,
      "किः": 624,
      "जानाएः": 625,
      "स्था": 626,
      "तायोमते": 627,
      "आको": 628,
      "मामला": 629,
      "तानको": 630,
      "होड़ोको": 631,
      "सरकार": 632,
      "कला": 633,
      "बं": 634,
      "वर्": 635,
      "साइ": 636,
      "दुकु": 637,
      "ठो": 638,
      "मजा": 639,
      "शी": 640,
      "न्द": 641,
      "उड़ुः": 642,
      "ंक": 643,
      "बू": 644,
      "ोःआ": 645,
      "कुलि": 646,
      "योग": 647,
      "हुल": 648,
      "तोबे": 649,
      "मियद": 650,
      "हुड़िङ": 651,
      "कदा": 652,
      "मानाति": 653,
      "किरि": 654,
      "एनका": 655,
      "ओनोल": 656,
      "क्र": 657,
      "कार्": 658,
      "गाड़ा": 659,
      "टाका": 660,
      "क्षा": 661,
      "एम": 662,
      "ढ़": 663,
      "जापा": 664,
      "बाल": 665,
      "होनो": 666,
      "दुब": 667,
      "दुला": 668,
      "बोंगा": 669,
      "दाः": 670,
      "बेस": 671,
      "केदाको": 672,
      "ओड़ाः": 673,
      "आई": 674,
      "दन": 675,
      "सू": 676,
      "लाओ": 677,
      "मिसा": 678,
      "पार": 679,
      "ताइकेनाएः": 680,
      "तनअः": 681,
      "ँग": 682,
      "आबु": 683,
      "आयुम": 684,
      "भो": 685,
      "फिल्": 686,
      "ताला": 687,
      "रासिका": 688,
      "चिमिन": 689,
      "जिनि": 690,
      "पेरे": 691,
      "ड़ाः": 692,
      "भाव": 693,
      "ज्ञा": 694,
      "व्य": 695,
      "दान": 696,
      "बुजा": 697,
      "सोबेनको": 698,
      "बरन": 699,
      "ग्": 700,
      "दड़ि": 701,
      "मन": 702,
      "रसिका": 703,
      "कामी": 704,
      "पेड़े": 705,
      "फिल्म": 706,
      "आपि": 707,
      "उतर": 708,
      "एंगा": 709,
      "ंट": 710,
      "कल": 711,
      "बाद": 712,
      "सेना": 713,
      "सोबेना": 714,
      "ष्ट": 715,
      "मियद्": 716,
      "अमा": 717,
      "ओते": 718,
      "बन": 719,
      "ताङ": 720,
      "याते": 721,
      "नेआते": 722,
      "सोमोय": 723,
      "होबाओः": 724,
      "सिंह": 725,
      "अट": 726,
      "जय": 727,
      "बनो": 728,
      "मर": 729,
      "साङगि": 730,
      "दुराङ": 731,
      "टेः": 732,
      "हुलाङ": 733,
      "काञ": 734,
      "लेलो": 735,
      "होबाव": 736,
      "एनता": 737,
      "तिंगु": 738,
      "समाज": 739,
      "ंस": 740,
      "जरू": 741,
      "तानिः": 742,
      "सिंगि": 743,
      "चाना": 744,
      "होबाजाना": 745,
      "ल्ली": 746,
      "रुड़ु": 747,
      "हुड़िङ": 748,
      "आलो": 749,
      "उप": 750,
      "डू": 751,
      "पति": 752,
      "महा": 753,
      "जाआं": 754,
      "लेकन": 755,
      "याद": 756,
      "जोर": 757,
      "नीति": 758,
      "जोगाओ": 759,
      "गोनोङ": 760,
      "बानो": 761,
      "होबाओ": 762,
      "एनताः": 763,
      "कं": 764,
      "मत": 765,
      "रेको": 766,
      "तारा": 767,
      "तेआ": 768,
      "लाइ": 769,
      "सांगि": 770,
      "लोओः": 771,
      "जोनो": 772,
      "पुरअः": 773,
      "टोओर": 774,
      "एने": 775,
      "जकेद्": 776,
      "धी": 777,
      "वन": 778,
      "कोते": 779,
      "नेकान": 780,
      "जार": 781,
      "बोर": 782,
      "ंडु": 783,
      "आइ": 784,
      "इया": 785,
      "उतार": 786,
      "ओमे": 787,
      "ङगा": 788,
      "नमा": 789,
      "लय": 790,
      "लू": 791,
      "शे": 792,
      "सला": 793,
      "राइ": 794,
      "दिल्ली": 795,
      "जांए": 796,
      "सारते": 797,
      "बारान": 798,
      "कै": 799,
      "ठी": 800,
      "तं": 801,
      "दू": 802,
      "यन": 803,
      "श्री": 804,
      "कादा": 805,
      "नेन": 806,
      "बालाए": 807,
      "स्तान": 808,
      "मोचा": 809,
      "जोगाव": 810,
      "आयार": 811,
      "फ्": 812,
      "यद्": 813,
      "नामो": 814,
      "किआ": 815,
      "इति": 816,
      "उकु": 817,
      "एते": 818,
      "ओड़ाः": 819,
      "तरा": 820,
      "तकिना": 821,
      "मरंग": 822,
      "कारेदो": 823,
      "केते": 824,
      "बारे": 825,
      "ड़ी": 826,
      "किर": 827,
      "ड़ां": 828,
      "उत्": 829,
      "गल": 830,
      "घा": 831,
      "टका": 832,
      "धो": 833,
      "संग": 834,
      "ताल": 835,
      "र्म": 836,
      "दुनिया": 837,
      "क्स": 838,
      "ड़ाव": 839,
      "अया": 840,
      "लेन": 841,
      "चिनअः": 842,
      "केदाञ": 843,
      "विश्": 844,
      "मुख": 845,
      "इनुङ": 846,
      "किःआ": 847,
      "अपि": 848,
      "कद": 849,
      "मै": 850,
      "केयाते": 851,
      "जारुड़ु": 852,
      "याको": 853,
      "पाति": 854,
      "स्वा": 855,
      "गोआ": 856,
      "मंदि": 857,
      "अधि": 858,
      "आगु": 859,
      "कजी": 860,
      "छा": 861,
      "भि": 862,
      "मार": 863,
      "सां": 864,
      "मोन": 865,
      "गोए": 866,
      "गिड़ि": 867,
      "रूआ": 868,
      "डिंग": 869,
      "डियो": 870,
      "चेतन": 871,
      "उड़ुः": 872,
      "मानातिङ": 873,
      "अइ": 874,
      "अन": 875,
      "उपु": 876,
      "खु": 877,
      "ण्": 878,
      "नमो": 879,
      "पै": 880,
      "नाङ": 881,
      "काआ": 882,
      "कोड़ा": 883,
      "बादि": 884,
      "निक": 885,
      "होका": 886,
      "होयो": 887,
      "र्थ": 888,
      "रिकाएआ": 889,
      "अनु": 890,
      "जू": 891,
      "जमा": 892,
      "वो": 893,
      "कांग्रे": 894,
      "निर": 895,
      "दोहो": 896,
      "नेआरे": 897,
      "जानाए": 898,
      "लोक": 899,
      "इनिःअ": 900,
      "टिंग": 901,
      "ध्य": 902,
      "हरा": 903,
      "पाड़ाओ": 904,
      "सोंगे": 905,
      "जिला": 906,
      "सुर": 907,
      "स्व": 908,
      "गोएः": 909,
      "गोपो": 910,
      "पेड़े": 911,
      "होनोर": 912,
      "बादिलि": 913,
      "तू": 914,
      "तंग": 915,
      "मह": 916,
      "षा": 917,
      "तिसिंग": 918,
      "मिद": 919,
      "चिना": 920,
      "दुनु": 921,
      "चाबा": 922,
      "फोटो": 923,
      "किरिङ": 924,
      "टना": 925,
      "टयद्": 926,
      "दर्": 927,
      "मनाति": 928,
      "यम": 929,
      "लन": 930,
      "ताको": 931,
      "जाः": 932,
      "जाद": 933,
      "कुमु": 934,
      "कुड़ि": 935,
      "हार": 936,
      "हिन्": 937,
      "धान": 938,
      "तेबाः": 939,
      "काआनि": 940,
      "कको": 941,
      "त्य": 942,
      "मौ": 943,
      "तेओ": 944,
      "राष्ट": 945,
      "निदा": 946,
      "साब": 947,
      "पार्": 948,
      "वाद": 949,
      "धार": 950,
      "आएआः": 951,
      "अस्": 952,
      "धन": 953,
      "नंग": 954,
      "बई": 955,
      "रअः": 956,
      "जामा": 957,
      "बागे": 958,
      "लाव": 959,
      "सान": 960,
      "साल": 961,
      "बेगार": 962,
      "तानाएः": 963,
      "क्ति": 964,
      "जनाए": 965,
      "रूड़ु": 966,
      "देव": 967,
      "ओड़ो": 968,
      "सनंग": 969,
      "राज्य": 970,
      "राजनीति": 971,
      "दाड़िआ": 972,
      "बानचा": 973,
      "डुः": 974,
      "कांग्रेस": 975,
      "एपे": 976,
      "टोः": 977,
      "सद": 978,
      "नाव": 979,
      "कोआते": 980,
      "बेगर": 981,
      "पाल": 982,
      "क्टर": 983,
      "रेनको": 984,
      "रूप": 985,
      "होडोको": 986,
      "अयर": 987,
      "गं": 988,
      "भग": 989,
      "जाए": 990,
      "जाति": 991,
      "दार": 992,
      "निर्": 993,
      "्रो": 994,
      "र्ड": 995,
      "गोम": 996,
      "तानताइकेना": 997,
      "एनामेनते": 998,
      "इतुआना": 999,
      "बुजाओ": 1000,
      "जोनोम": 1001,
      "ंडि": 1002,
      "अए": 1003,
      "एद": 1004,
      "तला": 1005,
      "निकु": 1006,
      "साम": 1007,
      "मेनाइ": 1008,
      "तुङ": 1009,
      "मंदिर": 1010,
      "ंडा": 1011,
      "अं": 1012,
      "अदि": 1013,
      "नू": 1014,
      "सब": 1015,
      "हम": 1016,
      "गेल": 1017,
      "सुगाड़ा": 1018,
      "तनाए": 1019,
      "रूम": 1020,
      "प्रति": 1021,
      "एनाते": 1022,
      "पेड़ेः": 1023,
      "अभि": 1024,
      "उयु": 1025,
      "एट": 1026,
      "झा": 1027,
      "मगर": 1028,
      "वै": 1029,
      "राका": 1030,
      "रानु": 1031,
      "दां": 1032,
      "लेआ": 1033,
      "याय": 1034,
      "सेता": 1035,
      "सुन": 1036,
      "रोग": 1037,
      "बितार": 1038,
      "प्रे": 1039,
      "चुनाव": 1040,
      "बारिआ": 1041,
      "कार्य": 1042,
      "ओला": 1043,
      "कर्": 1044,
      "जै": 1045,
      "जदा": 1046,
      "फे": 1047,
      "काटा": 1048,
      "कोवा": 1049,
      "तेको": 1050,
      "माइन": 1051,
      "रिंग": 1052,
      "पाम": 1053,
      "दिशु": 1054,
      "नुङ": 1055,
      "गिन": 1056,
      "ओःताना": 1057,
      "मेनाःइ": 1058,
      "जेतान": 1059,
      "्यू": 1060,
      "लगाति": 1061,
      "अदिका": 1062,
      "एल": 1063,
      "जग": 1064,
      "रेयो": 1065,
      "कानि": 1066,
      "कागे": 1067,
      "केट": 1068,
      "साला": 1069,
      "बेड़ा": 1070,
      "पाकि": 1071,
      "वान": 1072,
      "जोआर": 1073,
      "बितर": 1074,
      "बोन": 1075,
      "भाग": 1076,
      "ताइनोः": 1077,
      "दुनुब": 1078,
      "दिशुम": 1079,
      "आपु": 1080,
      "नगर": 1081,
      "हन": 1082,
      "काजी": 1083,
      "कोः": 1084,
      "जारूड़ु": 1085,
      "सामा": 1086,
      "सायो": 1087,
      "हाना": 1088,
      "हापे": 1089,
      "रोआ": 1090,
      "रोकोम": 1091,
      "रुड़ा": 1092,
      "तोम": 1093,
      "उड़ुङ": 1094,
      "ष्ण": 1095,
      "अपन": 1096,
      "ठोर": 1097,
      "हुलंग": 1098,
      "ज्ञान": 1099,
      "राइज": 1100,
      "गोमके": 1101,
      "आपे": 1102,
      "ऐना": 1103,
      "तदा": 1104,
      "बस": 1105,
      "सम्": 1106,
      "रेआः": 1107,
      "नेतअः": 1108,
      "लान": 1109,
      "चान": 1110,
      "होबालेना": 1111,
      "बुरू": 1112,
      "ओड़अः": 1113,
      "व्यव": 1114,
      "कंप": 1115,
      "पाकिस्तान": 1116,
      "ग्र": 1117,
      "तम": 1118,
      "तको": 1119,
      "पड़": 1120,
      "बरा": 1121,
      "शहर": 1122,
      "सल": 1123,
      "केन": 1124,
      "मेआ": 1125,
      "लेम": 1126,
      "यार": 1127,
      "मिर": 1128,
      "ोःताना": 1129,
      "वाल": 1130,
      "द्ध": 1131,
      "विरो": 1132,
      "बिल": 1133,
      "न्ना": 1134,
      "तीय": 1135,
      "त्व": 1136,
      "खिला": 1137,
      "खोबोर": 1138,
      "बैसे": 1139,
      "ंव": 1140,
      "चै": 1141,
      "दंग": 1142,
      "ध्या": 1143,
      "पताल": 1144,
      "ब्र": 1145,
      "भी": 1146,
      "लै": 1147,
      "ाव": 1148,
      "काल": 1149,
      "माना": 1150,
      "तिङ": 1151,
      "सेके": 1152,
      "किता": 1153,
      "मोद": 1154,
      "दुबा": 1155,
      "दिरि": 1156,
      "भाजपा": 1157,
      "हिजुगा": 1158,
      "जेतन": 1159,
      "होड़ोमो": 1160,
      "पोर्ट": 1161,
      "सनते": 1162,
      "्रीय": 1163,
      "तंत्र": 1164,
      "मुख्य": 1165,
      "हिन्दी": 1166,
      "पार्टी": 1167,
      "टन": 1168,
      "णी": 1169,
      "यदा": 1170,
      "राबाल": 1171,
      "केटेः": 1172,
      "होसो": 1173,
      "सेवा": 1174,
      "पारोम": 1175,
      "स्टे": 1176,
      "टायाद": 1177,
      "हिं": 1178,
      "बोलो": 1179,
      "जेता": 1180,
      "मीडिया": 1181,
      "क्षे": 1182,
      "ब्ला": 1183,
      "चिलकाते": 1184,
      "फोन": 1185,
      "एसे": 1186,
      "पर्": 1187,
      "फै": 1188,
      "बत": 1189,
      "लब": 1190,
      "शो": 1191,
      "ौर": 1192,
      "कारे": 1193,
      "कोओ": 1194,
      "लेरे": 1195,
      "माङ": 1196,
      "साकाम": 1197,
      "पाए": 1198,
      "नेआको": 1199,
      "स्थ": 1200,
      "स्टर": 1201,
      "हाल": 1202,
      "दुरंग": 1203,
      "पुल": 1204,
      "क्त": 1205,
      "हुडिंग": 1206,
      "न्य": 1207,
      "क्षण": 1208,
      "प्रा": 1209,
      "सेंड़ा": 1210,
      "अबुआ": 1211,
      "क्रम": 1212,
      "धोरोम": 1213,
      "गोपोएः": 1214,
      "मनातिंग": 1215,
      "अमे": 1216,
      "अइं": 1217,
      "आरो": 1218,
      "आयु": 1219,
      "गड़": 1220,
      "जर": 1221,
      "तनि": 1222,
      "धु": 1223,
      "लग": 1224,
      "यालय": 1225,
      "रिक": 1226,
      "सुनु": 1227,
      "सुसुन": 1228,
      "स्ता": 1229,
      "मोदी": 1230,
      "लिङ": 1231,
      "विष": 1232,
      "जोमे": 1233,
      "बिरि": 1234,
      "मेनाःकोआ": 1235,
      "टीम": 1236,
      "पोस्ट": 1237,
      "इनकुआ": 1238,
      "इतुन": 1239,
      "गोनोंग": 1240,
      "न्द्र": 1241,
      "अस्पताल": 1242,
      "कोःआते": 1243,
      "ंटा": 1244,
      "इला": 1245,
      "कड़ा": 1246,
      "ज़": 1247,
      "नर": 1248,
      "बना": 1249,
      "भू": 1250,
      "यक": 1251,
      "यत": 1252,
      "श्र": 1253,
      "षि": 1254,
      "राय": 1255,
      "राव": 1256,
      "बाग": 1257,
      "लेले": 1258,
      "लेनेका": 1259,
      "यान": 1260,
      "तिन": 1261,
      "सिया": 1262,
      "कुनु": 1263,
      "हागा": 1264,
      "विद्": 1265,
      "जुल": 1266,
      "जीदन": 1267,
      "ओःगे": 1268,
      "प्रदेश": 1269,
      "गुन": 1270,
      "गुरु": 1271,
      "जेताना": 1272,
      "होड़ोमो": 1273,
      "म्प": 1274,
      "अमके": 1275,
      "चिमताङ": 1276,
      "दड़िया": 1277,
      "पेरेः": 1278,
      "राकाब": 1279,
      "अंग्रे": 1280,
      "आरि": 1281,
      "करी": 1282,
      "चौ": 1283,
      "जगार": 1284,
      "दल": 1285,
      "पड़ाव": 1286,
      "फर": 1287,
      "फी": 1288,
      "यद": 1289,
      "लगिन": 1290,
      "सर्": 1291,
      "काद": 1292,
      "राओ": 1293,
      "नेलेका": 1294,
      "माइ": 1295,
      "गेया": 1296,
      "इनितु": 1297,
      "जानाव": 1298,
      "क्रि": 1299,
      "शिव": 1300,
      "टुङ": 1301,
      "पुरना": 1302,
      "ंद्र": 1303,
      "दाड़िआः": 1304,
      "पूरा": 1305,
      "जापागार": 1306,
      "सोबेनाते": 1307,
      "कुनुलि": 1308,
      "ओडा": 1309,
      "ड्": 1310,
      "दर": 1311,
      "धे": 1312,
      "बरिया": 1313,
      "मंग": 1314,
      "लव": 1315,
      "रेः": 1316,
      "तेआः": 1317,
      "रिआ": 1318,
      "चिका": 1319,
      "केनाए": 1320,
      "र्य": 1321,
      "योजना": 1322,
      "लिम": 1323,
      "मुनु": 1324,
      "ओःअ": 1325,
      "टिङ": 1326,
      "आएआ": 1327,
      "बइया": 1328,
      "आलेआः": 1329,
      "सानामाङ": 1330,
      "इमतंग": 1331,
      "लोओःते": 1332,
      "विश्व": 1333,
      "ंति": 1334,
      "अच": 1335,
      "उद्": 1336,
      "एमे": 1337,
      "कहा": 1338,
      "खी": 1339,
      "घटना": 1340,
      "थी": 1341,
      "द्र": 1342,
      "धर": 1343,
      "नौ": 1344,
      "पन": 1345,
      "परी": 1346,
      "पत्र": 1347,
      "सरि": 1348,
      "नापाम": 1349,
      "रेंगे": 1350,
      "नेट": 1351,
      "चिमी": 1352,
      "केदाय": 1353,
      "बुल": 1354,
      "तानाञ": 1355,
      "बिर": 1356,
      "कारण": 1357,
      "संस्": 1358,
      "लागाओ": 1359,
      "वेब": 1360,
      "दाड़िओःआ": 1361,
      "दाड़िओःआ": 1362,
      "तादाएः": 1363,
      "लाःए": 1364,
      "आलोम": 1365,
      "राष्ट्रीय": 1366,
      "सायोब": 1367,
      "ंङ": 1368,
      "ंका": 1369,
      "अना": 1370,
      "चर": 1371,
      "तकिन": 1372,
      "सह": 1373,
      "सै": 1374,
      "सभा": 1375,
      "संगि": 1376,
      "हू": 1377,
      "हजार": 1378,
      "नामा": 1379,
      "राजा": 1380,
      "जागा": 1381,
      "लेदा": 1382,
      "लातार": 1383,
      "गां": 1384,
      "गाड़ा": 1385,
      "सेसेना": 1386,
      "कुर": 1387,
      "वास": 1388,
      "किया": 1389,
      "र्चा": 1390,
      "स्थि": 1391,
      "लिंग": 1392,
      "लिया": 1393,
      "गिति": 1394,
      "भाषा": 1395,
      "गुरू": 1396,
      "सरते": 1397,
      "अमअः": 1398,
      "करण": 1399,
      "जांच": 1400,
      "उनुदुब": 1401,
      "दुलाड़ा": 1402,
      "पैसा": 1403,
      "विरोध": 1404,
      "मुख्यमंत्री": 1405,
      "क्षेत्र": 1406,
      "अक": 1407,
      "अद्": 1408,
      "इपा": 1409,
      "कॉ": 1410,
      "करो": 1411,
      "नतिन": 1412,
      "पढ़": 1413,
      "मरा": 1414,
      "यअः": 1415,
      "व्या": 1416,
      "शर्": 1417,
      "सचि": 1418,
      "ह्": 1419,
      "मेद्": 1420,
      "निमिर": 1421,
      "मार्": 1422,
      "गेको": 1423,
      "गाते": 1424,
      "बेडा": 1425,
      "किल": 1426,
      "स्त": 1427,
      "हास": 1428,
      "हासु": 1429,
      "दुल": 1430,
      "टान": 1431,
      "विज्ञान": 1432,
      "टिक": 1433,
      "रुम": 1434,
      "भारतीय": 1435,
      "एसकर": 1436,
      "बदली": 1437,
      "साइट": 1438,
      "जापाः": 1439,
      "जिनिद": 1440,
      "नामोगा": 1441,
      "अधिकारी": 1442,
      "रूआड़ा": 1443,
      "अगु": 1444,
      "अयुम": 1445,
      "आड़ा": 1446,
      "इः": 1447,
      "ओवा": 1448,
      "च्": 1449,
      "टक": 1450,
      "नअ": 1451,
      "लअः": 1452,
      "सौ": 1453,
      "है": 1454,
      "काले": 1455,
      "कोता": 1456,
      "कोरा": 1457,
      "कोएः": 1458,
      "कोड़ा": 1459,
      "दाङ": 1460,
      "होनाङ": 1461,
      "लेनेल": 1462,
      "साहि": 1463,
      "मिद्": 1464,
      "सिनमा": 1465,
      "मेनागा": 1466,
      "र्स": 1467,
      "मोसा": 1468,
      "दुर": 1469,
      "इन्": 1470,
      "रोका": 1471,
      "विका": 1472,
      "नुबा": 1473,
      "जुगु": 1474,
      "बाइजाना": 1475,
      "त्रा": 1476,
      "जानरे": 1477,
      "हिजुःजाना": 1478,
      "इनुंग": 1479,
      "बरनकिन": 1480,
      "ण्ड": 1481,
      "एटअः": 1482,
      "मानाराङ": 1483,
      "इपाएः": 1484,
      "\"\"": 1485,
      "इकिर": 1486,
      "कअ": 1487,
      "कद्": 1488,
      "कवि": 1489,
      "जल": 1490,
      "परे": 1491,
      "मबा": 1492,
      "हपे": 1493,
      "नाला": 1494,
      "रेया": 1495,
      "कोटो": 1496,
      "ताई": 1497,
      "जागर": 1498,
      "सेकड़ा": 1499,
      "सिक": 1500,
      "टाइ": 1501,
      "लोन": 1502,
      "लोम": 1503,
      "विचार": 1504,
      "ओकोना": 1505,
      "ंडी": 1506,
      "ंडे": 1507,
      "तइनोः": 1508,
      "उदुबे": 1509,
      "फिलिम": 1510,
      "चिमतुङ": 1511,
      "हुड़िंग": 1512,
      "अटकर": 1513,
      "जरूड़ी": 1514,
      "एनेटेः": 1515,
      "ठीक": 1516,
      "इतिहास": 1517,
      "ध्यक्ष": 1518,
      "लगातिंगा": 1519,
      "व्यवस्था": 1520,
      "अमेरिका": 1521,
      "अंग्रेजी": 1522,
      "अव": 1523,
      "अदा": 1524,
      "आसरा": 1525,
      "आकादा": 1526,
      "गअः": 1527,
      "तई": 1528,
      "नडु": 1529,
      "पढ": 1530,
      "पहम": 1531,
      "वं": 1532,
      "हमला": 1533,
      "नान": 1534,
      "रेल": 1535,
      "कोशि": 1536,
      "बाहर": 1537,
      "लाइन": 1538,
      "तिर": 1539,
      "सेटे": 1540,
      "बेड़ा": 1541,
      "स्य": 1542,
      "स्कू": 1543,
      "विभाग": 1544,
      "क्ट": 1545,
      "लेलरिका": 1546,
      "अइंगा": 1547,
      "होराते": 1548,
      "फायदा": 1549,
      "उड़ुङ": 1550,
      "ठांव": 1551,
      "बदलि": 1552,
      "कृति": 1553,
      "तालारे": 1554,
      "स्वामी": 1555,
      "उपुन": 1556,
      "कंपनी": 1557,
      "किताब": 1558,
      "चिमीन": 1559,
      "विकास": 1560,
      "..": 1561,
      "अड़": 1562,
      "आट": 1563,
      "आधा": 1564,
      "उडू": 1565,
      "एम्": 1566,
      "खबर": 1567,
      "छु": 1568,
      "मनो": 1569,
      "यं": 1570,
      "कोए": 1571,
      "कोतो": 1572,
      "तानि": 1573,
      "रासि": 1574,
      "केटे": 1575,
      "होड़": 1576,
      "माल": 1577,
      "माने": 1578,
      "दोलन": 1579,
      "चिआः": 1580,
      "कुमार": 1581,
      "वाला": 1582,
      "जिद": 1583,
      "दुआर": 1584,
      "गोमान": 1585,
      "लोलो": 1586,
      "तानकेना": 1587,
      "बिज": 1588,
      "न्त": 1589,
      "न्डुः": 1590,
      "जेल": 1591,
      "ओड़ोःगे": 1592,
      "जानकारी": 1593,
      "काजिकामि": 1594,
      "नाःदो": 1595,
      "ङाकाना": 1596,
      "अइंगअः": 1597,
      "शासन": 1598,
      "वेन": 1599,
      "उदुब्": 1600,
      "सेनोःजाना": 1601,
      "ठाउ": 1602,
      "जिनिस": 1603,
      "भगवान": 1604,
      "कमी": 1605,
      "जकेद": 1606,
      "तकन": 1607,
      "नदि": 1608,
      "पद": 1609,
      "बग": 1610,
      "भर": 1611,
      "भे": 1612,
      "लॉ": 1613,
      "काय": 1614,
      "काश": 1615,
      "काकला": 1616,
      "कोके": 1617,
      "ताम": 1618,
      "जाआन": 1619,
      "दासा": 1620,
      "दाडिया": 1621,
      "में": 1622,
      "मेंट": 1623,
      "निआ": 1624,
      "मास्टर": 1625,
      "याञ": 1626,
      "रिपोर्ट": 1627,
      "सेताः": 1628,
      "कुम्": 1629,
      "नेआगे": 1630,
      "हाला": 1631,
      "चाही": 1632,
      "पेल": 1633,
      "जीवन": 1634,
      "इनिःके": 1635,
      "गिया": 1636,
      "मुद": 1637,
      "हुला": 1638,
      "प्रधान": 1639,
      "बाइआकाना": 1640,
      "ब्रा": 1641,
      "जनव": 1642,
      "हेन": 1643,
      "वेद": 1644,
      "खास": 1645,
      "लुतुम": 1646,
      "पूर्": 1647,
      "चोलोन": 1648,
      "स्थान": 1649,
      "आपिआ": 1650,
      "जरूड़ु": 1651,
      "शेष": 1652,
      "दर्शन": 1653,
      "सेकेड़ा": 1654,
      "गांधी": 1655,
      "आकोआ": 1656,
      "इदु": 1657,
      "इमिन": 1658,
      "उद": 1659,
      "उर": 1660,
      "उमि": 1661,
      "ओअ": 1662,
      "ओन": 1663,
      "कटा": 1664,
      "कल्": 1665,
      "छबा": 1666,
      "जरा": 1667,
      "तोः": 1668,
      "पअः": 1669,
      "फल": 1670,
      "फु": 1671,
      "बगे": 1672,
      "भ्र": 1673,
      "मना": 1674,
      "रआ": 1675,
      "लतर": 1676,
      "नाता": 1677,
      "रेनिः": 1678,
      "कोलो": 1679,
      "कोताः": 1680,
      "नेः": 1681,
      "बाङ": 1682,
      "मेसा": 1683,
      "लाल": 1684,
      "लांदा": 1685,
      "मिसि": 1686,
      "कुपुल": 1687,
      "सोम": 1688,
      "वादी": 1689,
      "जिबोन": 1690,
      "जानाञ": 1691,
      "स्सा": 1692,
      "लिक": 1693,
      "हिसि": 1694,
      "रूड़ा": 1695,
      "तनको": 1696,
      "पिल": 1697,
      "युर": 1698,
      "होड़ोकोआः": 1699,
      "पीटि": 1700,
      "शाह": 1701,
      "टुंडु": 1702,
      "उदुबा": 1703,
      "दुलाड़ा": 1704,
      "दड़िआ": 1705,
      "ध्यान": 1706,
      "आटकार": 1707,
      "ंडो": 1708,
      "अख": 1709,
      "अल्": 1710,
      "आड़ा": 1711,
      "कता": 1712,
      "कम्प": 1713,
      "गण": 1714,
      "ङगे": 1715,
      "दड़ी": 1716,
      "नोः": 1717,
      "बरी": 1718,
      "सकम": 1719,
      "नाआ": 1720,
      "नाटक": 1721,
      "काका": 1722,
      "कोरआः": 1723,
      "तांगि": 1724,
      "तेया": 1725,
      "राचा": 1726,
      "राँग": 1727,
      "बाबा": 1728,
      "बाइन": 1729,
      "दास": 1730,
      "लेला": 1731,
      "मारी": 1732,
      "गाकान": 1733,
      "रिय": 1734,
      "सेंगे": 1735,
      "कुम": 1736,
      "कुडि": 1737,
      "नेआरा": 1738,
      "चाव": 1739,
      "चालाओ": 1740,
      "हिर": 1741,
      "ड़ाई": 1742,
      "इनिःआ": 1743,
      "मुं": 1744,
      "प्रो": 1745,
      "जेटे": 1746,
      "त्म": 1747,
      "त्ता": 1748,
      "टीवी": 1749,
      "दीप": 1750,
      "शान": 1751,
      "एआएः": 1752,
      "ष्टा": 1753,
      "आंदोलन": 1754,
      "लगाव": 1755,
      "लगातिंग": 1756,
      "सेनोगा": 1757,
      "बैंक": 1758,
      "ट्टी": 1759,
      "कृत": 1760,
      "कृष्ण": 1761,
      "जाआंए": 1762,
      "पाएसा": 1763,
      "विषय": 1764,
      "बनाई": 1765,
      "रासिकान": 1766,
      "ठाउका": 1767,
      "सेंगेल": 1768,
      "अल": 1769,
      "अु": 1770,
      "अन्ना": 1771,
      "उम्": 1772,
      "एफ": 1773,
      "एरा": 1774,
      "गोः": 1775,
      "टल": 1776,
      "तरी": 1777,
      "दड़ां": 1778,
      "पल": 1779,
      "बजे": 1780,
      "लक्ष": 1781,
      "षण": 1782,
      "काइंग": 1783,
      "रान": 1784,
      "ड़म": 1785,
      "दाडियो": 1786,
      "याए": 1787,
      "यास": 1788,
      "सामान": 1789,
      "मित": 1790,
      "पाः": 1791,
      "सोआन": 1792,
      "पुथि": 1793,
      "चांडु": 1794,
      "तुर": 1795,
      "तानाको": 1796,
      "द्धा": 1797,
      "विधा": 1798,
      "डाव": 1799,
      "लोःते": 1800,
      "नेकागे": 1801,
      "सरकारी": 1802,
      "टुंग": 1803,
      "खाने": 1804,
      "लागातिंगा": 1805,
      "गोनोएः": 1806,
      "मोयोद्": 1807,
      "चेतानरे": 1808,
      "सेसेनताना": 1809,
      "सेंड़ां": 1810,
      "मतलब": 1811,
      "बारानकिन": 1812,
      "अइङ": 1813,
      "सदस्य": 1814,
      "हिंदी": 1815,
      "क्रिकेट": 1816,
      "स्थिति": 1817,
      "अकरिंग": 1818,
      "साहित्य": 1819,
      "स्कूल": 1820,
      "अफ": 1821,
      "अपे": 1822,
      "अयु": 1823,
      "अध्यक्ष": 1824,
      "आसे": 1825,
      "आइन": 1826,
      "इस्": 1827,
      "खंड": 1828,
      "चव": 1829,
      "ट्रे": 1830,
      "डर": 1831,
      "डॉ": 1832,
      "नल": 1833,
      "पढ़": 1834,
      "बअः": 1835,
      "रण": 1836,
      "लड़ाई": 1837,
      "हरि": 1838,
      "राना": 1839,
      "राहुल": 1840,
      "जाय": 1841,
      "बाई": 1842,
      "बाना": 1843,
      "ंगड़ा": 1844,
      "निका": 1845,
      "नियम": 1846,
      "लेज": 1847,
      "साँ": 1848,
      "मिल": 1849,
      "बेन": 1850,
      "कुं": 1851,
      "र्क": 1852,
      "मोबाइ": 1853,
      "मोड़े": 1854,
      "होबाओःआ": 1855,
      "ताइकेनाए": 1856,
      "हिनि": 1857,
      "विशेष": 1858,
      "सोबेनअः": 1859,
      "तनय": 1860,
      "ओकोएः": 1861,
      "इनकुआः": 1862,
      "इमताङ": 1863,
      "अपना": 1864,
      "अपनअः": 1865,
      "मूल": 1866,
      "बंध": 1867,
      "बंधन": 1868,
      "वर्ग": 1869,
      "दुलाड़": 1870,
      "उत्तर": 1871,
      "संगी": 1872,
      "वोट": 1873,
      "बानचाओ": 1874,
      "एदका": 1875,
      "दांड़ा": 1876,
      "प्रेम": 1877,
      "आरोपी": 1878,
      "विद्यालय": 1879,
      "थीमबा": 1880,
      "बिजली": 1881,
      "मोबाइल": 1882,
      "ंत": 1883,
      "आकना": 1884,
      "आकिरिङ": 1885,
      "इर": 1886,
      "इस": 1887,
      "ओचो": 1888,
      "गपा": 1889,
      "घु": 1890,
      "जवा": 1891,
      "टै": 1892,
      "तनिः": 1893,
      "नै": 1894,
      "बंग": 1895,
      "बड़ा": 1896,
      "रंगा": 1897,
      "लंदा": 1898,
      "ित": 1899,
      "काउ": 1900,
      "कोयो": 1901,
      "जाँ": 1902,
      "निस": 1903,
      "निंग": 1904,
      "निआः": 1905,
      "होला": 1906,
      "गामु": 1907,
      "गाड़ी": 1908,
      "पाना": 1909,
      "सों": 1910,
      "इनिआ": 1911,
      "जिक": 1912,
      "जानाः": 1913,
      "जानाओ": 1914,
      "जानाको": 1915,
      "स्टा": 1916,
      "हां": 1917,
      "दुब्": 1918,
      "पुड़ि": 1919,
      "लिआ": 1920,
      "ताइकेनाञ": 1921,
      "पेन": 1922,
      "जुः": 1923,
      "मुटान": 1924,
      "प्रभाव": 1925,
      "एनारे": 1926,
      "न्दि": 1927,
      "देः": 1928,
      "देआ": 1929,
      "देङगा": 1930,
      "लेलोः": 1931,
      "लेलकेआते": 1932,
      "नेयाते": 1933,
      "होड़ोकोआः": 1934,
      "रुआ": 1935,
      "ओकोन": 1936,
      "काजिआ": 1937,
      "पोसा": 1938,
      "जनय": 1939,
      "उड़ुंग": 1940,
      "ताइनजाना": 1941,
      "टुनडु": 1942,
      "दाड़िओआ": 1943,
      "हुड़िंग": 1944,
      "इमतुङ": 1945,
      "बुजाव": 1946,
      "कदम": 1947,
      "पेड़ेः": 1948,
      "राष्ट्र": 1949,
      "बागेकेआते": 1950,
      "ओड़ोंग": 1951,
      "चानडुः": 1952,
      "फैसला": 1953,
      "सुनुम": 1954,
      "बिरिद": 1955,
      "धेआन": 1956,
      "अचका": 1957,
      "परीक्षा": 1958,
      "वेबसाइट": 1959,
      "कविता": 1960,
      "कोशिश": 1961,
      "ष्टाचार": 1962,
      "ँडा": 1963,
      "ंदे": 1964,
      "अतोम": 1965,
      "आदि": 1966,
      "इदी": 1967,
      "उल": 1968,
      "कय": 1969,
      "गू": 1970,
      "गढ़": 1971,
      "गंगा": 1972,
      "घंटा": 1973,
      "चबा": 1974,
      "चोः": 1975,
      "चलाव": 1976,
      "जन्": 1977,
      "ठन": 1978,
      "धर्म": 1979,
      "पत्": 1980,
      "पक्ष": 1981,
      "बधा": 1982,
      "बंद": 1983,
      "रम": 1984,
      "रसा": 1985,
      "लत": 1986,
      "वस": 1987,
      "शक": 1988,
      "शू": 1989,
      "हना": 1990,
      "नाथ": 1991,
      "नाते": 1992,
      "काः": 1993,
      "कोगे": 1994,
      "कोर्ट": 1995,
      "केआद": 1996,
      "नेरे": 1997,
      "बां": 1998,
      "बाआरि": 1999,
      "दारी": 2000,
      "दाडि": 2001,
      "माण": 2002,
      "माया": 2003,
      "साय": 2004,
      "तिक": 2005,
      "तिकिन": 2006,
      "सेरेओ": 2007,
      "चिउ": 2008,
      "सित": 2009,
      "कुला": 2010,
      "पाजि": 2011,
      "किनाः": 2012,
      "सुल": 2013,
      "स्तर": 2014,
      "मोहन": 2015,
      "हान": 2016,
      "हासा": 2017,
      "हाड़ा": 2018,
      "इनतु": 2019,
      "टाव": 2020,
      "लिकिन": 2021,
      "हिला": 2022,
      "लेकागे": 2023,
      "विधान": 2024,
      "क्रिया": 2025,
      "नुतु": 2026,
      "रिकाए": 2027,
      "जीव": 2028,
      "गिड़ि": 2029,
      "प्रभा": 2030,
      "प्रकाश": 2031,
      "गुसिया": 2032,
      "बाइओ": 2033,
      "जेपी": 2034,
      "कजिआ": 2035,
      "त्रि": 2036,
      "शिका": 2037,
      "शिक्षा": 2038,
      "बीर": 2039,
      "थाना": 2040,
      "वीर": 2041,
      "नमोः": 2042,
      "हुड़िग": 2043,
      "इंटर": 2044,
      "चिमनुङ": 2045,
      "खिल": 2046,
      "एटेःजाना": 2047,
      "तिसिङो": 2048,
      "बाराबारि": 2049,
      "णाम": 2050,
      "पारका": 2051,
      "आबुआः": 2052,
      "आइञ": 2053,
      "ओमेआ": 2054,
      "उकुता": 2055,
      "गलती": 2056,
      "विश्वास": 2057,
      "कार्यक्रम": 2058,
      "सामाजिक": 2059,
      "खिलाफ": 2060,
      "शर्मा": 2061,
      "आड़ानदि": 2062,
      "पढाव": 2063,
      "सेटेर": 2064,
      "प्रधानमंत्री": 2065,
      "दाडियोआ": 2066,
      "हिनिजुः": 2067,
      "बधाई": 2068,
      "ंड़ु": 2069,
      "ंपि": 2070,
      "ंबर": 2071,
      "अद": 2072,
      "अकन": 2073,
      "असर": 2074,
      "असरा": 2075,
      "आऊ": 2076,
      "आमे": 2077,
      "आकन": 2078,
      "उन": 2079,
      "उडु": 2080,
      "ओले": 2081,
      "ओमो": 2082,
      "ओटा": 2083,
      "कौ": 2084,
      "कटी": 2085,
      "खर": 2086,
      "गढ़": 2087,
      "घो": 2088,
      "चन्डुः": 2089,
      "जदि": 2090,
      "टू": 2091,
      "थो": 2092,
      "बढ़": 2093,
      "बहा": 2094,
      "बहु": 2095,
      "यी": 2096,
      "रजि": 2097,
      "वती": 2098,
      "सरे": 2099,
      "सवाल": 2100,
      "हल": 2101,
      "रेअ": 2102,
      "रेगी": 2103,
      "काओ": 2104,
      "काव": 2105,
      "कोठ": 2106,
      "तेयअः": 2107,
      "जाइ": 2108,
      "बालु": 2109,
      "ड़व": 2110,
      "मायोम": 2111,
      "साई": 2112,
      "साद": 2113,
      "रिड़ि": 2114,
      "दोः": 2115,
      "चिमि": 2116,
      "चिकि": 2117,
      "चित्र": 2118,
      "सिने": 2119,
      "सिबिल": 2120,
      "सोतोः": 2121,
      "जिदान": 2122,
      "सुध": 2123,
      "सुकू": 2124,
      "दुर्": 2125,
      "दिल": 2126,
      "पुद": 2127,
      "लित": 2128,
      "बुड़ु": 2129,
      "विक": 2130,
      "आञे": 2131,
      "क्का": 2132,
      "जोड़े": 2133,
      "जीआः": 2134,
      "बिनि": 2135,
      "बोओ": 2136,
      "प्रयोग": 2137,
      "पिड़ि": 2138,
      "त्मा": 2139,
      "सीबी": 2140,
      "ओआकान": 2141,
      "ओआकाना": 2142,
      "सिदारे": 2143,
      "ब्रि": 2144,
      "लोःगे": 2145,
      "नामोः": 2146,
      "खान": 2147,
      "चीन": 2148,
      "खोब्": 2149,
      "दड़िओःअ": 2150,
      "सेंड़ा": 2151,
      "सानाङताना": 2152,
      "परिणाम": 2153,
      "मूध": 2154,
      "साइति": 2155,
      "कदाए": 2156,
      "होनोबा": 2157,
      "भोगोमान": 2158,
      "ज्ञानिक": 2159,
      "नामोआ": 2160,
      "अपिया": 2161,
      "नमोगा": 2162,
      "लोकतंत्र": 2163,
      "वैज्ञानिक": 2164,
      "दंगड़ी": 2165,
      "होसोड़ो": 2166,
      "जेताए": 2167,
      "जुगुतु": 2168,
      "चिउलाओ": 2169,
      "ंआ": 2170,
      "अएः": 2171,
      "आक": 2172,
      "आइं": 2173,
      "इङ": 2174,
      "उपा": 2175,
      "उतारा": 2176,
      "ओव": 2177,
      "कने": 2178,
      "खन": 2179,
      "गै": 2180,
      "गति": 2181,
      "ट्र": 2182,
      "तक": 2183,
      "दअः": 2184,
      "नमे": 2185,
      "पम": 2186,
      "यल": 2187,
      "रवि": 2188,
      "शर": 2189,
      "सअ": 2190,
      "सत": 2191,
      "ृष्": 2192,
      "नाग": 2193,
      "राते": 2194,
      "केसे": 2195,
      "नेते": 2196,
      "नेपेल": 2197,
      "जाम": 2198,
      "दारू": 2199,
      "गेञ": 2200,
      "गाकाना": 2201,
      "मिआ": 2202,
      "मिक": 2203,
      "कुरू": 2204,
      "कुटु": 2205,
      "नेआमेनते": 2206,
      "सुगाड़ा": 2207,
      "स्या": 2208,
      "मोका": 2209,
      "योगि": 2210,
      "दुकान": 2211,
      "पुलाइ": 2212,
      "होबाकाना": 2213,
      "लिः": 2214,
      "लिका": 2215,
      "बुरु": 2216,
      "हिसाब": 2217,
      "विवे": 2218,
      "विदेश": 2219,
      "विजय": 2220,
      "रिकाकेदा": 2221,
      "मुन": 2222,
      "मुर": 2223,
      "मुसिङ": 2224,
      "बोर्ड": 2225,
      "प्री": 2226,
      "देवी": 2227,
      "गुजरा": 2228,
      "्यु": 2229,
      "तीस": 2230,
      "संड": 2231,
      "संसद": 2232,
      "म्बा": 2233,
      "अरजि": 2234,
      "काजिकेदाएः": 2235,
      "धानी": 2236,
      "गीन": 2237,
      "चें": 2238,
      "इसुपुराः": 2239,
      "शास्": 2240,
      "राजस्थान": 2241,
      "चीना": 2242,
      "लागातिङ": 2243,
      "ंगेन": 2244,
      "नअःदो": 2245,
      "स्ट्रे": 2246,
      "उनुड़ु": 2247,
      "पूर": 2248,
      "तादाको": 2249,
      "खोन": 2250,
      "जादाको": 2251,
      "परिवार": 2252,
      "मोयद्": 2253,
      "सूर": 2254,
      "ग्रा": 2255,
      "पुरअःगे": 2256,
      "सलाह": 2257,
      "फ्ट": 2258,
      "मैच": 2259,
      "पातिआ": 2260,
      "सुरक्षा": 2261,
      "तूम": 2262,
      "ग्रह": 2263,
      "ब्रह्": 2264,
      "ब्लाग": 2265,
      "एसेकार": 2266,
      "अइंआ": 2267,
      "गितिः": 2268,
      "सचिव": 2269,
      "आसराए": 2270,
      "हुलांग": 2271,
      "पूर्ण": 2272,
      "सिनेमा": 2273,
      "ंच": 2274,
      "अको": 2275,
      "अगर": 2276,
      "आय": 2277,
      "आबा": 2278,
      "आयो": 2279,
      "आचु": 2280,
      "इपिल": 2281,
      "ओचोः": 2282,
      "कले": 2283,
      "कन्": 2284,
      "गत": 2285,
      "ग्री": 2286,
      "जद्": 2287,
      "ट्रो": 2288,
      "दै": 2289,
      "नरे": 2290,
      "पड़ा": 2291,
      "बॉ": 2292,
      "बंगा": 2293,
      "भु": 2294,
      "मस": 2295,
      "मइन": 2296,
      "रै": 2297,
      "लर": 2298,
      "षी": 2299,
      "समि": 2300,
      "सन्": 2301,
      "सब्": 2302,
      "सत्ता": 2303,
      "काॅ": 2304,
      "कारि": 2305,
      "कारो": 2306,
      "कोन": 2307,
      "कोडा": 2308,
      "बारी": 2309,
      "निम": 2310,
      "निमत": 2311,
      "होना": 2312,
      "लेद": 2313,
      "मांडि": 2314,
      "सारे": 2315,
      "साड़ि": 2316,
      "कुआ": 2317,
      "ताइजाना": 2318,
      "सोना": 2319,
      "इनिलोः": 2320,
      "वाय": 2321,
      "वारी": 2322,
      "जिन": 2323,
      "जिदन": 2324,
      "हाटिङ": 2325,
      "दुड़ु": 2326,
      "लिजाः": 2327,
      "हित": 2328,
      "रोमा": 2329,
      "तुका": 2330,
      "तानाए": 2331,
      "लेकानाः": 2332,
      "टेल": 2333,
      "बियुर": 2334,
      "गियु": 2335,
      "मुङ": 2336,
      "मुटु": 2337,
      "ओःतान": 2338,
      "हुडि": 2339,
      "इंगअः": 2340,
      "बोओः": 2341,
      "प्रकृति": 2342,
      "देन": 2343,
      "गुण": 2344,
      "गुना": 2345,
      "टिया": 2346,
      "कजिको": 2347,
      "टोर": 2348,
      "त्या": 2349,
      "संत": 2350,
      "ब्लॉ": 2351,
      "जनता": 2352,
      "लेनाएः": 2353,
      "सरती": 2354,
      "मंच": 2355,
      "हेड़ा": 2356,
      "इतुआन": 2357,
      "दाड़िजाना": 2358,
      "खाना": 2359,
      "चीज": 2360,
      "बीजेपी": 2361,
      "सुकुआ": 2362,
      "धिया": 2363,
      "सारतेगे": 2364,
      "उनुरूम": 2365,
      "तादाञ": 2366,
      "दड़िओः": 2367,
      "ट्स": 2368,
      "जादाएः": 2369,
      "पंजा": 2370,
      "किरिंग": 2371,
      "भोरसा": 2372,
      "जिनिसि": 2373,
      "मरङ": 2374,
      "जोरते": 2375,
      "घाटि": 2376,
      "अधिकार": 2377,
      "मौका": 2378,
      "अएअः": 2379,
      "बराबरी": 2380,
      "दुबाकान": 2381,
      "होसोड़ो": 2382,
      "स्टेशन": 2383,
      "आयुब": 2384,
      "इलाका": 2385,
      "पढ़ाव": 2386,
      "तकनी": 2387,
      "भ्रष्टाचार": 2388,
      "चांडुः": 2389,
      "बानाइ": 2390,
      "जवाब": 2391,
      "अउ": 2392,
      "अपु": 2393,
      "अकना": 2394,
      "अर्थ": 2395,
      "अलोम": 2396,
      "अपाना": 2397,
      "आयोग": 2398,
      "इग": 2399,
      "इत": 2400,
      "उदा": 2401,
      "एच": 2402,
      "एजे": 2403,
      "ओज": 2404,
      "ओता": 2405,
      "तब": 2406,
      "तय": 2407,
      "पता": 2408,
      "परोम": 2409,
      "पसरा": 2410,
      "बज": 2411,
      "भव": 2412,
      "भक्ति": 2413,
      "वृ": 2414,
      "शं": 2415,
      "शनि": 2416,
      "समु": 2417,
      "सनाम": 2418,
      "सहर": 2419,
      "हक": 2420,
      "हला": 2421,
      "हगा": 2422,
      "हनु": 2423,
      "हरिया": 2424,
      "िक": 2425,
      "ून": 2426,
      "ड़म": 2427,
      "नामेआ": 2428,
      "नांगेन": 2429,
      "तेद": 2430,
      "तेदो": 2431,
      "तेबअः": 2432,
      "दारु": 2433,
      "होरो": 2434,
      "होंका": 2435,
      "लेपे": 2436,
      "लाख": 2437,
      "लाभ": 2438,
      "लास": 2439,
      "साङ": 2440,
      "चिऊ": 2441,
      "चिल्": 2442,
      "ताइनो": 2443,
      "नेआराः": 2444,
      "मेनाइया": 2445,
      "जिलिङ": 2446,
      "स्कार": 2447,
      "मोए": 2448,
      "हाइ": 2449,
      "हाम": 2450,
      "हाका": 2451,
      "यों": 2452,
      "योआ": 2453,
      "योति": 2454,
      "योवा": 2455,
      "दुड़ु": 2456,
      "इनकिन": 2457,
      "लिजा": 2458,
      "हिसब": 2459,
      "हिस्सा": 2460,
      "रोह": 2461,
      "तानाम": 2462,
      "द्दा": 2463,
      "पें": 2464,
      "रआःते": 2465,
      "जुदि": 2466,
      "जीनि": 2467,
      "ड़ाम": 2468,
      "टेन": 2469,
      "बिङ": 2470,
      "बिहार": 2471,
      "मुल": 2472,
      "मुना": 2473,
      "जनाव": 2474,
      "बोतो": 2475,
      "बोङा": 2476,
      "तनी": 2477,
      "प्रचार": 2478,
      "प्रयास": 2479,
      "प्रसाद": 2480,
      "लेलजाना": 2481,
      "लेलकेदा": 2482,
      "टोगो": 2483,
      "ल्टा": 2484,
      "युक्त": 2485,
      "सीमा": 2486,
      "सिदाउतार": 2487,
      "ओकोता": 2488,
      "म्ब": 2489,
      "काजिकेदा": 2490,
      "ंडर": 2491,
      "लागाव": 2492,
      "ओमकेदा": 2493,
      "सनमंग": 2494,
      "शिया": 2495,
      "ज्ञ": 2496,
      "ज्योति": 2497,
      "वीडियो": 2498,
      "सेनोःतान": 2499,
      "सिंगी": 2500,
      "सेसेनतान": 2501,
      "उदुबकेदा": 2502,
      "बलय": 2503,
      "पंचा": 2504,
      "परिष": 2505,
      "सोबेनकोआते": 2506,
      "तिंगुन": 2507,
      "जारगि": 2508,
      "खुरजि": 2509,
      "धारण": 2510,
      "बानचाव": 2511,
      "अभियान": 2512,
      "उयुः": 2513,
      "जैन": 2514,
      "विश्वविद्यालय": 2515,
      "संस्कृत": 2516,
      "यंत्र": 2517,
      "बाइओगा": 2518,
      "कुरूमुटु": 2519,
      "दुड़ुम": 2520,
      "ंदि": 2521,
      "अय": 2522,
      "असि": 2523,
      "अएआ": 2524,
      "आस": 2525,
      "आका": 2526,
      "आसि": 2527,
      "आर्": 2528,
      "आधार": 2529,
      "आतोम": 2530,
      "इल": 2531,
      "उदू": 2532,
      "एं": 2533,
      "एकदम": 2534,
      "कब": 2535,
      "करा": 2536,
      "कब्": 2537,
      "खे": 2538,
      "खै": 2539,
      "खतरा": 2540,
      "ग्रे": 2541,
      "घड़ी": 2542,
      "चन": 2543,
      "चपा": 2544,
      "जम": 2545,
      "नई": 2546,
      "बोः": 2547,
      "बल्": 2548,
      "भक्त": 2549,
      "मंड": 2550,
      "रबल": 2551,
      "लअ": 2552,
      "लगीन": 2553,
      "वत": 2554,
      "वड़": 2555,
      "शक्ति": 2556,
      "सहा": 2557,
      "सकुर": 2558,
      "हमि": 2559,
      "हरी": 2560,
      "।।": 2561,
      "रेट": 2562,
      "रेम": 2563,
      "रेपे": 2564,
      "ताकिन": 2565,
      "ताकिना": 2566,
      "तेयो": 2567,
      "राग": 2568,
      "राकाना": 2569,
      "रानी": 2570,
      "केम": 2571,
      "नेसा": 2572,
      "नेलेकन": 2573,
      "जाआ": 2574,
      "बाबू": 2575,
      "बाहिर": 2576,
      "मेल": 2577,
      "मेला": 2578,
      "नितिर": 2579,
      "होटोः": 2580,
      "माराँग": 2581,
      "लाम": 2582,
      "सात": 2583,
      "साड़ा": 2584,
      "साफा": 2585,
      "रिश्": 2586,
      "तिहा": 2587,
      "दोर": 2588,
      "चिआ": 2589,
      "चित": 2590,
      "चिर": 2591,
      "चिल": 2592,
      "पाइ": 2593,
      "पाटी": 2594,
      "नेआओ": 2595,
      "सोज": 2596,
      "सोओज": 2597,
      "इनिअ": 2598,
      "इनिया": 2599,
      "इनिगा": 2600,
      "जिनी": 2601,
      "सुगड़": 2602,
      "मों": 2603,
      "मोड़े": 2604,
      "हाबि": 2605,
      "हासुर": 2606,
      "दुकू": 2607,
      "टाओ": 2608,
      "लिंगि": 2609,
      "गोवा": 2610,
      "विस": 2611,
      "विधि": 2612,
      "आञो": 2613,
      "आञके": 2614,
      "क्शन": 2615,
      "जोका": 2616,
      "जीत": 2617,
      "जीद": 2618,
      "एनरेओ": 2619,
      "बों": 2620,
      "प्रशासन": 2621,
      "प्रबंधन": 2622,
      "न्हा": 2623,
      "न्याय": 2624,
      "कोआएः": 2625,
      "डित": 2626,
      "हिजुआ": 2627,
      "बाइआ": 2628,
      "बाइआकान": 2629,
      "रुप": 2630,
      "संघ": 2631,
      "संसार": 2632,
      "ओकोय": 2633,
      "तोल": 2634,
      "एटेगोआ": 2635,
      "मंजू": 2636,
      "ङान": 2637,
      "हेए": 2638,
      "हेड़े": 2639,
      "राजधानी": 2640,
      "नामजाना": 2641,
      "पुराःगे": 2642,
      "आंव": 2643,
      "साःते": 2644,
      "इमनुङ": 2645,
      "वरण": 2646,
      "आबुआ": 2647,
      "होबाओःअ": 2648,
      "होबाओःताना": 2649,
      "पतिया": 2650,
      "स्वास्थ": 2651,
      "अइञ": 2652,
      "अंतर": 2653,
      "्यूटर": 2654,
      "आपुते": 2655,
      "तदाए": 2656,
      "लानदा": 2657,
      "तिङगु": 2658,
      "लगव": 2659,
      "माइनान": 2660,
      "कहानी": 2661,
      "सचिन": 2662,
      "ओनमान": 2663,
      "कल्प": 2664,
      "त्मक": 2665,
      "लगातिंगअः": 2666,
      "जन्म": 2667,
      "संडका": 2668,
      "समिति": 2669,
      "हनुमान": 2670,
      "परिषद": 2671,
      "हाबिः": 2672,
      "ःको": 2673,
      "आत": 2674,
      "आसा": 2675,
      "इञ": 2676,
      "उब": 2677,
      "एया": 2678,
      "एङगा": 2679,
      "ओताना": 2680,
      "ख्या": 2681,
      "गमा": 2682,
      "गमु": 2683,
      "चू": 2684,
      "छे": 2685,
      "छत्": 2686,
      "जर्": 2687,
      "जमान": 2688,
      "जपअः": 2689,
      "ढा": 2690,
      "तै": 2691,
      "थे": 2692,
      "दस": 2693,
      "नंबर": 2694,
      "नपम": 2695,
      "बम": 2696,
      "बड़": 2697,
      "बलाए": 2698,
      "मद": 2699,
      "मता": 2700,
      "मध्य": 2701,
      "मखिल": 2702,
      "रङ": 2703,
      "रति": 2704,
      "रचना": 2705,
      "व्": 2706,
      "सक": 2707,
      "हजा": 2708,
      "हपा": 2709,
      "ेआ": 2710,
      "कोएते": 2711,
      "तेला": 2712,
      "राशि": 2713,
      "राबाङ": 2714,
      "नेला": 2715,
      "नेआः": 2716,
      "नेसाः": 2717,
      "जारी": 2718,
      "जाआना": 2719,
      "बाज": 2720,
      "बाब": 2721,
      "बाबत": 2722,
      "दाना": 2723,
      "निजी": 2724,
      "माः": 2725,
      "मालि": 2726,
      "लाएः": 2727,
      "लाड़ा": 2728,
      "लालू": 2729,
      "लापाः": 2730,
      "याम": 2731,
      "सागाते": 2732,
      "सासाङ": 2733,
      "दोकान": 2734,
      "चिद": 2735,
      "बेदा": 2736,
      "कुड़ी": 2737,
      "पाठ": 2738,
      "पासरा": 2739,
      "सोनो": 2740,
      "सोबन": 2741,
      "सोबोन": 2742,
      "सोङगे": 2743,
      "सोमोए": 2744,
      "वाकान": 2745,
      "वाकाना": 2746,
      "वासी": 2747,
      "वाणी": 2748,
      "किनो": 2749,
      "सुपर": 2750,
      "र्ष": 2751,
      "स्तु": 2752,
      "दिवस": 2753,
      "चाओ": 2754,
      "चाय": 2755,
      "टाआं": 2756,
      "गोट": 2757,
      "बुटा": 2758,
      "हिसा": 2759,
      "रोब": 2760,
      "तानकोआः": 2761,
      "द्धि": 2762,
      "रिकाया": 2763,
      "रिकाकेदाए": 2764,
      "जोला": 2765,
      "एन्": 2766,
      "एनतअः": 2767,
      "बिपि": 2768,
      "आतेआ": 2769,
      "हुपुड़ि": 2770,
      "न्स": 2771,
      "कानाजि": 2772,
      "डाक्टर": 2773,
      "सेनकेना": 2774,
      "होड़ोकोआ": 2775,
      "पिति": 2776,
      "त्त": 2777,
      "मीर": 2778,
      "संबंध": 2779,
      "सीआई": 2780,
      "सिदाते": 2781,
      "जानते": 2782,
      "कामिरे": 2783,
      "कामिको": 2784,
      "इनकुः": 2785,
      "इनकुको": 2786,
      "सरका": 2787,
      "सरति": 2788,
      "ताइनाएः": 2789,
      "कनाए": 2790,
      "हेंदे": 2791,
      "अइंगके": 2792,
      "जागारको": 2793,
      "हिजुःयना": 2794,
      "प्ले": 2795,
      "समस्या": 2796,
      "दाड़िआम": 2797,
      "आउकेआते": 2798,
      "चीनी": 2799,
      "ड़ेः": 2800,
      "गोनोङान": 2801,
      "इंडिया": 2802,
      "लुतूम": 2803,
      "उनुबार": 2804,
      "दाड़िजाना": 2805,
      "एसकार": 2806,
      "एसपी": 2807,
      "हारातिङ": 2808,
      "कुड़िको": 2809,
      "अपरा": 2810,
      "देशक": 2811,
      "सूचना": 2812,
      "भोग": 2813,
      "ज्ञापन": 2814,
      "बनोः": 2815,
      "बनोःआ": 2816,
      "लाइः": 2817,
      "बोरसा": 2818,
      "संगठन": 2819,
      "गोआरि": 2820,
      "छापा": 2821,
      "छात्र": 2822,
      "मारसाल": 2823,
      "रूआड़": 2824,
      "जगत": 2825,
      "हानाटिङ": 2826,
      "ष्णु": 2827,
      "सलमान": 2828,
      "फरका": 2829,
      "पत्रकार": 2830,
      "रेंगेः": 2831,
      "\"\"\"": 2832,
      "कोटोंग": 2833,
      "अदालत": 2834,
      "रेलवे": 2835,
      "छुट्टी": 2836,
      "काकाला": 2837,
      "लक्ष्": 2838,
      "जाँच": 2839,
      "रमल": 2840,
      "इंटरनेट": 2841,
      "रिड़िङ": 2842,
      "सीबीआई": 2843,
      "मुरतु": 2844,
      "गुजरात": 2845,
      "जिनीद": 2846,
      "छत्तीस": 2847,
      "बिपिनगा": 2848,
      "ंजी": 2849,
      "ंसी": 2850,
      "अनि": 2851,
      "अंक": 2852,
      "अबू": 2853,
      "अहम": 2854,
      "अकाद": 2855,
      "आग": 2856,
      "उल्टा": 2857,
      "एक्स": 2858,
      "ओट": 2859,
      "कट": 2860,
      "कते": 2861,
      "ककला": 2862,
      "खर्चा": 2863,
      "चल": 2864,
      "चलव": 2865,
      "जंग": 2866,
      "जहा": 2867,
      "ञमे": 2868,
      "डल": 2869,
      "तद्": 2870,
      "नडा": 2871,
      "नती": 2872,
      "पह": 2873,
      "पौ": 2874,
      "पसे": 2875,
      "बकं": 2876,
      "मण": 2877,
      "मृ": 2878,
      "मस्": 2879,
      "मड़ि": 2880,
      "मशी": 2881,
      "रस": 2882,
      "वु": 2883,
      "वरी": 2884,
      "शब्": 2885,
      "सस": 2886,
      "सजा": 2887,
      "हम्": 2888,
      "हड़म": 2889,
      "ढ़ी": 2890,
      "नायक": 2891,
      "रेञ": 2892,
      "रेंग": 2893,
      "रेबु": 2894,
      "कां": 2895,
      "काग": 2896,
      "राकान": 2897,
      "राजे": 2898,
      "केओ": 2899,
      "केन्द्र": 2900,
      "नेस": 2901,
      "जाला": 2902,
      "बाजी": 2903,
      "दाल": 2904,
      "ंगो": 2905,
      "निवे": 2906,
      "होड": 2907,
      "लेकेआते": 2908,
      "माकाना": 2909,
      "लाञ": 2910,
      "लाकान": 2911,
      "याकन": 2912,
      "साध": 2913,
      "साव": 2914,
      "साह": 2915,
      "साजा": 2916,
      "रिं": 2917,
      "तिः": 2918,
      "सेपेड़े": 2919,
      "चिलिका": 2920,
      "कुन": 2921,
      "पान": 2922,
      "मेनाञा": 2923,
      "किंग": 2924,
      "र्फ": 2925,
      "र्जा": 2926,
      "मोटो": 2927,
      "हारिआ": 2928,
      "केदाम": 2929,
      "चासा": 2930,
      "होबाआकाना": 2931,
      "गोल": 2932,
      "गोजो": 2933,
      "लोअ": 2934,
      "तानताइकेनाएः": 2935,
      "विष्णु": 2936,
      "क्रा": 2937,
      "जोग": 2938,
      "सोबेनाः": 2939,
      "एनते": 2940,
      "बिचार": 2941,
      "सोबेनते": 2942,
      "सोबेनकोआः": 2943,
      "मुसिंग": 2944,
      "ओःका": 2945,
      "रूद": 2946,
      "रूअड़": 2947,
      "बोङगा": 2948,
      "प्रस्ता": 2949,
      "एनाद": 2950,
      "न्ध": 2951,
      "कोआको": 2952,
      "देर": 2953,
      "देपे": 2954,
      "बाइकेआते": 2955,
      "जेतय": 2956,
      "केआतेगे": 2957,
      "पिटि": 2958,
      "टोला": 2959,
      "त्कार": 2960,
      "संस्था": 2961,
      "संजय": 2962,
      "ताःरे": 2963,
      "क्षक": 2964,
      "काजिओःआ": 2965,
      "तोवा": 2966,
      "निःआ": 2967,
      "मानडि": 2968,
      "सनरति": 2969,
      "एआको": 2970,
      "हिजुःतान": 2971,
      "हिजुःताना": 2972,
      "प्त": 2973,
      "प्या": 2974,
      "श्वर": 2975,
      "कीन": 2976,
      "सिङगि": 2977,
      "तइनाय": 2978,
      "नेताको": 2979,
      "आनंद": 2980,
      "ंदन": 2981,
      "उनुरुम": 2982,
      "उनुदुब्": 2983,
      "उनुसकुर": 2984,
      "बारसा": 2985,
      "खिर": 2986,
      "इनीजा": 2987,
      "सेंडा": 2988,
      "ंदान": 2989,
      "टोओरेआ": 2990,
      "वर्ण": 2991,
      "ठोरोआ": 2992,
      "कार्ड": 2993,
      "ग्राम": 2994,
      "अटकार": 2995,
      "लेलोगा": 2996,
      "आलोका": 2997,
      "उपयोग": 2998,
      "एनेटे": 2999,
      "दूर": 3000,
      "उत्तरा": 3001,
      "अपिर": 3002,
      "सोंगेको": 3003,
      "गोपोए": 3004,
      "महल": 3005,
      "हिन्दु": 3006,
      "मौसम": 3007,
      "एदकान": 3008,
      "सामपो": 3009,
      "झार": 3010,
      "दंगड़ा": 3011,
      "भीर": 3012,
      "लैंड": 3013,
      "सेकेड़ा": 3014,
      "ब्लाॅ": 3015,
      "जोमेआः": 3016,
      "लेलेमे": 3017,
      "मंगल": 3018,
      "उद्योग": 3019,
      "जागारा": 3020,
      "करोड़": 3021,
      "दुलडा": 3022,
      "परेशान": 3023,
      "चिआःचि": 3024,
      "उदम": 3025,
      "मुंबई": 3026,
      "साँगि": 3027,
      "उडुंग": 3028,
      "स्ट्रेलिया": 3029,
      "पंजाब": 3030,
      "बजट": 3031,
      "चिऊलाओ": 3032,
      "चिल्का": 3033,
      "चिआचि": 3034,
      "स्वास्थ्य": 3035,
      "लाड़ाइ": 3036,
      "सासाङकिर": 3037,
      "टाआंओ": 3038,
      "ंज": 3039,
      "अस": 3040,
      "अइन": 3041,
      "अक्ष": 3042,
      "आॅ": 3043,
      "आराः": 3044,
      "आखिर": 3045,
      "उड़": 3046,
      "उरू": 3047,
      "एक": 3048,
      "एप": 3049,
      "एक्": 3050,
      "एकला": 3051,
      "ओं": 3052,
      "ओका": 3053,
      "ओएः": 3054,
      "ओड़ा": 3055,
      "कप": 3056,
      "कबु": 3057,
      "कटि": 3058,
      "कथा": 3059,
      "कर्म": 3060,
      "कपाजि": 3061,
      "कपूर": 3062,
      "गन": 3063,
      "गम": 3064,
      "गड़ा": 3065,
      "चरि": 3066,
      "चक्र": 3067,
      "चलन": 3068,
      "चन्द्र": 3069,
      "चर्चा": 3070,
      "चंड़ु": 3071,
      "छपा": 3072,
      "जोः": 3073,
      "जल्": 3074,
      "झव": 3075,
      "ठे": 3076,
      "तअ": 3077,
      "तद": 3078,
      "दक्ष": 3079,
      "नपाम": 3080,
      "पहिला": 3081,
      "फर्": 3082,
      "फ्रे": 3083,
      "बला": 3084,
      "भै": 3085,
      "मज": 3086,
      "रसि": 3087,
      "लम": 3088,
      "वज": 3089,
      "वल": 3090,
      "सपा": 3091,
      "सबु": 3092,
      "सफा": 3093,
      "सफल": 3094,
      "हॉ": 3095,
      "ृह": 3096,
      "नामे": 3097,
      "काबु": 3098,
      "कोअ": 3099,
      "कोट": 3100,
      "कोरेओ": 3101,
      "तां": 3102,
      "ताद": 3103,
      "तेञ": 3104,
      "तेम": 3105,
      "तेगी": 3106,
      "रासे": 3107,
      "केआ": 3108,
      "केंद्र": 3109,
      "नेद": 3110,
      "नेकन": 3111,
      "बाला": 3112,
      "बारो": 3113,
      "दाइ": 3114,
      "दांगड़ा": 3115,
      "मेया": 3116,
      "निमिन": 3117,
      "हों": 3118,
      "होड़": 3119,
      "मां": 3120,
      "माय": 3121,
      "माकन": 3122,
      "याइंग": 3123,
      "यात्रा": 3124,
      "साए": 3125,
      "साधारण": 3126,
      "गान": 3127,
      "गाड़ि": 3128,
      "गाड़ी": 3129,
      "रिड़ि": 3130,
      "मिस": 3131,
      "मिता": 3132,
      "सेड़ा": 3133,
      "चिमुङ": 3134,
      "सिद्धा": 3135,
      "बेपार": 3136,
      "कुड़म": 3137,
      "पाड़ा": 3138,
      "सोंगड़ा": 3139,
      "वारा": 3140,
      "वानी": 3141,
      "जिम्": 3142,
      "जिलिंग": 3143,
      "किसां": 3144,
      "किसान": 3145,
      "कितब": 3146,
      "सुधार": 3147,
      "स्टी": 3148,
      "मोत": 3149,
      "मोती": 3150,
      "हाई": 3151,
      "हालि": 3152,
      "योन": 3153,
      "इनई": 3154,
      "चाः": 3155,
      "चाल": 3156,
      "चाला": 3157,
      "चापा": 3158,
      "होबायना": 3159,
      "लिपि": 3160,
      "लिंक": 3161,
      "बुआ": 3162,
      "लोआ": 3163,
      "लोब": 3164,
      "द्य": 3165,
      "नुकु": 3166,
      "रिकाकेदाएः": 3167,
      "जुड़ा": 3168,
      "जुड़ा": 3169,
      "बित": 3170,
      "बिल्": 3171,
      "मुड़ा": 3172,
      "मुटन": 3173,
      "मुद्दा": 3174,
      "हुकुम": 3175,
      "प्रक्रिया": 3176,
      "न्यू": 3177,
      "गुलान": 3178,
      "हिजुजाना": 3179,
      "बाइरि": 3180,
      "बाइरिका": 3181,
      "डाय": 3182,
      "डाउन": 3183,
      "जेतना": 3184,
      "टिल": 3185,
      "कजिया": 3186,
      "ल्स": 3187,
      "त्सा": 3188,
      "युः": 3189,
      "मीद": 3190,
      "मीयद": 3191,
      "सीट": 3192,
      "सींग": 3193,
      "जानवर": 3194,
      "होड़ोकोअः": 3195,
      "ओकोरे": 3196,
      "म्स": 3197,
      "म्बर": 3198,
      "ब्लो": 3199,
      "पोकोतो": 3200,
      "पोरोब": 3201,
      "प्रिय": 3202,
      "शिप": 3203,
      "समर्थ": 3204,
      "तइकेनाय": 3205,
      "दिसुमरे": 3206,
      "ंगे्र": 3207,
      "सेनोःजानाएः": 3208,
      "आयागा": 3209,
      "चिमनंग": 3210,
      "उनुड़ु": 3211,
      "तादाए": 3212,
      "ओकोएआः": 3213,
      "समाचार": 3214,
      "हीरो": 3215,
      "बोरोआन": 3216,
      "तयोमते": 3217,
      "हाराजाना": 3218,
      "पंडित": 3219,
      "जपागर": 3220,
      "परियोजना": 3221,
      "ओमाकाना": 3222,
      "साइकिल": 3223,
      "मानातिंग": 3224,
      "क्रो": 3225,
      "भोट": 3226,
      "भावना": 3227,
      "बादली": 3228,
      "अटकरो": 3229,
      "लेलोआ": 3230,
      "आलोपे": 3231,
      "होबाओताना": 3232,
      "टोओरोःआ": 3233,
      "गलति": 3234,
      "घाव": 3235,
      "धोन": 3236,
      "मंदिल": 3237,
      "उपुनिआ": 3238,
      "स्वस्थ": 3239,
      "ओलाकन": 3240,
      "कर्ता": 3241,
      "सम्मान": 3242,
      "चैनल": 3243,
      "भूमि": 3244,
      "विद्या": 3245,
      "टुङको": 3246,
      "नौकरी": 3247,
      "सरिन": 3248,
      "संगिन": 3249,
      "जागारे": 3250,
      "पढ़व": 3251,
      "व्यापार": 3252,
      "टिकट": 3253,
      "दाङगाड़ा": 3254,
      "रोकाओ": 3255,
      "कअको": 3256,
      "....": 3257,
      "होड़मो": 3258,
      "बगड़व": 3259,
      "कुम्बुड़ु": 3260,
      "राचाः": 3261,
      "तरीका": 3262,
      "मोड़ेआ": 3263,
      "पत्रिका": 3264,
      "शिकायत": 3265,
      "ओटाङ": 3266,
      "बहुत": 3267,
      "सुधराओ": 3268,
      "कुटुरि": 3269,
      "निमनुङ": 3270,
      "निमतंग": 3271,
      "पसराव": 3272,
      "हरियाणा": 3273,
      "दुड़ुम": 3274,
      "चिरगा": 3275,
      "आतंक": 3276,
      "जहाज": 3277,
      "बकंड़": 3278,
      "मशीन": 3279,
      "वुड": 3280,
      "प्रस्ताव": 3281,
      ":?": 3282,
      "ंसे": 3283,
      "ःइआ": 3284,
      "अबा": 3285,
      "अर्": 3286,
      "अलो": 3287,
      "अशो": 3288,
      "अमित": 3289,
      "आख": 3290,
      "आङ": 3291,
      "आच": 3292,
      "आठ": 3293,
      "आव": 3294,
      "आमो": 3295,
      "आयर": 3296,
      "आतं": 3297,
      "आटका": 3298,
      "इना": 3299,
      "इजा": 3300,
      "इले": 3301,
      "उस": 3302,
      "उता": 3303,
      "उरुम": 3304,
      "एमा": 3305,
      "एद्": 3306,
      "ओगे": 3307,
      "ओरो": 3308,
      "करे": 3309,
      "कइंग": 3310,
      "गरी": 3311,
      "चंद": 3312,
      "जत": 3313,
      "जअः": 3314,
      "झी": 3315,
      "झु": 3316,
      "ट्यू": 3317,
      "तत्व": 3318,
      "दडि": 3319,
      "दशा": 3320,
      "धंटा": 3321,
      "नः": 3322,
      "नङ": 3323,
      "पड़ि": 3324,
      "फ़": 3325,
      "बगि": 3326,
      "बकल": 3327,
      "बयान": 3328,
      "भइर": 3329,
      "मई": 3330,
      "मॉ": 3331,
      "मन्": 3332,
      "मती": 3333,
      "महे": 3334,
      "मही": 3335,
      "मनवा": 3336,
      "यते": 3337,
      "यमुना": 3338,
      "रका": 3339,
      "रचा": 3340,
      "रबंग": 3341,
      "लं": 3342,
      "वरा": 3343,
      "सव": 3344,
      "सत्र": 3345,
      "सही": 3346,
      "सबू": 3347,
      "सत्य": 3348,
      "हं": 3349,
      "हड़": 3350,
      "हसा": 3351,
      "हड़ा": 3352,
      "ूना": 3353,
      "्स": 3354,
      "नाओ": 3355,
      "नापा": 3356,
      "नाड़े": 3357,
      "रेनि": 3358,
      "रेलगा": 3359,
      "कोनेआ": 3360,
      "कोनो": 3361,
      "कोरेआ": 3362,
      "कोलोः": 3363,
      "तारी": 3364,
      "तानेः": 3365,
      "तेज": 3366,
      "रांस": 3367,
      "रापुद": 3368,
      "नेग": 3369,
      "जादी": 3370,
      "जामान": 3371,
      "बाउ": 3372,
      "बाव": 3373,
      "बाजार": 3374,
      "दाय": 3375,
      "होलो": 3376,
      "होनाः": 3377,
      "होटल": 3378,
      "मास": 3379,
      "मारंग": 3380,
      "लाचो": 3381,
      "यात्री": 3382,
      "साति": 3383,
      "साड़ि": 3384,
      "सांस": 3385,
      "सायाद": 3386,
      "गादे": 3387,
      "रिङ": 3388,
      "तिथि": 3389,
      "दोम": 3390,
      "दोष": 3391,
      "मिश्र": 3392,
      "सिद्ध": 3393,
      "ोःका": 3394,
      "कुड़ा": 3395,
      "कुली": 3396,
      "पाट": 3397,
      "पाड़": 3398,
      "पारि": 3399,
      "ताइकेन": 3400,
      "सोङ": 3401,
      "सोजे": 3402,
      "वाह": 3403,
      "वायु": 3404,
      "वाही": 3405,
      "वास्त": 3406,
      "जिलु": 3407,
      "किला": 3408,
      "र्ति": 3409,
      "र्ती": 3410,
      "मोलो": 3411,
      "मोटर": 3412,
      "मोर्चा": 3413,
      "हाद": 3414,
      "हाॅ": 3415,
      "हारी": 3416,
      "हाटि": 3417,
      "चासि": 3418,
      "चार्": 3419,
      "चापु": 3420,
      "चारी": 3421,
      "चाहे": 3422,
      "टाया": 3423,
      "होबाजान": 3424,
      "लिस्ट": 3425,
      "बुज": 3426,
      "बुध": 3427,
      "बुड़ु": 3428,
      "लोड": 3429,
      "तुला": 3430,
      "तुरि": 3431,
      "तुसिंग": 3432,
      "द्रा": 3433,
      "वित": 3434,
      "पेडे": 3435,
      "रिकाकेदाको": 3436,
      "जुन": 3437,
      "जोशी": 3438,
      "इनिःको": 3439,
      "बिसु": 3440,
      "रेन्": 3441,
      "मुसलमान": 3442,
      "हुपड़ि": 3443,
      "जनाको": 3444,
      "प्रमाण": 3445,
      "एनाको": 3446,
      "न्या": 3447,
      "कोआए": 3448,
      "कानून": 3449,
      "बाइलेना": 3450,
      "डाॅ": 3451,
      "डाटा": 3452,
      "नीला": 3453,
      "जेन": 3454,
      "आरजि": 3455,
      "आरक्षण": 3456,
      "सेनहोरा": 3457,
      "ल्ड": 3458,
      "त्वा": 3459,
      "रुद": 3460,
      "संस": 3461,
      "ताःइआ": 3462,
      "कामितान": 3463,
      "होड़ोआः": 3464,
      "ओकोआते": 3465,
      "जनचि": 3466,
      "अमर": 3467,
      "गीता": 3468,
      "मंडि": 3469,
      "मानव": 3470,
      "पीट": 3471,
      "हिजुःलेना": 3472,
      "प्ला": 3473,
      "बइरि": 3474,
      "बइआकना": 3475,
      "समझ": 3476,
      "आउट": 3477,
      "आउइआ": 3478,
      "पुरस्कार": 3479,
      "ड़ें": 3480,
      "सिङबोंगा": 3481,
      "सुकुआन": 3482,
      "फार्": 3483,
      "ञाः": 3484,
      "इदिओः": 3485,
      "धिकार": 3486,
      "धिकारी": 3487,
      "लुतुर": 3488,
      "डेबे": 3489,
      "खिति": 3490,
      "खिंस": 3491,
      "एटेःकेदा": 3492,
      "लाःञ": 3493,
      "आइंगा": 3494,
      "ट्रेन": 3495,
      "समारोह": 3496,
      "अबुअः": 3497,
      "पंच": 3498,
      "अलेआ": 3499,
      "कलाकार": 3500,
      "ठोरो": 3501,
      "शील": 3502,
      "ढ़ा": 3503,
      "आपिर": 3504,
      "एंगाते": 3505,
      "पतियर": 3506,
      "जांएओ": 3507,
      "कैं": 3508,
      "बारेरे": 3509,
      "र्थी": 3510,
      "हराव": 3511,
      "एपेरंग": 3512,
      "गंभीर": 3513,
      "निर्देशक": 3514,
      "ओलाकान": 3515,
      "होबालेनाः": 3516,
      "हिंदु": 3517,
      "एसेर": 3518,
      "हालत": 3519,
      "बिरिद्": 3520,
      "ड्राइ": 3521,
      "अनायर": 3522,
      "सहतिंग": 3523,
      "अवसर": 3524,
      "तईकेना": 3525,
      "उमिया": 3526,
      "आड़ान्दि": 3527,
      "उम्बुल": 3528,
      "अयुब": 3529,
      "डॉक्टर": 3530,
      "इसकुल": 3531,
      "गूगल": 3532,
      "कोठरि": 3533,
      "चिकिसा": 3534,
      "आञेः": 3535,
      "जोड़ेना": 3536,
      "चेंड़े": 3537,
      "शास्त्री": 3538,
      "उनुड़ुः": 3539,
      "ब्रह्मा": 3540,
      "हुडिङ": 3541,
      "ब्लॉग": 3542,
      "तकनीकी": 3543,
      "शंकर": 3544,
      "सनामंग": 3545,
      "हामबाल": 3546,
      "पंचायत": 3547,
      "उदूब": 3548,
      "तिहासिक": 3549,
      "हेड़ेम": 3550,
      "सरकाराः": 3551,
      "लक्ष्मी": 3552,
      "मस्जिद": 3553,
      "शब्द": 3554,
      "ससति": 3555,
      "कागज": 3556,
      "जालाकार": 3557,
      "अटकारोः": 3558,
      "अशोक": 3559,
      "सांसद": 3560,
      "गादेद": 3561,
      "कुड़ाम": 3562,
      "ँकि": 3563,
      "ंड़": 3564,
      "ंबु": 3565,
      "अंग": 3566,
      "अवा": 3567,
      "अड़ा": 3568,
      "अप्र": 3569,
      "असी": 3570,
      "अकोअः": 3571,
      "अयू": 3572,
      "अकल": 3573,
      "अएते": 3574,
      "अंगे्र": 3575,
      "आरा": 3576,
      "आगा": 3577,
      "आसी": 3578,
      "आत्मा": 3579,
      "आदेर": 3580,
      "आजादी": 3581,
      "उमा": 3582,
      "उरि": 3583,
      "उपि": 3584,
      "उरूम": 3585,
      "एय": 3586,
      "ओलोः": 3587,
      "कत": 3588,
      "कअः": 3589,
      "क्री": 3590,
      "कसान": 3591,
      "खव": 3592,
      "खरा": 3593,
      "खण्ड": 3594,
      "गडा": 3595,
      "गौर": 3596,
      "चम": 3597,
      "चंद्र": 3598,
      "छू": 3599,
      "जए": 3600,
      "जब": 3601,
      "जरी": 3602,
      "टम": 3603,
      "टर्": 3604,
      "तः": 3605,
      "दड़ा": 3606,
      "द्रो": 3607,
      "धं": 3608,
      "ध्र": 3609,
      "धन्य": 3610,
      "नक": 3611,
      "नको": 3612,
      "नजाना": 3613,
      "नहला": 3614,
      "पट": 3615,
      "पदा": 3616,
      "पइति": 3617,
      "पृष्": 3618,
      "पटेल": 3619,
      "बौ": 3620,
      "बनि": 3621,
      "भजन": 3622,
      "मय": 3623,
      "मको": 3624,
      "मनी": 3625,
      "महारा": 3626,
      "मधु": 3627,
      "रः": 3628,
      "रत": 3629,
      "रल": 3630,
      "रव": 3631,
      "रह": 3632,
      "रमे": 3633,
      "शै": 3634,
      "शौ": 3635,
      "सः": 3636,
      "सना": 3637,
      "सदा": 3638,
      "समी": 3639,
      "हत": 3640,
      "हौ": 3641,
      "हटिंग": 3642,
      "हड़म": 3643,
      "ेश": 3644,
      "ोआ": 3645,
      "ड़कु": 3646,
      "।\"": 3647,
      "नाअ": 3648,
      "नाक": 3649,
      "नाँग": 3650,
      "नाराय": 3651,
      "नाड़ेः": 3652,
      "रेएद": 3653,
      "कापाजि": 3654,
      "कोय": 3655,
      "ताऊ": 3656,
      "ताव": 3657,
      "राबा": 3658,
      "राड़ा": 3659,
      "राखी": 3660,
      "राजीव": 3661,
      "केस": 3662,
      "केला": 3663,
      "नेअ": 3664,
      "नेे": 3665,
      "नेकाना": 3666,
      "नेलोः": 3667,
      "नेपाल": 3668,
      "बाः": 3669,
      "बाॅ": 3670,
      "दाकान": 3671,
      "दाडी": 3672,
      "दारोम": 3673,
      "मेडि": 3674,
      "मेट्रो": 3675,
      "ंगु": 3676,
      "निधि": 3677,
      "निस्तान": 3678,
      "होली": 3679,
      "लेलेल": 3680,
      "माँ": 3681,
      "माका": 3682,
      "माड़ि": 3683,
      "मामु": 3684,
      "मार्ट": 3685,
      "लाद": 3686,
      "लावा": 3687,
      "यां": 3688,
      "याबु": 3689,
      "सादा": 3690,
      "साबु": 3691,
      "सागर": 3692,
      "गाँ": 3693,
      "गालेद": 3694,
      "रित": 3695,
      "रिमा": 3696,
      "रियर": 3697,
      "रिनिका": 3698,
      "मिनाम": 3699,
      "मिमियद्": 3700,
      "सेतअः": 3701,
      "कुंड": 3702,
      "कुमू": 3703,
      "पाप": 3704,
      "वाई": 3705,
      "जिलि": 3706,
      "सुधर": 3707,
      "स्को": 3708,
      "मोद्": 3709,
      "योगा": 3710,
      "दुसि": 3711,
      "दुदु": 3712,
      "चारा": 3713,
      "लियन": 3714,
      "हिमा": 3715,
      "रोज": 3716,
      "तुसिङ": 3717,
      "तुड़कु": 3718,
      "लेकाए": 3719,
      "विन": 3720,
      "विज्ञापन": 3721,
      "जुलु": 3722,
      "जीदान": 3723,
      "एनसा": 3724,
      "इनिःअः": 3725,
      "टेका": 3726,
      "टेक्": 3727,
      "टेली": 3728,
      "टेपेन": 3729,
      "गिउ": 3730,
      "गिर": 3731,
      "मुम्": 3732,
      "हुंडि": 3733,
      "तनाको": 3734,
      "तनाइंग": 3735,
      "रूजि": 3736,
      "मेनाःञा": 3737,
      "प्रती": 3738,
      "प्रणा": 3739,
      "प्रत्य": 3740,
      "प्रदर्शन": 3741,
      "न्डो": 3742,
      "देड़े": 3743,
      "भाई": 3744,
      "डिप्": 3745,
      "डिग्री": 3746,
      "गुटु": 3747,
      "कानाएः": 3748,
      "मेनतेको": 3749,
      "डान": 3750,
      "डोन्डो": 3751,
      "लीवुड": 3752,
      "तीश": 3753,
      "होड़ोआः": 3754,
      "टिफि": 3755,
      "पित": 3756,
      "पिड़ि": 3757,
      "रुब": 3758,
      "मीटर": 3759,
      "कामितानको": 3760,
      "क्षित": 3761,
      "काजिताना": 3762,
      "पोर": 3763,
      "तोआ": 3764,
      "तोर": 3765,
      "धारा": 3766,
      "मंत्रा": 3767,
      "उड़ुगा": 3768,
      "ताइनका": 3769,
      "जगरको": 3770,
      "सनङ": 3771,
      "बइओः": 3772,
      "नामकेदा": 3773,
      "इतुआ": 3774,
      "टुन्डुः": 3775,
      "आउएआ": 3776,
      "माजाते": 3777,
      "फिया": 3778,
      "फाइल": 3779,
      "बुगिनअः": 3780,
      "सानाङा": 3781,
      "नमयना": 3782,
      "नमूना": 3783,
      "आंड़ा": 3784,
      "ंदरा": 3785,
      "हुड़िगं": 3786,
      "चिमतंग": 3787,
      "दाड़िओआ": 3788,
      "पूजा": 3789,
      "पूंजी": 3790,
      "तादाम": 3791,
      "तिंगू": 3792,
      "शनल": 3793,
      "आकानाएः": 3794,
      "इनीः": 3795,
      "नुतुमते": 3796,
      "परधिया": 3797,
      "ट्ट": 3798,
      "जादाञ": 3799,
      "ओकोआरे": 3800,
      "कमरा": 3801,
      "कमजोर": 3802,
      "शुक्": 3803,
      "शुक्र": 3804,
      "नेलकेद्": 3805,
      "आनाचु": 3806,
      "सानाङतान": 3807,
      "अलेया": 3808,
      "ओमाःइआ": 3809,
      "मेदकिन": 3810,
      "मेददाः": 3811,
      "किःञा": 3812,
      "न्दगी": 3813,
      "हुलङ": 3814,
      "मानातिङाकाना": 3815,
      "एनकागे": 3816,
      "कार्यालय": 3817,
      "पारतेद": 3818,
      "भोपाल": 3819,
      "दड़िओ": 3820,
      "मनमोहन": 3821,
      "बादलि": 3822,
      "बनचाव": 3823,
      "साङगिन": 3824,
      "दुराङको": 3825,
      "यादव": 3826,
      "सांगिन": 3827,
      "जांएआः": 3828,
      "छाबा": 3829,
      "अनुभव": 3830,
      "लोकसभा": 3831,
      "स्वतंत्र": 3832,
      "चाबाजाना": 3833,
      "कुड़िको": 3834,
      "अस्ति": 3835,
      "जाएं": 3836,
      "निकुआ": 3837,
      "दांड़ा": 3838,
      "भाग्य": 3839,
      "बसपा": 3840,
      "खिलाड़ी": 3841,
      "बतरि": 3842,
      "आरोप": 3843,
      "श्रम": 3844,
      "श्रद्धा": 3845,
      "रावण": 3846,
      "बागड़ाओ": 3847,
      "जुलतन": 3848,
      "परीक्षण": 3849,
      "सहज": 3850,
      "हूल": 3851,
      "हेनसाः": 3852,
      "बाङकोआ": 3853,
      "सोमय": 3854,
      "अखबार": 3855,
      "दड़ीयोवा": 3856,
      "उम्मीद": 3857,
      "विधायक": 3858,
      "इस्लाम": 3859,
      "ट्रेनिंग": 3860,
      "विशेषज्ञ": 3861,
      "निसकन": 3862,
      "सोंकोटो": 3863,
      "राष्ट्रपति": 3864,
      "उलगुलान": 3865,
      "दाडिआ": 3866,
      "विधानसभा": 3867,
      "ंपिक": 3868,
      "ब्रिटेन": 3869,
      "आकरिङ": 3870,
      "मिआदो": 3871,
      "विदेशी": 3872,
      "मसकल": 3873,
      "उदाम": 3874,
      "रिश्ता": 3875,
      "आसादि": 3876,
      "हुपुड़िंग": 3877,
      "छत्तीसगढ़": 3878,
      "अनिल": 3879,
      "अकादंदा": 3880,
      "नतीजा": 3881,
      "हम्बल": 3882,
      "होडमो": 3883,
      "क्रांति": 3884,
      "जोगव": 3885,
      "सामपोड़ो": 3886,
      "ब्लाॅग": 3887,
      "दक्षि": 3888,
      "होड़मो": 3889,
      "मोतलोब": 3890,
      "डाउनलोड": 3891,
      "आखरी": 3892,
      "झील": 3893,
      "महीना": 3894,
      "बिसुआस": 3895,
      "पृष्ठ": 3896,
      "टेपेनसा": 3897,
      "मंत्रालय": 3898,
      "शुक्रवार": 3899,
      "ँगा": 3900,
      "ंदो": 3901,
      "ंटी": 3902,
      "ंतर": 3903,
      "ःआ": 3904,
      "अड": 3905,
      "अत": 3906,
      "अते": 3907,
      "अजी": 3908,
      "अश्": 3909,
      "अजय": 3910,
      "अड़ां": 3911,
      "अयअः": 3912,
      "आरे": 3913,
      "आनु": 3914,
      "आलू": 3915,
      "आमिर": 3916,
      "आलिङ": 3917,
      "आसुल": 3918,
      "आस्ट्रेलिया": 3919,
      "इरा": 3920,
      "इरि": 3921,
      "इआम": 3922,
      "इसिंग": 3923,
      "उलि": 3924,
      "उन्": 3925,
      "ऊर्जा": 3926,
      "एमो": 3927,
      "एंड": 3928,
      "एमान": 3929,
      "एयर": 3930,
      "एतकन": 3931,
      "एशिया": 3932,
      "ऐतिहासिक": 3933,
      "ओर": 3934,
      "ओपो": 3935,
      "कव": 3936,
      "कबीर": 3937,
      "खतर": 3938,
      "गौ": 3939,
      "गजल": 3940,
      "चपु": 3941,
      "छि": 3942,
      "जज": 3943,
      "टव": 3944,
      "ठु": 3945,
      "ढि": 3946,
      "णय": 3947,
      "णु": 3948,
      "तब्": 3949,
      "दरा": 3950,
      "दरू": 3951,
      "दंगा": 3952,
      "नसी": 3953,
      "नक्स": 3954,
      "पण": 3955,
      "पटना": 3956,
      "फसे": 3957,
      "बच": 3958,
      "बर्": 3959,
      "बगड़": 3960,
      "बचव": 3961,
      "भरो": 3962,
      "भ्य": 3963,
      "मश": 3964,
      "मरि": 3965,
      "महिला": 3966,
      "यय": 3967,
      "रं": 3968,
      "रथ": 3969,
      "रसी": 3970,
      "रमन": 3971,
      "रकब": 3972,
      "लब्": 3973,
      "शल": 3974,
      "षे": 3975,
      "सअः": 3976,
      "समान": 3977,
      "सौर": 3978,
      "हफ्": 3979,
      "ृत": 3980,
      "ॉप": 3981,
      "ौता": 3982,
      "रेडियो": 3983,
      "काइ": 3984,
      "कान्": 3985,
      "काली": 3986,
      "कोड": 3987,
      "कोसि": 3988,
      "कोलका": 3989,
      "कोरअः": 3990,
      "कोलेज": 3991,
      "ताङगि": 3992,
      "तेः": 3993,
      "तेआर": 3994,
      "केश": 3995,
      "केयो": 3996,
      "केचा": 3997,
      "जाके": 3998,
      "जामबा": 3999,
      "बाके": 4000,
      "बाढ़": 4001,
      "दांगि": 4002,
      "मेर": 4003,
      "निय": 4004,
      "निशा": 4005,
      "निमन": 4006,
      "नियंत्र": 4007,
      "होब": 4008,
      "लेख": 4009,
      "लेलेआ": 4010,
      "माश": 4011,
      "माता": 4012,
      "माध्य": 4013,
      "गेना": 4014,
      "याः": 4015,
      "साकि": 4016,
      "साड़ा": 4017,
      "साम्": 4018,
      "सामजा": 4019,
      "सारेः": 4020,
      "गामा": 4021,
      "गाति": 4022,
      "गापा": 4023,
      "गाड़ि": 4024,
      "गाडी": 4025,
      "गाड़ाओ": 4026,
      "रिकी": 4027,
      "तिका": 4028,
      "तिनि": 4029,
      "दोला": 4030,
      "मिश्": 4031,
      "मिशन": 4032,
      "मिनाङ": 4033,
      "सेक": 4034,
      "सेल": 4035,
      "सेंदरा": 4036,
      "सिग": 4037,
      "सिन": 4038,
      "सिल": 4039,
      "सिता": 4040,
      "सिस्ट": 4041,
      "बेः": 4042,
      "कुड़ाम": 4043,
      "पारो": 4044,
      "पारी": 4045,
      "पावर": 4046,
      "पांडे": 4047,
      "सोन": 4048,
      "सोला": 4049,
      "सोसो": 4050,
      "सोनिया": 4051,
      "इनिग": 4052,
      "केनाय": 4053,
      "मेनाइआ": 4054,
      "वाइ": 4055,
      "वाज": 4056,
      "वार्": 4057,
      "वाहि": 4058,
      "जिउ": 4059,
      "जिन्दगी": 4060,
      "किलो": 4061,
      "सुरुद": 4062,
      "जानाते": 4063,
      "स्टो": 4064,
      "स्पी": 4065,
      "स्तार": 4066,
      "स्टिक": 4067,
      "हाड़ा": 4068,
      "योगी": 4069,
      "दुरा": 4070,
      "दुसिदा": 4071,
      "दिकू": 4072,
      "चाई": 4073,
      "चालन": 4074,
      "चार्य": 4075,
      "होबाः": 4076,
      "होबावा": 4077,
      "होबालेन": 4078,
      "लिबु": 4079,
      "बुद्ध": 4080,
      "बुझव": 4081,
      "हिन्द": 4082,
      "नोल": 4083,
      "नोसा": 4084,
      "नोगो": 4085,
      "ड़ोम": 4086,
      "रोड": 4087,
      "रोगी": 4088,
      "रोहित": 4089,
      "तुल": 4090,
      "तानलो": 4091,
      "तानलोः": 4092,
      "द्योगि": 4093,
      "विर": 4094,
      "विजन": 4095,
      "विष्": 4096,
      "विवाद": 4097,
      "विधे": 4098,
      "क्रे": 4099,
      "रिकातान": 4100,
      "रिकाओःआ": 4101,
      "रिकाओःताना": 4102,
      "जुग": 4103,
      "जोरो": 4104,
      "टेंट": 4105,
      "बिनेट": 4106,
      "बिरूद": 4107,
      "गिआ": 4108,
      "गिलास": 4109,
      "मुस्": 4110,
      "मुंडि": 4111,
      "मुदाइ": 4112,
      "जनाते": 4113,
      "इंग्": 4114,
      "तनाव": 4115,
      "रूख": 4116,
      "रूतु": 4117,
      "मेनाःइआ": 4118,
      "बोगोमान": 4119,
      "प्रजा": 4120,
      "प्रमुख": 4121,
      "प्रस्तु": 4122,
      "एनाराः": 4123,
      "न्डु": 4124,
      "देह": 4125,
      "भारोम": 4126,
      "डिट": 4127,
      "गुला": 4128,
      "गुलि": 4129,
      "गुड़ि": 4130,
      "हिजुतान": 4131,
      "गरङ": 4132,
      "सेनकेआते": 4133,
      "डोंडो": 4134,
      "टिः": 4135,
      "कजिम": 4136,
      "कजिकमि": 4137,
      "टोनंग": 4138,
      "ल्ला": 4139,
      "युग": 4140,
      "युक्ति": 4141,
      "संबं": 4142,
      "संविधान": 4143,
      "सीर": 4144,
      "ताःते": 4145,
      "सिदाओ": 4146,
      "अरकि": 4147,
      "काजिकेआते": 4148,
      "पोट": 4149,
      "पोर्": 4150,
      "पोनोसा": 4151,
      "जनरे": 4152,
      "लेनाए": 4153,
      "लेनाञ": 4154,
      "सरसर": 4155,
      "सरदार": 4156,
      "आमके": 4157,
      "आमदो": 4158,
      "कमिया": 4159,
      "कनाजि": 4160,
      "हेता": 4161,
      "पीढ़ी": 4162,
      "शांति": 4163,
      "बरसा": 4164,
      "हिजुःजानाएः": 4165,
      "बइओ": 4166,
      "इतुसाइ": 4167,
      "ओडोंग": 4168,
      "ष्णा": 4169,
      "दाड़िजानाएः": 4170,
      "आलेया": 4171,
      "खाव": 4172,
      "बीए": 4173,
      "श्रे": 4174,
      "श्या": 4175,
      "पुराःते": 4176,
      "कीर्": 4177,
      "पुराओ": 4178,
      "फार्म": 4179,
      "वीं": 4180,
      "ड़ेम": 4181,
      "इदिया": 4182,
      "हरण": 4183,
      "सेनोःजान": 4184,
      "डुंबु": 4185,
      "डीए": 4186,
      "डींग": 4187,
      "चुटि": 4188,
      "इंडि": 4189,
      "इंजीनि": 4190,
      "बारन": 4191,
      "खिया": 4192,
      "खोब": 4193,
      "खोबो": 4194,
      "इमनंग": 4195,
      "बैंड": 4196,
      "लाःको": 4197,
      "आएःगे": 4198,
      "हीरा": 4199,
      "जादाए": 4200,
      "हाराओआ": 4201,
      "इनुग": 4202,
      "कुड़िहोन": 4203,
      "एटाःको": 4204,
      "शुरू": 4205,
      "थिक": 4206,
      "यूपी": 4207,
      "बलए": 4208,
      "बारिआतेआ": 4209,
      "कृष्णा": 4210,
      "मूर्ति": 4211,
      "बंदी": 4212,
      "किरिआ": 4213,
      "आईपी": 4214,
      "मिसाते": 4215,
      "आयुमकेआते": 4216,
      "व्यू": 4217,
      "व्यक्ति": 4218,
      "मतदान": 4219,
      "तारालेका": 4220,
      "जोनोका": 4221,
      "टोओरोःताना": 4222,
      "शेयर": 4223,
      "श्रीकृष्ण": 4224,
      "फ्लै": 4225,
      "उत्पा": 4226,
      "गिड़ियना": 4227,
      "अइञाः": 4228,
      "खुदा": 4229,
      "खुला": 4230,
      "कोड़ाको": 4231,
      "जूद": 4232,
      "जूता": 4233,
      "महत्व": 4234,
      "दुनुब्": 4235,
      "चाबाओआ": 4236,
      "कुड़िहोड़ो": 4237,
      "तेबाःकेदा": 4238,
      "पार्क": 4239,
      "सानजु": 4240,
      "पालटान": 4241,
      "तानताइकेनाञ": 4242,
      "अंत": 4243,
      "रानुको": 4244,
      "प्रेस": 4245,
      "फेसबु": 4246,
      "जगह": 4247,
      "सालापिति": 4248,
      "सामान्य": 4249,
      "कंप्यूटर": 4250,
      "पड़व": 4251,
      "विरोधी": 4252,
      "चैंपि": 4253,
      "मोदचो": 4254,
      "दुबाकन": 4255,
      "पर्व": 4256,
      "शोध": 4257,
      "ज़ा": 4258,
      "लेलेपे": 4259,
      "चौक": 4260,
      "ड्डा": 4261,
      "धरती": 4262,
      "संस्कार": 4263,
      "चरण": 4264,
      "नामाकान": 4265,
      "दुलड़": 4266,
      "कालेज": 4267,
      "नडुल": 4268,
      "पढव": 4269,
      "वंश": 4270,
      "भेद": 4271,
      "हालाजोला": 4272,
      "हालाँकि": 4273,
      "सेकेड़ागे": 4274,
      "अल्ला": 4275,
      "कम्पनी": 4276,
      "दड़ीया": 4277,
      "लक्ष्य": 4278,
      "संगीत": 4279,
      "स्टार": 4280,
      "आदिवासी": 4281,
      "हनाटिंग": 4282,
      "प्रभावित": 4283,
      "थोल": 4284,
      "बढ़व": 4285,
      "चिमिनाँग": 4286,
      "चिकित्सा": 4287,
      "आइंआ": 4288,
      "ट्रै": 4289,
      "लिःआ": 4290,
      "सूरज": 4291,
      "नरेंद्र": 4292,
      "बंगाल": 4293,
      "काॅलेज": 4294,
      "कारिता": 4295,
      "एजेंसी": 4296,
      "ज्योतिष": 4297,
      "मोड़ेया": 4298,
      "हजाराते": 4299,
      "सरतिगे": 4300,
      "अहमद": 4301,
      "निवेश": 4302,
      "सफलता": 4303,
      "निमिनंग": 4304,
      "रिड़िङ": 4305,
      "आचकागे": 4306,
      "ओरोतो": 4307,
      "नाड़ेः": 4308,
      "बुजव": 4309,
      "जोड़ेनाकन": 4310,
      "मेडिकल": 4311,
      "गाँधी": 4312,
      "सुधरव": 4313,
      "मुम्बई": 4314,
      "प्रणाली": 4315,
      "अस्तित्व": 4316,
      "दक्षिण": 4317,
      "खतरनाक": 4318,
      "हफ्ता": 4319,
      "कोसिसि": 4320,
      "कोलकाता": 4321,
      "जामबाड़ा": 4322,
      "नियंत्रण": 4323,
      "सामजामा": 4324,
      "दुसिदार": 4325,
      "विधेयक": 4326,
      "ंथ": 4327,
      "ंप": 4328,
      "ंजि": 4329,
      "ंङा": 4330,
      "अरे": 4331,
      "अड़ा": 4332,
      "अली": 4333,
      "अरु": 4334,
      "असम": 4335,
      "अध्य": 4336,
      "असल": 4337,
      "अन्त": 4338,
      "आप": 4339,
      "आकिन": 4340,
      "आकोआः": 4341,
      "आवे": 4342,
      "आदेश": 4343,
      "आशी": 4344,
      "आकर्": 4345,
      "आत्म": 4346,
      "आबेन": 4347,
      "इअ": 4348,
      "इपाए": 4349,
      "ईरान": 4350,
      "ईमेल": 4351,
      "उर्": 4352,
      "उरु": 4353,
      "उठा": 4354,
      "उमर": 4355,
      "उपाए": 4356,
      "ऋषि": 4357,
      "एसा": 4358,
      "ओकेदा": 4359,
      "ओवर": 4360,
      "ओंडो": 4361,
      "कच": 4362,
      "क़": 4363,
      "कमा": 4364,
      "कपुर": 4365,
      "कश्": 4366,
      "कमाल": 4367,
      "ग़": 4368,
      "गवर्": 4369,
      "गृह": 4370,
      "ङगेल": 4371,
      "चय": 4372,
      "छर": 4373,
      "छवि": 4374,
      "जं": 4375,
      "जरु": 4376,
      "जमी": 4377,
      "जरुड़ु": 4378,
      "ठि": 4379,
      "ठयद": 4380,
      "डव": 4381,
      "तल": 4382,
      "थम": 4383,
      "दं": 4384,
      "दृ": 4385,
      "दया": 4386,
      "दहे": 4387,
      "दौर": 4388,
      "दस्ता": 4389,
      "धरी": 4390,
      "धमाका": 4391,
      "नग": 4392,
      "नजा": 4393,
      "नमेआ": 4394,
      "नलाइन": 4395,
      "पत": 4396,
      "पड़ा": 4397,
      "पद्": 4398,
      "पन्": 4399,
      "पल्": 4400,
      "पन्ना": 4401,
      "फएस": 4402,
      "बले": 4403,
      "बगी": 4404,
      "बड़ाव": 4405,
      "बरिआ": 4406,
      "बबाई": 4407,
      "भंडा": 4408,
      "भर्ती": 4409,
      "मक": 4410,
      "मबु": 4411,
      "मरी": 4412,
      "मल्": 4413,
      "मंडी": 4414,
      "मन्दि": 4415,
      "रज": 4416,
      "रन": 4417,
      "रॉ": 4418,
      "रता": 4419,
      "रत्": 4420,
      "रघु": 4421,
      "लइ": 4422,
      "लसुर": 4423,
      "लक्षण": 4424,
      "लखन": 4425,
      "व्र": 4426,
      "सरिया": 4427,
      "सभ्य": 4428,
      "हथि": 4429,
      "ेः": 4430,
      "ेगे": 4431,
      "्वी": 4432,
      "नाए": 4433,
      "रेकिन": 4434,
      "काने": 4435,
      "कोल": 4436,
      "कोना": 4437,
      "कोसा": 4438,
      "कोटा": 4439,
      "कोओः": 4440,
      "ताओ": 4441,
      "तेङ": 4442,
      "तेने": 4443,
      "तेमाल": 4444,
      "रां": 4445,
      "राई": 4446,
      "राट": 4447,
      "राधा": 4448,
      "केने": 4449,
      "केड़ा": 4450,
      "नेम": 4451,
      "नेह": 4452,
      "नेलो": 4453,
      "नेडा": 4454,
      "नेतः": 4455,
      "जाङ": 4456,
      "जाइन": 4457,
      "बाम": 4458,
      "बांग": 4459,
      "बारोम": 4460,
      "बापुड़ि": 4461,
      "बागाड़ाओ": 4462,
      "बाछर": 4463,
      "दाता": 4464,
      "दासि": 4465,
      "दाड़ा": 4466,
      "दाबि": 4467,
      "मेरोम": 4468,
      "मेहन": 4469,
      "ंगू": 4470,
      "निरा": 4471,
      "निगो": 4472,
      "नियर": 4473,
      "निस्ट": 4474,
      "लेया": 4475,
      "लेकिन": 4476,
      "लेपेल": 4477,
      "माम": 4478,
      "मांग": 4479,
      "मापा": 4480,
      "माकान": 4481,
      "माहौ": 4482,
      "गेट": 4483,
      "गेंदा": 4484,
      "लाड़": 4485,
      "यात": 4486,
      "सापा": 4487,
      "सार्": 4488,
      "गाए": 4489,
      "रिज": 4490,
      "रिटा": 4491,
      "रिद्": 4492,
      "रिमिल": 4493,
      "तिल": 4494,
      "तिरि": 4495,
      "तिसींग": 4496,
      "दो‌": 4497,
      "दोबो": 4498,
      "मिला": 4499,
      "मिया": 4500,
      "मिनी": 4501,
      "सेः": 4502,
      "सेठ": 4503,
      "सेङगेल": 4504,
      "चिया": 4505,
      "चिरि": 4506,
      "चिन्": 4507,
      "चिटि": 4508,
      "सिटी": 4509,
      "सिर्फ": 4510,
      "कुट": 4511,
      "पाक": 4512,
      "वाली": 4513,
      "वाकना": 4514,
      "वांति": 4515,
      "जित": 4516,
      "किङ": 4517,
      "किरी": 4518,
      "किस्सा": 4519,
      "सुगा": 4520,
      "सुनी": 4521,
      "सुधा": 4522,
      "सुंद": 4523,
      "सुनवा": 4524,
      "सुचना": 4525,
      "सुविधा": 4526,
      "र्श": 4527,
      "र्जी": 4528,
      "स्ना": 4529,
      "स्पे": 4530,
      "स्टि": 4531,
      "स्की": 4532,
      "स्पति": 4533,
      "स्तिथि": 4534,
      "मोटाइ": 4535,
      "हाड़": 4536,
      "हाले": 4537,
      "हाबाद": 4538,
      "हाताङ": 4539,
      "हाउस": 4540,
      "दुपु": 4541,
      "दुअर": 4542,
      "केदा‌": 4543,
      "दिक्": 4544,
      "पुण": 4545,
      "पुनु": 4546,
      "पुरु": 4547,
      "पुंडि": 4548,
      "पुंजि": 4549,
      "चाटु": 4550,
      "टाला": 4551,
      "होबाकान": 4552,
      "लिप": 4553,
      "लिश": 4554,
      "ताइकेनाको": 4555,
      "गोर": 4556,
      "गोसो": 4557,
      "गोली": 4558,
      "गोंड": 4559,
      "बुद": 4560,
      "बुनु": 4561,
      "लोमा": 4562,
      "रोगा": 4563,
      "तुरिआ": 4564,
      "विपक्ष": 4565,
      "वित्त": 4566,
      "आञदो": 4567,
      "आञोः": 4568,
      "क्ता": 4569,
      "क्लिक": 4570,
      "नुनु": 4571,
      "नुकरी": 4572,
      "रिकारा": 4573,
      "रिकाजाना": 4574,
      "रआःए": 4575,
      "रआःओ": 4576,
      "जुला": 4577,
      "जुड़ि": 4578,
      "जुलाई": 4579,
      "जुड़ाः": 4580,
      "जोतो": 4581,
      "ड़िया": 4582,
      "एनजा": 4583,
      "एनकान": 4584,
      "इनिःगे": 4585,
      "टेबल": 4586,
      "बिं": 4587,
      "बिहारी": 4588,
      "रेनकु": 4589,
      "गिंग": 4590,
      "मुला": 4591,
      "मुडा": 4592,
      "मुआंड़ा": 4593,
      "मुखिया": 4594,
      "हुक्": 4595,
      "मेनाःमेआ": 4596,
      "प्रशि": 4597,
      "प्रसार": 4598,
      "प्रबंध": 4599,
      "प्रथम": 4600,
      "एनाङ": 4601,
      "एनागे": 4602,
      "न्ड": 4603,
      "न्डे": 4604,
      "न्यास": 4605,
      "भाषण": 4606,
      "गुल": 4607,
      "कनी": 4608,
      "कानाः": 4609,
      "कानाए": 4610,
      "कानाम": 4611,
      "बाइयोआ": 4612,
      "डाक": 4613,
      "लेलमे": 4614,
      "नीय": 4615,
      "जेक्ट": 4616,
      "सेनकेद्": 4617,
      "लीजा": 4618,
      "तीन": 4619,
      "टिस": 4620,
      "कारखाना": 4621,
      "कजिओ": 4622,
      "पिंग": 4623,
      "पिलि": 4624,
      "टोगोआ": 4625,
      "संचार": 4626,
      "संस्थान": 4627,
      "सीता": 4628,
      "सीसी": 4629,
      "सीपी": 4630,
      "कामिआ": 4631,
      "होड़ोअः": 4632,
      "होड़ोकोरे": 4633,
      "ब्ल": 4634,
      "जनअः": 4635,
      "नेकारे": 4636,
      "नेकाते": 4637,
      "तोनोल": 4638,
      "दीया": 4639,
      "इनकुअः": 4640,
      "आएके": 4641,
      "आमगे": 4642,
      "एटागा": 4643,
      "चेला": 4644,
      "लागाओआ": 4645,
      "कनाडा": 4646,
      "इसुगे": 4647,
      "ङाते": 4648,
      "ताइनतान": 4649,
      "ताइनोःआ": 4650,
      "हेम": 4651,
      "हेड़ेम": 4652,
      "पीटी": 4653,
      "शाली": 4654,
      "शामिल": 4655,
      "होरारे": 4656,
      "केदकोआएः": 4657,
      "वेज": 4658,
      "वेटर": 4659,
      "वेयर": 4660,
      "राजनेता": 4661,
      "बरसिंग": 4662,
      "हिजुःआ": 4663,
      "प्ता": 4664,
      "शिविर": 4665,
      "बइजना": 4666,
      "बइबड़": 4667,
      "इतुकेदा": 4668,
      "इतुसाय": 4669,
      "टुंड़ु": 4670,
      "आञागा": 4671,
      "ष्ठ": 4672,
      "दाड़िताना": 4673,
      "दाड़िआएः": 4674,
      "तायोमसाः": 4675,
      "आउकेदा": 4676,
      "भारती": 4677,
      "खाता": 4678,
      "खाजना": 4679,
      "खाली": 4680,
      "चीज़": 4681,
      "बीन": 4682,
      "कील": 4683,
      "सुकुअन": 4684,
      "फाइन": 4685,
      "फागु": 4686,
      "्रेस": 4687,
      "सानाला": 4688,
      "ओड़ओ": 4689,
      "धित": 4690,
      "सेनोःमे": 4691,
      "सेनोःताना": 4692,
      "आंध्र": 4693,
      "ंदू": 4694,
      "ओलनिः": 4695,
      "ओलंपिक": 4696,
      "चुनडुल": 4697,
      "सिरमाते": 4698,
      "चिमनाङ": 4699,
      "दाड़िताना": 4700,
      "लगाओ": 4701,
      "लगातार": 4702,
      "मिनट": 4703,
      "एससी": 4704,
      "मेनअःकन": 4705,
      "चारचा": 4706,
      "परब": 4707,
      "परका": 4708,
      "परदा": 4709,
      "परमाण": 4710,
      "चोट": 4711,
      "ट्टा": 4712,
      "उदुबकेदाएः": 4713,
      "हाराबुरू": 4714,
      "जोमकेआते": 4715,
      "कमल": 4716,
      "होनकोड़ा": 4717,
      "होनकोड़ा": 4718,
      "थिम्बा": 4719,
      "यूनि": 4720,
      "बदला": 4721,
      "बदलव": 4722,
      "बदमाश": 4723,
      "कृषि": 4724,
      "ओमाकान": 4725,
      "ओमाकादा": 4726,
      "कामना": 4727,
      "लाईत": 4728,
      "होडोकोआ": 4729,
      "किःआएः": 4730,
      "स्थायी": 4731,
      "शीर्ष": 4732,
      "कुलिकिःआ": 4733,
      "सूची": 4734,
      "व्यस्त": 4735,
      "दानदा": 4736,
      "बादले": 4737,
      "बनचव": 4738,
      "जयपुर": 4739,
      "बनोवा": 4740,
      "होबावआ": 4741,
      "तिंगुआकान": 4742,
      "उपकरण": 4743,
      "उपलब्": 4744,
      "महात्मा": 4745,
      "होबाओतान": 4746,
      "तेआरी": 4747,
      "लोओःगे": 4748,
      "बोरनिका": 4749,
      "दूल": 4750,
      "यनय": 4751,
      "श्रीमती": 4752,
      "मोचारे": 4753,
      "मोचाते": 4754,
      "र्मल": 4755,
      "कदय": 4756,
      "मैन": 4757,
      "मैदान": 4758,
      "सांबड़ाव": 4759,
      "रिकाएआएः": 4760,
      "तूर": 4761,
      "मिदते": 4762,
      "दर्ज": 4763,
      "कुड़िहोन": 4764,
      "राजनीतिक": 4765,
      "टोःजाना": 4766,
      "निर्णय": 4767,
      "मेनाइः": 4768,
      "अभिनेता": 4769,
      "अभिषे": 4770,
      "एटअ": 4771,
      "वैष्ण": 4772,
      "कार्यकर्ता": 4773,
      "जदाए": 4774,
      "हानारा": 4775,
      "ग्रंथ": 4776,
      "खिलाड़ी": 4777,
      "ब्रम्": 4778,
      "भीड़": 4779,
      "स्टेट": 4780,
      "बतरी": 4781,
      "प्राथ": 4782,
      "अइंअ": 4783,
      "अइंङ": 4784,
      "सुनुगड़": 4785,
      "सुनुगाड़ा": 4786,
      "जोमेया": 4787,
      "गुरुवार": 4788,
      "पेरेःआकाना": 4789,
      "पेरेःआकान": 4790,
      "राकाबोः": 4791,
      "सानामाङरे": 4792,
      "खीस": 4793,
      "पत्रकारिता": 4794,
      "अनापि": 4795,
      "हूडिंग": 4796,
      "नामाकाना": 4797,
      "मार्क": 4798,
      "मार्च": 4799,
      "हैदरा": 4800,
      "कोटोङ": 4801,
      "अदाकन": 4802,
      "नानक": 4803,
      "होड़ोः": 4804,
      "दाडियाए": 4805,
      "ब्रांड": 4806,
      "हेनते": 4807,
      "हेनदे": 4808,
      "कल्या": 4809,
      "फुट": 4810,
      "मनारंग": 4811,
      "सोमवार": 4812,
      "अखरिंग": 4813,
      "गणेश": 4814,
      "ठाउकाकान": 4815,
      "पलटन": 4816,
      "अफ़": 4817,
      "पढ़व": 4818,
      "रानाड़ा": 4819,
      "कुंबुड़ु": 4820,
      "सोबेनअःएते": 4821,
      "नैनो": 4822,
      "हांड़ा": 4823,
      "पत्ति": 4824,
      "हाड़ाम": 4825,
      "नुतुमान": 4826,
      "ओलेमे": 4827,
      "कौरी": 4828,
      "कोठरी": 4829,
      "दुर्गा": 4830,
      "दुर्घटना": 4831,
      "जोड़ेन": 4832,
      "बिनिनगा": 4833,
      "उपाय": 4834,
      "उताराकाना": 4835,
      "ृष्टि": 4836,
      "केसेद्": 4837,
      "विवेकान": 4838,
      "शास्त्र": 4839,
      "ग्रहण": 4840,
      "कलेक्टर": 4841,
      "दैंगा": 4842,
      "बंगाइ": 4843,
      "कारोन": 4844,
      "शनिवार": 4845,
      "समुद्र": 4846,
      "बिङको": 4847,
      "बोतोंग": 4848,
      "आकादानदा": 4849,
      "आर्थिक": 4850,
      "कब्जा": 4851,
      "ग्रेस": 4852,
      "बल्ले": 4853,
      "सहायक": 4854,
      "जाआज": 4855,
      "चिलकान": 4856,
      "हेएवा": 4857,
      "दानाड़ि": 4858,
      "मालिकि": 4859,
      "प्लेट": 4860,
      "अपराधी": 4861,
      "भोगबान": 4862,
      "देपेड़": 4863,
      "उत्तराखंड": 4864,
      "उड़ङ": 4865,
      "जल्दी": 4866,
      "मजबू": 4867,
      "सिद्धांत": 4868,
      "जिम्मे": 4869,
      "किसांड़ा": 4870,
      "हालिआन": 4871,
      "जुड़ागाकान": 4872,
      "उनुड़ुः": 4873,
      "विद्यार्थी": 4874,
      "आतंकवाद": 4875,
      "होलोंग": 4876,
      "वास्तव": 4877,
      "मोलोङ": 4878,
      "चार्ज": 4879,
      "न्यायालय": 4880,
      "डाॅक्टर": 4881,
      "समझौता": 4882,
      "डेबेल": 4883,
      "आगाम": 4884,
      "कअःइया": 4885,
      "धंधा": 4886,
      "रमेश": 4887,
      "गिरफ्": 4888,
      "नक्सली": 4889,
      "दांगिड़ि": 4890,
      "सिस्टम": 4891,
      "सोसोंगा": 4892,
      "श्रेणी": 4893,
      "कीर्तन": 4894,
      "इंडियन": 4895,
      "फेसबुक": 4896,
      "अध्ययन": 4897,
      "दहेज": 4898,
      "फएसला": 4899,
      "मन्दिर": 4900,
      "हथियार": 4901,
      "माहौल": 4902,
      "दुपुलाड़": 4903,
      "प्रशिक्षण": 4904,
      "परमाणु": 4905,
      "अभिषेक": 4906,
      "हैदराबाद": 4907,
      ":-": 4908,
      "ंको": 4909,
      "ंती": 4910,
      "ंकी": 4911,
      "ःए": 4912,
      "ःमे": 4913,
      "अरा": 4914,
      "अकोआ": 4915,
      "अग्र": 4916,
      "अमिता": 4917,
      "आफ": 4918,
      "आला": 4919,
      "आसु": 4920,
      "आलि": 4921,
      "आतु": 4922,
      "आशा": 4923,
      "आलाङ": 4924,
      "आड़ाः": 4925,
      "आकाल": 4926,
      "आर्य": 4927,
      "इड": 4928,
      "इद": 4929,
      "इमे": 4930,
      "इकि": 4931,
      "इरो": 4932,
      "इज्": 4933,
      "इंद": 4934,
      "इसिन": 4935,
      "ईद": 4936,
      "ईया": 4937,
      "उत": 4938,
      "उम": 4939,
      "उदास": 4940,
      "ऊर": 4941,
      "ऊडू": 4942,
      "एअ": 4943,
      "एह": 4944,
      "एआञ": 4945,
      "एकन": 4946,
      "एपी": 4947,
      "एएआ": 4948,
      "एकाद": 4949,
      "एकेला": 4950,
      "ओमोन": 4951,
      "कए": 4952,
      "कबा": 4953,
      "कनि": 4954,
      "कसर": 4955,
      "कप्": 4956,
      "कड़ी": 4957,
      "कंट": 4958,
      "खू": 4959,
      "ख्": 4960,
      "गई": 4961,
      "गरा": 4962,
      "गर्": 4963,
      "घर": 4964,
      "ङ्": 4965,
      "चक": 4966,
      "चका": 4967,
      "चंड": 4968,
      "चंडु": 4969,
      "चक्का": 4970,
      "जद": 4971,
      "जला": 4972,
      "जगा": 4973,
      "जबाब": 4974,
      "ञं": 4975,
      "ठ्": 4976,
      "डन": 4977,
      "डम": 4978,
      "ड्र": 4979,
      "ड्यू": 4980,
      "ढे": 4981,
      "तृ": 4982,
      "तबे": 4983,
      "तकोआ": 4984,
      "तर्क": 4985,
      "थु": 4986,
      "थला": 4987,
      "दख": 4988,
      "दंगि": 4989,
      "दरोम": 4990,
      "दलाल": 4991,
      "दलित": 4992,
      "नव": 4993,
      "नड़े": 4994,
      "नफा": 4995,
      "नड़े": 4996,
      "नजर": 4997,
      "नरेन्": 4998,
      "पॉ": 4999,
      "परो": 5000,
      "परिया": 5001,
      "फू": 5002,
      "बरि": 5003,
      "बइन": 5004,
      "बद्ध": 5005,
      "बन्ध": 5006,
      "भौ": 5007,
      "मअः": 5008,
      "मयोम": 5009,
      "ममता": 5010,
      "मइना": 5011,
      "यि": 5012,
      "ये": 5013,
      "यता": 5014,
      "रब": 5015,
      "लता": 5016,
      "लड़ा": 5017,
      "लंका": 5018,
      "वय": 5019,
      "वलाव": 5020,
      "शत": 5021,
      "सरी": 5022,
      "सयद्": 5023,
      "सस्ता": 5024,
      "सच्": 5025,
      "ससाति": 5026,
      "हका": 5027,
      "हकि": 5028,
      "हसु": 5029,
      "़ओ": 5030,
      "ेन": 5031,
      "ैल": 5032,
      "ॉड": 5033,
      "्ला": 5034,
      "्त्र": 5035,
      "ड़की": 5036,
      "‌‌": 5037,
      "नाई": 5038,
      "नागे": 5039,
      "नाकि": 5040,
      "नानी": 5041,
      "रेखा": 5042,
      "कांड": 5043,
      "कानेसा": 5044,
      "कोञ": 5045,
      "कोण": 5046,
      "कोर": 5047,
      "कोआञ": 5048,
      "कोरेगे": 5049,
      "कोतअः": 5050,
      "कोर्स": 5051,
      "ताञ": 5052,
      "तागाते": 5053,
      "तावरण": 5054,
      "तेकिन": 5055,
      "राॅ": 5056,
      "राइन": 5057,
      "राकन": 5058,
      "रांगा": 5059,
      "केए": 5060,
      "केनिः": 5061,
      "केयर": 5062,
      "केशन": 5063,
      "जाल": 5064,
      "जाव": 5065,
      "जारू": 5066,
      "जापि": 5067,
      "जाञा": 5068,
      "जादू": 5069,
      "जालोम": 5070,
      "बाँ": 5071,
      "बाकान": 5072,
      "बांगा": 5073,
      "बाटि": 5074,
      "बारिया": 5075,
      "बाङगा": 5076,
      "बाबई": 5077,
      "बापाइ": 5078,
      "बातिरि": 5079,
      "दाम": 5080,
      "दाते": 5081,
      "दादा": 5082,
      "दाँग": 5083,
      "दाड़ी": 5084,
      "दाँडा": 5085,
      "मेड़े": 5086,
      "निष्": 5087,
      "निमुङ": 5088,
      "होम": 5089,
      "होने": 5090,
      "होनेः": 5091,
      "होटेल": 5092,
      "लेंस": 5093,
      "माॅ": 5094,
      "मानि": 5095,
      "माला": 5096,
      "मातला": 5097,
      "मान्य": 5098,
      "माआरि": 5099,
      "माउर": 5100,
      "मालिक": 5101,
      "लाता": 5102,
      "लादि": 5103,
      "सारा": 5104,
      "सासां": 5105,
      "साधन": 5106,
      "गाल": 5107,
      "गानिस्तान": 5108,
      "रिश": 5109,
      "रिस": 5110,
      "रिको": 5111,
      "रिली": 5112,
      "रिजिन": 5113,
      "तिया": 5114,
      "तिंगा": 5115,
      "तिवारी": 5116,
      "दोया": 5117,
      "दोएः": 5118,
      "मियु": 5119,
      "मियाद": 5120,
      "सेने": 5121,
      "सेड़ा": 5122,
      "चिन": 5123,
      "चिद्": 5124,
      "चितार": 5125,
      "सिंगा": 5126,
      "सिफा": 5127,
      "सिटिया": 5128,
      "सिरिमा": 5129,
      "बेड": 5130,
      "कुमा": 5131,
      "कुडी": 5132,
      "कुइला": 5133,
      "कुमारी": 5134,
      "कुड़म": 5135,
      "्रफ": 5136,
      "पास": 5137,
      "पारा": 5138,
      "पासा": 5139,
      "पानी": 5140,
      "पापी": 5141,
      "पांति": 5142,
      "पाटिल": 5143,
      "पांसे": 5144,
      "पाचिरि": 5145,
      "नेआके": 5146,
      "सोल": 5147,
      "सोअन": 5148,
      "सोदोर": 5149,
      "केनाइंग": 5150,
      "मेनाञ": 5151,
      "वाम": 5152,
      "वाकन": 5153,
      "वातावरण": 5154,
      "जिम": 5155,
      "जिंद": 5156,
      "किट": 5157,
      "किड": 5158,
      "किरा": 5159,
      "किस्": 5160,
      "किमिन": 5161,
      "सुप्री": 5162,
      "सुविस": 5163,
      "र्च": 5164,
      "र्त": 5165,
      "र्या": 5166,
      "र्वाद": 5167,
      "जानाम": 5168,
      "जानाकिन": 5169,
      "स्प": 5170,
      "स्कर": 5171,
      "स्वी": 5172,
      "स्क्री": 5173,
      "मोह": 5174,
      "मोडे": 5175,
      "हाँ": 5176,
      "हापा": 5177,
      "हार्": 5178,
      "हाड़ाम": 5179,
      "हालाईत": 5180,
      "दिसु": 5181,
      "दिरी": 5182,
      "दिंगा": 5183,
      "दिशा": 5184,
      "दिनाकि": 5185,
      "मेनकेदाए": 5186,
      "पुरी": 5187,
      "पुगुड़ि": 5188,
      "चालाव": 5189,
      "चाइल": 5190,
      "टार": 5191,
      "टाटा": 5192,
      "होबारा": 5193,
      "लिन": 5194,
      "लियो": 5195,
      "लिङगि": 5196,
      "गोन": 5197,
      "गोप": 5198,
      "गोपाल": 5199,
      "बुलु": 5200,
      "बुडिया": 5201,
      "बुझा": 5202,
      "बुद्धि": 5203,
      "लोर": 5204,
      "लोनी": 5205,
      "हिद": 5206,
      "हिन": 5207,
      "हिता": 5208,
      "हिया": 5209,
      "हिरो": 5210,
      "नोआ": 5211,
      "नोट": 5212,
      "रों": 5213,
      "रोको": 5214,
      "रोगो": 5215,
      "रोमान": 5216,
      "तुतु": 5217,
      "तानी": 5218,
      "द्दी": 5219,
      "द्वारा": 5220,
      "विड": 5221,
      "विना": 5222,
      "विभा": 5223,
      "विकी": 5224,
      "विन्द": 5225,
      "क्सा": 5226,
      "क्सी": 5227,
      "पेआ": 5228,
      "पेद": 5229,
      "पेरेआ": 5230,
      "पेटोः": 5231,
      "नुम": 5232,
      "नुंग": 5233,
      "नुकसान": 5234,
      "रिकाकेआते": 5235,
      "रिकालेना": 5236,
      "रिकाएमे": 5237,
      "जुआ": 5238,
      "जोको": 5239,
      "जोजो": 5240,
      "जोकारे": 5241,
      "जीआ": 5242,
      "जीओ": 5243,
      "एनलो": 5244,
      "एनतयोम": 5245,
      "टेक": 5246,
      "टेपे": 5247,
      "टेनेका": 5248,
      "टेस्ट": 5249,
      "टेकाव": 5250,
      "बिन": 5251,
      "बिदा": 5252,
      "बिया": 5253,
      "गिरि": 5254,
      "सोबेनताः": 5255,
      "मुनि": 5256,
      "मुकु": 5257,
      "मुकद": 5258,
      "मुशर": 5259,
      "रीका": 5260,
      "रूडा": 5261,
      "मेनाःकिना": 5262,
      "बोको": 5263,
      "बोनो": 5264,
      "तनम": 5265,
      "तनमे": 5266,
      "तन्त्र": 5267,
      "प्रौ": 5268,
      "प्रका": 5269,
      "प्रवी": 5270,
      "प्रदर्": 5271,
      "प्रमोद": 5272,
      "प्रसिद्ध": 5273,
      "एनारा": 5274,
      "एनाके": 5275,
      "एनाँग": 5276,
      "न्सी": 5277,
      "कानपुर": 5278,
      "देल": 5279,
      "देरी": 5280,
      "देड़े": 5281,
      "देहरा": 5282,
      "भाड़ा": 5283,
      "डिजाइन": 5284,
      "गुट": 5285,
      "गुड़ि": 5286,
      "गुप्त": 5287,
      "हिजुआकाना": 5288,
      "बाइना": 5289,
      "बाइकेदा": 5290,
      "बाइओः": 5291,
      "बाइजान": 5292,
      "लेलपे": 5293,
      "लेलतानको": 5294,
      "लेलोःताना": 5295,
      "नीः": 5296,
      "नीत": 5297,
      "नीतीश": 5298,
      "आरकि": 5299,
      "नेयागे": 5300,
      "तीर": 5301,
      "ओड़ोःको": 5302,
      "टिश": 5303,
      "पिका": 5304,
      "पिको": 5305,
      "ड़ोम": 5306,
      "टोरो": 5307,
      "टोगोः": 5308,
      "टोआङ": 5309,
      "त्ति": 5310,
      "त्रिक": 5311,
      "रुवड़": 5312,
      "मीरा": 5313,
      "संप्र": 5314,
      "संसं": 5315,
      "संचालन": 5316,
      "सीए": 5317,
      "सीन": 5318,
      "सीमना": 5319,
      "टीना": 5320,
      "टीकी": 5321,
      "सिदारेगे": 5322,
      "सिदातेगे": 5323,
      "कामिनिः": 5324,
      "कामिनाला": 5325,
      "होड़ोएः": 5326,
      "ओकोआः": 5327,
      "म्मा": 5328,
      "काजिआञ": 5329,
      "काजिओः": 5330,
      "काजिआको": 5331,
      "पोआ": 5332,
      "पोन": 5333,
      "पोटो": 5334,
      "जनम": 5335,
      "जनते": 5336,
      "जनजाति": 5337,
      "होनते": 5338,
      "होनके": 5339,
      "तोंग": 5340,
      "तोपा": 5341,
      "तोरो": 5342,
      "धार्": 5343,
      "धातु": 5344,
      "अमगे": 5345,
      "अमृत": 5346,
      "चेतना": 5347,
      "निःअ": 5348,
      "कमिअगु": 5349,
      "कमिउदम": 5350,
      "मंत्र": 5351,
      "मंदी": 5352,
      "उड़ुगो": 5353,
      "ङाकान": 5354,
      "मानवा": 5355,
      "मानदार": 5356,
      "मानसिक": 5357,
      "आपानते": 5358,
      "आपानगे": 5359,
      "ताइनताना": 5360,
      "ताइनजान": 5361,
      "हेर": 5362,
      "हेने": 5363,
      "हेओआ": 5364,
      "अइंगओःगे": 5365,
      "पीएस": 5366,
      "शास": 5367,
      "रेओगे": 5368,
      "केदकोआ": 5369,
      "जागारते": 5370,
      "बरना": 5371,
      "हिजुःपे": 5372,
      "हिजुःकेआते": 5373,
      "हिजुःआएः": 5374,
      "हिजुःकोःआते": 5375,
      "प्प": 5376,
      "प्रि": 5377,
      "शिक्षक": 5378,
      "नामकेदाए": 5379,
      "नामकेदाएः": 5380,
      "इतुतान": 5381,
      "टुड़ु": 5382,
      "समइति": 5383,
      "दाड़िआको": 5384,
      "आउतान": 5385,
      "आउआकादा": 5386,
      "खाए": 5387,
      "चीन्हा": 5388,
      "बीसी": 5389,
      "पुरखा": 5390,
      "माजाएः": 5391,
      "श्ती": 5392,
      "ड़ेन": 5393,
      "सोमार": 5394,
      "कीय": 5395,
      "कीजा": 5396,
      "फिट": 5397,
      "सुकुल": 5398,
      "सुकुआइ": 5399,
      "फाए": 5400,
      "फान": 5401,
      "फाल": 5402,
      "बुगिना": 5403,
      "गोनोए": 5404,
      "सेनोःयना": 5405,
      "जांता": 5406,
      "जांचे": 5407,
      "ओलको": 5408,
      "ओलहारिआ": 5409,
      "सारति": 5410,
      "चिमन": 5411,
      "स्ट्री": 5412,
      "डेद": 5413,
      "डेम": 5414,
      "डेटा": 5415,
      "डेढ़": 5416,
      "बारह": 5417,
      "खिड़की": 5418,
      "एसई": 5419,
      "एसडी": 5420,
      "सेनोआ": 5421,
      "एटेःकेदाएः": 5422,
      "इमता": 5423,
      "बैग": 5424,
      "चोकोए": 5425,
      "दड़ियो": 5426,
      "लाएपे": 5427,
      "बोरोए": 5428,
      "बोरोते": 5429,
      "सेंस": 5430,
      "सेंटर": 5431,
      "बाराना": 5432,
      "हाराएआ": 5433,
      "हाराओःतान": 5434,
      "कुड़िकोआः": 5435,
      "चानाःए": 5436,
      "आकानको": 5437,
      "कम्यु": 5438,
      "तअःरे": 5439,
      "आनासे": 5440,
      "आनायार": 5441,
      "बदलाव": 5442,
      "पंक": 5443,
      "पंति": 5444,
      "हातुरे": 5445,
      "परिक्षा": 5446,
      "परिस्थिति": 5447,
      "परिचय": 5448,
      "अलेअः": 5449,
      "नाआःओ": 5450,
      "णाः": 5451,
      "मूद": 5452,
      "किःआको": 5453,
      "वर्मा": 5454,
      "बालबाल": 5455,
      "सूचित": 5456,
      "पारकोम": 5457,
      "चिमिनंग": 5458,
      "ग्स": 5459,
      "दड़िअ": 5460,
      "दड़िजाना": 5461,
      "दड़िओअ": 5462,
      "मनतिंग": 5463,
      "एंगाञ": 5464,
      "बादला": 5465,
      "होबाओःका": 5466,
      "अटल": 5467,
      "एनतारे": 5468,
      "उपन": 5469,
      "महाराज": 5470,
      "महावीर": 5471,
      "महासचिव": 5472,
      "जोगाओएआ": 5473,
      "गोनोङो": 5474,
      "बानोगा": 5475,
      "होबाओका": 5476,
      "लाइसेंस": 5477,
      "एनेज": 5478,
      "ओमेया": 5479,
      "शेर": 5480,
      "कैमरा": 5481,
      "कैबिनेट": 5482,
      "ठीकिआ": 5483,
      "दून": 5484,
      "आयारते": 5485,
      "फ्रांस": 5486,
      "उकुआकान": 5487,
      "ओड़ाःरे": 5488,
      "ओड़ाःहोड़ो": 5489,
      "मरंगउतर": 5490,
      "घाट": 5491,
      "घाटा": 5492,
      "लेनको": 5493,
      "मैने": 5494,
      "पातिया": 5495,
      "स्वागत": 5496,
      "गिड़िया": 5497,
      "उपुनिया": 5498,
      "ण्डा": 5499,
      "कोड़ाहोन": 5500,
      "अनुवाद": 5501,
      "अनुसूचित": 5502,
      "जून": 5503,
      "दोहोया": 5504,
      "हरातिंग": 5505,
      "पाड़ाओतान": 5506,
      "जिलाधिकारी": 5507,
      "सुरक्षित": 5508,
      "स्वरुप": 5509,
      "टयद्‌": 5510,
      "मनातिङ": 5511,
      "जाःइआ": 5512,
      "तेबाःलाःए": 5513,
      "मौजूद": 5514,
      "साबकेआते": 5515,
      "जामाकान": 5516,
      "सानडा": 5517,
      "गंज": 5518,
      "जाएगा": 5519,
      "्रोल": 5520,
      "इतुआनाएः": 5521,
      "सामना": 5522,
      "मंदिरको": 5523,
      "प्रतिक्रिया": 5524,
      "प्रतियोगि": 5525,
      "पेड़ेःते": 5526,
      "कार्यवाही": 5527,
      "जैव": 5528,
      "हानाल": 5529,
      "हापेन": 5530,
      "हापेते": 5531,
      "उड़ुङोः": 5532,
      "उड़ुङजाना": 5533,
      "आपेया": 5534,
      "नेतअःरे": 5535,
      "व्यवसाय": 5536,
      "बरान": 5537,
      "भीत": 5538,
      "भीड़": 5539,
      "किताब्": 5540,
      "राबालते": 5541,
      "केटेःआन": 5542,
      "हिंसा": 5543,
      "जेताओ": 5544,
      "जेताव": 5545,
      "एसेल": 5546,
      "पर्क": 5547,
      "पर्या": 5548,
      "क्रमण": 5549,
      "लगभग": 5550,
      "पोस्टमार्ट": 5551,
      "इलाहाबाद": 5552,
      "नरक": 5553,
      "नरम": 5554,
      "भूरा": 5555,
      "अंग्रेज": 5556,
      "आरिद": 5557,
      "चौधरी": 5558,
      "सर्च": 5559,
      "सर्वर": 5560,
      "माइक": 5561,
      "बइयाकन": 5562,
      "नामाकादा": 5563,
      "सेसेनाकान": 5564,
      "कॉलेज": 5565,
      "शर्त": 5566,
      "मार्ग": 5567,
      "अधिकारीको": 5568,
      "दुरंड़": 5569,
      "रोकाव": 5570,
      "जुगुतू": 5571,
      "ण्डली": 5572,
      "रेयाः": 5573,
      "सेकड़ागे": 5574,
      "टाइम्स": 5575,
      "उदुबेम": 5576,
      "अवतार": 5577,
      "आकादांदान": 5578,
      "वंत": 5579,
      "उड़ुङजाना": 5580,
      "कृतिक": 5581,
      "किताबको": 5582,
      "अड़गु": 5583,
      "उडूग": 5584,
      "मनोज": 5585,
      "तानिआः": 5586,
      "पदक": 5587,
      "भरत": 5588,
      "भेट": 5589,
      "भेंट": 5590,
      "कुम्पानी": 5591,
      "हालात": 5592,
      "जनवगे": 5593,
      "मेसाकेआते": 5594,
      "शाहरूख": 5595,
      "टुंडुरे": 5596,
      "अल्प": 5597,
      "कम्प्यूटर": 5598,
      "गणित": 5599,
      "रियल": 5600,
      "कुमबुड़ु": 5601,
      "शानदार": 5602,
      "अलपे": 5603,
      "अुकू": 5604,
      "अुडू": 5605,
      "पढ़वेन": 5606,
      "काउबाउ": 5607,
      "कोयोङ": 5608,
      "सोंड़ो": 5609,
      "लेलोःतान": 5610,
      "शून्य": 5611,
      "काःइआ": 5612,
      "बांचाओ": 5613,
      "मायावती": 5614,
      "सितरू": 5615,
      "अदवांति": 5616,
      "असराए": 5617,
      "बढ़ा": 5618,
      "बहादुर": 5619,
      "चिमिनाम": 5620,
      "विकसित": 5621,
      "बिनियुर": 5622,
      "सेंड़ान": 5623,
      "गैर": 5624,
      "नागरिक": 5625,
      "हिसाबते": 5626,
      "विवेक": 5627,
      "फ्टवेयर": 5628,
      "ब्रह्म": 5629,
      "आयोजन": 5630,
      "आचुआकान": 5631,
      "कन्या": 5632,
      "बॉलीवुड": 5633,
      "रैली": 5634,
      "कारोबार": 5635,
      "जिनतु": 5636,
      "गुनाह": 5637,
      "उदाहरण": 5638,
      "वृत्ति": 5639,
      "टोगोगा": 5640,
      "अयअ": 5641,
      "घड़ीकद्": 5642,
      "मंडल": 5643,
      "जाआनाः": 5644,
      "दोरपोन": 5645,
      "बोंसो": 5646,
      "मंजूरी": 5647,
      "कल्पना": 5648,
      "सोनोतोः": 5649,
      "आगरा": 5650,
      "ओटंग": 5651,
      "चलते": 5652,
      "तद्कोआ": 5653,
      "राजेन्द्र": 5654,
      "साधना": 5655,
      "रिंड़ि": 5656,
      "सेपेड़ेद": 5657,
      "झारखण्ड": 5658,
      "जोमेआःको": 5659,
      "एपरंग": 5660,
      "कर्मचारी": 5661,
      "चरित्र": 5662,
      "रसिकन": 5663,
      "वजनिक": 5664,
      "लोआड़ि": 5665,
      "नुकुरि": 5666,
      "नुकुरी": 5667,
      "बिल्डिंग": 5668,
      "जेतनाः": 5669,
      "ब्लोग": 5670,
      "भूमिका": 5671,
      "आटकारेआ": 5672,
      "महेश": 5673,
      "सबूती": 5674,
      "हड़ताल": 5675,
      "रेलगाड़ी": 5676,
      "कोनोटो": 5677,
      "तारीख": 5678,
      "तानेःताइकेना": 5679,
      "हुपड़िंग": 5680,
      "मानवता": 5681,
      "हिंदुस्तान": 5682,
      "अवार्ड": 5683,
      "अंगे्रजी": 5684,
      "उपिस": 5685,
      "धन्यवाद": 5686,
      "पदार्थ": 5687,
      "सदाव": 5688,
      "समीक्षा": 5689,
      "नारायण": 5690,
      "माड़िते": 5691,
      "साबुइति": 5692,
      "हिमाचल": 5693,
      "जुलुङ": 5694,
      "टेकाओआकाना": 5695,
      "प्रत्यक्ष": 5696,
      "डिप्लोमा": 5697,
      "पोरबो": 5698,
      "धारावाहि": 5699,
      "शुक्ल": 5700,
      "स्वतंत्रता": 5701,
      "अजीब": 5702,
      "अड़ांदि": 5703,
      "बगड़व": 5704,
      "भरोसा": 5705,
      "जाकेदे": 5706,
      "मिश्रा": 5707,
      "सिगरेट": 5708,
      "हाड़ागु": 5709,
      "क्रेडिट": 5710,
      "मुस्लिम": 5711,
      "इंजीनियर": 5712,
      "खुलासा": 5713,
      "चैंपियन": 5714,
      "मोदचोकोएः": 5715,
      "अल्लाह": 5716,
      "अन्तर्": 5717,
      "आवेदन": 5718,
      "कश्मीर": 5719,
      "रत्न": 5720,
      "सभ्यता": 5721,
      "नेहरू": 5722,
      "बांग्ला": 5723,
      "मापाराङ": 5724,
      "सार्वजनिक": 5725,
      "चिन्ह": 5726,
      "किरींग": 5727,
      "सुनवाई": 5728,
      "दिक्कत": 5729,
      "पुनुचिद": 5730,
      "मुलायम": 5731,
      "हुक्म": 5732,
      "बइबड़न": 5733,
      "उपलब्ध": 5734,
      "दूलड़": 5735,
      "वैष्णव": 5736,
      "प्राथमि": 5737,
      "कल्याण": 5738,
      "अग्रवाल": 5739,
      "उतरो": 5740,
      "ठ्ठी": 5741,
      "हकिअत": 5742,
      "मेड़ेद": 5743,
      "मातलाब": 5744,
      "सासांकिर": 5745,
      "दिंगाएः": 5746,
      "टेनेकाद": 5747,
      "मुकदमा": 5748,
      "मुशर्रफ": 5749,
      "प्रतियोगिता": 5750,
      "पोस्टमार्टम": 5751,
      "धारावाहिक": 5752,
      "ंन": 5753,
      "ंता": 5754,
      "ंकि": 5755,
      "ंदी": 5756,
      "ंइग": 5757,
      "अज": 5758,
      "अभ": 5759,
      "अदो": 5760,
      "अड़ि": 5761,
      "अन्": 5762,
      "अडा": 5763,
      "अथा": 5764,
      "अग्": 5765,
      "अध्या": 5766,
      "असुल": 5767,
      "अत्या": 5768,
      "अन्याय": 5769,
      "अड्डा": 5770,
      "आड": 5771,
      "आल": 5772,
      "आश": 5773,
      "आति": 5774,
      "आरेआ": 5775,
      "आडि": 5776,
      "आश्": 5777,
      "आड़ाओ": 5778,
      "आस्था": 5779,
      "आधु": 5780,
      "आह्": 5781,
      "आकाश": 5782,
      "आश्रम": 5783,
      "आचार्य": 5784,
      "आसोल": 5785,
      "इट": 5786,
      "इदो": 5787,
      "इपे": 5788,
      "ईन": 5789,
      "ईन्": 5790,
      "ईदी": 5791,
      "ईसाई": 5792,
      "ईमानदार": 5793,
      "उड": 5794,
      "उड़": 5795,
      "उतु": 5796,
      "उड़ी": 5797,
      "उड़ी": 5798,
      "उडुः": 5799,
      "उच्": 5800,
      "एओ": 5801,
      "एत": 5802,
      "एरे": 5803,
      "एनि": 5804,
      "एसो": 5805,
      "एटी": 5806,
      "एआम": 5807,
      "एराङ": 5808,
      "एरंग": 5809,
      "एशन": 5810,
      "एएस": 5811,
      "एओन": 5812,
      "एकता": 5813,
      "एहेम": 5814,
      "ऑपरे": 5815,
      "ऑस्ट्रेलिया": 5816,
      "ऑनलाइन": 5817,
      "ओए": 5818,
      "ओे": 5819,
      "ओतान": 5820,
      "ओओम": 5821,
      "ओएआ": 5822,
      "कस": 5823,
      "कमे": 5824,
      "कपा": 5825,
      "कवा": 5826,
      "कस्": 5827,
      "कनो": 5828,
      "कौर": 5829,
      "कपिल": 5830,
      "खड़": 5831,
      "ख्य": 5832,
      "गठ": 5833,
      "गह": 5834,
      "गोःआ": 5835,
      "गठन": 5836,
      "गन्डे": 5837,
      "ङि": 5838,
      "चं": 5839,
      "चश्": 5840,
      "चन्द": 5841,
      "जअ": 5842,
      "जक": 5843,
      "जॉ": 5844,
      "जर्म": 5845,
      "झि": 5846,
      "झो": 5847,
      "ठंडा": 5848,
      "डंड": 5849,
      "डब्ल": 5850,
      "णि": 5851,
      "णरे": 5852,
      "णसी": 5853,
      "तङ": 5854,
      "तप": 5855,
      "तवा": 5856,
      "तकिनो": 5857,
      "थ्वी": 5858,
      "दक": 5859,
      "दम": 5860,
      "दय": 5861,
      "दबि": 5862,
      "दबाव": 5863,
      "धू": 5864,
      "ध्": 5865,
      "धपुर": 5866,
      "धनिया": 5867,
      "नता": 5868,
      "नगे": 5869,
      "नया": 5870,
      "नलि": 5871,
      "नपुर": 5872,
      "नम्बर": 5873,
      "पक": 5874,
      "पृ": 5875,
      "पला": 5876,
      "पचा": 5877,
      "पटा": 5878,
      "पली": 5879,
      "पक्का": 5880,
      "पएसा": 5881,
      "पट्टा": 5882,
      "फॉ": 5883,
      "फ्र": 5884,
      "फंड": 5885,
      "बृ": 5886,
      "बहि": 5887,
      "बहाना": 5888,
      "बच्": 5889,
      "बस्तर": 5890,
      "बसंत": 5891,
      "भला": 5892,
      "भवन": 5893,
      "भकुआ": 5894,
      "मल": 5895,
      "मपा": 5896,
      "मपर": 5897,
      "मदन": 5898,
      "यस": 5899,
      "यौ": 5900,
      "य्य": 5901,
      "यंस": 5902,
      "यिक": 5903,
      "रचि": 5904,
      "रड़ा": 5905,
      "रणा": 5906,
      "लप": 5907,
      "लवी": 5908,
      "लड्": 5909,
      "लंदन": 5910,
      "वॉ": 5911,
      "वली": 5912,
      "वकील": 5913,
      "शह": 5914,
      "शरी": 5915,
      "श्य": 5916,
      "शही": 5917,
      "शंक": 5918,
      "शमन": 5919,
      "षन": 5920,
      "सट": 5921,
      "सप": 5922,
      "सॉ": 5923,
      "सता": 5924,
      "सबे": 5925,
      "सड़ा": 5926,
      "सड़ि": 5927,
      "सदी": 5928,
      "सहारा": 5929,
      "सइति": 5930,
      "सनाला": 5931,
      "हवाई": 5932,
      "ुप": 5933,
      "ोम": 5934,
      "ज़ा": 5935,
      "ड़व": 5936,
      "ढ़े": 5937,
      "नाइ": 5938,
      "नारा": 5939,
      "नामुन": 5940,
      "रेज": 5941,
      "रेड": 5942,
      "रेश": 5943,
      "रेमा": 5944,
      "रेआञ": 5945,
      "रेइंग": 5946,
      "रेकोआ": 5947,
      "रेक्टर": 5948,
      "रेङगे": 5949,
      "कारा": 5950,
      "कामा": 5951,
      "काबुगिन": 5952,
      "कार्ट": 5953,
      "काशी": 5954,
      "काव्य": 5955,
      "काइङ": 5956,
      "कात्मक": 5957,
      "काबला": 5958,
      "काटिः": 5959,
      "कोपे": 5960,
      "कोटे": 5961,
      "कोइंग": 5962,
      "ताले": 5963,
      "तायो": 5964,
      "ताकिनाः": 5965,
      "ताकिनो": 5966,
      "तेबु": 5967,
      "तेजी": 5968,
      "तेताङ": 5969,
      "राआ": 5970,
      "राहु": 5971,
      "राटि": 5972,
      "राजन": 5973,
      "राशन": 5974,
      "राताङ": 5975,
      "रासत": 5976,
      "केज": 5977,
      "केरे": 5978,
      "केया": 5979,
      "केड़ा": 5980,
      "केपे": 5981,
      "नेञ": 5982,
      "नेले": 5983,
      "नेसु": 5984,
      "नेलेकाते": 5985,
      "नेशनल": 5986,
      "जाञ": 5987,
      "जाको": 5988,
      "जाती": 5989,
      "जारु": 5990,
      "बास": 5991,
      "बामा": 5992,
      "बापा": 5993,
      "बानी": 5994,
      "बाङा": 5995,
      "बागेआ": 5996,
      "बांदा": 5997,
      "बाआना": 5998,
      "बागाड़ा": 5999,
      "बायार": 6000,
      "बायुः": 6001,
      "दाउ": 6002,
      "दाकन": 6003,
      "दापार": 6004,
      "दाबाद": 6005,
      "दांदान": 6006,
      "मेलन": 6007,
      "मेटाइ": 6008,
      "निति": 6009,
      "निकिन": 6010,
      "निम्": 6011,
      "नितिक": 6012,
      "नियुक्ति": 6013,
      "होर": 6014,
      "होश": 6015,
      "होटो": 6016,
      "लेः": 6017,
      "लेट": 6018,
      "लेआञ": 6019,
      "लेशन": 6020,
      "लेंडर": 6021,
      "माद": 6022,
      "माव": 6023,
      "माडि": 6024,
      "मानी": 6025,
      "माओवा": 6026,
      "गेले": 6027,
      "लारि": 6028,
      "लागु": 6029,
      "लागिन": 6030,
      "लागत": 6031,
      "यारी": 6032,
      "सादु": 6033,
      "साक्षा": 6034,
      "सातिङ": 6035,
      "साधु": 6036,
      "सादोम": 6037,
      "साढ़े": 6038,
      "गाई": 6039,
      "गाय": 6040,
      "गाव": 6041,
      "गाह": 6042,
      "गार्": 6043,
      "रिद": 6044,
      "रिम": 6045,
      "रिकन": 6046,
      "रिंगा": 6047,
      "रिटी": 6048,
      "तिरुब": 6049,
      "दोरेया": 6050,
      "दोषी": 6051,
      "मिनि": 6052,
      "मिली": 6053,
      "मिडिया": 6054,
      "सेट": 6055,
      "सेनेआ": 6056,
      "सेड़ां": 6057,
      "सेक्स": 6058,
      "सेतेङ": 6059,
      "चिता": 6060,
      "चिंग": 6061,
      "चिअः": 6062,
      "चिकन": 6063,
      "चिन्हा": 6064,
      "चिवलाव": 6065,
      "चिठ्ठी": 6066,
      "सिस": 6067,
      "सिपा": 6068,
      "सिमान": 6069,
      "सिद्धि": 6070,
      "ोःतान": 6071,
      "बेव": 6072,
      "बेना": 6073,
      "बेआन": 6074,
      "बेएस": 6075,
      "बेरेल": 6076,
      "बेचारा": 6077,
      "कुइ": 6078,
      "कुको": 6079,
      "कुर्": 6080,
      "कुड़ी": 6081,
      "कुण्डली": 6082,
      "्र्": 6083,
      "पाँ": 6084,
      "पात्र": 6085,
      "पायल": 6086,
      "पांच": 6087,
      "पाहाम": 6088,
      "पाआड़ाओ": 6089,
      "ताइजान": 6090,
      "सोझ": 6091,
      "सोमे": 6092,
      "सोबो": 6093,
      "सोहरा": 6094,
      "सोरोग": 6095,
      "सोनोः": 6096,
      "इनिके": 6097,
      "मेनाइंग": 6098,
      "वायर": 6099,
      "जिल": 6100,
      "जिको": 6101,
      "जिमा": 6102,
      "जियम": 6103,
      "जिरिजिन": 6104,
      "किम": 6105,
      "किलि": 6106,
      "किञा": 6107,
      "किआको": 6108,
      "कियाको": 6109,
      "सुक": 6110,
      "सुबा": 6111,
      "सुरू": 6112,
      "सुभा": 6113,
      "सुझा": 6114,
      "स्पा": 6115,
      "स्सी": 6116,
      "स्त्र": 6117,
      "स्फो": 6118,
      "स्कुल": 6119,
      "स्कै": 6120,
      "स्टिंग": 6121,
      "स्पर्": 6122,
      "स्कॉ": 6123,
      "स्मृ": 6124,
      "मोसायो": 6125,
      "हाया": 6126,
      "हाडा": 6127,
      "हाली": 6128,
      "हासू": 6129,
      "हाटिंग": 6130,
      "हाटिया": 6131,
      "दुम": 6132,
      "दुवर": 6133,
      "दुराँग": 6134,
      "केदाले": 6135,
      "केदाइंग": 6136,
      "दिक": 6137,
      "दिड़ि": 6138,
      "दिग्": 6139,
      "मेनअ": 6140,
      "मेनकेदाको": 6141,
      "पुन": 6142,
      "चाँ": 6143,
      "टाः": 6144,
      "टाटि": 6145,
      "लिनि": 6146,
      "लिटी": 6147,
      "लिञा": 6148,
      "लिखव": 6149,
      "गोय": 6150,
      "गोटो": 6151,
      "गोजोः": 6152,
      "गोजेन": 6153,
      "लोते": 6154,
      "लोहिया": 6155,
      "हिजा": 6156,
      "हिलि": 6157,
      "हिनदि": 6158,
      "हिंदू": 6159,
      "नोखा": 6160,
      "रोक": 6161,
      "रोध": 6162,
      "रोड़ो": 6163,
      "तुञ": 6164,
      "तुड़ु": 6165,
      "तुगल": 6166,
      "तुगुड़ि": 6167,
      "तानगे": 6168,
      "तानगेआ": 6169,
      "लेकाञ": 6170,
      "लेकाएः": 6171,
      "द्वी": 6172,
      "विल": 6173,
      "विदा": 6174,
      "विकि": 6175,
      "विस्था": 6176,
      "विडियो": 6177,
      "विकेट": 6178,
      "विक्रम": 6179,
      "विंडो": 6180,
      "विचित्र": 6181,
      "विवरण": 6182,
      "विकल्प": 6183,
      "विद्रो": 6184,
      "विस्तार": 6185,
      "आञगे": 6186,
      "क्ला": 6187,
      "क्वा": 6188,
      "पेज": 6189,
      "पेश": 6190,
      "पेट्रो": 6191,
      "नुतम": 6192,
      "नुबअः": 6193,
      "नुतूम": 6194,
      "रिकाओ": 6195,
      "रिकाओः": 6196,
      "रिकाजाद": 6197,
      "रिकाएपे": 6198,
      "रआःञ": 6199,
      "रआःगे": 6200,
      "जोआ": 6201,
      "जोश": 6202,
      "जोरी": 6203,
      "जोटो": 6204,
      "जोड़े": 6205,
      "जोखि": 6206,
      "जोवर": 6207,
      "जोजोम": 6208,
      "जोड़ाओ": 6209,
      "जोड़ाव": 6210,
      "जोडाव": 6211,
      "जोधपुर": 6212,
      "जीऊ": 6213,
      "जीप": 6214,
      "जीबोन": 6215,
      "ड़िआ": 6216,
      "एनरे": 6217,
      "एनलेका": 6218,
      "एनमेनते": 6219,
      "एनसी": 6220,
      "एनसाः": 6221,
      "एनलोःगे": 6222,
      "एनडीए": 6223,
      "इनिःओ": 6224,
      "इनिःरे": 6225,
      "इनिःलो": 6226,
      "टेड": 6227,
      "टेकाओ": 6228,
      "बिसि": 6229,
      "बिपा": 6230,
      "बिजु": 6231,
      "बियु": 6232,
      "बिउर": 6233,
      "बिडाव": 6234,
      "रेनी": 6235,
      "गिइंग": 6236,
      "गिती": 6237,
      "मुज": 6238,
      "मुलि": 6239,
      "मुक्": 6240,
      "मुक्त": 6241,
      "मुरूतु": 6242,
      "मुकाबला": 6243,
      "हुदा": 6244,
      "हुमु": 6245,
      "ड़िया": 6246,
      "जनाय": 6247,
      "इंगके": 6248,
      "तनाइङ": 6249,
      "रूण": 6250,
      "रूर": 6251,
      "रूस": 6252,
      "रूपा": 6253,
      "रूमो": 6254,
      "रूसी": 6255,
      "रूवड़": 6256,
      "मेनाःलेआ": 6257,
      "बोहो": 6258,
      "बोले": 6259,
      "तनकोआ": 6260,
      "प्रव": 6261,
      "प्रधा": 6262,
      "प्रदीप": 6263,
      "प्रशं": 6264,
      "एनाओ": 6265,
      "एनारआः": 6266,
      "एनातेगे": 6267,
      "न्ति": 6268,
      "देसाई": 6269,
      "डियम": 6270,
      "डिनडा": 6271,
      "गुर": 6272,
      "गुचु": 6273,
      "गुणा": 6274,
      "गुगल": 6275,
      "ओड़ेः": 6276,
      "ंगार": 6277,
      "ंगाकन": 6278,
      "बाइक": 6279,
      "बाइओःआ": 6280,
      "बाइतादा": 6281,
      "मेनतेः": 6282,
      "डाकिया": 6283,
      "लेलताना": 6284,
      "लेलकेदाए": 6285,
      "लेलबाल": 6286,
      "लेलकेदाञ": 6287,
      "ड़ुल": 6288,
      "केआतेः": 6289,
      "केआतेको": 6290,
      "आरटी": 6291,
      "आरपी": 6292,
      "नेयाको": 6293,
      "डोन": 6294,
      "डोबा": 6295,
      "लीम": 6296,
      "लीला": 6297,
      "तीरे": 6298,
      "तीसरा": 6299,
      "ओड़ोःए": 6300,
      "कारन": 6301,
      "टोटे": 6302,
      "टोरोआ": 6303,
      "ल्पा": 6304,
      "ल्डर": 6305,
      "त्सव": 6306,
      "युद्ध": 6307,
      "रुख": 6308,
      "मीना": 6309,
      "मीआग": 6310,
      "संब": 6311,
      "संतु": 6312,
      "संदीप": 6313,
      "संयुक्त": 6314,
      "संयंत्र": 6315,
      "संख्या": 6316,
      "संहिता": 6317,
      "संक्रमण": 6318,
      "सीमान": 6319,
      "त्रु": 6320,
      "टीचर": 6321,
      "सिदारा": 6322,
      "कामिओड़ाः": 6323,
      "ओकोया": 6324,
      "ओकोताः": 6325,
      "ओकोएआ": 6326,
      "क्षमता": 6327,
      "म्पु": 6328,
      "काजिते": 6329,
      "काजिमे": 6330,
      "काजिआकाना": 6331,
      "काजिआएः": 6332,
      "काजिओःताना": 6333,
      "लोःए": 6334,
      "जनति": 6335,
      "जनइंग": 6336,
      "होनंग": 6337,
      "होनकिन": 6338,
      "होनकोआः": 6339,
      "तोष": 6340,
      "लेनाको": 6341,
      "इनकुओ": 6342,
      "इनकुु": 6343,
      "इनकुयो": 6344,
      "सरस्व": 6345,
      "अमरीका": 6346,
      "आमलोः": 6347,
      "ताइनाञ": 6348,
      "चेक": 6349,
      "चेपेद": 6350,
      "आपानाः": 6351,
      "मंचि": 6352,
      "मंड़ि": 6353,
      "मंयोम": 6354,
      "मानवी": 6355,
      "ताइनपे": 6356,
      "ताइनजानाएः": 6357,
      "हेवा": 6358,
      "हेड़ा": 6359,
      "पीठ": 6360,
      "ओमको": 6361,
      "ओमरा": 6362,
      "ओमजाना": 6363,
      "ओमद्": 6364,
      "ओमकेआते": 6365,
      "ओमकेदाए": 6366,
      "शाल": 6367,
      "शाला": 6368,
      "शाही": 6369,
      "शासक": 6370,
      "होराको": 6371,
      "होरागे": 6372,
      "वेंक": 6373,
      "वेलियन": 6374,
      "वेश्या": 6375,
      "राजकुमार": 6376,
      "राजनितिक": 6377,
      "जागाररा": 6378,
      "ड़ुम": 6379,
      "हिजुःजान": 6380,
      "हिजुःअकना": 6381,
      "प्पा": 6382,
      "शिकार": 6383,
      "शिखर": 6384,
      "बइकेदा": 6385,
      "बइएन": 6386,
      "नामकेद": 6387,
      "टुआर": 6388,
      "ष्कार": 6389,
      "समू": 6390,
      "समृ": 6391,
      "समर्": 6392,
      "समबन": 6393,
      "उदुबो": 6394,
      "दिसुमरा": 6395,
      "आउरि": 6396,
      "आउकेदाए": 6397,
      "आउआकाना": 6398,
      "आउएआएः": 6399,
      "खां": 6400,
      "खाओ": 6401,
      "चिलकाएः": 6402,
      "बीमा": 6403,
      "करखाना": 6404,
      "श्याम": 6405,
      "पुराःतेदो": 6406,
      "कीर": 6407,
      "तइनाए": 6408,
      "होड़ोकोओ": 6409,
      "सोमाएरे": 6410,
      "फिस": 6411,
      "फिक्": 6412,
      "मियम": 6413,
      "बुगिनाः": 6414,
      "ज्जी": 6415,
      "वीना": 6416,
      "केद्को": 6417,
      "सिरजा": 6418,
      "नमोःआ": 6419,
      "ओड़़ओ": 6420,
      "ड़ेद": 6421,
      "इदिआ": 6422,
      "इदियो": 6423,
      "धिका": 6424,
      "हरभजन": 6425,
      "आंत": 6426,
      "्रीका": 6427,
      "डुमबु": 6428,
      "ओलतानि": 6429,
      "डीज": 6430,
      "चुना": 6431,
      "चुनौ": 6432,
      "सिरमारा": 6433,
      "लुम": 6434,
      "चिमनाम": 6435,
      "चिमनङ": 6436,
      "स्टू": 6437,
      "स्टॉ": 6438,
      "दाड़िओः": 6439,
      "डेंगू": 6440,
      "डेविड": 6441,
      "बारसिङ": 6442,
      "ओकोएदो": 6443,
      "खिड़": 6444,
      "खोलाओ": 6445,
      "खोलव": 6446,
      "सिंगबोंगा": 6447,
      "एटेःयना": 6448,
      "एटेःकेदाञ": 6449,
      "साःए": 6450,
      "इमरान": 6451,
      "परम्प": 6452,
      "परंप": 6453,
      "बैठ": 6454,
      "बैडा": 6455,
      "दड़िओःआ": 6456,
      "रामदेव": 6457,
      "आएःतेगे": 6458,
      "ट्रि": 6459,
      "ट्वि": 6460,
      "ट्टि": 6461,
      "ट्रांस": 6462,
      "बोरोन": 6463,
      "बोरोया": 6464,
      "बोरोवन": 6465,
      "वरदान": 6466,
      "हाराओःआ": 6467,
      "हाराओःताना": 6468,
      "तअःइया": 6469,
      "देशी": 6470,
      "देश्य": 6471,
      "शुभ": 6472,
      "शुद्ध": 6473,
      "नेताःरे": 6474,
      "आनायुम": 6475,
      "बलबल": 6476,
      "कुलर": 6477,
      "कुलदीप": 6478,
      "पंजी": 6479,
      "सिंङ": 6480,
      "ओमाञ": 6481,
      "ओमाकदा": 6482,
      "चनालव": 6483,
      "समयरे": 6484,
      "मामलाको": 6485,
      "बंकुआ": 6486,
      "वर्धन": 6487,
      "ठोरेआ": 6488,
      "शीत": 6489,
      "बूज": 6490,
      "बूडू": 6491,
      "कुलिआ": 6492,
      "हुड़िङलेका": 6493,
      "टाकारा": 6494,
      "एमसी": 6495,
      "एमडी": 6496,
      "ढ़ी": 6497,
      "जापान": 6498,
      "दुबजाना": 6499,
      "आईना": 6500,
      "सून": 6501,
      "पारचि": 6502,
      "पारसी": 6503,
      "आयुमोःआ": 6504,
      "रासिकाते": 6505,
      "चिमिनसा": 6506,
      "दड़िया": 6507,
      "पेड़ेगान": 6508,
      "फिल्मको": 6509,
      "एंगातेआः": 6510,
      "ंटन": 6511,
      "कलन": 6512,
      "बादशाह": 6513,
      "सेनाकान": 6514,
      "बनइ": 6515,
      "होबाओःतान": 6516,
      "सिंहआः": 6517,
      "मरसल": 6518,
      "समाजवादी": 6519,
      "जरूर": 6520,
      "जरूडि": 6521,
      "जरूडी": 6522,
      "सिंगिडू": 6523,
      "सिंगितुर": 6524,
      "सिंगिहासुर": 6525,
      "चानापा": 6526,
      "रुड़ुन": 6527,
      "उपहार": 6528,
      "जाआंन": 6529,
      "जाआंएः": 6530,
      "जोगाओकेदाएः": 6531,
      "कंधा": 6532,
      "तेआरेन": 6533,
      "एनेते": 6534,
      "एनेयोन": 6535,
      "ंडुल": 6536,
      "आइङ": 6537,
      "आइना": 6538,
      "इयाम": 6539,
      "नमाज": 6540,
      "लूस": 6541,
      "लूड़ा": 6542,
      "शेखर": 6543,
      "बारानकिना": 6544,
      "बारानकिनाः": 6545,
      "ठीकि": 6546,
      "दूब": 6547,
      "श्रीवास्तव": 6548,
      "श्रीलंका": 6549,
      "उत्तरी": 6550,
      "घाटी": 6551,
      "घाटाव": 6552,
      "धोखा": 6553,
      "संग्र": 6554,
      "इनुङतान": 6555,
      "अपिसा": 6556,
      "कदए": 6557,
      "मैक": 6558,
      "अधिग्रहण": 6559,
      "छान": 6560,
      "सांझ": 6561,
      "सांजु": 6562,
      "सांेगे": 6563,
      "मानातिङोः": 6564,
      "अइड": 6565,
      "उपुना": 6566,
      "खुंटा": 6567,
      "ण्डे": 6568,
      "नमोवा": 6569,
      "नाङको": 6570,
      "होकाजाना": 6571,
      "रिकाएआको": 6572,
      "अनुसार": 6573,
      "वोटर": 6574,
      "लोकपाल": 6575,
      "लोकतां": 6576,
      "पाड़ाओपे": 6577,
      "पाड़ाओकेआते": 6578,
      "स्वयं": 6579,
      "गोएःजाना": 6580,
      "बादिलिओः": 6581,
      "महंगा": 6582,
      "चाबाओः": 6583,
      "दर्जन": 6584,
      "जादकोआ": 6585,
      "कुमुको": 6586,
      "काआनिको": 6587,
      "देवता": 6588,
      "सनंगअः": 6589,
      "राज्यपाल": 6590,
      "रूपरे": 6591,
      "रूपते": 6592,
      "निर्यात": 6593,
      "्रोत": 6594,
      "एदकन": 6595,
      "निकुआः": 6596,
      "ंडाङ": 6597,
      "प्रतिनिधि": 6598,
      "उयुगोआ": 6599,
      "वैदिक": 6600,
      "दांड़े": 6601,
      "दांड़ें": 6602,
      "प्रेरणा": 6603,
      "ओलाकाना": 6604,
      "कर्मी": 6605,
      "जैक": 6606,
      "फेसो": 6607,
      "काटाजामबाड़ा": 6608,
      "माइनन": 6609,
      "लगातिङ": 6610,
      "ताइनोःका": 6611,
      "आपुतेआः": 6612,
      "सायोबाः": 6613,
      "हानापे": 6614,
      "ठोरजाना": 6615,
      "आपेआः": 6616,
      "सम्म": 6617,
      "सम्राट": 6618,
      "सम्मेलन": 6619,
      "व्यवहार": 6620,
      "कंपनि": 6621,
      "पाकिस्तानी": 6622,
      "ग्रुप": 6623,
      "बराना": 6624,
      "ब्रॉड": 6625,
      "लैपट": 6626,
      "बोलोजाना": 6627,
      "ब्लागिंग": 6628,
      "पर्दा": 6629,
      "फैक्ट": 6630,
      "माङगार": 6631,
      "प्रान्त": 6632,
      "सेंड़ान": 6633,
      "मनातिंगओः": 6634,
      "अमेरिकी": 6635,
      "आरोपि": 6636,
      "आयुमा": 6637,
      "धुरी": 6638,
      "रिकॉ": 6639,
      "इलाज": 6640,
      "ज़ि": 6641,
      "बनारस": 6642,
      "श्रृ": 6643,
      "षित": 6644,
      "रावत": 6645,
      "बागड़ा": 6646,
      "बागड़ाव": 6647,
      "करीना": 6648,
      "चौकी": 6649,
      "दलको": 6650,
      "फीचर": 6651,
      "सर्जरी": 6652,
      "माइकल": 6653,
      "माइक्रो": 6654,
      "दरगाह": 6655,
      "चिकाएआ": 6656,
      "अचकागे": 6657,
      "उद्धार": 6658,
      "उद्देश्य": 6659,
      "खींस": 6660,
      "धरम": 6661,
      "नेटवर्": 6662,
      "चिमीनिंग": 6663,
      "संस्करण": 6664,
      "अनासि": 6665,
      "सैनिक": 6666,
      "स्थित": 6667,
      "अकबर": 6668,
      "कॉम": 6669,
      "करोड़": 6670,
      "मरांग": 6671,
      "आड़ान्दि": 6672,
      "च्छे": 6673,
      "कोड़ाहोन": 6674,
      "इन्तु": 6675,
      "नुबाः": 6676,
      "जलवायु": 6677,
      "हपेन": 6678,
      "ताईं": 6679,
      "उदुबेआ": 6680,
      "कोशिका": 6681,
      "उड़ुङकेदा": 6682,
      "अड़अः": 6683,
      "उडूँग": 6684,
      "मनोहर": 6685,
      "बिजनेस": 6686,
      "जिनिसको": 6687,
      "भरती": 6688,
      "कायस्थ": 6689,
      "जनवरी": 6690,
      "इदुजाः": 6691,
      "इमिनरेओ": 6692,
      "कुपुलको": 6693,
      "लेलाम": 6694,
      "कुमड़ु": 6695,
      "प्रोफे": 6696,
      "प्रोजेक्ट": 6697,
      "अलंग": 6698,
      "एराको": 6699,
      "दड़ांनम": 6700,
      "टुंगको": 6701,
      "अफसर": 6702,
      "अफ्रीका": 6703,
      "अयुमा": 6704,
      "इस्ती": 6705,
      "ट्रेड": 6706,
      "रणनीति": 6707,
      "रणबीर": 6708,
      "रानाड़ा": 6709,
      "रानाचाः": 6710,
      "साँगी": 6711,
      "कुंभ": 6712,
      "इमताङगे": 6713,
      "दांड़ाताना": 6714,
      "टैग": 6715,
      "टैंक": 6716,
      "टैक्स": 6717,
      "निसकान": 6718,
      "पानारचि": 6719,
      "हांदिड़ि": 6720,
      "उड़ुंगो": 6721,
      "टुनडुरे": 6722,
      "उलटा": 6723,
      "शूटिंग": 6724,
      "मायाङ": 6725,
      "हाड़ागुन": 6726,
      "नुतुमाकाना": 6727,
      "रिकाएआम": 6728,
      "आमेः": 6729,
      "आमेञ": 6730,
      "ओमोआ": 6731,
      "ओमोगा": 6732,
      "घोटना": 6733,
      "घोटाला": 6734,
      "हलंग": 6735,
      "सुधरा": 6736,
      "ब्रिटिश": 6737,
      "खोब्गे": 6738,
      "ट्रक": 6739,
      "नमेया": 6740,
      "रविवार": 6741,
      "केसेद": 6742,
      "मुनडि": 6743,
      "प्रीत": 6744,
      "गुजराती": 6745,
      "चेंड़ें": 6746,
      "ग्राहक": 6747,
      "आयोजित": 6748,
      "होनांग": 6749,
      "गियुः": 6750,
      "त्याग": 6751,
      "पंजाबी": 6752,
      "तकनीक": 6753,
      "अलोमअः": 6754,
      "ओताएपे": 6755,
      "सनामङ": 6756,
      "पेंटे": 6757,
      "पेंशन": 6758,
      "पेंटिंग": 6759,
      "बोतोङ": 6760,
      "उयुःजाना": 6761,
      "खेल": 6762,
      "खैराओ": 6763,
      "खैरव": 6764,
      "इनियाः": 6765,
      "बोंदोबो": 6766,
      "संघर्ष": 6767,
      "मंजूर": 6768,
      "आंवगे": 6769,
      "मदइत": 6770,
      "मध्यप्रदेश": 6771,
      "जाआनाओ": 6772,
      "पाठक": 6773,
      "प्लेस": 6774,
      "छत्तीसगढ़": 6775,
      "कांइग": 6776,
      "राजेश": 6777,
      "नेसकन": 6778,
      "साजावाकाना": 6779,
      "सेपेड़ेद्": 6780,
      "झारखंड": 6781,
      "असली": 6782,
      "अक्षय": 6783,
      "उरूमो": 6784,
      "तदय": 6785,
      "बालाएआ": 6786,
      "मायण": 6787,
      "मिस्र": 6788,
      "सेड़ान": 6789,
      "वाराणसी": 6790,
      "जिम्मा": 6791,
      "चालाओआ": 6792,
      "प्रियंका": 6793,
      "समर्थक": 6794,
      "ओटाङतान": 6795,
      "आतंकि": 6796,
      "आतंकी": 6797,
      "इलेक्ट": 6798,
      "एद्का": 6799,
      "एद्कन": 6800,
      "दडिआ": 6801,
      "मॉडल": 6802,
      "मन्त्री": 6803,
      "हड़ागु": 6804,
      "नापामा": 6805,
      "तानेःताइकेनाएः": 6806,
      "मासकाल": 6807,
      "हाटिङाकाना": 6808,
      "बुधवार": 6809,
      "संसकिर": 6810,
      "प्लांट": 6811,
      "आपिरकाल": 6812,
      "कैंसर": 6813,
      "ड्राइवर": 6814,
      "उमियाकान": 6815,
      "ब्रह्माण्ड": 6816,
      "अप्रैल": 6817,
      "अयूब": 6818,
      "अयूर": 6819,
      "उरिः": 6820,
      "एयंगा": 6821,
      "गौरव": 6822,
      "बौद्ध": 6823,
      "मनीष": 6824,
      "शैली": 6825,
      "सनातन": 6826,
      "दुदुगार": 6827,
      "गिउः": 6828,
      "प्रतीकात्मक": 6829,
      "टिफिकेट": 6830,
      "उम्मीदवार": 6831,
      "एयरपोर्ट": 6832,
      "ओपोम": 6833,
      "गौतम": 6834,
      "ठुल": 6835,
      "नसीब": 6836,
      "मशकिल": 6837,
      "कान्ग्रेस": 6838,
      "कालीन": 6839,
      "बाकेडा": 6840,
      "निमनंग": 6841,
      "माध्यम": 6842,
      "साम्राज्य": 6843,
      "तिनियुः": 6844,
      "स्टोरी": 6845,
      "हिन्दू": 6846,
      "विष्व": 6847,
      "प्रस्तुति": 6848,
      "संबंधी": 6849,
      "खोबोरिया": 6850,
      "आईपीएल": 6851,
      "उत्पादन": 6852,
      "महत्वपूर्ण": 6853,
      "भेदभाव": 6854,
      "अरुण": 6855,
      "उरुमो": 6856,
      "ओंडोर": 6857,
      "गवर्नर": 6858,
      "जमींदा": 6859,
      "दस्तावेज": 6860,
      "नजारा": 6861,
      "मरीज": 6862,
      "व्रत": 6863,
      "बामड़े": 6864,
      "मेहनत": 6865,
      "सेःगिड़ि": 6866,
      "सुंदर": 6867,
      "रेनकुआः": 6868,
      "प्रसारण": 6869,
      "शीर्षक": 6870,
      "ब्रम्हा": 6871,
      "अनापिआ": 6872,
      "विवेकानन्द": 6873,
      "गिरफ्तार": 6874,
      "अमिताभ": 6875,
      "आकालबा": 6876,
      "इकिरान": 6877,
      "इज्जत": 6878,
      "उम्र": 6879,
      "कप्तान": 6880,
      "कंट्रोल": 6881,
      "दंगिड़ि": 6882,
      "नड़ेज": 6883,
      "नरेन्द्र": 6884,
      "लड़ाई": 6885,
      "सच्चाई": 6886,
      "बाङगाइः": 6887,
      "मियुड़": 6888,
      "सेड़ान": 6889,
      "सिफारिश": 6890,
      "पासाराओ": 6891,
      "किराया": 6892,
      "सुविसता": 6893,
      "स्पष्ट": 6894,
      "स्क्रीन": 6895,
      "तुतुकुन": 6896,
      "पेरेआकान": 6897,
      "बोनोलो": 6898,
      "प्रौद्योगि": 6899,
      "प्रवीण": 6900,
      "देहरादून": 6901,
      "संसंइकिर": 6902,
      "पोटोम": 6903,
      "खाएराव": 6904,
      "सानडाका": 6905,
      "सोंड़ोएः": 6906,
      "कोनोटोङ": 6907,
      "बांग्लादेश": 6908,
      "अजमेर": 6909,
      "आडवाणी": 6910,
      "आधुनिक": 6911,
      "उड़ीसा": 6912,
      "एसोसि": 6913,
      "कमेटी": 6914,
      "गठबंधन": 6915,
      "चश्मा": 6916,
      "जर्मनी": 6917,
      "डब्ल्यू": 6918,
      "पृथ्वी": 6919,
      "बहिष्कार": 6920,
      "लड्डू": 6921,
      "शहीद": 6922,
      "नेसुकान": 6923,
      "दापारदाड़ि": 6924,
      "साक्षात्कार": 6925,
      "सिपाही": 6926,
      "सुरूद्": 6927,
      "स्मृति": 6928,
      "तुड़ुकु": 6929,
      "द्वीप": 6930,
      "जोखिम": 6931,
      "प्रशंसा": 6932,
      "सरस्वती": 6933,
      "मानवीय": 6934,
      "समबनध": 6935,
      "डुमबुइः": 6936,
      "चुनौती": 6937,
      "परंपरा": 6938,
      "ब्रॉडबैंड": 6939,
      "लैपटॉप": 6940,
      ":.": 6941,
      "ँगी": 6942,
      "ंओ": 6943,
      "ंञ": 6944,
      "ंु": 6945,
      "ंजना": 6946,
      "ंकार": 6947,
      "ंबुल": 6948,
      "ंटिक": 6949,
      "ंसिल": 6950,
      "अई": 6951,
      "अऊ": 6952,
      "अग": 6953,
      "अङ": 6954,
      "अख़": 6955,
      "अता": 6956,
      "अड़": 6957,
      "असा": 6958,
      "अमो": 6959,
      "अतु": 6960,
      "अती": 6961,
      "अम्": 6962,
      "अब्": 6963,
      "अपी": 6964,
      "अवर": 6965,
      "अंदा": 6966,
      "असां": 6967,
      "अकोवा": 6968,
      "अपूर्": 6969,
      "अणु": 6970,
      "अस्थायी": 6971,
      "अहिंसा": 6972,
      "अनोखा": 6973,
      "आओ": 6974,
      "आदो": 6975,
      "आटा": 6976,
      "आड़ि": 6977,
      "आन्": 6978,
      "आडा": 6979,
      "आल्": 6980,
      "आम्": 6981,
      "आतो": 6982,
      "आशि": 6983,
      "आराम": 6984,
      "आजादा": 6985,
      "आकुल": 6986,
      "आंग्रे": 6987,
      "आडियो": 6988,
      "आजाद": 6989,
      "आलिंग": 6990,
      "आदोः": 6991,
      "आधिकारी": 6992,
      "आदाकान": 6993,
      "आधिका": 6994,
      "इज": 6995,
      "इने": 6996,
      "इगा": 6997,
      "इचा": 6998,
      "इरू": 6999,
      "इमान": 7000,
      "इनाम": 7001,
      "इदू": 7002,
      "इमार": 7003,
      "इतू": 7004,
      "इच्": 7005,
      "इब्रा": 7006,
      "इमिनाम": 7007,
      "ईर": 7008,
      "ईतु": 7009,
      "ईश्वर": 7010,
      "उठ": 7011,
      "उजा": 7012,
      "उकि": 7013,
      "उंड": 7014,
      "उज्": 7015,
      "उपू": 7016,
      "उंट": 7017,
      "उतरा": 7018,
      "उंबुल": 7019,
      "ऊब": 7020,
      "ऋण": 7021,
      "ऋग्": 7022,
      "एञ": 7023,
      "एड": 7024,
      "एले": 7025,
      "एगा": 7026,
      "एअः": 7027,
      "एञा": 7028,
      "एड़े": 7029,
      "एपर": 7030,
      "एताङ": 7031,
      "एंडा": 7032,
      "एमाइ": 7033,
      "एग्री": 7034,
      "ऐसे": 7035,
      "ऑफ": 7036,
      "ओ‌": 7037,
      "ओगा": 7038,
      "ओजाना": 7039,
      "ओलि": 7040,
      "ओबामा": 7041,
      "औसत": 7042,
      "औद्योगि": 7043,
      "कगे": 7044,
      "कमो": 7045,
      "करु": 7046,
      "कमान": 7047,
      "ककोआः": 7048,
      "कठि": 7049,
      "ख़": 7050,
      "खजाना": 7051,
      "गड": 7052,
      "गइन": 7053,
      "गम्": 7054,
      "घन": 7055,
      "घू": 7056,
      "घे": 7057,
      "घरे": 7058,
      "घड़ि": 7059,
      "घटाव": 7060,
      "चला": 7061,
      "चतु": 7062,
      "चपि": 7063,
      "चलाओ": 7064,
      "चतोम": 7065,
      "चर्य": 7066,
      "चलित": 7067,
      "छव": 7068,
      "छह": 7069,
      "छो": 7070,
      "छड़ा": 7071,
      "छठा": 7072,
      "जौ": 7073,
      "जको": 7074,
      "ज्य": 7075,
      "जटि": 7076,
      "जहर": 7077,
      "जरोम": 7078,
      "जबल": 7079,
      "जवान": 7080,
      "जलोम": 7081,
      "झे": 7082,
      "झंडा": 7083,
      "टकाको": 7084,
      "ठं": 7085,
      "ठरी": 7086,
      "ड्रो": 7087,
      "डंडे": 7088,
      "ड्रेस": 7089,
      "ढी": 7090,
      "ढो": 7091,
      "तञ": 7092,
      "तव": 7093,
      "तस्": 7094,
      "तनु": 7095,
      "तरिका": 7096,
      "तराम": 7097,
      "तलब": 7098,
      "तलत": 7099,
      "तयों": 7100,
      "तल्ला": 7101,
      "थॉ": 7102,
      "दडी": 7103,
      "दत्ता": 7104,
      "दँडा": 7105,
      "दृष्टि": 7106,
      "धर्": 7107,
      "धरो": 7108,
      "धटना": 7109,
      "नआ": 7110,
      "नक्ष": 7111,
      "नदार": 7112,
      "नवं": 7113,
      "नंदन": 7114,
      "नशिप": 7115,
      "पस": 7116,
      "पने": 7117,
      "पड़": 7118,
      "पनि": 7119,
      "पवि": 7120,
      "पटि": 7121,
      "पब्": 7122,
      "पश्": 7123,
      "पड़ी": 7124,
      "पचरि": 7125,
      "फट": 7126,
      "फय": 7127,
      "फौ": 7128,
      "फता": 7129,
      "फरी": 7130,
      "फर्म": 7131,
      "फतवा": 7132,
      "बक": 7133,
      "बरे": 7134,
      "बका": 7135,
      "बको": 7136,
      "बहो": 7137,
      "बड़ा": 7138,
      "बन्": 7139,
      "बटि": 7140,
      "बबई": 7141,
      "ब्रो": 7142,
      "बटन": 7143,
      "बकड़ा": 7144,
      "बचाव": 7145,
      "बर्फ": 7146,
      "बृह": 7147,
      "बढ़ा": 7148,
      "भलाई": 7149,
      "भलाइ": 7150,
      "भट्ट": 7151,
      "भज्जी": 7152,
      "मब": 7153,
      "मने": 7154,
      "महो": 7155,
      "मसी": 7156,
      "मकर": 7157,
      "म्यू": 7158,
      "मचव": 7159,
      "मक्का": 7160,
      "यश": 7161,
      "योः": 7162,
      "यइंग": 7163,
      "यतन": 7164,
      "यकन": 7165,
      "यटन": 7166,
      "यर्स": 7167,
      "यज्ञ": 7168,
      "यइद": 7169,
      "रौ": 7170,
      "रना": 7171,
      "ररे": 7172,
      "रनु": 7173,
      "रकम": 7174,
      "रक्षा": 7175,
      "रबाल": 7176,
      "रक्त": 7177,
      "रपुद": 7178,
      "रकब्": 7179,
      "लई": 7180,
      "लंग": 7181,
      "लतान": 7182,
      "लतार": 7183,
      "लज्": 7184,
      "लपअः": 7185,
      "लखंड": 7186,
      "वक": 7187,
      "वरि": 7188,
      "वकन": 7189,
      "वजन": 7190,
      "वत्ता": 7191,
      "वस्तु": 7192,
      "शता": 7193,
      "शरा": 7194,
      "शनी": 7195,
      "शमी": 7196,
      "शरण": 7197,
      "षो": 7198,
      "ष्य": 7199,
      "सते": 7200,
      "सरो": 7201,
      "सरू": 7202,
      "सडो": 7203,
      "सती": 7204,
      "सज्": 7205,
      "सदान": 7206,
      "सवारी": 7207,
      "सृष्टि": 7208,
      "स्रोत": 7209,
      "हड": 7210,
      "हस": 7211,
      "हड़": 7212,
      "हबि": 7213,
      "हंगा": 7214,
      "हटि": 7215,
      "हसी": 7216,
      "हमं": 7217,
      "हकी": 7218,
      "हवन": 7219,
      "हपता": 7220,
      "हप्पा": 7221,
      "हफता": 7222,
      "़ङ": 7223,
      "़ो": 7224,
      "ाते": 7225,
      "ानिस्तान": 7226,
      "िंग": 7227,
      "ूड": 7228,
      "ूनी": 7229,
      "ेम": 7230,
      "ेगा": 7231,
      "ेएआ": 7232,
      "ैक्": 7233,
      "ैतिक": 7234,
      "ॉल": 7235,
      "ौना": 7236,
      "्ग": 7237,
      "्त": 7238,
      "्व": 7239,
      "ड़ोः": 7240,
      "ढ़ा": 7241,
      "नाल": 7242,
      "ना‌": 7243,
      "नाको": 7244,
      "नादो": 7245,
      "नाइंग": 7246,
      "नाराज": 7247,
      "नानाम": 7248,
      "नामेंट": 7249,
      "नामिनाम": 7250,
      "नार्मल": 7251,
      "रेद": 7252,
      "रेप": 7253,
      "रेे": 7254,
      "रेले": 7255,
      "रेओः": 7256,
      "रेज्": 7257,
      "रेयाय": 7258,
      "रेंद्र": 7259,
      "रेणु": 7260,
      "काई": 7261,
      "काठ": 7262,
      "काला": 7263,
      "काया": 7264,
      "कातु": 7265,
      "कापे": 7266,
      "काड़ि": 7267,
      "कानिः": 7268,
      "कासुकु": 7269,
      "कांत": 7270,
      "काँडा": 7271,
      "काइञ": 7272,
      "कोच": 7273,
      "कोत": 7274,
      "कोले": 7275,
      "कोमो": 7276,
      "कोली": 7277,
      "कोरिया": 7278,
      "ताए": 7279,
      "ताप": 7280,
      "ताब": 7281,
      "तापे": 7282,
      "ताकोआ": 7283,
      "तावास": 7284,
      "तें": 7285,
      "तेर": 7286,
      "तेना": 7287,
      "तेरे": 7288,
      "तेदा": 7289,
      "तेंग": 7290,
      "तेआद": 7291,
      "तेयार": 7292,
      "रार": 7293,
      "रामा": 7294,
      "रापु": 7295,
      "राहू": 7296,
      "रासाय": 7297,
      "राड़ेः": 7298,
      "राहत": 7299,
      "रामायण": 7300,
      "केः": 7301,
      "केक": 7302,
      "केञ": 7303,
      "केत": 7304,
      "केके": 7305,
      "केगे": 7306,
      "केदि": 7307,
      "केतु": 7308,
      "केन्द": 7309,
      "केजरी": 7310,
      "केाते": 7311,
      "नेसोमाए": 7312,
      "नेलेकान": 7313,
      "नेलेम": 7314,
      "नेनेला": 7315,
      "जाऊ": 7316,
      "जारि": 7317,
      "जालोः": 7318,
      "जाइआ": 7319,
      "जाङगि": 7320,
      "जाअना": 7321,
      "जाइः": 7322,
      "जालोःगे": 7323,
      "जारोमा": 7324,
      "जानुम": 7325,
      "बाऊ": 7326,
      "बाड़ा": 7327,
      "बाड़ा": 7328,
      "बाओआ": 7329,
      "बापू": 7330,
      "बाड़ाओ": 7331,
      "बाबरी": 7332,
      "बाकाओ": 7333,
      "ड़ोः": 7334,
      "दाड़": 7335,
      "दांगा": 7336,
      "दानाङ": 7337,
      "मेञ": 7338,
      "मेह": 7339,
      "मेताइ": 7340,
      "मेधा": 7341,
      "मेयर": 7342,
      "मेशन": 7343,
      "मेआएः": 7344,
      "मेताको": 7345,
      "मेटाओ": 7346,
      "मेडल": 7347,
      "ंगी": 7348,
      "ंगरी": 7349,
      "ंगकाल": 7350,
      "निज": 7351,
      "निट": 7352,
      "निन": 7353,
      "निरेआ": 7354,
      "निरी": 7355,
      "निश्": 7356,
      "निनिर": 7357,
      "निहाल": 7358,
      "नियुक्त": 7359,
      "निदेशक": 7360,
      "निराकान": 7361,
      "निगम": 7362,
      "निमिनाङ": 7363,
      "होपो": 7364,
      "होंडा": 7365,
      "होसडो": 7366,
      "लेड": 7367,
      "लेश": 7368,
      "लेस": 7369,
      "लेलि": 7370,
      "लेकना": 7371,
      "लेरेओ": 7372,
      "लेटर": 7373,
      "लेरेदो": 7374,
      "लेलेन": 7375,
      "लेषण": 7376,
      "लेलिआ": 7377,
      "लेट्स": 7378,
      "माञ": 7379,
      "माध": 7380,
      "माफ": 7381,
      "माते": 7382,
      "मारा": 7383,
      "माराः": 7384,
      "मालगा": 7385,
      "माफी": 7386,
      "माराओ": 7387,
      "मात्मा": 7388,
      "माधुरी": 7389,
      "गेम": 7390,
      "गेआए": 7391,
      "गेन्द": 7392,
      "गेलेआ": 7393,
      "लाग": 7394,
      "लागू": 7395,
      "यामत": 7396,
      "याचिका": 7397,
      "यार्क": 7398,
      "साओ": 7399,
      "साथ": 7400,
      "साॅ": 7401,
      "सागा": 7402,
      "सारि": 7403,
      "साजि": 7404,
      "साजु": 7405,
      "सागि": 7406,
      "सारी": 7407,
      "सामं": 7408,
      "सायना": 7409,
      "सावर": 7410,
      "सानिया": 7411,
      "साबू": 7412,
      "सानमा": 7413,
      "साड़ी": 7414,
      "सार्थ": 7415,
      "साझा": 7416,
      "साथी": 7417,
      "साजाइ": 7418,
      "साबाहिर": 7419,
      "साबित": 7420,
      "सालाएपे": 7421,
      "गाएः": 7422,
      "गालाङ": 7423,
      "गांव": 7424,
      "गाँडा": 7425,
      "रिनि": 7426,
      "रिकि": 7427,
      "रिर्": 7428,
      "रिटि": 7429,
      "रिक्ष": 7430,
      "रिम्": 7431,
      "रियन": 7432,
      "रिसिता": 7433,
      "रिपोट": 7434,
      "रिपोर्": 7435,
      "रिडींग": 7436,
      "रिसर्च": 7437,
      "तिआ": 7438,
      "तिरु": 7439,
      "तिब्": 7440,
      "दोए": 7441,
      "मिंग": 7442,
      "मिथि": 7443,
      "सेम": 7444,
      "सेगे": 7445,
      "सेसन": 7446,
      "सेनेन": 7447,
      "सेताको": 7448,
      "सेरेंग": 7449,
      "सेकुलर": 7450,
      "सेवक": 7451,
      "चिप": 7452,
      "चिलि": 7453,
      "चिनी": 7454,
      "चिनाः": 7455,
      "चित्रा": 7456,
      "चिपिको": 7457,
      "सिव": 7458,
      "सियो": 7459,
      "सिक्": 7460,
      "सिबि": 7461,
      "सिब्": 7462,
      "सिक्का": 7463,
      "सिविल": 7464,
      "सिरिसिता": 7465,
      "ोःअ": 7466,
      "ोःए": 7467,
      "बेपे": 7468,
      "बेबी": 7469,
      "बेचै": 7470,
      "कुश": 7471,
      "कुरा": 7472,
      "कुवा": 7473,
      "कुपुलि": 7474,
      "कुश्ती": 7475,
      "कुठरी": 7476,
      "पाई": 7477,
      "पात": 7478,
      "पाॅ": 7479,
      "पाला": 7480,
      "पाड़ि": 7481,
      "पाली": 7482,
      "पाटि": 7483,
      "पारोमा": 7484,
      "नेआ‌": 7485,
      "नेआदो": 7486,
      "नेआएः": 7487,
      "नेआकोते": 7488,
      "सोया": 7489,
      "सोड़ो": 7490,
      "सोज्": 7491,
      "सोकब": 7492,
      "इनिता": 7493,
      "इनिकु": 7494,
      "मेनाई": 7495,
      "मेनाकोआ": 7496,
      "वां": 7497,
      "वाको": 7498,
      "वाहा": 7499,
      "वाड़ा": 7500,
      "वाकादा": 7501,
      "वार्ड": 7502,
      "वारिक": 7503,
      "वाइस": 7504,
      "वाणि": 7505,
      "जिर": 7506,
      "जिव": 7507,
      "जिन्ना": 7508,
      "जिटल": 7509,
      "जिदेन": 7510,
      "किजा": 7511,
      "किसा": 7512,
      "किसन": 7513,
      "सुख": 7514,
      "सुग": 7515,
      "सुति": 7516,
      "सुपु": 7517,
      "सुतम": 7518,
      "सुताम": 7519,
      "सुगड़ा": 7520,
      "र्ग": 7521,
      "र्न": 7522,
      "र्व": 7523,
      "र्वे": 7524,
      "र्डिंग": 7525,
      "र्वेद": 7526,
      "स्वि": 7527,
      "स्पि": 7528,
      "स्टाइ": 7529,
      "स्पेन": 7530,
      "स्वेटर": 7531,
      "स्कृतिक": 7532,
      "मोनिका": 7533,
      "मोचोकोए": 7534,
      "हानि": 7535,
      "हारि": 7536,
      "हाती": 7537,
      "हाम्": 7538,
      "हातो": 7539,
      "हालाङ": 7540,
      "हार्ट": 7541,
      "हालय": 7542,
      "हाथी": 7543,
      "हाजिर": 7544,
      "योनि": 7545,
      "दुक": 7546,
      "दुमा": 7547,
      "दुरी": 7548,
      "दुड़ि": 7549,
      "दुसमान": 7550,
      "दिर": 7551,
      "दिता": 7552,
      "दिने": 7553,
      "दिंग": 7554,
      "दिमा": 7555,
      "दिया": 7556,
      "दिसं": 7557,
      "दिव्या": 7558,
      "दिपिल": 7559,
      "दिपिलि": 7560,
      "इनकिना": 7561,
      "इनकू": 7562,
      "मेनो": 7563,
      "मेन्": 7564,
      "मेनजादा": 7565,
      "मेनजाद": 7566,
      "पुत": 7567,
      "पुचि": 7568,
      "पुनू": 7569,
      "चाए": 7570,
      "चाप": 7571,
      "चाबी": 7572,
      "चाङगा": 7573,
      "चांदी": 7574,
      "चांडाङ": 7575,
      "राःओ": 7576,
      "टाल": 7577,
      "टाॅ": 7578,
      "होबाताना": 7579,
      "होबाजना": 7580,
      "होबाजानरे": 7581,
      "लिस्": 7582,
      "लिगु": 7583,
      "लिनी": 7584,
      "लिफ्ट": 7585,
      "लिजअः": 7586,
      "लिखाव": 7587,
      "लिसट": 7588,
      "ताइकेना‌": 7589,
      "गोद": 7590,
      "गोता": 7591,
      "गोजा": 7592,
      "गोला": 7593,
      "गोलि": 7594,
      "गोज्": 7595,
      "गोजोगा": 7596,
      "गोहोम": 7597,
      "बुक": 7598,
      "बुश": 7599,
      "बुला": 7600,
      "बुगी": 7601,
      "बुज्": 7602,
      "बुआएः": 7603,
      "बुनिया": 7604,
      "लोओ": 7605,
      "लोत": 7606,
      "लोरी": 7607,
      "लोटोः": 7608,
      "हिलाङ": 7609,
      "नों": 7610,
      "नोगा": 7611,
      "नोकसान": 7612,
      "नोटिस": 7613,
      "रोंग": 7614,
      "रोओड़": 7615,
      "रोजगार": 7616,
      "रोचक": 7617,
      "तुन": 7618,
      "तुरा": 7619,
      "तुनु": 7620,
      "तुयु": 7621,
      "तुङाते": 7622,
      "तानरे": 7623,
      "लेकाओ": 7624,
      "लेकाना": 7625,
      "लेकाइंग": 7626,
      "द्द": 7627,
      "द्वि": 7628,
      "द्वार": 7629,
      "द्विवे": 7630,
      "विज": 7631,
      "विद": 7632,
      "विध": 7633,
      "विंग": 7634,
      "विला": 7635,
      "विपण": 7636,
      "क्य": 7637,
      "क्ले": 7638,
      "क्लो": 7639,
      "क्टो": 7640,
      "क्यू": 7641,
      "क्लास": 7642,
      "पेड़ा": 7643,
      "पेक्ष": 7644,
      "पेयी": 7645,
      "पेटेंट": 7646,
      "पेरिस": 7647,
      "नुस": 7648,
      "रिकान": 7649,
      "रिकारे": 7650,
      "रिकाको": 7651,
      "रिकाला": 7652,
      "रिकाकान": 7653,
      "रिकाओआ": 7654,
      "रिकातादा": 7655,
      "रिकालाः": 7656,
      "रिकातानको": 7657,
      "रिकायाको": 7658,
      "जुम": 7659,
      "जुदा": 7660,
      "जुंडि": 7661,
      "जोअर": 7662,
      "जोमेआ": 7663,
      "जीरा": 7664,
      "जीपी": 7665,
      "जीआई": 7666,
      "जीदेन": 7667,
      "एनकन": 7668,
      "इनिःते": 7669,
      "इनिःदो": 7670,
      "इनिःलोओः": 7671,
      "टेक्स": 7672,
      "टेक्टर": 7673,
      "टेम्प": 7674,
      "टेनिस": 7675,
      "टेम्पु": 7676,
      "बिंग": 7677,
      "बिइंग": 7678,
      "बियू": 7679,
      "बिकनी": 7680,
      "रेनकोआः": 7681,
      "गिम": 7682,
      "गिरी": 7683,
      "गिकी": 7684,
      "मुम": 7685,
      "मुटा": 7686,
      "मुगु": 7687,
      "मुश्": 7688,
      "मुंडा": 7689,
      "मुइः": 7690,
      "मुंडी": 7691,
      "मुसिंङ": 7692,
      "आतेओ": 7693,
      "रीको": 7694,
      "रीती": 7695,
      "हुनि": 7696,
      "हुमा": 7697,
      "ड़ित": 7698,
      "ड़िते": 7699,
      "तना‌": 7700,
      "तनाले": 7701,
      "रूवा": 7702,
      "रूनु": 7703,
      "रूड़ा": 7704,
      "मेनाःमा": 7705,
      "मेनाःगेआ": 7706,
      "बोद": 7707,
      "बोस": 7708,
      "बोदो": 7709,
      "बोदे": 7710,
      "बोडा": 7711,
      "बोली": 7712,
      "बोकोते": 7713,
      "बोधन": 7714,
      "तनअ": 7715,
      "तनकु": 7716,
      "तनब्": 7717,
      "तनगेआ": 7718,
      "प्रया": 7719,
      "प्रयो": 7720,
      "प्रज्ञा": 7721,
      "प्रलय": 7722,
      "प्रगति": 7723,
      "प्रशास": 7724,
      "प्रैक्": 7725,
      "एनाः": 7726,
      "एनालोःगे": 7727,
      "न्न": 7728,
      "न्दो": 7729,
      "न्दे": 7730,
      "न्नी": 7731,
      "न्दिन": 7732,
      "कोआम": 7733,
      "कानता": 7734,
      "कानूनी": 7735,
      "देष": 7736,
      "देसी": 7737,
      "देपेड़े": 7738,
      "देसाबाहिर": 7739,
      "भागी": 7740,
      "भाजापा": 7741,
      "भाइर": 7742,
      "भास्कर": 7743,
      "डिज्": 7744,
      "डिवाइस": 7745,
      "डिजिटल": 7746,
      "गुं": 7747,
      "गुड़": 7748,
      "गुंडा": 7749,
      "गुनान": 7750,
      "गुलम": 7751,
      "गुप्ता": 7752,
      "कनय": 7753,
      "हिजुलेना": 7754,
      "गरंङ": 7755,
      "कानाञ": 7756,
      "बाइरे": 7757,
      "बाइले": 7758,
      "बाइतान": 7759,
      "बाइपे": 7760,
      "बाइरी": 7761,
      "बाइकोआ": 7762,
      "बाइओआ": 7763,
      "बाइजानाएः": 7764,
      "बाइओःताना": 7765,
      "बाइकोःआते": 7766,
      "बाइआकन": 7767,
      "बाइकेनिः": 7768,
      "डाकू": 7769,
      "लेलते": 7770,
      "लेलनाम": 7771,
      "लेलकिःआ": 7772,
      "लेललेम": 7773,
      "लेलबेडा": 7774,
      "लेलरुम": 7775,
      "आदत": 7776,
      "आदर्श": 7777,
      "नीम": 7778,
      "नील": 7779,
      "नीआः": 7780,
      "जेद": 7781,
      "जेतानाः": 7782,
      "जेतनअः": 7783,
      "आरडी": 7784,
      "आरगाएः": 7785,
      "नेयाएते": 7786,
      "सेनकेन": 7787,
      "सेनकोःआते": 7788,
      "डोआ": 7789,
      "डोमेन": 7790,
      "डोंगा": 7791,
      "डोडो": 7792,
      "लील": 7793,
      "तइजा": 7794,
      "तइकेन": 7795,
      "तीः": 7796,
      "तीर्थ": 7797,
      "होड़ोएः": 7798,
      "टिम": 7799,
      "टिव": 7800,
      "टिसन": 7801,
      "टिक्स": 7802,
      "टिप्प": 7803,
      "कारक": 7804,
      "कारको": 7805,
      "कजितन": 7806,
      "गारका": 7807,
      "पिं": 7808,
      "पिक": 7809,
      "पिन": 7810,
      "पिचा": 7811,
      "पिटी": 7812,
      "पिलीम": 7813,
      "पिछड़ा": 7814,
      "टोना": 7815,
      "टोगाकाना": 7816,
      "ल्ट": 7817,
      "त्तर": 7818,
      "युवा": 7819,
      "रुल": 7820,
      "मीण": 7821,
      "मीन": 7822,
      "मीटिंग": 7823,
      "संता": 7824,
      "संपा": 7825,
      "संदेश": 7826,
      "संधान": 7827,
      "संवाद": 7828,
      "संकट": 7829,
      "संक्रांति": 7830,
      "संपत्ति": 7831,
      "संपर्क": 7832,
      "संख्य": 7833,
      "संतोष": 7834,
      "संकेत": 7835,
      "टीक": 7836,
      "टीन": 7837,
      "टीसी": 7838,
      "टीटी": 7839,
      "सिदागे": 7840,
      "सिदारेन": 7841,
      "सिदाउतर": 7842,
      "जानय": 7843,
      "जानतेआ": 7844,
      "कामिः": 7845,
      "कामिताना": 7846,
      "कामिआएः": 7847,
      "होड़ोगे": 7848,
      "क्षी": 7849,
      "क्षरता": 7850,
      "म्म": 7851,
      "म्बे": 7852,
      "ब्दी": 7853,
      "ब्सन": 7854,
      "ब्बारा": 7855,
      "बेसेको": 7856,
      "अरजी": 7857,
      "अरबी": 7858,
      "अरखी": 7859,
      "अरविन्द": 7860,
      "काजिकेदाए": 7861,
      "काजिलेन": 7862,
      "काजिरुड़ा": 7863,
      "काजिलेरे": 7864,
      "काजिःमे": 7865,
      "पोक": 7866,
      "पोला": 7867,
      "पोचो": 7868,
      "पोरेट": 7869,
      "लोःतान": 7870,
      "जनको": 7871,
      "जनती": 7872,
      "जनसत्ता": 7873,
      "जनरल": 7874,
      "होनकोआ": 7875,
      "होनकुड़ि": 7876,
      "नेकाको": 7877,
      "तोंतर": 7878,
      "दीमा": 7879,
      "दीक्षा": 7880,
      "दीपिका": 7881,
      "इनकुगे": 7882,
      "इनकुवा": 7883,
      "धाम": 7884,
      "धारी": 7885,
      "सरतेगे": 7886,
      "आएगा": 7887,
      "ताइनाको": 7888,
      "चेन": 7889,
      "आपाना": 7890,
      "एटेग": 7891,
      "एटेगोः": 7892,
      "एटेगाकाना": 7893,
      "कमिरे": 7894,
      "मंङ": 7895,
      "मंड़ि": 7896,
      "मंजिल": 7897,
      "कनाइंग": 7898,
      "रेगेआ": 7899,
      "रेगेको": 7900,
      "ताइनरा": 7901,
      "ताइनमे": 7902,
      "हेके": 7903,
      "हेलो": 7904,
      "हेडेम": 7905,
      "अइंगो": 7906,
      "पीसी": 7907,
      "पीपली": 7908,
      "ओमतान": 7909,
      "ओमकेदाएः": 7910,
      "ओमतादा": 7911,
      "ओमलाःए": 7912,
      "शार": 7913,
      "शाखा": 7914,
      "शायद": 7915,
      "शाहिद": 7916,
      "होराएः": 7917,
      "केदय": 7918,
      "तइनोःआ": 7919,
      "वेश": 7920,
      "वेल्": 7921,
      "सनम": 7922,
      "सनंगा": 7923,
      "सनब्": 7924,
      "एआङ": 7925,
      "राजमार्ग": 7926,
      "जागारगे": 7927,
      "जागाररुड़ा": 7928,
      "बरहिसि": 7929,
      "हिजुःतना": 7930,
      "हिजुःआकाना": 7931,
      "हिजुःलेनाएः": 7932,
      "प्ति": 7933,
      "प्सी": 7934,
      "प्राइज": 7935,
      "प्लग": 7936,
      "शित": 7937,
      "शिवानी": 7938,
      "बइआ": 7939,
      "बइए": 7940,
      "बइयो": 7941,
      "बइरिका": 7942,
      "बइआकन": 7943,
      "नामतादा": 7944,
      "नामलाः": 7945,
      "नामजाद": 7946,
      "नामोःताना": 7947,
      "नामजानरे": 7948,
      "इतुको": 7949,
      "इतुजाना": 7950,
      "ष्टि": 7951,
      "ष्ठी": 7952,
      "कोरेयो": 7953,
      "समस": 7954,
      "समड़व": 7955,
      "दाड़िया": 7956,
      "दाड़ितान": 7957,
      "दाड़िआञ": 7958,
      "उदुर": 7959,
      "तइकेनाइंग": 7960,
      "आलेआ": 7961,
      "आलेओ": 7962,
      "आलेताःरे": 7963,
      "गेआएः": 7964,
      "आउमे": 7965,
      "आउकेदाएः": 7966,
      "आउएआको": 7967,
      "चिलकाम": 7968,
      "बीस": 7969,
      "बीपी": 7970,
      "बीएस": 7971,
      "बीमारी": 7972,
      "बीकाने": 7973,
      "बीबीसी": 7974,
      "माजाए": 7975,
      "श्न": 7976,
      "श्ले": 7977,
      "श्वर्": 7978,
      "पुराःको": 7979,
      "पुराःतेआ": 7980,
      "कीया": 7981,
      "सिङसोंड़ोएः": 7982,
      "सोमाएगे": 7983,
      "फिक": 7984,
      "सुकुया": 7985,
      "सुकुजाना": 7986,
      "सुकुआञ": 7987,
      "सुकुएआ": 7988,
      "मियदो": 7989,
      "पुराण": 7990,
      "पुरागे": 7991,
      "पुराएः": 7992,
      "पुराओः": 7993,
      "फाव": 7994,
      "फाॅ": 7995,
      "फारका": 7996,
      "बुगिलेका": 7997,
      "थान": 7998,
      "ज्या": 7999
    },
    "merges": [
      [
        "न",
        "ा"
      ],
      [
        "र",
        "े"
      ],
      [
        "क",
        "ा"
      ],
      [
        "क",
        "ो"
      ],
      [
        "त",
        "ा"
      ],
      [
        "त",
        "े"
      ],
      [
        "र",
        "ा"
      ],
      [
        "क",
        "े"
      ],
      [
        "न",
        "े"
      ],
      [
        "ज",
        "ा"
      ],
      [
        "ब",
        "ा"
      ],
      [
        "ड",
        "़"
      ],
      [
        "द",
        "ा"
      ],
      [
        "म",
        "े"
      ],
      [
        "ं",
        "ग"
      ],
      [
        "न",
        "ि"
      ],
      [
        "ह",
        "ो"
      ],
      [
        "ल",
        "े"
      ],
      [
        "म",
        "ा"
      ],
      [
        "ग",
        "े"
      ],
      [
        "ल",
        "ा"
      ],
      [
        "य",
        "ा"
      ],
      [
        "स",
        "ा"
      ],
      [
        "ग",
        "ा"
      ],
      [
        "र",
        "ि"
      ],
      [
        "त",
        "ि"
      ],
      [
        "द",
        "ो"
      ],
      [
        "म",
        "ि"
      ],
      [
        "स",
        "े"
      ],
      [
        "आ",
        "ः"
      ],
      [
        "च",
        "ि"
      ],
      [
        "स",
        "ि"
      ],
      [
        "अ",
        "ः"
      ],
      [
        "ो",
        "ः"
      ],
      [
        "ब",
        "े"
      ],
      [
        "क",
        "ु"
      ],
      [
        "्",
        "र"
      ],
      [
        "प",
        "ा"
      ],
      [
        "ता",
        "इ"
      ],
      [
        "ने",
        "आ"
      ],
      [
        "स",
        "ो"
      ],
      [
        "इ",
        "नि"
      ],
      [
        "के",
        "ना"
      ],
      [
        "मे",
        "ना"
      ],
      [
        "व",
        "ा"
      ],
      [
        "ज",
        "ि"
      ],
      [
        "क",
        "ि"
      ],
      [
        "स",
        "ु"
      ],
      [
        "र",
        "्"
      ],
      [
        "जा",
        "ना"
      ],
      [
        "स",
        "्"
      ],
      [
        "ए",
        "ः"
      ],
      [
        "म",
        "ो"
      ],
      [
        "ह",
        "ा"
      ],
      [
        "य",
        "ो"
      ],
      [
        "द",
        "ु"
      ],
      [
        "के",
        "दा"
      ],
      [
        "द",
        "ि"
      ],
      [
        "इ",
        "न"
      ],
      [
        "मे",
        "न"
      ],
      [
        "प",
        "ु"
      ],
      [
        "च",
        "ा"
      ],
      [
        "रा",
        "ः"
      ],
      [
        "ट",
        "ा"
      ],
      [
        "हो",
        "बा"
      ],
      [
        "ल",
        "ि"
      ],
      [
        "ताइ",
        "केना"
      ],
      [
        "ग",
        "ो"
      ],
      [
        "ड़",
        "ा"
      ],
      [
        "ब",
        "ु"
      ],
      [
        "ल",
        "ो"
      ],
      [
        "ह",
        "ि"
      ],
      [
        "न",
        "ो"
      ],
      [
        "ड़",
        "ो"
      ],
      [
        "र",
        "ो"
      ],
      [
        "त",
        "ु"
      ],
      [
        "ता",
        "न"
      ],
      [
        "ता",
        "ना"
      ],
      [
        "ले",
        "का"
      ],
      [
        "द",
        "्"
      ],
      [
        "व",
        "ि"
      ],
      [
        "आ",
        "ञ"
      ],
      [
        "क",
        "्"
      ],
      [
        "प",
        "े"
      ],
      [
        "न",
        "ु"
      ],
      [
        "रि",
        "का"
      ],
      [
        "र",
        "आः"
      ],
      [
        "ज",
        "ु"
      ],
      [
        "ज",
        "ो"
      ],
      [
        "सो",
        "बे"
      ],
      [
        "ज",
        "ी"
      ],
      [
        "ड़",
        "ा"
      ],
      [
        "ड़",
        "ि"
      ],
      [
        "ए",
        "न"
      ],
      [
        "इनि",
        "ः"
      ],
      [
        "रे",
        "आ"
      ],
      [
        "ट",
        "े"
      ],
      [
        "ब",
        "ि"
      ],
      [
        "रे",
        "न"
      ],
      [
        "ग",
        "ि"
      ],
      [
        "सोबे",
        "न"
      ],
      [
        "म",
        "ु"
      ],
      [
        "ओ",
        "ः"
      ],
      [
        "आ",
        "ते"
      ],
      [
        "र",
        "ी"
      ],
      [
        "ह",
        "ु"
      ],
      [
        "ड़",
        "ि"
      ],
      [
        "ज",
        "ना"
      ],
      [
        "इ",
        "ंग"
      ],
      [
        "त",
        "ना"
      ],
      [
        "र",
        "ू"
      ],
      [
        "मेना",
        "ः"
      ],
      [
        "ब",
        "ो"
      ],
      [
        "त",
        "न"
      ],
      [
        "प",
        "्र"
      ],
      [
        "ए",
        "ना"
      ],
      [
        "न",
        "्"
      ],
      [
        "को",
        "आ"
      ],
      [
        "का",
        "न"
      ],
      [
        "द",
        "े"
      ],
      [
        "भ",
        "ा"
      ],
      [
        "ड",
        "ि"
      ],
      [
        "ग",
        "ु"
      ],
      [
        "क",
        "न"
      ],
      [
        "ओ",
        "ड़"
      ],
      [
        "हि",
        "जु"
      ],
      [
        "ंग",
        "ा"
      ],
      [
        "ग",
        "र"
      ],
      [
        ":",
        "।"
      ],
      [
        "का",
        "ना"
      ],
      [
        "रे",
        "अः"
      ],
      [
        "ओ",
        "ड़ो"
      ],
      [
        "बा",
        "इ"
      ],
      [
        "मेन",
        "ते"
      ],
      [
        "ड",
        "ा"
      ],
      [
        "ले",
        "ल"
      ],
      [
        "आ",
        "द"
      ],
      [
        "न",
        "ी"
      ],
      [
        "ड़",
        "ु"
      ],
      [
        "ज",
        "े"
      ],
      [
        "के",
        "आते"
      ],
      [
        "आ",
        "र"
      ],
      [
        "ने",
        "या"
      ],
      [
        "्",
        "य"
      ],
      [
        "से",
        "न"
      ],
      [
        "ड",
        "ो"
      ],
      [
        "ल",
        "ी"
      ],
      [
        "त",
        "इ"
      ],
      [
        "मेन",
        "दो"
      ],
      [
        "त",
        "ी"
      ],
      [
        "हो",
        "ड़ो"
      ],
      [
        "ओड़",
        "ोः"
      ],
      [
        "ट",
        "ि"
      ],
      [
        "का",
        "र"
      ],
      [
        "मि",
        "आद"
      ],
      [
        "क",
        "जि"
      ],
      [
        "गा",
        "र"
      ],
      [
        "प",
        "ि"
      ],
      [
        "ड़",
        "ो"
      ],
      [
        "ट",
        "ो"
      ],
      [
        "ल",
        "्"
      ],
      [
        "त",
        "्"
      ],
      [
        "य",
        "ु"
      ],
      [
        "र",
        "ु"
      ],
      [
        "म",
        "ी"
      ],
      [
        "स",
        "ं"
      ],
      [
        "यो",
        "म"
      ],
      [
        "स",
        "ी"
      ],
      [
        "कि",
        "न"
      ],
      [
        "त",
        "्र"
      ],
      [
        "ओ",
        "आ"
      ],
      [
        "ट",
        "ी"
      ],
      [
        "ता",
        "ः"
      ],
      [
        "सि",
        "दा"
      ],
      [
        "जा",
        "न"
      ],
      [
        "का",
        "मि"
      ],
      [
        "हो",
        "ड़ो"
      ],
      [
        "ओ",
        "को"
      ],
      [
        "ना",
        "ति"
      ],
      [
        "क्",
        "ष"
      ],
      [
        "म",
        "्"
      ],
      [
        "ब",
        "्"
      ],
      [
        "बे",
        "से"
      ],
      [
        "अ",
        "र"
      ],
      [
        "का",
        "जि"
      ],
      [
        "प",
        "ो"
      ],
      [
        "ल",
        "ोः"
      ],
      [
        "ज",
        "न"
      ],
      [
        "हो",
        "न"
      ],
      [
        "ने",
        "का"
      ],
      [
        "त",
        "ो"
      ],
      [
        "ले",
        "ना"
      ],
      [
        "द",
        "ी"
      ],
      [
        "इन",
        "कु"
      ],
      [
        "ध",
        "ा"
      ],
      [
        "स",
        "र"
      ],
      [
        "गे",
        "न"
      ],
      [
        "अ",
        "म"
      ],
      [
        "ं",
        "ड"
      ],
      [
        "आ",
        "ए"
      ],
      [
        "आ",
        "म"
      ],
      [
        "ना",
        "ः"
      ],
      [
        "ग",
        "ी"
      ],
      [
        "ए",
        "टा"
      ],
      [
        "ताइ",
        "ना"
      ],
      [
        "च",
        "े"
      ],
      [
        "नि",
        "ः"
      ],
      [
        "आ",
        "पा"
      ],
      [
        "ए",
        "टे"
      ],
      [
        "क",
        "मि"
      ],
      [
        "म",
        "ं"
      ],
      [
        "ला",
        "गा"
      ],
      [
        "क",
        "ना"
      ],
      [
        "उ",
        "ड़ु"
      ],
      [
        "रे",
        "गे"
      ],
      [
        "इ",
        "सु"
      ],
      [
        "ङ",
        "ा"
      ],
      [
        "मा",
        "न"
      ],
      [
        "आपा",
        "न"
      ],
      [
        "त",
        "र"
      ],
      [
        "ताइ",
        "न"
      ],
      [
        "ह",
        "े"
      ],
      [
        "अ",
        "इंग"
      ],
      [
        "प",
        "ी"
      ],
      [
        "ओ",
        "म"
      ],
      [
        "श",
        "ा"
      ],
      [
        "हो",
        "रा"
      ],
      [
        "ज",
        "गर"
      ],
      [
        "रे",
        "ओ"
      ],
      [
        "रा",
        "ङ"
      ],
      [
        "को",
        "आः"
      ],
      [
        "के",
        "द"
      ],
      [
        "ंग",
        "ि"
      ],
      [
        "त",
        "इन"
      ],
      [
        "व",
        "े"
      ],
      [
        "स",
        "न"
      ],
      [
        "ए",
        "आ"
      ],
      [
        "रा",
        "ज"
      ],
      [
        "जा",
        "गार"
      ],
      [
        "ड़",
        "ु"
      ],
      [
        "र",
        "अ"
      ],
      [
        "ब",
        "र"
      ],
      [
        "हिजु",
        "ः"
      ],
      [
        "प",
        "्"
      ],
      [
        "श",
        "ि"
      ],
      [
        "ब",
        "इ"
      ],
      [
        "ना",
        "म"
      ],
      [
        "इ",
        "तु"
      ],
      [
        "ओ",
        "डो"
      ],
      [
        "ट",
        "ु"
      ],
      [
        "आञ",
        "ा"
      ],
      [
        "ष",
        "्"
      ],
      [
        "को",
        "रे"
      ],
      [
        "स",
        "म"
      ],
      [
        "इनि",
        "आः"
      ],
      [
        "दा",
        "ड़ि"
      ],
      [
        "उ",
        "दु"
      ],
      [
        "ता",
        "योम"
      ],
      [
        "ल",
        "का"
      ],
      [
        "तइ",
        "केना"
      ],
      [
        "ट",
        "र"
      ],
      [
        "सु",
        "म"
      ],
      [
        "आ",
        "ले"
      ],
      [
        "गे",
        "आ"
      ],
      [
        "दि",
        "सुम"
      ],
      [
        "आ",
        "उ"
      ],
      [
        "भा",
        "र"
      ],
      [
        "ते",
        "गे"
      ],
      [
        "ख",
        "ा"
      ],
      [
        "चि",
        "लका"
      ],
      [
        "च",
        "ी"
      ],
      [
        "ब",
        "ी"
      ],
      [
        "पु",
        "र"
      ],
      [
        "क",
        "र"
      ],
      [
        "मा",
        "जा"
      ],
      [
        "श",
        "्"
      ],
      [
        "ड़",
        "े"
      ],
      [
        "सो",
        "मा"
      ],
      [
        "ता",
        "र"
      ],
      [
        "लागा",
        "ति"
      ],
      [
        "पु",
        "राः"
      ],
      [
        "क",
        "ी"
      ],
      [
        "र",
        "ंग"
      ],
      [
        "सि",
        "ङ"
      ],
      [
        "तइ",
        "ना"
      ],
      [
        "होड़ो",
        "को"
      ],
      [
        "सोमा",
        "ए"
      ],
      [
        "फ",
        "ि"
      ],
      [
        "सु",
        "कु"
      ],
      [
        "मि",
        "य"
      ],
      [
        "नाति",
        "न"
      ],
      [
        "पु",
        "रा"
      ],
      [
        "फ",
        "ा"
      ],
      [
        "बु",
        "गि"
      ],
      [
        "ञ",
        "ा"
      ],
      [
        "थ",
        "ा"
      ],
      [
        "य",
        "र"
      ],
      [
        "बा",
        "न"
      ],
      [
        "ज",
        "्"
      ],
      [
        "व",
        "ी"
      ],
      [
        "ओ",
        "ड़ा"
      ],
      [
        "ने",
        "ता"
      ],
      [
        "्",
        "रे"
      ],
      [
        "सा",
        "ना"
      ],
      [
        "आ",
        "न"
      ],
      [
        "ड़",
        "ी"
      ],
      [
        "के",
        "द्"
      ],
      [
        "सि",
        "र"
      ],
      [
        "सि",
        "का"
      ],
      [
        "आ",
        "मा"
      ],
      [
        "न",
        "म"
      ],
      [
        "ओ",
        "ड़"
      ],
      [
        "ड़",
        "े"
      ],
      [
        "जो",
        "गा"
      ],
      [
        "इ",
        "दि"
      ],
      [
        "ओः",
        "आ"
      ],
      [
        "ध",
        "ि"
      ],
      [
        "न",
        "गा"
      ],
      [
        "ंग",
        "े"
      ],
      [
        "गो",
        "नो"
      ],
      [
        "ताना",
        "ः"
      ],
      [
        "ह",
        "र"
      ],
      [
        "सेन",
        "ोः"
      ],
      [
        "आ",
        "ं"
      ],
      [
        "्र",
        "ी"
      ],
      [
        "जा",
        "ं"
      ],
      [
        "न",
        "अः"
      ],
      [
        "तु",
        "म"
      ],
      [
        "ं",
        "द"
      ],
      [
        "न",
        "गेन"
      ],
      [
        "गो",
        "टा"
      ],
      [
        "ओड़",
        "ोः"
      ],
      [
        "ड",
        "ु"
      ],
      [
        "ओ",
        "ल"
      ],
      [
        "भार",
        "त"
      ],
      [
        "ड",
        "ी"
      ],
      [
        "का",
        "एः"
      ],
      [
        "का",
        "ए"
      ],
      [
        "सा",
        "र"
      ],
      [
        "मो",
        "यो"
      ],
      [
        "हु",
        "ड़ि"
      ],
      [
        "आ",
        "या"
      ],
      [
        "च",
        "ु"
      ],
      [
        "इ",
        "ं"
      ],
      [
        "रो",
        "म"
      ],
      [
        "सिर",
        "मा"
      ],
      [
        "ल",
        "ु"
      ],
      [
        "चि",
        "म"
      ],
      [
        "स्",
        "ट"
      ],
      [
        "केदा",
        "ए"
      ],
      [
        "उ",
        "नु"
      ],
      [
        "रे",
        "दो"
      ],
      [
        "दा",
        "ड़ि"
      ],
      [
        "केदा",
        "एः"
      ],
      [
        "लागाति",
        "ङा"
      ],
      [
        "बि",
        "नगा"
      ],
      [
        "ल",
        "गा"
      ],
      [
        "पु",
        "लि"
      ],
      [
        "प",
        "ू"
      ],
      [
        "ता",
        "दा"
      ],
      [
        "ड",
        "े"
      ],
      [
        "ति",
        "ंग"
      ],
      [
        "चे",
        "तान"
      ],
      [
        "को",
        "म"
      ],
      [
        "श",
        "न"
      ],
      [
        "बा",
        "र"
      ],
      [
        "त्र",
        "ी"
      ],
      [
        "ओको",
        "ए"
      ],
      [
        "आ",
        "काना"
      ],
      [
        "ख",
        "ि"
      ],
      [
        "म",
        "ला"
      ],
      [
        "ना",
        "गेन"
      ],
      [
        "का",
        "को"
      ],
      [
        "आञा",
        "ः"
      ],
      [
        "मि",
        "न"
      ],
      [
        "ए",
        "स"
      ],
      [
        "ख",
        "ो"
      ],
      [
        "सि",
        "ंग"
      ],
      [
        "से",
        "नो"
      ],
      [
        "एटे",
        "ः"
      ],
      [
        "सा",
        "ः"
      ],
      [
        "पुलि",
        "स"
      ],
      [
        "इ",
        "म"
      ],
      [
        "से",
        "सेन"
      ],
      [
        "को",
        "अः"
      ],
      [
        "इन",
        "ी"
      ],
      [
        "मेन",
        "अः"
      ],
      [
        "उ",
        "ड़ु"
      ],
      [
        "रि",
        "या"
      ],
      [
        "चा",
        "र"
      ],
      [
        "नु",
        "तुम"
      ],
      [
        "फ",
        "ो"
      ],
      [
        "य",
        "ना"
      ],
      [
        "प",
        "र"
      ],
      [
        "ब",
        "ै"
      ],
      [
        "कि",
        "ना"
      ],
      [
        "ला",
        "ः"
      ],
      [
        "जा",
        "केद"
      ],
      [
        "होबा",
        "ओआ"
      ],
      [
        "यु",
        "म"
      ],
      [
        "च",
        "ो"
      ],
      [
        "द",
        "ड़ि"
      ],
      [
        "रा",
        "म"
      ],
      [
        "ला",
        "ए"
      ],
      [
        "आ",
        "एः"
      ],
      [
        "आ",
        "इंग"
      ],
      [
        "ट",
        "्"
      ],
      [
        "मोयो",
        "द"
      ],
      [
        "स",
        "मा"
      ],
      [
        "ह",
        "ी"
      ],
      [
        "ति",
        "सिङ"
      ],
      [
        "बो",
        "रो"
      ],
      [
        "जा",
        "दा"
      ],
      [
        "उदु",
        "ब"
      ],
      [
        "इ",
        "आ"
      ],
      [
        "व",
        "र"
      ],
      [
        "से",
        "ं"
      ],
      [
        "आमा",
        "ः"
      ],
      [
        "ओ",
        "कोआ"
      ],
      [
        "त",
        "योम"
      ],
      [
        "ते",
        "बा"
      ],
      [
        "बा",
        "रा"
      ],
      [
        "नि",
        "या"
      ],
      [
        "हा",
        "रा"
      ],
      [
        "इन",
        "ु"
      ],
      [
        "लेका",
        "ते"
      ],
      [
        "अ",
        "बु"
      ],
      [
        "कु",
        "ड़ि"
      ],
      [
        "चा",
        "नाः"
      ],
      [
        "जो",
        "म"
      ],
      [
        "एटा",
        "ः"
      ],
      [
        "अ",
        "प"
      ],
      [
        "का",
        "री"
      ],
      [
        "मा",
        "राङ"
      ],
      [
        "बुगि",
        "न"
      ],
      [
        "आ",
        "कान"
      ],
      [
        "क",
        "म"
      ],
      [
        "क",
        "ू"
      ],
      [
        "बान",
        "ोः"
      ],
      [
        "ं",
        "दा"
      ],
      [
        "ठ",
        "ा"
      ],
      [
        "त",
        "अः"
      ],
      [
        "न",
        "वा"
      ],
      [
        "दे",
        "श"
      ],
      [
        "दे",
        "ंगा"
      ],
      [
        "होन",
        "को"
      ],
      [
        "श",
        "ु"
      ],
      [
        "ला",
        "ङ"
      ],
      [
        "ओ",
        "नो"
      ],
      [
        "ने",
        "ताः"
      ],
      [
        "ने",
        "ल"
      ],
      [
        "हु",
        "ड़ि"
      ],
      [
        "आ",
        "ना"
      ],
      [
        "थ",
        "ि"
      ],
      [
        "य",
        "ू"
      ],
      [
        "मो",
        "ने"
      ],
      [
        "डि",
        "या"
      ],
      [
        "ङ",
        "गि"
      ],
      [
        "स",
        "रा"
      ],
      [
        "ब",
        "द"
      ],
      [
        "ब",
        "ल"
      ],
      [
        "बा",
        "रि"
      ],
      [
        "कु",
        "ल"
      ],
      [
        "वा",
        "र"
      ],
      [
        "साना",
        "ङ"
      ],
      [
        "क",
        "ृ"
      ],
      [
        "प",
        "ं"
      ],
      [
        "हा",
        "तु"
      ],
      [
        "ज",
        "पा"
      ],
      [
        "प",
        "रि"
      ],
      [
        "मं",
        "त्री"
      ],
      [
        "अ",
        "ले"
      ],
      [
        "्",
        "या"
      ],
      [
        "ना",
        "वा"
      ],
      [
        "ंग",
        "्रे"
      ],
      [
        "सि",
        "ं"
      ],
      [
        "ड़ा",
        "ओ"
      ],
      [
        "ओ",
        "मा"
      ],
      [
        "का",
        "म"
      ],
      [
        "च",
        "ना"
      ],
      [
        "ला",
        "ई"
      ],
      [
        "मो",
        "य"
      ],
      [
        "दि",
        "न"
      ],
      [
        "ना",
        "आः"
      ],
      [
        "मे",
        "द"
      ],
      [
        "हो",
        "डो"
      ],
      [
        "र्",
        "ट"
      ],
      [
        "लेका",
        "न"
      ],
      [
        "टो",
        "ओ"
      ],
      [
        "सम",
        "य"
      ],
      [
        "ण",
        "ा"
      ],
      [
        "म",
        "ू"
      ],
      [
        "कि",
        "ः"
      ],
      [
        "जाना",
        "एः"
      ],
      [
        "स्",
        "था"
      ],
      [
        "तायोम",
        "ते"
      ],
      [
        "आ",
        "को"
      ],
      [
        "मा",
        "मला"
      ],
      [
        "तान",
        "को"
      ],
      [
        "होड़ो",
        "को"
      ],
      [
        "सर",
        "कार"
      ],
      [
        "क",
        "ला"
      ],
      [
        "ब",
        "ं"
      ],
      [
        "व",
        "र्"
      ],
      [
        "सा",
        "इ"
      ],
      [
        "दु",
        "कु"
      ],
      [
        "ठ",
        "ो"
      ],
      [
        "म",
        "जा"
      ],
      [
        "श",
        "ी"
      ],
      [
        "न्",
        "द"
      ],
      [
        "उड़ु",
        "ः"
      ],
      [
        "ं",
        "क"
      ],
      [
        "ब",
        "ू"
      ],
      [
        "ोः",
        "आ"
      ],
      [
        "कु",
        "लि"
      ],
      [
        "यो",
        "ग"
      ],
      [
        "हु",
        "ल"
      ],
      [
        "तो",
        "बे"
      ],
      [
        "मिय",
        "द"
      ],
      [
        "हुड़ि",
        "ङ"
      ],
      [
        "क",
        "दा"
      ],
      [
        "मा",
        "नाति"
      ],
      [
        "कि",
        "रि"
      ],
      [
        "एन",
        "का"
      ],
      [
        "ओनो",
        "ल"
      ],
      [
        "क",
        "्र"
      ],
      [
        "का",
        "र्"
      ],
      [
        "गा",
        "ड़ा"
      ],
      [
        "टा",
        "का"
      ],
      [
        "क्ष",
        "ा"
      ],
      [
        "ए",
        "म"
      ],
      [
        "ढ",
        "़"
      ],
      [
        "जा",
        "पा"
      ],
      [
        "बा",
        "ल"
      ],
      [
        "हो",
        "नो"
      ],
      [
        "दु",
        "ब"
      ],
      [
        "दु",
        "ला"
      ],
      [
        "बो",
        "ंगा"
      ],
      [
        "दा",
        "ः"
      ],
      [
        "बे",
        "स"
      ],
      [
        "केदा",
        "को"
      ],
      [
        "ओड़ा",
        "ः"
      ],
      [
        "आ",
        "ई"
      ],
      [
        "द",
        "न"
      ],
      [
        "स",
        "ू"
      ],
      [
        "ला",
        "ओ"
      ],
      [
        "मि",
        "सा"
      ],
      [
        "पा",
        "र"
      ],
      [
        "ताइकेना",
        "एः"
      ],
      [
        "तन",
        "अः"
      ],
      [
        "ँ",
        "ग"
      ],
      [
        "आ",
        "बु"
      ],
      [
        "आ",
        "युम"
      ],
      [
        "भ",
        "ो"
      ],
      [
        "फि",
        "ल्"
      ],
      [
        "ता",
        "ला"
      ],
      [
        "रा",
        "सिका"
      ],
      [
        "चि",
        "मिन"
      ],
      [
        "जि",
        "नि"
      ],
      [
        "पे",
        "रे"
      ],
      [
        "ड़ा",
        "ः"
      ],
      [
        "भा",
        "व"
      ],
      [
        "ज्",
        "ञा"
      ],
      [
        "व",
        "्य"
      ],
      [
        "दा",
        "न"
      ],
      [
        "बु",
        "जा"
      ],
      [
        "सोबेन",
        "को"
      ],
      [
        "बर",
        "न"
      ],
      [
        "ग",
        "्"
      ],
      [
        "द",
        "ड़ि"
      ],
      [
        "म",
        "न"
      ],
      [
        "र",
        "सिका"
      ],
      [
        "का",
        "मी"
      ],
      [
        "पे",
        "ड़े"
      ],
      [
        "फिल्",
        "म"
      ],
      [
        "आ",
        "पि"
      ],
      [
        "उ",
        "तर"
      ],
      [
        "ए",
        "ंगा"
      ],
      [
        "ं",
        "ट"
      ],
      [
        "क",
        "ल"
      ],
      [
        "बा",
        "द"
      ],
      [
        "से",
        "ना"
      ],
      [
        "सोबे",
        "ना"
      ],
      [
        "ष्",
        "ट"
      ],
      [
        "मिय",
        "द्"
      ],
      [
        "अ",
        "मा"
      ],
      [
        "ओ",
        "ते"
      ],
      [
        "ब",
        "न"
      ],
      [
        "ता",
        "ङ"
      ],
      [
        "या",
        "ते"
      ],
      [
        "नेआ",
        "ते"
      ],
      [
        "सो",
        "मोय"
      ],
      [
        "होबा",
        "ओः"
      ],
      [
        "सिं",
        "ह"
      ],
      [
        "अ",
        "ट"
      ],
      [
        "ज",
        "य"
      ],
      [
        "ब",
        "नो"
      ],
      [
        "म",
        "र"
      ],
      [
        "सा",
        "ङगि"
      ],
      [
        "दु",
        "राङ"
      ],
      [
        "टे",
        "ः"
      ],
      [
        "हु",
        "लाङ"
      ],
      [
        "का",
        "ञ"
      ],
      [
        "ले",
        "लो"
      ],
      [
        "होबा",
        "व"
      ],
      [
        "एन",
        "ता"
      ],
      [
        "तिंग",
        "ु"
      ],
      [
        "समा",
        "ज"
      ],
      [
        "ं",
        "स"
      ],
      [
        "ज",
        "रू"
      ],
      [
        "ता",
        "निः"
      ],
      [
        "सि",
        "ंगि"
      ],
      [
        "चा",
        "ना"
      ],
      [
        "होबा",
        "जाना"
      ],
      [
        "ल्",
        "ली"
      ],
      [
        "रु",
        "ड़ु"
      ],
      [
        "हुड़ि",
        "ङ"
      ],
      [
        "आ",
        "लो"
      ],
      [
        "उ",
        "प"
      ],
      [
        "ड",
        "ू"
      ],
      [
        "प",
        "ति"
      ],
      [
        "म",
        "हा"
      ],
      [
        "जा",
        "आं"
      ],
      [
        "ले",
        "कन"
      ],
      [
        "या",
        "द"
      ],
      [
        "जो",
        "र"
      ],
      [
        "नी",
        "ति"
      ],
      [
        "जोगा",
        "ओ"
      ],
      [
        "गोनो",
        "ङ"
      ],
      [
        "बा",
        "नो"
      ],
      [
        "होबा",
        "ओ"
      ],
      [
        "एन",
        "ताः"
      ],
      [
        "क",
        "ं"
      ],
      [
        "म",
        "त"
      ],
      [
        "रे",
        "को"
      ],
      [
        "ता",
        "रा"
      ],
      [
        "ते",
        "आ"
      ],
      [
        "ला",
        "इ"
      ],
      [
        "सा",
        "ंगि"
      ],
      [
        "लो",
        "ओः"
      ],
      [
        "जो",
        "नो"
      ],
      [
        "पुर",
        "अः"
      ],
      [
        "टोओ",
        "र"
      ],
      [
        "ए",
        "ने"
      ],
      [
        "ज",
        "केद्"
      ],
      [
        "ध",
        "ी"
      ],
      [
        "व",
        "न"
      ],
      [
        "को",
        "ते"
      ],
      [
        "ने",
        "कान"
      ],
      [
        "जा",
        "र"
      ],
      [
        "बो",
        "र"
      ],
      [
        "ंड",
        "ु"
      ],
      [
        "आ",
        "इ"
      ],
      [
        "इ",
        "या"
      ],
      [
        "उ",
        "तार"
      ],
      [
        "ओ",
        "मे"
      ],
      [
        "ङ",
        "गा"
      ],
      [
        "न",
        "मा"
      ],
      [
        "ल",
        "य"
      ],
      [
        "ल",
        "ू"
      ],
      [
        "श",
        "े"
      ],
      [
        "स",
        "ला"
      ],
      [
        "रा",
        "इ"
      ],
      [
        "दि",
        "ल्ली"
      ],
      [
        "जां",
        "ए"
      ],
      [
        "सार",
        "ते"
      ],
      [
        "बारा",
        "न"
      ],
      [
        "क",
        "ै"
      ],
      [
        "ठ",
        "ी"
      ],
      [
        "त",
        "ं"
      ],
      [
        "द",
        "ू"
      ],
      [
        "य",
        "न"
      ],
      [
        "श",
        "्री"
      ],
      [
        "का",
        "दा"
      ],
      [
        "ने",
        "न"
      ],
      [
        "बा",
        "लाए"
      ],
      [
        "स्",
        "तान"
      ],
      [
        "मो",
        "चा"
      ],
      [
        "जोगा",
        "व"
      ],
      [
        "आया",
        "र"
      ],
      [
        "फ",
        "्"
      ],
      [
        "य",
        "द्"
      ],
      [
        "ना",
        "मो"
      ],
      [
        "कि",
        "आ"
      ],
      [
        "इ",
        "ति"
      ],
      [
        "उ",
        "कु"
      ],
      [
        "ए",
        "ते"
      ],
      [
        "ओ",
        "ड़ाः"
      ],
      [
        "त",
        "रा"
      ],
      [
        "त",
        "किना"
      ],
      [
        "म",
        "रंग"
      ],
      [
        "का",
        "रेदो"
      ],
      [
        "के",
        "ते"
      ],
      [
        "बा",
        "रे"
      ],
      [
        "ड़",
        "ी"
      ],
      [
        "कि",
        "र"
      ],
      [
        "ड़ा",
        "ं"
      ],
      [
        "उ",
        "त्"
      ],
      [
        "ग",
        "ल"
      ],
      [
        "घ",
        "ा"
      ],
      [
        "ट",
        "का"
      ],
      [
        "ध",
        "ो"
      ],
      [
        "स",
        "ंग"
      ],
      [
        "ता",
        "ल"
      ],
      [
        "र्",
        "म"
      ],
      [
        "दु",
        "निया"
      ],
      [
        "क्",
        "स"
      ],
      [
        "ड़ा",
        "व"
      ],
      [
        "अ",
        "या"
      ],
      [
        "ले",
        "न"
      ],
      [
        "चि",
        "नअः"
      ],
      [
        "केदा",
        "ञ"
      ],
      [
        "वि",
        "श्"
      ],
      [
        "मु",
        "ख"
      ],
      [
        "इनु",
        "ङ"
      ],
      [
        "किः",
        "आ"
      ],
      [
        "अ",
        "पि"
      ],
      [
        "क",
        "द"
      ],
      [
        "म",
        "ै"
      ],
      [
        "के",
        "याते"
      ],
      [
        "जा",
        "रुड़ु"
      ],
      [
        "या",
        "को"
      ],
      [
        "पा",
        "ति"
      ],
      [
        "स्",
        "वा"
      ],
      [
        "गो",
        "आ"
      ],
      [
        "मं",
        "दि"
      ],
      [
        "अ",
        "धि"
      ],
      [
        "आ",
        "गु"
      ],
      [
        "क",
        "जी"
      ],
      [
        "छ",
        "ा"
      ],
      [
        "भ",
        "ि"
      ],
      [
        "मा",
        "र"
      ],
      [
        "सा",
        "ं"
      ],
      [
        "मो",
        "न"
      ],
      [
        "गो",
        "ए"
      ],
      [
        "गि",
        "ड़ि"
      ],
      [
        "रू",
        "आ"
      ],
      [
        "डि",
        "ंग"
      ],
      [
        "डि",
        "यो"
      ],
      [
        "चे",
        "तन"
      ],
      [
        "उड़ु",
        "ः"
      ],
      [
        "मानाति",
        "ङ"
      ],
      [
        "अ",
        "इ"
      ],
      [
        "अ",
        "न"
      ],
      [
        "उ",
        "पु"
      ],
      [
        "ख",
        "ु"
      ],
      [
        "ण",
        "्"
      ],
      [
        "न",
        "मो"
      ],
      [
        "प",
        "ै"
      ],
      [
        "ना",
        "ङ"
      ],
      [
        "का",
        "आ"
      ],
      [
        "को",
        "ड़ा"
      ],
      [
        "बा",
        "दि"
      ],
      [
        "नि",
        "क"
      ],
      [
        "हो",
        "का"
      ],
      [
        "हो",
        "यो"
      ],
      [
        "र्",
        "थ"
      ],
      [
        "रिका",
        "एआ"
      ],
      [
        "अ",
        "नु"
      ],
      [
        "ज",
        "ू"
      ],
      [
        "ज",
        "मा"
      ],
      [
        "व",
        "ो"
      ],
      [
        "का",
        "ंग्रे"
      ],
      [
        "नि",
        "र"
      ],
      [
        "दो",
        "हो"
      ],
      [
        "नेआ",
        "रे"
      ],
      [
        "जाना",
        "ए"
      ],
      [
        "लो",
        "क"
      ],
      [
        "इनिः",
        "अ"
      ],
      [
        "टि",
        "ंग"
      ],
      [
        "ध",
        "्य"
      ],
      [
        "ह",
        "रा"
      ],
      [
        "पा",
        "ड़ाओ"
      ],
      [
        "सो",
        "ंगे"
      ],
      [
        "जि",
        "ला"
      ],
      [
        "सु",
        "र"
      ],
      [
        "स्",
        "व"
      ],
      [
        "गो",
        "एः"
      ],
      [
        "गो",
        "पो"
      ],
      [
        "पे",
        "ड़े"
      ],
      [
        "होनो",
        "र"
      ],
      [
        "बादि",
        "लि"
      ],
      [
        "त",
        "ू"
      ],
      [
        "त",
        "ंग"
      ],
      [
        "म",
        "ह"
      ],
      [
        "ष",
        "ा"
      ],
      [
        "ति",
        "सिंग"
      ],
      [
        "मि",
        "द"
      ],
      [
        "चि",
        "ना"
      ],
      [
        "दु",
        "नु"
      ],
      [
        "चा",
        "बा"
      ],
      [
        "फो",
        "टो"
      ],
      [
        "किरि",
        "ङ"
      ],
      [
        "ट",
        "ना"
      ],
      [
        "ट",
        "यद्"
      ],
      [
        "द",
        "र्"
      ],
      [
        "म",
        "नाति"
      ],
      [
        "य",
        "म"
      ],
      [
        "ल",
        "न"
      ],
      [
        "ता",
        "को"
      ],
      [
        "जा",
        "ः"
      ],
      [
        "जा",
        "द"
      ],
      [
        "कु",
        "मु"
      ],
      [
        "कु",
        "ड़ि"
      ],
      [
        "हा",
        "र"
      ],
      [
        "हि",
        "न्"
      ],
      [
        "धा",
        "न"
      ],
      [
        "तेबा",
        "ः"
      ],
      [
        "काआ",
        "नि"
      ],
      [
        "क",
        "को"
      ],
      [
        "त",
        "्य"
      ],
      [
        "म",
        "ौ"
      ],
      [
        "ते",
        "ओ"
      ],
      [
        "रा",
        "ष्ट"
      ],
      [
        "नि",
        "दा"
      ],
      [
        "सा",
        "ब"
      ],
      [
        "पा",
        "र्"
      ],
      [
        "वा",
        "द"
      ],
      [
        "धा",
        "र"
      ],
      [
        "आए",
        "आः"
      ],
      [
        "अ",
        "स्"
      ],
      [
        "ध",
        "न"
      ],
      [
        "न",
        "ंग"
      ],
      [
        "ब",
        "ई"
      ],
      [
        "र",
        "अः"
      ],
      [
        "जा",
        "मा"
      ],
      [
        "बा",
        "गे"
      ],
      [
        "ला",
        "व"
      ],
      [
        "सा",
        "न"
      ],
      [
        "सा",
        "ल"
      ],
      [
        "बे",
        "गार"
      ],
      [
        "ताना",
        "एः"
      ],
      [
        "क्",
        "ति"
      ],
      [
        "जना",
        "ए"
      ],
      [
        "रू",
        "ड़ु"
      ],
      [
        "दे",
        "व"
      ],
      [
        "ओड़",
        "ो"
      ],
      [
        "सन",
        "ंग"
      ],
      [
        "राज",
        "्य"
      ],
      [
        "राज",
        "नीति"
      ],
      [
        "दाड़ि",
        "आ"
      ],
      [
        "बान",
        "चा"
      ],
      [
        "डु",
        "ः"
      ],
      [
        "कांग्रे",
        "स"
      ],
      [
        "ए",
        "पे"
      ],
      [
        "ट",
        "ोः"
      ],
      [
        "स",
        "द"
      ],
      [
        "ना",
        "व"
      ],
      [
        "को",
        "आते"
      ],
      [
        "बे",
        "गर"
      ],
      [
        "पा",
        "ल"
      ],
      [
        "क्",
        "टर"
      ],
      [
        "रेन",
        "को"
      ],
      [
        "रू",
        "प"
      ],
      [
        "होडो",
        "को"
      ],
      [
        "अ",
        "यर"
      ],
      [
        "ग",
        "ं"
      ],
      [
        "भ",
        "ग"
      ],
      [
        "जा",
        "ए"
      ],
      [
        "जा",
        "ति"
      ],
      [
        "दा",
        "र"
      ],
      [
        "नि",
        "र्"
      ],
      [
        "्र",
        "ो"
      ],
      [
        "र्",
        "ड"
      ],
      [
[...]
