{
  "version": "1.0",
  "truncation": null,
  "padding": null,
  "added_tokens": [
    {
      "id": 0,
      "content": "[PAD]",
      "single_word": false,
      "lstrip": false,
      "rstrip": false,
      "normalized": false,
      "special": true
    },
    {
      "id": 1,
      "content": "[UNK]",
      "single_word": false,
      "lstrip": false,
      "rstrip": false,
      "normalized": false,
      "special": true
    },
    {
      "id": 2,
      "content": "[BOS]",
      "single_word": false,
      "lstrip": false,
      "rstrip": false,
      "normalized": false,
      "special": true
    },
    {
      "id": 3,
      "content": "[EOS]",
      "single_word": false,
      "lstrip": false,
      "rstrip": false,
      "normalized": false,
      "special": true
    }
  ],
  "normalizer": null,
  "pre_tokenizer": {
    "type": "Whitespace"
  },
  "post_processor": null,
  "decoder": null,
  "model": {
    "type": "BPE",
    "dropout": null,
    "unk_token": "[UNK]",
    "continuing_subword_prefix": null,
    "end_of_word_suffix": null,
    "fuse_unk": false,
    "byte_fallback": false,
    "ignore_merges": false,
    "vocab": {
      "[PAD]": 0,
      "[UNK]": 1,
      "[BOS]": 2,
      "[EOS]": 3,
      "#": 4,
      "&": 5,
      "+": 6,
      "3": 7,
      "<": 8,
      "=": 9,
      ">": 10,
      "?": 11,
      "`": 12,
      "{": 13,
      "}": 14,
      "~": 15,
      "¡": 16,
      "«": 17,
      "·": 18,
      "»": 19,
      "̈": 20,
      "Б": 21,
      "Г": 22,
      "Н": 23,
      "а": 24,
      "в": 25,
      "е": 26,
      "з": 27,
      "и": 28,
      "к": 29,
      "л": 30,
      "о": 31,
      "р": 32,
      "у": 33,
      "ш": 34,
      "я": 35,
      "ә": 36,
      "ח": 37,
      "פ": 38,
      "ר": 39,
      "ת": 40,
      "ا": 41,
      "س": 42,
      "غ": 43,
      "ك": 44,
      "ن": 45,
      "و": 46,
      "پ": 47,
      "چ": 48,
      "ک": 49,
      "ی": 50,
      "ँ": 51,
      "ं": 52,
      "ः": 53,
      "अ": 54,
      "आ": 55,
      "इ": 56,
      "ई": 57,
      "उ": 58,
      "ऊ": 59,
      "ऋ": 60,
      "ऍ": 61,
      "ऎ": 62,
      "ए": 63,
      "ऐ": 64,
      "ऑ": 65,
      "ओ": 66,
      "औ": 67,
      "क": 68,
      "ख": 69,
      "ग": 70,
      "घ": 71,
      "ङ": 72,
      "च": 73,
      "छ": 74,
      "ज": 75,
      "झ": 76,
      "ञ": 77,
      "ट": 78,
      "ठ": 79,
      "ड": 80,
      "ढ": 81,
      "ण": 82,
      "त": 83,
      "थ": 84,
      "द": 85,
      "ध": 86,
      "न": 87,
      "प": 88,
      "फ": 89,
      "ब": 90,
      "भ": 91,
      "म": 92,
      "य": 93,
      "र": 94,
      "ल": 95,
      "ळ": 96,
      "व": 97,
      "श": 98,
      "ष": 99,
      "स": 100,
      "ह": 101,
      "़": 102,
      "ऽ": 103,
      "ा": 104,
      "ि": 105,
      "ी": 106,
      "ु": 107,
      "ू": 108,
      "ृ": 109,
      "ॅ": 110,
      "ॆ": 111,
      "े": 112,
      "ै": 113,
      "ॉ": 114,
      "ॊ": 115,
      "ो": 116,
      "ौ": 117,
      "्": 118,
      "ॐ": 119,
      "॓": 120,
      "।": 121,
      "॥": 122,
      "॰": 123,
      "™": 124,
      "←": 125,
      "↑": 126,
      "→": 127,
      "−": 128,
      "►": 129,
      "●": 130,
      "☼": 131,
      "♠": 132,
      "♥": 133,
      "": 134,
      "": 135,
      "": 136,
      "": 137,
      "है": 138,
      "का": 139,
      "ें": 140,
      "या": 141,
      "के": 142,
      "्र": 143,
      "ने": 144,
      "में": 145,
      "से": 146,
      "की": 147,
      "ही": 148,
      "ार": 149,
      "ता": 150,
      "ों": 151,
      "कर": 152,
      "ना": 153,
      "को": 154,
      "स्": 155,
      "र्": 156,
      "भी": 157,
      "कि": 158,
      "हो": 159,
      "क्": 160,
      "पर": 161,
      "ान": 162,
      "ला": 163,
      "सा": 164,
      "हा": 165,
      "जा": 166,
      "वा": 167,
      "हैं": 168,
      "इस": 169,
      "ले": 170,
      "प्र": 171,
      "रा": 172,
      "लि": 173,
      "हीं": 174,
      "ती": 175,
      "वि": 176,
      "ते": 177,
      "न्": 178,
      "और": 179,
      "नहीं": 180,
      "ड़": 181,
      "मा": 182,
      "्य": 183,
      "बा": 184,
      "दे": 185,
      "हु": 186,
      "ति": 187,
      "गा": 188,
      "दि": 189,
      "था": 190,
      "री": 191,
      "नि": 192,
      "एक": 193,
      "रह": 194,
      "नी": 195,
      "तो": 196,
      "मि": 197,
      "सी": 198,
      "पा": 199,
      "त्": 200,
      "ली": 201,
      "मु": 202,
      "सं": 203,
      "मे": 204,
      "त्र": 205,
      "ये": 206,
      "यह": 207,
      "लिए": 208,
      "चा": 209,
      "उस": 210,
      "मै": 211,
      "अप": 212,
      "जी": 213,
      "ंग": 214,
      "रे": 215,
      "कु": 216,
      "सम": 217,
      "कार": 218,
      "हि": 219,
      "भा": 220,
      "क्ष": 221,
      "दी": 222,
      "दा": 223,
      "गी": 224,
      "हम": 225,
      "यों": 226,
      "ल्": 227,
      "थी": 228,
      "गया": 229,
      "मैं": 230,
      "ोग": 231,
      "आप": 232,
      "जि": 233,
      "सु": 234,
      "सि": 235,
      "शा": 236,
      "उन": 237,
      "खा": 238,
      "्या": 239,
      "वे": 240,
      "दो": 241,
      "रू": 242,
      "पू": 243,
      "वह": 244,
      "थे": 245,
      "किया": 246,
      "गे": 247,
      "फि": 248,
      "द्": 249,
      "्ट": 250,
      "हर": 251,
      "पु": 252,
      "मी": 253,
      "न्ह": 254,
      "तु": 255,
      "च्": 256,
      "रो": 257,
      "सक": 258,
      "कुछ": 259,
      "धि": 260,
      "रहे": 261,
      "शि": 262,
      "ढ़": 263,
      "रहा": 264,
      "रि": 265,
      "मान": 266,
      "श्": 267,
      "वार": 268,
      "तर": 269,
      "तक": 270,
      "उन्ह": 271,
      "नों": 272,
      "पी": 273,
      "ज़": 274,
      "बहु": 275,
      "कोई": 276,
      "क्या": 277,
      "बि": 278,
      "साथ": 279,
      "अब": 280,
      "सब": 281,
      "ारी": 282,
      "बे": 283,
      "बहुत": 284,
      "पह": 285,
      "ंद": 286,
      "टी": 287,
      "म्": 288,
      "जो": 289,
      "क्र": 290,
      "अपने": 291,
      "बी": 292,
      "ित": 293,
      "इन": 294,
      "बात": 295,
      "चु": 296,
      "चार": 297,
      "सर": 298,
      "ंड": 299,
      "हू": 300,
      "िया": 301,
      "बार": 302,
      "बाद": 303,
      "स्ट": 304,
      "गु": 305,
      "लोग": 306,
      "स्थ": 307,
      "देश": 308,
      "दू": 309,
      "गई": 310,
      "रही": 311,
      "लग": 312,
      "दिया": 313,
      "वी": 314,
      "ओं": 315,
      "रु": 316,
      "राज": 317,
      "शु": 318,
      "करने": 319,
      "ानी": 320,
      "लगा": 321,
      "होता": 322,
      "कह": 323,
      "चे": 324,
      "दु": 325,
      "हां": 326,
      "ड़ा": 327,
      "टा": 328,
      "देख": 329,
      "मिल": 330,
      "किन": 331,
      "ड़ी": 332,
      "खु": 333,
      "जन": 334,
      "मं": 335,
      "ब्": 336,
      "हुआ": 337,
      "नु": 338,
      "चि": 339,
      "मो": 340,
      "फिर": 341,
      "ष्ट": 342,
      "सो": 343,
      "बना": 344,
      "प्": 345,
      "छा": 346,
      "परि": 347,
      "सू": 348,
      "मुझ": 349,
      "लो": 350,
      "आज": 351,
      "ारे": 352,
      "्रे": 353,
      "ैसे": 354,
      "ची": 355,
      "वर्": 356,
      "र्य": 357,
      "लेकिन": 358,
      "भार": 359,
      "काम": 360,
      "व्य": 361,
      "ज्": 362,
      "पि": 363,
      "जाए": 364,
      "किसी": 365,
      "ड़े": 366,
      "ंध": 367,
      "मन": 368,
      "इसके": 369,
      "चल": 370,
      "यु": 371,
      "जाता": 372,
      "टे": 373,
      "ारा": 374,
      "उसे": 375,
      "गर": 376,
      "अपनी": 377,
      "कम": 378,
      "हुई": 379,
      "फ़": 380,
      "अधि": 381,
      "ार्": 382,
      "ोंने": 383,
      "पे": 384,
      "बै": 385,
      "मह": 386,
      "वर": 387,
      "ष्": 388,
      "मुझे": 389,
      "खि": 390,
      "त्य": 391,
      "्री": 392,
      "तरह": 393,
      "यो": 394,
      "जान": 395,
      "हुए": 396,
      "ूल": 397,
      "हाँ": 398,
      "उन्होंने": 399,
      "िक": 400,
      "धा": 401,
      "स्त": 402,
      "्रा": 403,
      "बन": 404,
      "शन": 405,
      "दिन": 406,
      "पहले": 407,
      "डा": 408,
      "गए": 409,
      "योग": 410,
      "करते": 411,
      "ंच": 412,
      "कृ": 413,
      "टर": 414,
      "ेंगे": 415,
      "क्षा": 416,
      "ंत": 417,
      "रख": 418,
      "शी": 419,
      "लिया": 420,
      "नाम": 421,
      "अच्": 422,
      "बु": 423,
      "मौ": 424,
      "कई": 425,
      "होती": 426,
      "वन": 427,
      "सकता": 428,
      "कारी": 429,
      "दोनों": 430,
      "वो": 431,
      "उन्हें": 432,
      "जब": 433,
      "दर्": 434,
      "ज्ञ": 435,
      "जे": 436,
      "घर": 437,
      "ियों": 438,
      "न्द": 439,
      "होगा": 440,
      "चाहि": 441,
      "क्ति": 442,
      "करना": 443,
      "उसके": 444,
      "समय": 445,
      "उनके": 446,
      "उप": 447,
      "बढ़": 448,
      "निक": 449,
      "खे": 450,
      "बर": 451,
      "प्रा": 452,
      "बद": 453,
      "बो": 454,
      "होने": 455,
      "इससे": 456,
      "रूप": 457,
      "आई": 458,
      "जु": 459,
      "पो": 460,
      "भाव": 461,
      "अनु": 462,
      "डि": 463,
      "स्व": 464,
      "कहा": 465,
      "सभी": 466,
      "त्री": 467,
      "यी": 468,
      "मेरे": 469,
      "समझ": 470,
      "टि": 471,
      "पहु": 472,
      "क्त": 473,
      "निर्": 474,
      "लों": 475,
      "उत्": 476,
      "हूं": 477,
      "शे": 478,
      "इसी": 479,
      "हूँ": 480,
      "भि": 481,
      "कर्": 482,
      "पूर्": 483,
      "यू": 484,
      "गि": 485,
      "ठा": 486,
      "कार्य": 487,
      "जिस": 488,
      "फी": 489,
      "माम": 490,
      "मुख": 491,
      "धार": 492,
      "बता": 493,
      "प्रति": 494,
      "त्व": 495,
      "उनकी": 496,
      "चाहिए": 497,
      "पुलि": 498,
      "स्था": 499,
      "चाह": 500,
      "ौर": 501,
      "पुलिस": 502,
      "ंक": 503,
      "ऐसा": 504,
      "पार": 505,
      "करें": 506,
      "स्ता": 507,
      "मत": 508,
      "बह": 509,
      "गो": 510,
      "डी": 511,
      "यहां": 512,
      "समा": 513,
      "जाती": 514,
      "कों": 515,
      "ठी": 516,
      "मैंने": 517,
      "छो": 518,
      "ध्य": 519,
      "मार": 520,
      "पास": 521,
      "यही": 522,
      "क्यों": 523,
      "वाद": 524,
      "फिल्": 525,
      "इसे": 526,
      "कभी": 527,
      "णा": 528,
      "बच्": 529,
      "सम्": 530,
      "रत": 531,
      "जू": 532,
      "जार": 533,
      "ऐसे": 534,
      "यर": 535,
      "सबसे": 536,
      "एं": 537,
      "्यादा": 538,
      "भू": 539,
      "उसकी": 540,
      "लोगों": 541,
      "अन्": 542,
      "होगी": 543,
      "साम": 544,
      "पता": 545,
      "ंग्रे": 546,
      "दूस": 547,
      "ंस": 548,
      "लू": 549,
      "स्वा": 550,
      "वाले": 551,
      "शुरू": 552,
      "खो": 553,
      "हों": 554,
      "पै": 555,
      "जग": 556,
      "मेरी": 557,
      "भाग": 558,
      "अव": 559,
      "हाल": 560,
      "भारत": 561,
      "चना": 562,
      "र्थ": 563,
      "जीवन": 564,
      "फा": 565,
      "हाथ": 566,
      "इसका": 567,
      "विश्": 568,
      "सकते": 569,
      "ंह": 570,
      "छे": 571,
      "ज्यादा": 572,
      "डे": 573,
      "अपना": 574,
      "द्ध": 575,
      "दान": 576,
      "कता": 577,
      "सर्": 578,
      "करता": 579,
      "सरकार": 580,
      "ग्र": 581,
      "पन": 582,
      "निया": 583,
      "फिल्म": 584,
      "तना": 585,
      "जाने": 586,
      "तुम": 587,
      "भर": 588,
      "न्न": 589,
      "हमारे": 590,
      "्टी": 591,
      "आया": 592,
      "कै": 593,
      "बंध": 594,
      "कैसे": 595,
      "पड़": 596,
      "भग": 597,
      "करा": 598,
      "जै": 599,
      "र्ट": 600,
      "प्रे": 601,
      "ज्ञान": 602,
      "द्र": 603,
      "वान": 604,
      "षा": 605,
      "उनका": 606,
      "सह": 607,
      "होते": 608,
      "इसलिए": 609,
      "राम": 610,
      "स्थि": 611,
      "तब": 612,
      "तार": 613,
      "दार": 614,
      "बस": 615,
      "रों": 616,
      "लन": 617,
      "त्म": 618,
      "कारण": 619,
      "काफी": 620,
      "मंत्री": 621,
      "अच्छा": 622,
      "जरू": 623,
      "पर्": 624,
      "पत्": 625,
      "पढ़": 626,
      "हे": 627,
      "अभी": 628,
      "रात": 629,
      "लिये": 630,
      "अधिक": 631,
      "वाला": 632,
      "लेख": 633,
      "लिख": 634,
      "मेरा": 635,
      "उसका": 636,
      "बैठ": 637,
      "ंगा": 638,
      "तै": 639,
      "द्य": 640,
      "क्षण": 641,
      "आपको": 642,
      "तुम्": 643,
      "कौ": 644,
      "चला": 645,
      "जर": 646,
      "यं": 647,
      "श्र": 648,
      "पुर": 649,
      "प्त": 650,
      "अं": 651,
      "नो": 652,
      "कल": 653,
      "ख़": 654,
      "वं": 655,
      "सार": 656,
      "कान": 657,
      "साल": 658,
      "द्वार": 659,
      "ंप": 660,
      "आगे": 661,
      "गल": 662,
      "धान": 663,
      "यत": 664,
      "लेकर": 665,
      "तीय": 666,
      "उसने": 667,
      "क्रम": 668,
      "लगता": 669,
      "टना": 670,
      "ण्": 671,
      "धी": 672,
      "र्म": 673,
      "इसमें": 674,
      "स्थिति": 675,
      "नौ": 676,
      "फ्": 677,
      "क्स": 678,
      "पूर्ण": 679,
      "क़": 680,
      "फो": 681,
      "मर": 682,
      "शो": 683,
      "मिला": 684,
      "त्रा": 685,
      "दर": 686,
      "करे": 687,
      "दिखा": 688,
      "स्थान": 689,
      "अभि": 690,
      "यन": 691,
      "लगे": 692,
      "वै": 693,
      "श्री": 694,
      "क्षे": 695,
      "राज्य": 696,
      "जाएगा": 697,
      "प्या": 698,
      "श्य": 699,
      "हरा": 700,
      "वास": 701,
      "वाली": 702,
      "नीति": 703,
      "तैया": 704,
      "तुम्ह": 705,
      "लय": 706,
      "हमें": 707,
      "नेता": 708,
      "जाते": 709,
      "सकती": 710,
      "सामने": 711,
      "ओर": 712,
      "फै": 713,
      "वल": 714,
      "ल्ली": 715,
      "सिंह": 716,
      "गये": 717,
      "तं": 718,
      "ध्या": 719,
      "पत्र": 720,
      "यहाँ": 721,
      "याद": 722,
      "थीं": 723,
      "सुन": 724,
      "इं": 725,
      "कट": 726,
      "तन": 727,
      "पानी": 728,
      "देखा": 729,
      "खुद": 730,
      "बदल": 731,
      "शेष": 732,
      "डर": 733,
      "तों": 734,
      "बू": 735,
      "भव": 736,
      "व्या": 737,
      "सद": 738,
      "तीन": 739,
      "दिल": 740,
      "बारे": 741,
      "गयी": 742,
      "मू": 743,
      "जाना": 744,
      "विचार": 745,
      "आपके": 746,
      "जानकारी": 747,
      "आं": 748,
      "एस": 749,
      "कवि": 750,
      "जल": 751,
      "णी": 752,
      "ब्र": 753,
      "्यू": 754,
      "कॉ": 755,
      "लौ": 756,
      "हिला": 757,
      "बीच": 758,
      "चुना": 759,
      "दूर": 760,
      "दुनिया": 761,
      "लोक": 762,
      "कृति": 763,
      "द्वारा": 764,
      "आस": 765,
      "जैसे": 766,
      "दम": 767,
      "दौर": 768,
      "धन": 769,
      "धर": 770,
      "फल": 771,
      "लगी": 772,
      "हार": 773,
      "करी": 774,
      "किस": 775,
      "परा": 776,
      "वाल": 777,
      "वाह": 778,
      "मिले": 779,
      "भाषा": 780,
      "खिला": 781,
      "आर": 782,
      "लड़": 783,
      "वहां": 784,
      "पूरी": 785,
      "खेल": 786,
      "चान": 787,
      "जय": 788,
      "ट्र": 789,
      "शान": 790,
      "बाहर": 791,
      "दिल्ली": 792,
      "समाज": 793,
      "आद": 794,
      "जन्": 795,
      "पं": 796,
      "यम": 797,
      "सल": 798,
      "करती": 799,
      "साइ": 800,
      "विष": 801,
      "त्या": 802,
      "उठा": 803,
      "चौ": 804,
      "तरी": 805,
      "भे": 806,
      "महा": 807,
      "राष्ट": 808,
      "माण": 809,
      "बेह": 810,
      "व्यक्ति": 811,
      "अलग": 812,
      "गत": 813,
      "घटना": 814,
      "धु": 815,
      "नही": 816,
      "मूल": 817,
      "सन": 818,
      "सौ": 819,
      "कांग्रे": 820,
      "होना": 821,
      "भारतीय": 822,
      "व्यव": 823,
      "मामले": 824,
      "कौन": 825,
      "ण्ड": 826,
      "क्षेत्र": 827,
      "घा": 828,
      "छी": 829,
      "तनी": 830,
      "थो": 831,
      "लब": 832,
      "पूरा": 833,
      "ठीक": 834,
      "जूद": 835,
      "एँ": 836,
      "एम": 837,
      "ग्": 838,
      "चों": 839,
      "दृ": 840,
      "पड़े": 841,
      "महिला": 842,
      "रंग": 843,
      "विद": 844,
      "ंव": 845,
      "कहीं": 846,
      "चो": 847,
      "भो": 848,
      "यद": 849,
      "लें": 850,
      "शब्": 851,
      "काल": 852,
      "करण": 853,
      "ंदर": 854,
      "चुका": 855,
      "घ्": 856,
      "पक": 857,
      "बल": 858,
      "भु": 859,
      "वृ": 860,
      "ह्": 861,
      "कार्": 862,
      "यां": 863,
      "हमारी": 864,
      "सिर्": 865,
      "ष्ठ": 866,
      "मुख्य": 867,
      "कांग्रेस": 868,
      "एवं": 869,
      "कूल": 870,
      "कंप": 871,
      "चू": 872,
      "जना": 873,
      "तने": 874,
      "नई": 875,
      "फे": 876,
      "साह": 877,
      "साहि": 878,
      "भाई": 879,
      "विद्या": 880,
      "अन": 881,
      "अस्": 882,
      "गर्": 883,
      "टो": 884,
      "डिया": 885,
      "पड़ा": 886,
      "मृ": 887,
      "मार्": 888,
      "रण": 889,
      "लॉ": 890,
      "षण": 891,
      "परे": 892,
      "प्रकार": 893,
      "विशेष": 894,
      "देव": 895,
      "हिं": 896,
      "गुरु": 897,
      "सोच": 898,
      "चुनाव": 899,
      "उसी": 900,
      "खी": 901,
      "बड़ी": 902,
      "लु": 903,
      "देर": 904,
      "रहता": 905,
      "कुल": 906,
      "हिन्": 907,
      "आपकी": 908,
      "क्रिया": 909,
      "भगवान": 910,
      "शब्द": 911,
      "यास": 912,
      "केवल": 913,
      "इसकी": 914,
      "विका": 915,
      "दिर": 916,
      "रहते": 917,
      "सुर": 918,
      "ष्टि": 919,
      "विश्व": 920,
      "आए": 921,
      "आने": 922,
      "ग्रा": 923,
      "झा": 924,
      "धे": 925,
      "लं": 926,
      "लै": 927,
      "मांग": 928,
      "रहने": 929,
      "सुबह": 930,
      "छोड़": 931,
      "कविता": 932,
      "जन्म": 933,
      "ख्या": 934,
      "पद": 935,
      "्स": 936,
      "काश": 937,
      "वाब": 938,
      "देने": 939,
      "मित": 940,
      "संस्": 941,
      "शायद": 942,
      "प्रेम": 943,
      "नर": 944,
      "यक": 945,
      "शहर": 946,
      "सला": 947,
      "हन": 948,
      "पूरे": 949,
      "कहानी": 950,
      "निकल": 951,
      "गिर": 952,
      "बच्चों": 953,
      "अध्य": 954,
      "आरो": 955,
      "उठ": 956,
      "ऐसी": 957,
      "चले": 958,
      "दन": 959,
      "बड़ा": 960,
      "वज": 961,
      "क्टर": 962,
      "जाये": 963,
      "माँ": 964,
      "खुश": 965,
      "परिवार": 966,
      "वर्ष": 967,
      "पोर्ट": 968,
      "पहुंच": 969,
      "विकास": 970,
      "ंट": 971,
      "कला": 972,
      "पसं": 973,
      "बंद": 974,
      "यल": 975,
      "यता": 976,
      "रखा": 977,
      "हरे": 978,
      "ंगे": 979,
      "पहली": 980,
      "राजनीति": 981,
      "बताया": 982,
      "स्तान": 983,
      "जरूरत": 984,
      "आदमी": 985,
      "अंग्रे": 986,
      "बड़े": 987,
      "सै": 988,
      "हमे": 989,
      "स्वी": 990,
      "तिहा": 991,
      "पाल": 992,
      "पहुं": 993,
      "अग": 994,
      "खू": 995,
      "चित": 996,
      "तरा": 997,
      "पति": 998,
      "वहाँ": 999,
      "परी": 1000,
      "प्रदेश": 1001,
      "तीस": 1002,
      "देते": 1003,
      "हमने": 1004,
      "शामिल": 1005,
      "द्धि": 1006,
      "पीछे": 1007,
      "अधिकार": 1008,
      "बच्चे": 1009,
      "जगह": 1010,
      "सिर्फ": 1011,
      "साहित्य": 1012,
      "आँ": 1013,
      "आती": 1014,
      "आखि": 1015,
      "कल्": 1016,
      "घु": 1017,
      "धर्म": 1018,
      "बचा": 1019,
      "स्ते": 1020,
      "पिछ": 1021,
      "महत्व": 1022,
      "्रीय": 1023,
      "कार्यक्रम": 1024,
      "पार्टी": 1025,
      "अन्य": 1026,
      "तैयार": 1027,
      "व्यवस्था": 1028,
      "कथा": 1029,
      "पस": 1030,
      "सत": 1031,
      "स्तु": 1032,
      "विरो": 1033,
      "संग": 1034,
      "बिना": 1035,
      "चुकी": 1036,
      "दर्शन": 1037,
      "भूमि": 1038,
      "दूसरे": 1039,
      "दौरान": 1040,
      "हमेशा": 1041,
      "ंकि": 1042,
      "ऊपर": 1043,
      "नजर": 1044,
      "बच": 1045,
      "सही": 1046,
      "ेंद्र": 1047,
      "स्या": 1048,
      "स्कूल": 1049,
      "किए": 1050,
      "लिक": 1051,
      "लित": 1052,
      "बाजार": 1053,
      "गीत": 1054,
      "ज़ा": 1055,
      "टीम": 1056,
      "कहते": 1057,
      "पोस्ट": 1058,
      "ध्यान": 1059,
      "अगर": 1060,
      "आव": 1061,
      "कू": 1062,
      "गू": 1063,
      "छु": 1064,
      "बने": 1065,
      "मना": 1066,
      "केट": 1067,
      "हाला": 1068,
      "वाई": 1069,
      "न्य": 1070,
      "गांव": 1071,
      "त्ता": 1072,
      "पुरा": 1073,
      "तरफ": 1074,
      "ंदगी": 1075,
      "रुप": 1076,
      "युव": 1077,
      "फ़ि": 1078,
      "ार्थ": 1079,
      "ष्ण": 1080,
      "प्राप्त": 1081,
      "तंत्र": 1082,
      "अर्थ": 1083,
      "आता": 1084,
      "आते": 1085,
      "इला": 1086,
      "खों": 1087,
      "जपा": 1088,
      "जल्": 1089,
      "तथा": 1090,
      "नया": 1091,
      "लत": 1092,
      "ष्य": 1093,
      "देता": 1094,
      "दिनों": 1095,
      "मिली": 1096,
      "हमारा": 1097,
      "शाम": 1098,
      "मीडिया": 1099,
      "म्मी": 1100,
      "जनता": 1101,
      "अच्छी": 1102,
      "पहुँ": 1103,
      "कर्म": 1104,
      "कत": 1105,
      "चर्": 1106,
      "चली": 1107,
      "जों": 1108,
      "जारी": 1109,
      "मही": 1110,
      "मगर": 1111,
      "लब्": 1112,
      "शक्ति": 1113,
      "सवाल": 1114,
      "याँ": 1115,
      "करके": 1116,
      "करेंगे": 1117,
      "स्तर": 1118,
      "जाय": 1119,
      "देना": 1120,
      "भाजपा": 1121,
      "शिक्षा": 1122,
      "सूचना": 1123,
      "बढ़ा": 1124,
      "टिंग": 1125,
      "पूर्व": 1126,
      "आन": 1127,
      "जवाब": 1128,
      "टू": 1129,
      "ट्टी": 1130,
      "दें": 1131,
      "मद": 1132,
      "लक": 1133,
      "वही": 1134,
      "शं": 1135,
      "हजार": 1136,
      "।।": 1137,
      "करो": 1138,
      "स्त्र": 1139,
      "र्ष": 1140,
      "प्रि": 1141,
      "वित": 1142,
      "पाकि": 1143,
      "ियां": 1144,
      "मंदिर": 1145,
      "ब्लॉ": 1146,
      "बनाने": 1147,
      "न्द्र": 1148,
      "बोल": 1149,
      "चाहता": 1150,
      "इन्": 1151,
      "चै": 1152,
      "टक": 1153,
      "तम": 1154,
      "तू": 1155,
      "पृ": 1156,
      "शरी": 1157,
      "सभा": 1158,
      "लाल": 1159,
      "सामान": 1160,
      "माल": 1161,
      "माना": 1162,
      "आपका": 1163,
      "आपने": 1164,
      "शिव": 1165,
      "वार्": 1166,
      "युक्त": 1167,
      "स्वयं": 1168,
      "होंगे": 1169,
      "प्यार": 1170,
      "हिन्दी": 1171,
      "अंग्रेजी": 1172,
      "आवश्य": 1173,
      "आम": 1174,
      "आधार": 1175,
      "उन्": 1176,
      "उदा": 1177,
      "एल": 1178,
      "ख्": 1179,
      "टल": 1180,
      "मता": 1181,
      "यदि": 1182,
      "जांच": 1183,
      "नीचे": 1184,
      "समस्या": 1185,
      "सिक": 1186,
      "वेश": 1187,
      "द्धा": 1188,
      "शिका": 1189,
      "स्टे": 1190,
      "पिता": 1191,
      "दूसरी": 1192,
      "अस्पता": 1193,
      "पसंद": 1194,
      "आयो": 1195,
      "कब": 1196,
      "गं": 1197,
      "ट्ट": 1198,
      "दौ": 1199,
      "पक्ष": 1200,
      "भ्र": 1201,
      "रचना": 1202,
      "ोर": 1203,
      "सेवा": 1204,
      "र्ड": 1205,
      "न्या": 1206,
      "मेरि": 1207,
      "उससे": 1208,
      "जीव": 1209,
      "ंगल": 1210,
      "शुरु": 1211,
      "चित्र": 1212,
      "कृत": 1213,
      "मौजूद": 1214,
      "उपलब्": 1215,
      "विश्वास": 1216,
      "पड़ता": 1217,
      "राष्ट्रीय": 1218,
      "अस्पताल": 1219,
      "आवा": 1220,
      "आये": 1221,
      "फर": 1222,
      "मनु": 1223,
      "शर्": 1224,
      "सच": 1225,
      "सारे": 1226,
      "सफल": 1227,
      "हरी": 1228,
      "सात": 1229,
      "माह": 1230,
      "रहती": 1231,
      "संबंध": 1232,
      "हित": 1233,
      "जिला": 1234,
      "योजना": 1235,
      "ज्ञा": 1236,
      "निर्माण": 1237,
      "आखिर": 1238,
      "महीने": 1239,
      "ंभ": 1240,
      "अंत": 1241,
      "इतना": 1242,
      "कहां": 1243,
      "ग़": 1244,
      "धू": 1245,
      "नै": 1246,
      "फु": 1247,
      "ब्रा": 1248,
      "वहीं": 1249,
      "वैसे": 1250,
      "सप": 1251,
      "यात्रा": 1252,
      "ताब": 1253,
      "र्स": 1254,
      "भीतर": 1255,
      "वालों": 1256,
      "राब": 1257,
      "क्रि": 1258,
      "इनमें": 1259,
      "चुके": 1260,
      "लगातार": 1261,
      "जाएगी": 1262,
      "डाल": 1263,
      "अच्छे": 1264,
      "उत्तर": 1265,
      "भिन्न": 1266,
      "लौट": 1267,
      "खिलाफ": 1268,
      "चर्चा": 1269,
      "ंति": 1270,
      "अके": 1271,
      "अदा": 1272,
      "अमेरि": 1273,
      "छू": 1274,
      "तला": 1275,
      "पल": 1276,
      "पित": 1277,
      "बं": 1278,
      "मस्": 1279,
      "वत": 1280,
      "वक्त": 1281,
      "सारी": 1282,
      "ूँ": 1283,
      "र्क": 1284,
      "किल": 1285,
      "प्रयोग": 1286,
      "प्रयास": 1287,
      "विक": 1288,
      "मां": 1289,
      "दिए": 1290,
      "निय": 1291,
      "उनसे": 1292,
      "श्वर": 1293,
      "जोर": 1294,
      "ियाँ": 1295,
      "देखने": 1296,
      "मोदी": 1297,
      "मामला": 1298,
      "हिंदी": 1299,
      "मदद": 1300,
      "अभ": 1301,
      "आत": 1302,
      "उद्": 1303,
      "उच्": 1304,
      "उम्मी": 1305,
      "खंड": 1306,
      "खबर": 1307,
      "गण": 1308,
      "गति": 1309,
      "छि": 1310,
      "ट्रे": 1311,
      "नगर": 1312,
      "सहा": 1313,
      "स्सा": 1314,
      "होकर": 1315,
      "वादी": 1316,
      "राह": 1317,
      "विभाग": 1318,
      "त्रों": 1319,
      "रोक": 1320,
      "बातें": 1321,
      "ंधी": 1322,
      "न्दर": 1323,
      "डियो": 1324,
      "मतलब": 1325,
      "क्योंकि": 1326,
      "सर्व": 1327,
      "द्योग": 1328,
      "शरीर": 1329,
      "मनुष्य": 1330,
      "अति": 1331,
      "इन्ह": 1332,
      "गढ़": 1333,
      "जें": 1334,
      "दारी": 1335,
      "ून": 1336,
      "कां": 1337,
      "नेट": 1338,
      "तान": 1339,
      "लाभ": 1340,
      "प्रभा": 1341,
      "प्रत्य": 1342,
      "राय": 1343,
      "जित": 1344,
      "जिन": 1345,
      "सुना": 1346,
      "सिल": 1347,
      "शासन": 1348,
      "खाने": 1349,
      "रिश्": 1350,
      "रिपोर्ट": 1351,
      "पहचान": 1352,
      "भावना": 1353,
      "चाहते": 1354,
      "स्वास्थ": 1355,
      "मुख्यमंत्री": 1356,
      "अंदर": 1357,
      "खरी": 1358,
      "घं": 1359,
      "घो": 1360,
      "चम": 1361,
      "ज्य": 1362,
      "डॉ": 1363,
      "तय": 1364,
      "थि": 1365,
      "नए": 1366,
      "मल": 1367,
      "मंड": 1368,
      "लावा": 1369,
      "जाकर": 1370,
      "जाति": 1371,
      "प्रती": 1372,
      "प्रभाव": 1373,
      "विधा": 1374,
      "विभिन्न": 1375,
      "ड़ों": 1376,
      "त्त": 1377,
      "त्मा": 1378,
      "जिंदगी": 1379,
      "खास": 1380,
      "दोलन": 1381,
      "धित": 1382,
      "रहेगा": 1383,
      "रहेगी": 1384,
      "शिश": 1385,
      "रुष": 1386,
      "देखते": 1387,
      "वर्ग": 1388,
      "वर्ण": 1389,
      "चलते": 1390,
      "युवा": 1391,
      "दर्ज": 1392,
      "समझा": 1393,
      "ध्यम": 1394,
      "फोन": 1395,
      "बेहद": 1396,
      "पाकिस्तान": 1397,
      "आदि": 1398,
      "कमी": 1399,
      "ढा": 1400,
      "बर्": 1401,
      "बनी": 1402,
      "मारी": 1403,
      "सके": 1404,
      "सों": 1405,
      "मेंट": 1406,
      "ताओं": 1407,
      "भीर": 1408,
      "प्रो": 1409,
      "न्तु": 1410,
      "पांच": 1411,
      "संभव": 1412,
      "सुधार": 1413,
      "शादी": 1414,
      "पूछ": 1415,
      "रिया": 1416,
      "ज़ि": 1417,
      "परिणा": 1418,
      "चीन": 1419,
      "मौत": 1420,
      "उपयोग": 1421,
      "सम्मान": 1422,
      "तुम्हें": 1423,
      "सुरक्षा": 1424,
      "अध्यक्ष": 1425,
      "कल्प": 1426,
      "पिछले": 1427,
      "उम्मीद": 1428,
      "ँव": 1429,
      "अचान": 1430,
      "अलावा": 1431,
      "आकर": 1432,
      "इल": 1433,
      "इंत": 1434,
      "गरी": 1435,
      "जमी": 1436,
      "बल्": 1437,
      "शक": 1438,
      "सचि": 1439,
      "ैर": 1440,
      "कोशिश": 1441,
      "किताब": 1442,
      "क्ट": 1443,
      "परं": 1444,
      "प्रमुख": 1445,
      "राव": 1446,
      "बाव": 1447,
      "गांधी": 1448,
      "दिख": 1449,
      "मुस्": 1450,
      "कुमार": 1451,
      "समान": 1452,
      "समर्थ": 1453,
      "कारों": 1454,
      "वेब": 1455,
      "दोस्त": 1456,
      "पूर": 1457,
      "पुरुष": 1458,
      "खुशी": 1459,
      "ष्टा": 1460,
      "बनाया": 1461,
      "कमरे": 1462,
      "स्वामी": 1463,
      "ग्रह": 1464,
      "सदस्": 1465,
      "साइट": 1466,
      "दृष्टि": 1467,
      "कंपनी": 1468,
      "वजह": 1469,
      "विरोध": 1470,
      "हालांकि": 1471,
      "शिकायत": 1472,
      "स्वास्थ्य": 1473,
      "परिणाम": 1474,
      "अचानक": 1475,
      "अर्": 1476,
      "आत्म": 1477,
      "इतिहा": 1478,
      "कठ": 1479,
      "टै": 1480,
      "दय": 1481,
      "बॉ": 1482,
      "बन्": 1483,
      "यें": 1484,
      "सव": 1485,
      "हवा": 1486,
      "ेक": 1487,
      "ानि": 1488,
      "प्रधान": 1489,
      "विज्ञान": 1490,
      "ड़क": 1491,
      "बाकी": 1492,
      "दियों": 1493,
      "नीय": 1494,
      "मिक": 1495,
      "त्रि": 1496,
      "ल्ला": 1497,
      "फिल": 1498,
      "इनका": 1499,
      "चुप": 1500,
      "स्टर": 1501,
      "गुण": 1502,
      "स्थित": 1503,
      "मिलने": 1504,
      "मिलती": 1505,
      "चलता": 1506,
      "पेश": 1507,
      "दूसरा": 1508,
      "जैसा": 1509,
      "पत्थ": 1510,
      "थोड़ी": 1511,
      "साहब": 1512,
      "भूमिका": 1513,
      "गंभीर": 1514,
      "उपलब्ध": 1515,
      "इतिहास": 1516,
      "अने": 1517,
      "अत्य": 1518,
      "इक": 1519,
      "एन": 1520,
      "कहाँ": 1521,
      "गम": 1522,
      "ग्री": 1523,
      "चढ़": 1524,
      "टन": 1525,
      "तः": 1526,
      "तृ": 1527,
      "बजे": 1528,
      "भारी": 1529,
      "म्र": 1530,
      "श्रे": 1531,
      "सन्": 1532,
      "यान": 1533,
      "नाथ": 1534,
      "लाया": 1535,
      "वापस": 1536,
      "राहु": 1537,
      "्यता": 1538,
      "तिक": 1539,
      "संघ": 1540,
      "वेद": 1541,
      "दुर्": 1542,
      "देखकर": 1543,
      "सूर": 1544,
      "जबकि": 1545,
      "दर्द": 1546,
      "जरूरी": 1547,
      "बैठक": 1548,
      "परेशान": 1549,
      "खूब": 1550,
      "ंब": 1551,
      "ंता": 1552,
      "इंड": 1553,
      "उल": 1554,
      "केंद्र": 1555,
      "खड़ा": 1556,
      "चर": 1557,
      "टों": 1558,
      "डू": 1559,
      "तभी": 1560,
      "बधा": 1561,
      "मरी": 1562,
      "यहीं": 1563,
      "समु": 1564,
      "हत्या": 1565,
      "िश": 1566,
      "िका": 1567,
      "ेंट": 1568,
      "यानी": 1569,
      "नाग": 1570,
      "लाइ": 1571,
      "लेट": 1572,
      "पाठ": 1573,
      "जिक": 1574,
      "सिद्ध": 1575,
      "च्छा": 1576,
      "बिल्": 1577,
      "चेहरे": 1578,
      "मनो": 1579,
      "पेट": 1580,
      "जानते": 1581,
      "धारण": 1582,
      "बंधन": 1583,
      "अंतर": 1584,
      "दिखाई": 1585,
      "लड़की": 1586,
      "महत्वपूर्ण": 1587,
      "ंदा": 1588,
      "अक्": 1589,
      "खत्म": 1590,
      "चंद": 1591,
      "जहां": 1592,
      "दस": 1593,
      "नज": 1594,
      "पड़ी": 1595,
      "बहा": 1596,
      "मर्": 1597,
      "षित": 1598,
      "सारा": 1599,
      "हॉ": 1600,
      "िन": 1601,
      "करवा": 1602,
      "स्त्री": 1603,
      "लाइन": 1604,
      "सामा": 1605,
      "लेने": 1606,
      "प्रकाश": 1607,
      "विवाह": 1608,
      "तेज": 1609,
      "माध्यम": 1610,
      "देवी": 1611,
      "सीमा": 1612,
      "पाया": 1613,
      "संख्या": 1614,
      "जीत": 1615,
      "सिर": 1616,
      "मानव": 1617,
      "टीवी": 1618,
      "इनके": 1619,
      "बैंक": 1620,
      "वरण": 1621,
      "कृष्ण": 1622,
      "स्वरूप": 1623,
      "त्मक": 1624,
      "पत्नी": 1625,
      "पढ़ा": 1626,
      "यंत्र": 1627,
      "सलमान": 1628,
      "विषय": 1629,
      "राष्ट्र": 1630,
      "मूल्य": 1631,
      "विद्यालय": 1632,
      "आरोपी": 1633,
      "ब्लॉग": 1634,
      "बधाई": 1635,
      "अंक": 1636,
      "आग": 1637,
      "उपा": 1638,
      "जता": 1639,
      "थम": 1640,
      "दल": 1641,
      "धारा": 1642,
      "नज़": 1643,
      "नारा": 1644,
      "पट": 1645,
      "बत": 1646,
      "मण": 1647,
      "मजब": 1648,
      "मध्य": 1649,
      "रोग": 1650,
      "शू": 1651,
      "ोह": 1652,
      "र्ति": 1653,
      "भीड़": 1654,
      "कितने": 1655,
      "लाई": 1656,
      "लाने": 1657,
      "साय": 1658,
      "वास्त": 1659,
      "लेते": 1660,
      "प्रदान": 1661,
      "प्रस्तु": 1662,
      "विदेश": 1663,
      "न्यू": 1664,
      "बाजी": 1665,
      "दिव": 1666,
      "मुला": 1667,
      "चाय": 1668,
      "ंगी": 1669,
      "क्षक": 1670,
      "क्षित": 1671,
      "क्षमता": 1672,
      "जिसे": 1673,
      "क्री": 1674,
      "क्रो": 1675,
      "लगभग": 1676,
      "शुभ": 1677,
      "मिलता": 1678,
      "मोबा": 1679,
      "शील": 1680,
      "अनुसार": 1681,
      "अनुभव": 1682,
      "खोल": 1683,
      "पैदा": 1684,
      "व्यापार": 1685,
      "आंदोलन": 1686,
      "आसान": 1687,
      "करीब": 1688,
      "मार्ग": 1689,
      "अगले": 1690,
      "परीक्षा": 1691,
      "पहुँच": 1692,
      "आनंद": 1693,
      "आवश्यकता": 1694,
      "अमेरिका": 1695,
      "इन्हें": 1696,
      "घंटे": 1697,
      "अनेक": 1698,
      "राहुल": 1699,
      "मजबू": 1700,
      "अफ": 1701,
      "ऊँ": 1702,
      "एक्": 1703,
      "कम्": 1704,
      "कदम": 1705,
      "चय": 1706,
      "जंग": 1707,
      "ठन": 1708,
      "ड्": 1709,
      "देंगे": 1710,
      "ध्": 1711,
      "पण": 1712,
      "पर्य": 1713,
      "मन्": 1714,
      "मंगल": 1715,
      "यदा": 1716,
      "शव": 1717,
      "सान": 1718,
      "सत्य": 1719,
      "हल": 1720,
      "िता": 1721,
      "ताकत": 1722,
      "करनी": 1723,
      "स्ती": 1724,
      "स्तक": 1725,
      "सां": 1726,
      "सांस": 1727,
      "जाम": 1728,
      "लेज": 1729,
      "प्रक्रिया": 1730,
      "विधि": 1731,
      "न्त": 1732,
      "गाड़ी": 1733,
      "गाँव": 1734,
      "निश्": 1735,
      "नियम": 1736,
      "तोड़": 1737,
      "मित्र": 1738,
      "दीप": 1739,
      "जिम्": 1740,
      "सित": 1741,
      "हरण": 1742,
      "शित": 1743,
      "बित": 1744,
      "चारों": 1745,
      "सरकारी": 1746,
      "वीर": 1747,
      "अधिकारी": 1748,
      "मौसम": 1749,
      "न्दगी": 1750,
      "चाहिये": 1751,
      "हाथों": 1752,
      "गलत": 1753,
      "तुम्हारे": 1754,
      "ब्रह्": 1755,
      "भोजन": 1756,
      "जल्दी": 1757,
      "प्रिय": 1758,
      "फिलहाल": 1759,
      "अह": 1760,
      "अपरा": 1761,
      "असल": 1762,
      "आशा": 1763,
      "एफ": 1764,
      "जहाँ": 1765,
      "ठे": 1766,
      "धो": 1767,
      "फूल": 1768,
      "भूल": 1769,
      "रवि": 1770,
      "सच्": 1771,
      "ौल": 1772,
      "कीमत": 1773,
      "नाक": 1774,
      "कोर्ट": 1775,
      "स्से": 1776,
      "किये": 1777,
      "साफ": 1778,
      "माता": 1779,
      "मुश्": 1780,
      "मुंह": 1781,
      "मुसलमान": 1782,
      "दाय": 1783,
      "खाना": 1784,
      "पूजा": 1785,
      "रोज": 1786,
      "ज़ार": 1787,
      "ज़रू": 1788,
      "बिक": 1789,
      "बिज": 1790,
      "कहना": 1791,
      "मंत्र": 1792,
      "ब्ला": 1793,
      "चिंता": 1794,
      "रखने": 1795,
      "रखना": 1796,
      "जेल": 1797,
      "जिसके": 1798,
      "छोटी": 1799,
      "अन्ना": 1800,
      "अवसर": 1801,
      "नौकरी": 1802,
      "मिलेगा": 1803,
      "ट्रो": 1804,
      "बेहतर": 1805,
      "बचपन": 1806,
      "सामाजिक": 1807,
      "अंग": 1808,
      "असर": 1809,
      "इतनी": 1810,
      "ईश्वर": 1811,
      "ऊं": 1812,
      "खड़े": 1813,
      "घू": 1814,
      "झु": 1815,
      "झू": 1816,
      "ट्": 1817,
      "टका": 1818,
      "टने": 1819,
      "ढे": 1820,
      "तें": 1821,
      "तारी": 1822,
      "नल": 1823,
      "नव": 1824,
      "नदी": 1825,
      "पैसे": 1826,
      "भक्ति": 1827,
      "लर": 1828,
      "शल": 1829,
      "स्र": 1830,
      "सजा": 1831,
      "सदा": 1832,
      "सत्ता": 1833,
      "हक": 1834,
      "सास": 1835,
      "प्रकृति": 1836,
      "लिखा": 1837,
      "तेल": 1838,
      "तेरे": 1839,
      "तिम": 1840,
      "निका": 1841,
      "निजी": 1842,
      "पाई": 1843,
      "मुद्": 1844,
      "संचा": 1845,
      "मैने": 1846,
      "खाली": 1847,
      "तुर": 1848,
      "शिकार": 1849,
      "बिल": 1850,
      "चारण": 1851,
      "गुज": 1852,
      "लगती": 1853,
      "खुला": 1854,
      "परिवर्": 1855,
      "मौके": 1856,
      "इसीलिए": 1857,
      "जिसका": 1858,
      "चाहे": 1859,
      "जैसी": 1860,
      "सहयोग": 1861,
      "श्रद्धा": 1862,
      "करेगा": 1863,
      "करेगी": 1864,
      "फैसला": 1865,
      "इंटर": 1866,
      "कृतिक": 1867,
      "गिरफ्": 1868,
      "स्वीकार": 1869,
      "पहुंचे": 1870,
      "प्रभावित": 1871,
      "बावजूद": 1872,
      "ष्टाचार": 1873,
      "पत्थर": 1874,
      "जिम्मे": 1875,
      "ंज": 1876,
      "ंसी": 1877,
      "अस": 1878,
      "अहम": 1879,
      "अद्": 1880,
      "आइ": 1881,
      "इच्छा": 1882,
      "उड़": 1883,
      "उतर": 1884,
      "एगा": 1885,
      "गें": 1886,
      "चरण": 1887,
      "जमा": 1888,
      "तस्वी": 1889,
      "दों": 1890,
      "दबा": 1891,
      "दक्ष": 1892,
      "धानी": 1893,
      "नती": 1894,
      "बढ": 1895,
      "बयान": 1896,
      "भविष": 1897,
      "रस": 1898,
      "्त": 1899,
      "कात": 1900,
      "यालय": 1901,
      "सेना": 1902,
      "ताल": 1903,
      "स्प": 1904,
      "कित्": 1905,
      "कियों": 1906,
      "होनी": 1907,
      "साई": 1908,
      "प्री": 1909,
      "प्रार": 1910,
      "प्रथम": 1911,
      "राजा": 1912,
      "राशि": 1913,
      "विवे": 1914,
      "त्ति": 1915,
      "त्कार": 1916,
      "मेल": 1917,
      "उसमें": 1918,
      "समी": 1919,
      "क्ष्": 1920,
      "ल्ड": 1921,
      "सुख": 1922,
      "उनमें": 1923,
      "पूछा": 1924,
      "बेटी": 1925,
      "ंडा": 1926,
      "गईं": 1927,
      "लगाया": 1928,
      "टाइ": 1929,
      "चिकित्": 1930,
      "मोहन": 1931,
      "सोचा": 1932,
      "सूस": 1933,
      "महसूस": 1934,
      "बनने": 1935,
      "उत्पा": 1936,
      "पैसा": 1937,
      "हालत": 1938,
      "कराया": 1939,
      "पर्क": 1940,
      "पत्ति": 1941,
      "बैठे": 1942,
      "फोटो": 1943,
      "तैयारी": 1944,
      "नेताओं": 1945,
      "किसान": 1946,
      "महिलाओं": 1947,
      "पुराने": 1948,
      "युवक": 1949,
      "पृष्ठ": 1950,
      "सामान्य": 1951,
      "उदाहरण": 1952,
      "क्रिकेट": 1953,
      "अदालत": 1954,
      "उच्चारण": 1955,
      "इंतजार": 1956,
      "जमीन": 1957,
      "मोबाइल": 1958,
      "मुश्किल": 1959,
      "भविष्य": 1960,
      "आश्": 1961,
      "आत्मा": 1962,
      "इयों": 1963,
      "इतने": 1964,
      "उम्र": 1965,
      "एका": 1966,
      "गहरा": 1967,
      "जम": 1968,
      "धन्य": 1969,
      "नें": 1970,
      "नये": 1971,
      "फ्र": 1972,
      "बज": 1973,
      "मक": 1974,
      "वरी": 1975,
      "षि": 1976,
      "हट": 1977,
      "हल्": 1978,
      "ेश": 1979,
      "क्का": 1980,
      "साध": 1981,
      "प्रस्ता": 1982,
      "प्रमाण": 1983,
      "रास्ता": 1984,
      "विधान": 1985,
      "बाल": 1986,
      "देती": 1987,
      "दिये": 1988,
      "निवार": 1989,
      "निकाल": 1990,
      "संतु": 1991,
      "संसार": 1992,
      "संगीत": 1993,
      "दास": 1994,
      "सुंदर": 1995,
      "श्न": 1996,
      "ज़ी": 1997,
      "सबके": 1998,
      "क्रा": 1999,
      "बीर": 2000,
      "बातची": 2001,
      "देखना": 2002,
      "मंच": 2003,
      "बनाए": 2004,
      "कामना": 2005,
      "युग": 2006,
      "महान": 2007,
      "जेपी": 2008,
      "प्राण": 2009,
      "बदला": 2010,
      "निर्देश": 2011,
      "जिससे": 2012,
      "चाहती": 2013,
      "जगत": 2014,
      "लेखक": 2015,
      "लेखन": 2016,
      "कानून": 2017,
      "घायल": 2018,
      "मृत्य": 2019,
      "अध्ययन": 2020,
      "अधिकारियों": 2021,
      "सहायता": 2022,
      "प्रत्येक": 2023,
      "ज्यो": 2024,
      "प्रधानमंत्री": 2025,
      "बातचीत": 2026,
      "ंबर": 2027,
      "अजी": 2028,
      "कही": 2029,
      "खर": 2030,
      "खतरा": 2031,
      "झे": 2032,
      "टिक": 2033,
      "डो": 2034,
      "णय": 2035,
      "भै": 2036,
      "भरी": 2037,
      "लम्": 2038,
      "वती": 2039,
      "सवार": 2040,
      "सन्न": 2041,
      "हत": 2042,
      "ुक": 2043,
      "नान": 2044,
      "स्म": 2045,
      "कितना": 2046,
      "कितनी": 2047,
      "किन्तु": 2048,
      "क्शन": 2049,
      "हाई": 2050,
      "वासी": 2051,
      "वायु": 2052,
      "प्रका": 2053,
      "प्रबंधन": 2054,
      "रास्ते": 2055,
      "लियों": 2056,
      "विजय": 2057,
      "नियों": 2058,
      "रहना": 2059,
      "मुना": 2060,
      "मैच": 2061,
      "रेल": 2062,
      "समार": 2063,
      "हिर": 2064,
      "सुन्दर": 2065,
      "वेदन": 2066,
      "दोनो": 2067,
      "वहार": 2068,
      "पुस्तक": 2069,
      "शिया": 2070,
      "शिक्षण": 2071,
      "मानी": 2072,
      "बेच": 2073,
      "बेटा": 2074,
      "ंडे": 2075,
      "ियान": 2076,
      "बारा": 2077,
      "बारिश": 2078,
      "राजस्थान": 2079,
      "शुक्र": 2080,
      "दुख": 2081,
      "देखी": 2082,
      "देखें": 2083,
      "योगी": 2084,
      "दर्श": 2085,
      "निकला": 2086,
      "टिप्": 2087,
      "यूँ": 2088,
      "जिसमें": 2089,
      "ज्ञानिक": 2090,
      "लिखने": 2091,
      "वैज्ञानिक": 2092,
      "भेज": 2093,
      "दृश्य": 2094,
      "भुत": 2095,
      "कार्ड": 2096,
      "सलाह": 2097,
      "उठे": 2098,
      "पहुंचा": 2099,
      "फ़िर": 2100,
      "हजारों": 2101,
      "आयोजित": 2102,
      "आवाज": 2103,
      "शर्मा": 2104,
      "ज्ञापन": 2105,
      "तलाश": 2106,
      "नियमित": 2107,
      "खरीद": 2108,
      "वेबसाइट": 2109,
      "सदस्य": 2110,
      "कठिन": 2111,
      "अक्सर": 2112,
      "नज़र": 2113,
      "वास्तव": 2114,
      "दिवस": 2115,
      "परिवर्तन": 2116,
      "मृत्यु": 2117,
      "ज्योति": 2118,
      "ंतर": 2119,
      "अख": 2120,
      "अर": 2121,
      "आदेश": 2122,
      "आकाश": 2123,
      "उल्": 2124,
      "खें": 2125,
      "खान": 2126,
      "खराब": 2127,
      "चक": 2128,
      "छह": 2129,
      "तमाम": 2130,
      "दवा": 2131,
      "पॉ": 2132,
      "पौ": 2133,
      "पंच": 2134,
      "पन्न": 2135,
      "भय": 2136,
      "भक्त": 2137,
      "मति": 2138,
      "मधु": 2139,
      "यण": 2140,
      "लड": 2141,
      "वों": 2142,
      "शर": 2143,
      "सृ": 2144,
      "समि": 2145,
      "सहम": 2146,
      "िए": 2147,
      "ूं": 2148,
      "ृह": 2149,
      "ेक्षा": 2150,
      "साद": 2151,
      "सागर": 2152,
      "जाओ": 2153,
      "जाग": 2154,
      "वाणी": 2155,
      "लेना": 2156,
      "प्रदर्शन": 2157,
      "प्रशासन": 2158,
      "प्रसन्न": 2159,
      "लिंग": 2160,
      "तीनों": 2161,
      "विन": 2162,
      "विवाद": 2163,
      "माया": 2164,
      "मात्र": 2165,
      "बाबू": 2166,
      "दिशा": 2167,
      "एकदम": 2168,
      "रहेंगे": 2169,
      "सीबी": 2170,
      "मुंब": 2171,
      "संकट": 2172,
      "उसको": 2173,
      "समर्": 2174,
      "हमले": 2175,
      "ल्म": 2176,
      "जिद": 2177,
      "शाह": 2178,
      "ढ़ी": 2179,
      "तकनी": 2180,
      "इनकी": 2181,
      "वीडियो": 2182,
      "दुकान": 2183,
      "खुल": 2184,
      "चलती": 2185,
      "खिल": 2186,
      "वोट": 2187,
      "बोर्ड": 2188,
      "जुड़े": 2189,
      "निर्णय": 2190,
      "कर्ता": 2191,
      "स्वागत": 2192,
      "भाग्य": 2193,
      "हेतु": 2194,
      "श्रम": 2195,
      "अंतिम": 2196,
      "ब्रि": 2197,
      "राजनीतिक": 2198,
      "आँखों": 2199,
      "रुपये": 2200,
      "इलाज": 2201,
      "भ्रष्टाचार": 2202,
      "सफलता": 2203,
      "अकेले": 2204,
      "अभियान": 2205,
      "बल्कि": 2206,
      "परंपरा": 2207,
      "बिल्कुल": 2208,
      "संचालन": 2209,
      "समिति": 2210,
      "मुंबई": 2211,
      "ँगा": 2212,
      "आठ": 2213,
      "आकर्": 2214,
      "उड़ा": 2215,
      "कं": 2216,
      "कने": 2217,
      "खर्": 2218,
      "चर्य": 2219,
      "जत": 2220,
      "जनों": 2221,
      "जरु": 2222,
      "ड्रा": 2223,
      "फर्": 2224,
      "बला": 2225,
      "बारी": 2226,
      "भरो": 2227,
      "लना": 2228,
      "वरि": 2229,
      "वस्तु": 2230,
      "सें": 2231,
      "हटा": 2232,
      "ील": 2233,
      "काली": 2234,
      "र्जा": 2235,
      "लाब": 2236,
      "प्रश्न": 2237,
      "मास्टर": 2238,
      "बां": 2239,
      "बाग": 2240,
      "बाबा": 2241,
      "गाय": 2242,
      "निर": 2243,
      "नींद": 2244,
      "पाने": 2245,
      "पाता": 2246,
      "पाती": 2247,
      "त्न": 2248,
      "संस्था": 2249,
      "संवाद": 2250,
      "संसद": 2251,
      "संबं": 2252,
      "मेहन": 2253,
      "चाप": 2254,
      "अपेक्षा": 2255,
      "हमला": 2256,
      "ल्स": 2257,
      "जिए": 2258,
      "शाल": 2259,
      "शांति": 2260,
      "उनको": 2261,
      "हरि": 2262,
      "धियों": 2263,
      "रिक": 2264,
      "मानते": 2265,
      "पहला": 2266,
      "म्स": 2267,
      "बीत": 2268,
      "बीजेपी": 2269,
      "स्ट्रे": 2270,
      "स्थल": 2271,
      "दूरी": 2272,
      "मंजू": 2273,
      "प्ति": 2274,
      "आजकल": 2275,
      "वर्त": 2276,
      "जाएँ": 2277,
      "चलने": 2278,
      "युद्ध": 2279,
      "रखें": 2280,
      "बढ़ती": 2281,
      "बहस": 2282,
      "फिल्मों": 2283,
      "लिखी": 2284,
      "नोट": 2285,
      "धीरे": 2286,
      "शोर": 2287,
      "पत्रकार": 2288,
      "्यूटर": 2289,
      "आसानी": 2290,
      "धुनिक": 2291,
      "थोड़ा": 2292,
      "वृद्धि": 2293,
      "ग्राम": 2294,
      "आरोप": 2295,
      "जायेगा": 2296,
      "तिहासिक": 2297,
      "पृथ": 2298,
      "वार्ता": 2299,
      "आवाज़": 2300,
      "सचिव": 2301,
      "बन्ध": 2302,
      "तृत्व": 2303,
      "सूरज": 2304,
      "अद्भुत": 2305,
      "तस्वीर": 2306,
      "दक्षि": 2307,
      "समारोह": 2308,
      "मेहनत": 2309,
      "अथ": 2310,
      "अल": 2311,
      "अश्": 2312,
      "आयोग": 2313,
      "आधुनिक": 2314,
      "इंस": 2315,
      "इस्ते": 2316,
      "उद्योग": 2317,
      "एच": 2318,
      "खतर": 2319,
      "गै": 2320,
      "गार": 2321,
      "गंगा": 2322,
      "जला": 2323,
      "ट्रा": 2324,
      "नारी": 2325,
      "पत": 2326,
      "फू": 2327,
      "फ्ट": 2328,
      "फार्": 2329,
      "मज": 2330,
      "मॉ": 2331,
      "रान": 2332,
      "वली": 2333,
      "शै": 2334,
      "सका": 2335,
      "हृ": 2336,
      "हें": 2337,
      "ेंगी": 2338,
      "्रि": 2339,
      "्रवाई": 2340,
      "क्कर": 2341,
      "साब": 2342,
      "साथी": 2343,
      "साबित": 2344,
      "प्रचार": 2345,
      "प्रशिक्षण": 2346,
      "विस्त": 2347,
      "न्स": 2348,
      "बाँ": 2349,
      "तियों": 2350,
      "निंग": 2351,
      "निभा": 2352,
      "निष्": 2353,
      "संत": 2354,
      "मेन": 2355,
      "समू": 2356,
      "कारो": 2357,
      "कार्रवाई": 2358,
      "दाता": 2359,
      "सुनी": 2360,
      "दोष": 2361,
      "हरिया": 2362,
      "पुत्र": 2363,
      "मीण": 2364,
      "तरफ़": 2365,
      "बिहार": 2366,
      "क्रे": 2367,
      "बातों": 2368,
      "सरल": 2369,
      "स्टा": 2370,
      "लगते": 2371,
      "कहे": 2372,
      "कहने": 2373,
      "सोम": 2374,
      "प्ले": 2375,
      "छात्र": 2376,
      "पिक": 2377,
      "पियों": 2378,
      "जाएंगे": 2379,
      "अधिकां": 2380,
      "ार्क": 2381,
      "बैठी": 2382,
      "योग्य": 2383,
      "रखते": 2384,
      "शीर्ष": 2385,
      "बुला": 2386,
      "बुद्धि": 2387,
      "प्राचीन": 2388,
      "बदले": 2389,
      "जुन": 2390,
      "स्थापित": 2391,
      "बहन": 2392,
      "खोज": 2393,
      "फायदा": 2394,
      "पर्व": 2395,
      "दरवा": 2396,
      "दिखाया": 2397,
      "सुनकर": 2398,
      "लोकतंत्र": 2399,
      "खिलाड़ी": 2400,
      "शानदार": 2401,
      "पंजा": 2402,
      "उठाया": 2403,
      "तरीके": 2404,
      "भेद": 2405,
      "चोट": 2406,
      "मृत": 2407,
      "शब्दों": 2408,
      "विश्वविद्यालय": 2409,
      "ग्रामीण": 2410,
      "पदार्थ": 2411,
      "संगठन": 2412,
      "जल्द": 2413,
      "स्टेशन": 2414,
      "माहौल": 2415,
      "सपने": 2416,
      "सिलसि": 2417,
      "डॉक्टर": 2418,
      "गरीब": 2419,
      "अत्यंत": 2420,
      "संघर्ष": 2421,
      "मुलाकात": 2422,
      "कम्प": 2423,
      "ज़रूरत": 2424,
      "आश्चर्य": 2425,
      "प्रस्ताव": 2426,
      "अजीब": 2427,
      "शुक्रवार": 2428,
      "अखबार": 2429,
      "संबंधित": 2430,
      "वर्तमान": 2431,
      "इस्तेमाल": 2432,
      "अधिकांश": 2433,
      "अल्": 2434,
      "आउ": 2435,
      "आना": 2436,
      "आभार": 2437,
      "आयी": 2438,
      "आवेदन": 2439,
      "इधर": 2440,
      "उधर": 2441,
      "एक्स": 2442,
      "एंगे": 2443,
      "एजें": 2444,
      "कमा": 2445,
      "कब्": 2446,
      "कपूर": 2447,
      "गौर": 2448,
      "गहरी": 2449,
      "चन": 2450,
      "पें": 2451,
      "पहर": 2452,
      "फर्क": 2453,
      "बरा": 2454,
      "मजा": 2455,
      "मती": 2456,
      "रै": 2457,
      "रानी": 2458,
      "लेंगे": 2459,
      "समे": 2460,
      "सड़क": 2461,
      "हड़": 2462,
      "हनु": 2463,
      "ेंस": 2464,
      "नेतृत्व": 2465,
      "ताछ": 2466,
      "नायक": 2467,
      "स्पे": 2468,
      "क्लिक": 2469,
      "वाहि": 2470,
      "प्रकट": 2471,
      "प्रशं": 2472,
      "प्रसाद": 2473,
      "राग": 2474,
      "विध": 2475,
      "माश": 2476,
      "निशा": 2477,
      "निम्": 2478,
      "नियंत्र": 2479,
      "मिट्टी": 2480,
      "सीधे": 2481,
      "पाये": 2482,
      "त्वा": 2483,
      "त्सव": 2484,
      "जिले": 2485,
      "सुविधा": 2486,
      "सिया": 2487,
      "सियों": 2488,
      "दोपहर": 2489,
      "बिता": 2490,
      "म्भ": 2491,
      "जोड़": 2492,
      "बीस": 2493,
      "बीमारी": 2494,
      "स्थानी": 2495,
      "वीं": 2496,
      "राजधानी": 2497,
      "कहान": 2498,
      "देखे": 2499,
      "किनारे": 2500,
      "बनाई": 2501,
      "प्ता": 2502,
      "छात्रों": 2503,
      "परिष": 2504,
      "परिचय": 2505,
      "सूर्य": 2506,
      "मुझसे": 2507,
      "व्यवहार": 2508,
      "कमजोर": 2509,
      "फ़ा": 2510,
      "रखता": 2511,
      "रखती": 2512,
      "बुरा": 2513,
      "टिल": 2514,
      "उत्साह": 2515,
      "शेयर": 2516,
      "मामलों": 2517,
      "प्रतिक्रिया": 2518,
      "अन्त": 2519,
      "ज्यादातर": 2520,
      "तनाव": 2521,
      "पर्या": 2522,
      "पढ़ने": 2523,
      "पुरस्": 2524,
      "नौकर": 2525,
      "दरअसल": 2526,
      "तुम्हारी": 2527,
      "मूर्ति": 2528,
      "आसपास": 2529,
      "धरती": 2530,
      "भेजा": 2531,
      "पड़ेगा": 2532,
      "ख्याल": 2533,
      "संस्कृति": 2534,
      "खून": 2535,
      "छुट्टी": 2536,
      "आवश्यक": 2537,
      "आधारित": 2538,
      "आयोजन": 2539,
      "दौड़": 2540,
      "पूछताछ": 2541,
      "उपाय": 2542,
      "मन्दिर": 2543,
      "निश्चित": 2544,
      "ब्रह्मा": 2545,
      "बिजली": 2546,
      "स्पष्ट": 2547,
      "धन्यवाद": 2548,
      "प्रकाशित": 2549,
      "दक्षिण": 2550,
      "खतरनाक": 2551,
      "आउट": 2552,
      "ँग": 2553,
      "ँच": 2554,
      "ंजी": 2555,
      "अग्र": 2556,
      "अतः": 2557,
      "आय": 2558,
      "इए": 2559,
      "एंड": 2560,
      "ऐतिहासिक": 2561,
      "कले": 2562,
      "खन": 2563,
      "खण्ड": 2564,
      "खैर": 2565,
      "गन": 2566,
      "चलित": 2567,
      "छवि": 2568,
      "छत्": 2569,
      "जर्": 2570,
      "टकों": 2571,
      "द्रा": 2572,
      "धक": 2573,
      "धार्": 2574,
      "नृ": 2575,
      "पथ": 2576,
      "पान": 2577,
      "पसी": 2578,
      "पटे": 2579,
      "बहि": 2580,
      "भला": 2581,
      "भले": 2582,
      "भरा": 2583,
      "रता": 2584,
      "लड़ा": 2585,
      "शनी": 2586,
      "सकी": 2587,
      "ोत": 2588,
      "ोन": 2589,
      "्वी": 2590,
      "नाटक": 2591,
      "स्टी": 2592,
      "स्कृतिक": 2593,
      "किंग": 2594,
      "होली": 2595,
      "लाम": 2596,
      "साधारण": 2597,
      "वाही": 2598,
      "लेता": 2599,
      "ड़ियों": 2600,
      "मालिक": 2601,
      "देह": 2602,
      "दिक": 2603,
      "थाने": 2604,
      "निवेश": 2605,
      "मिन": 2606,
      "मियों": 2607,
      "मिश्र": 2608,
      "पाप": 2609,
      "पाते": 2610,
      "मुँ": 2611,
      "मुक्त": 2612,
      "संभा": 2613,
      "मैदान": 2614,
      "ंग्": 2615,
      "रेट": 2616,
      "हिंद": 2617,
      "हिस्सा": 2618,
      "जिन्ह": 2619,
      "सुझा": 2620,
      "रूम": 2621,
      "रोमा": 2622,
      "रोजग": 2623,
      "शिक्षक": 2624,
      "वारी": 2625,
      "पीड़": 2626,
      "सब्": 2627,
      "ंदन": 2628,
      "गुल": 2629,
      "देश्य": 2630,
      "दूध": 2631,
      "रुक": 2632,
      "रुचि": 2633,
      "लगाई": 2634,
      "कहला": 2635,
      "टाई": 2636,
      "खुले": 2637,
      "मोर्": 2638,
      "बनाकर": 2639,
      "परिस्थिति": 2640,
      "सूची": 2641,
      "लोड": 2642,
      "भारती": 2643,
      "युक्ति": 2644,
      "पेड़": 2645,
      "महंगा": 2646,
      "बुध": 2647,
      "उपचार": 2648,
      "उत्तरा": 2649,
      "गोली": 2650,
      "छोटे": 2651,
      "होंगी": 2652,
      "पैर": 2653,
      "कैसी": 2654,
      "जरूर": 2655,
      "क्रमण": 2656,
      "शोक": 2657,
      "आंखों": 2658,
      "कॉलेज": 2659,
      "लोकप्रिय": 2660,
      "पंचा": 2661,
      "कार्यालय": 2662,
      "विशेषज्ञ": 2663,
      "सुरक्षित": 2664,
      "लैंड": 2665,
      "पुराना": 2666,
      "फ़िल्म": 2667,
      "आतंक": 2668,
      "राहत": 2669,
      "सुनाई": 2670,
      "प्रतीक": 2671,
      "कल्पना": 2672,
      "सचिन": 2673,
      "ग्रहण": 2674,
      "चुपचाप": 2675,
      "इंडिया": 2676,
      "मंगलवार": 2677,
      "सांस्कृतिक": 2678,
      "तुरंत": 2679,
      "इंटरनेट": 2680,
      "गिरफ्तार": 2681,
      "प्रारंभ": 2682,
      "साधना": 2683,
      "उल्लेख": 2684,
      "सीबीआई": 2685,
      "पृथ्वी": 2686,
      "इंसान": 2687,
      "हृदय": 2688,
      "हनुमान": 2689,
      "स्थानीय": 2690,
      "छत्तीस": 2691,
      "धार्मिक": 2692,
      "ंदे": 2693,
      "ंतु": 2694,
      "अनि": 2695,
      "अंध": 2696,
      "अधू": 2697,
      "आर्थ": 2698,
      "आतं": 2699,
      "आधे": 2700,
      "उतार": 2701,
      "एह": 2702,
      "कड़ी": 2703,
      "गले": 2704,
      "घट": 2705,
      "घरे": 2706,
      "चरि": 2707,
      "चक्र": 2708,
      "जरी": 2709,
      "जंगल": 2710,
      "ठो": 2711,
      "तट": 2712,
      "तल": 2713,
      "नू": 2714,
      "नंबर": 2715,
      "पहा": 2716,
      "पशु": 2717,
      "पणी": 2718,
      "बौ": 2719,
      "बचे": 2720,
      "बची": 2721,
      "भौ": 2722,
      "भर्": 2723,
      "मकान": 2724,
      "रक्षा": 2725,
      "वें": 2726,
      "शत": 2727,
      "शौ": 2728,
      "शानी": 2729,
      "सार्": 2730,
      "हद": 2731,
      "हारी": 2732,
      "िकी": 2733,
      "ॉप": 2734,
      "हैघ्": 2735,
      "काट": 2736,
      "याल": 2737,
      "हीन": 2738,
      "स्पर्": 2739,
      "स्मृ": 2740,
      "किंतु": 2741,
      "क्ता": 2742,
      "क्सी": 2743,
      "लालू": 2744,
      "लागू": 2745,
      "हासिल": 2746,
      "वां": 2747,
      "वाने": 2748,
      "वादियों": 2749,
      "इसको": 2750,
      "इसलिये": 2751,
      "प्रणा": 2752,
      "रात्रि": 2753,
      "विशि": 2754,
      "विद्य": 2755,
      "तेजी": 2756,
      "माइ": 2757,
      "बालों": 2758,
      "देकर": 2759,
      "तित्व": 2760,
      "नियर": 2761,
      "तोष": 2762,
      "मिता": 2763,
      "सीआई": 2764,
      "त्तर": 2765,
      "मुका": 2766,
      "मुता": 2767,
      "संजय": 2768,
      "त्रियों": 2769,
      "मैन": 2770,
      "हिस्से": 2771,
      "हिसाब": 2772,
      "जिन्दगी": 2773,
      "सुल": 2774,
      "सुपर": 2775,
      "सिखा": 2776,
      "शाली": 2777,
      "च्छ": 2778,
      "ढ़े": 2779,
      "वारा": 2780,
      "पीट": 2781,
      "बिन": 2782,
      "बादल": 2783,
      "गुजर": 2784,
      "कहता": 2785,
      "दुश्": 2786,
      "सोने": 2787,
      "बनाना": 2788,
      "चीज": 2789,
      "फ़र": 2790,
      "बैठा": 2791,
      "महारा": 2792,
      "ष्ठा": 2793,
      "रखी": 2794,
      "रखे": 2795,
      "मौका": 2796,
      "बढ़ता": 2797,
      "प्राथ": 2798,
      "बोली": 2799,
      "समझना": 2800,
      "शेर": 2801,
      "यूं": 2802,
      "समाधान": 2803,
      "छोटा": 2804,
      "फिल्में": 2805,
      "भूख": 2806,
      "भूत": 2807,
      "लूट": 2808,
      "अवस्था": 2809,
      "अवश्य": 2810,
      "कराने": 2811,
      "जैन": 2812,
      "पढ़ें": 2813,
      "ख़ु": 2814,
      "वंश": 2815,
      "राज्यों": 2816,
      "एसपी": 2817,
      "वाहन": 2818,
      "व्यक्तित्व": 2819,
      "पकड़": 2820,
      "वृक्ष": 2821,
      "अस्तित्व": 2822,
      "गर्मी": 2823,
      "संस्कृत": 2824,
      "वर्षों": 2825,
      "गूगल": 2826,
      "मनाया": 2827,
      "हालात": 2828,
      "पूर्वक": 2829,
      "टूट": 2830,
      "इन्हीं": 2831,
      "नैतिक": 2832,
      "विकसित": 2833,
      "रिश्ते": 2834,
      "समर्थन": 2835,
      "श्रेष्ठ": 2836,
      "प्रस्तुत": 2837,
      "विदेशी": 2838,
      "शुभकामना": 2839,
      "अपराध": 2840,
      "बजट": 2841,
      "खर्च": 2842,
      "ड्राइ": 2843,
      "भरोसा": 2844,
      "स्ट्रेलिया": 2845,
      "सोमवार": 2846,
      "परिषद": 2847,
      "नृत्य": 2848,
      "रोजगार": 2849,
      "पंचायत": 2850,
      "भर्ती": 2851,
      "ँस": 2852,
      "ंजन": 2853,
      "अना": 2854,
      "अमर": 2855,
      "आजा": 2856,
      "आराम": 2857,
      "आसमान": 2858,
      "इस्": 2859,
      "उद": 2860,
      "ओवर": 2861,
      "कंध": 2862,
      "कपड़े": 2863,
      "कन्या": 2864,
      "चारी": 2865,
      "जरा": 2866,
      "ठंड": 2867,
      "डल": 2868,
      "ढूं": 2869,
      "तत्व": 2870,
      "धंध": 2871,
      "नक": 2872,
      "पढ": 2873,
      "पश्": 2874,
      "पटा": 2875,
      "बद्ध": 2876,
      "मों": 2877,
      "महो": 2878,
      "मनी": 2879,
      "मंग": 2880,
      "मारा": 2881,
      "रहीं": 2882,
      "लका": 2883,
      "लता": 2884,
      "लान": 2885,
      "लक्षण": 2886,
      "वु": 2887,
      "शनिवार": 2888,
      "सले": 2889,
      "सदी": 2890,
      "सहित": 2891,
      "हार्": 2892,
      "हंस": 2893,
      "हफ्": 2894,
      "कानों": 2895,
      "काव्य": 2896,
      "यात्रियों": 2897,
      "स्पी": 2898,
      "र्थी": 2899,
      "किरा": 2900,
      "क्के": 2901,
      "क्की": 2902,
      "लाख": 2903,
      "लाकर": 2904,
      "जाल": 2905,
      "प्रसार": 2906,
      "प्रवेश": 2907,
      "प्रगति": 2908,
      "प्रसिद्ध": 2909,
      "लिखे": 2910,
      "लिंक": 2911,
      "तीर": 2912,
      "तीश": 2913,
      "विशाल": 2914,
      "न्यास": 2915,
      "माय": 2916,
      "माने": 2917,
      "बाई": 2918,
      "देगा": 2919,
      "निरा": 2920,
      "सीधा": 2921,
      "पाक": 2922,
      "पालन": 2923,
      "मुच": 2924,
      "संपर्क": 2925,
      "चाई": 2926,
      "कुर्": 2927,
      "क्ष्य": 2928,
      "दाई": 2929,
      "शांत": 2930,
      "पुल": 2931,
      "मीर": 2932,
      "रोड": 2933,
      "धिक": 2934,
      "धिकार": 2935,
      "धिकारी": 2936,
      "शिप": 2937,
      "मान्यता": 2938,
      "श्त": 2939,
      "ज़्यादा": 2940,
      "बेटे": 2941,
      "गुना": 2942,
      "गुरू": 2943,
      "गुस्सा": 2944,
      "चेहरा": 2945,
      "जनक": 2946,
      "परियोजना": 2947,
      "चीनी": 2948,
      "व्यस्त": 2949,
      "मनोर": 2950,
      "बनता": 2951,
      "डाउन": 2952,
      "लियां": 2953,
      "नामक": 2954,
      "खेती": 2955,
      "बरस": 2956,
      "जुटा": 2957,
      "डिंग": 2958,
      "स्वभाव": 2959,
      "स्वतंत्र": 2960,
      "कर्ताओं": 2961,
      "जिसकी": 2962,
      "पार्ट": 2963,
      "स्तानी": 2964,
      "समाप्त": 2965,
      "सम्बन्ध": 2966,
      "भूति": 2967,
      "सर्वो": 2968,
      "ग्रस्त": 2969,
      "न्नत": 2970,
      "अंदा": 2971,
      "क़ा": 2972,
      "सुनवाई": 2973,
      "इंजी": 2974,
      "विचारों": 2975,
      "आरंभ": 2976,
      "लड़का": 2977,
      "त्याग": 2978,
      "तरीका": 2979,
      "वृत्ति": 2980,
      "कंप्यूटर": 2981,
      "खींच": 2982,
      "मांगी": 2983,
      "वजनिक": 2984,
      "माँग": 2985,
      "रुपए": 2986,
      "युवती": 2987,
      "ष्णु": 2988,
      "शंका": 2989,
      "उदास": 2990,
      "शुरुआत": 2991,
      "सचमुच": 2992,
      "सपना": 2993,
      "उद्देश्य": 2994,
      "उच्च": 2995,
      "छिपा": 2996,
      "किताबों": 2997,
      "उलझ": 2998,
      "पाठक": 2999,
      "चंद्र": 3000,
      "नजदी": 3001,
      "पढ़ाई": 3002,
      "नाराज": 3003,
      "मजबूत": 3004,
      "समीक्षा": 3005,
      "चिकित्सा": 3006,
      "उत्पादन": 3007,
      "रेलवे": 3008,
      "टिप्पणी": 3009,
      "ज्योतिष": 3010,
      "वरिष्ठ": 3011,
      "कालीन": 3012,
      "कारोबार": 3013,
      "हरियाणा": 3014,
      "पंजाब": 3015,
      "सिलसिला": 3016,
      "मुँह": 3017,
      "छत्तीसगढ़": 3018,
      "आर्थिक": 3019,
      "सार्वजनिक": 3020,
      "विशिष्ट": 3021,
      "मुताबिक": 3022,
      "प्राथमि": 3023,
      "हफ्ते": 3024,
      "अक्ष": 3025,
      "अमित": 3026,
      "अन्दर": 3027,
      "अशोक": 3028,
      "आकार": 3029,
      "आधा": 3030,
      "इड": 3031,
      "इंद": 3032,
      "ईमान": 3033,
      "उर्": 3034,
      "एड": 3035,
      "एयर": 3036,
      "कना": 3037,
      "कस्": 3038,
      "कमे": 3039,
      "कमाल": 3040,
      "खड़ी": 3041,
      "गौ": 3042,
      "गन्": 3043,
      "गड़": 3044,
      "गृह": 3045,
      "घि": 3046,
      "घे": 3047,
      "छली": 3048,
      "जहा": 3049,
      "जड़": 3050,
      "जहर": 3051,
      "णु": 3052,
      "तरे": 3053,
      "दक": 3054,
      "दशा": 3055,
      "पने": 3056,
      "पों": 3057,
      "पना": 3058,
      "पंड": 3059,
      "फॉ": 3060,
      "बरी": 3061,
      "बानी": 3062,
      "बन्द": 3063,
      "बडे": 3064,
      "बजाय": 3065,
      "भवन": 3066,
      "मच": 3067,
      "मय": 3068,
      "म्यू": 3069,
      "यमुना": 3070,
      "यत्न": 3071,
      "रक्त": 3072,
      "लक्ष्": 3073,
      "वॉ": 3074,
      "वानी": 3075,
      "वस्त्र": 3076,
      "शराब": 3077,
      "सफ़र": 3078,
      "ुल": 3079,
      "काउ": 3080,
      "काय": 3081,
      "कारा": 3082,
      "कायम": 3083,
      "केन्द्र": 3084,
      "नेमा": 3085,
      "हीरो": 3086,
      "ारों": 3087,
      "करि": 3088,
      "नाश": 3089,
      "स्को": 3090,
      "स्वर": 3091,
      "स्वर्ण": 3092,
      "र्गत": 3093,
      "किस्म": 3094,
      "क्ल": 3095,
      "परन्तु": 3096,
      "लास": 3097,
      "साव": 3098,
      "जात": 3099,
      "वाय": 3100,
      "वाता": 3101,
      "प्रै": 3102,
      "प्रौ": 3103,
      "प्रार्थ": 3104,
      "प्रचलित": 3105,
      "रासत": 3106,
      "विज्ञापन": 3107,
      "तेरी": 3108,
      "बाज": 3109,
      "बांध": 3110,
      "हुये": 3111,
      "तिया": 3112,
      "गाने": 3113,
      "मिठा": 3114,
      "सीन": 3115,
      "पात्र": 3116,
      "संयुक्त": 3117,
      "संभावना": 3118,
      "संपत्ति": 3119,
      "त्रु": 3120,
      "त्रिक": 3121,
      "जीता": 3122,
      "जीना": 3123,
      "कुर": 3124,
      "कुत्": 3125,
      "कुशल": 3126,
      "कारक": 3127,
      "भाषण": 3128,
      "दीवार": 3129,
      "हमसे": 3130,
      "ल्क": 3131,
      "जितनी": 3132,
      "सिद्धा": 3133,
      "सिनेमा": 3134,
      "शासक": 3135,
      "्यास": 3136,
      "पूंजी": 3137,
      "द्व": 3138,
      "हरु": 3139,
      "मीटर": 3140,
      "रोगी": 3141,
      "रोज़": 3142,
      "रोटी": 3143,
      "रोशनी": 3144,
      "सक्रि": 3145,
      "रित": 3146,
      "रिंग": 3147,
      "रियों": 3148,
      "मानो": 3149,
      "बिस्तर": 3150,
      "सबको": 3151,
      "म्ब": 3152,
      "म्बर": 3153,
      "जोशी": 3154,
      "चारा": 3155,
      "चार्": 3156,
      "सरों": 3157,
      "चेतना": 3158,
      "खुशि": 3159,
      "ब्बत": 3160,
      "चिल्ला": 3161,
      "मोती": 3162,
      "प्पी": 3163,
      "चीज़": 3164,
      "जाएं": 3165,
      "मनमोहन": 3166,
      "टेली": 3167,
      "महल": 3168,
      "ष्कार": 3169,
      "जानवर": 3170,
      "बनकर": 3171,
      "बनती": 3172,
      "डाय": 3173,
      "डाक्टर": 3174,
      "कृषि": 3175,
      "दर्भ": 3176,
      "दर्शक": 3177,
      "उपकरण": 3178,
      "प्राप्ति": 3179,
      "बदमाश": 3180,
      "बोला": 3181,
      "जुर्": 3182,
      "स्वस्थ": 3183,
      "पारि": 3184,
      "मतदान": 3185,
      "समाचार": 3186,
      "मार्ट": 3187,
      "सामना": 3188,
      "डेढ़": 3189,
      "सर्च": 3190,
      "ग्रं": 3191,
      "कैं": 3192,
      "ख़ा": 3193,
      "लगेगा": 3194,
      "पत्रिका": 3195,
      "मूड": 3196,
      "मिलेगी": 3197,
      "भाषाओं": 3198,
      "आरक्षण": 3199,
      "ट्रै": 3200,
      "बेहतरी": 3201,
      "चोरी": 3202,
      "विद्यार्थी": 3203,
      "परेशानी": 3204,
      "हिंसा": 3205,
      "सोचने": 3206,
      "संस्कार": 3207,
      "नरेंद्र": 3208,
      "जायेगी": 3209,
      "परीक्षण": 3210,
      "तीसरे": 3211,
      "आखिरी": 3212,
      "घुस": 3213,
      "विरोधी": 3214,
      "जायेंगे": 3215,
      "आनन्द": 3216,
      "शंकर": 3217,
      "उन्हीं": 3218,
      "समस्याओं": 3219,
      "संबंधी": 3220,
      "ब्राह्": 3221,
      "अकेला": 3222,
      "खबरें": 3223,
      "सहायक": 3224,
      "रोकने": 3225,
      "द्योगिकी": 3226,
      "प्रत्यक्ष": 3227,
      "ज़िन्दगी": 3228,
      "दोस्तों": 3229,
      "प्रस्तुति": 3230,
      "पर्यटकों": 3231,
      "स्रोत": 3232,
      "गुजरात": 3233,
      "असली": 3234,
      "गहराई": 3235,
      "बदलाव": 3236,
      "निर्देशक": 3237,
      "सहमत": 3238,
      "समर्पण": 3239,
      "तकनीकी": 3240,
      "निम्न": 3241,
      "पुरस्कार": 3242,
      "लड़ाई": 3243,
      "बुधवार": 3244,
      "प्रणाली": 3245,
      "वुड": 3246,
      "डाउनलोड": 3247,
      "पंडित": 3248,
      "प्रार्थना": 3249,
      "ंकार": 3250,
      "ंदी": 3251,
      "अम": 3252,
      "अरे": 3253,
      "अध्या": 3254,
      "अमरी": 3255,
      "आत्": 3256,
      "आशी": 3257,
      "आस्था": 3258,
      "आधी": 3259,
      "आज़ा": 3260,
      "इश": 3261,
      "इजा": 3262,
      "इश्": 3263,
      "उजा": 3264,
      "उचित": 3265,
      "ऊर्जा": 3266,
      "ऋण": 3267,
      "ऑस्ट्रेलिया": 3268,
      "कस": 3269,
      "कन्": 3270,
      "कच्": 3271,
      "कष्ट": 3272,
      "कड़ों": 3273,
      "कबीर": 3274,
      "गों": 3275,
      "चयन": 3276,
      "चन्द्र": 3277,
      "झार": 3278,
      "टर्": 3279,
      "ट्यू": 3280,
      "ड्यू": 3281,
      "ढंग": 3282,
      "ण्ट": 3283,
      "तथ": 3284,
      "तत्": 3285,
      "तारे": 3286,
      "तर्क": 3287,
      "तहत": 3288,
      "दै": 3289,
      "फट": 3290,
      "फें": 3291,
      "ब्रे": 3292,
      "भरे": 3293,
      "भरत": 3294,
      "भटक": 3295,
      "मशी": 3296,
      "यथा": 3297,
      "यिक": 3298,
      "लती": 3299,
      "लक्ष्य": 3300,
      "व्र": 3301,
      "श्या": 3302,
      "शरण": 3303,
      "सभ": 3304,
      "सनी": 3305,
      "सत्र": 3306,
      "सख्": 3307,
      "हानि": 3308,
      "ुत": 3309,
      "्ति": 3310,
      "काला": 3311,
      "नेस": 3312,
      "नेपाल": 3313,
      "सेक्स": 3314,
      "ताकि": 3315,
      "करूँ": 3316,
      "कोण": 3317,
      "कोय": 3318,
      "स्ना": 3319,
      "स्वाद": 3320,
      "स्नान": 3321,
      "कित": 3322,
      "किर": 3323,
      "होटल": 3324,
      "परो": 3325,
      "ानों": 3326,
      "लाश": 3327,
      "लाना": 3328,
      "सालों": 3329,
      "साढ़े": 3330,
      "हाद": 3331,
      "वादा": 3332,
      "वाकई": 3333,
      "लेगा": 3334,
      "लेगी": 3335,
      "लिश": 3336,
      "लिका": 3337,
      "लिस्ट": 3338,
      "वित्त": 3339,
      "विकल्प": 3340,
      "विविध": 3341,
      "विष्णु": 3342,
      "तेरा": 3343,
      "न्हा": 3344,
      "ड़की": 3345,
      "मामा": 3346,
      "मालू": 3347,
      "मात्रा": 3348,
      "बाप": 3349,
      "तिष्": 3350,
      "गाह": 3351,
      "गाना": 3352,
      "दित": 3353,
      "दिमा": 3354,
      "निंदा": 3355,
      "रहें": 3356,
      "रहस्": 3357,
      "मिनी": 3358,
      "मिशन": 3359,
      "सीख": 3360,
      "सीट": 3361,
      "पाए": 3362,
      "पापा": 3363,
      "संचार": 3364,
      "संस्थान": 3365,
      "संतान": 3366,
      "संक्रमण": 3367,
      "मेर": 3368,
      "मेश": 3369,
      "मेले": 3370,
      "मेट्रो": 3371,
      "रेखा": 3372,
      "हिया": 3373,
      "हिमा": 3374,
      "दीदा": 3375,
      "गीता": 3376,
      "आपसे": 3377,
      "सिफ": 3378,
      "सिंग": 3379,
      "शास्त्र": 3380,
      "शास्त्री": 3381,
      "खाद्य": 3382,
      "दोस्ती": 3383,
      "रूक": 3384,
      "द्दी": 3385,
      "पुण": 3386,
      "मीन": 3387,
      "तुझ": 3388,
      "तुलना": 3389,
      "रोने": 3390,
      "रोहित": 3391,
      "शिक्ष": 3392,
      "रियां": 3393,
      "मानने": 3394,
      "मानसिक": 3395,
      "पीठ": 3396,
      "बिक्री": 3397,
      "म्मत": 3398,
      "बीन": 3399,
      "चार्य": 3400,
      "स्टार": 3401,
      "स्ट्री": 3402,
      "दूसरों": 3403,
      "वीन": 3404,
      "शुद्ध": 3405,
      "शुक्रिया": 3406,
      "कहें": 3407,
      "कहकर": 3408,
      "देखो": 3409,
      "देखता": 3410,
      "मिलना": 3411,
      "मिलेंगे": 3412,
      "नुमा": 3413,
      "सोनिया": 3414,
      "सूझ": 3415,
      "सूरत": 3416,
      "चीजों": 3417,
      "चीजें": 3418,
      "कमर": 3419,
      "जानता": 3420,
      "जानती": 3421,
      "िकल": 3422,
      "कृपा": 3423,
      "बुद्ध": 3424,
      "बढ़े": 3425,
      "निकट": 3426,
      "बोले": 3427,
      "अनुभूति": 3428,
      "डिग्री": 3429,
      "समझौ": 3430,
      "समझने": 3431,
      "निर्भर": 3432,
      "उत्तरी": 3433,
      "कर्मी": 3434,
      "यूनि": 3435,
      "गिरा": 3436,
      "गोद": 3437,
      "मारपीट": 3438,
      "सम्पर्क": 3439,
      "खोला": 3440,
      "फाई": 3441,
      "विश्ले": 3442,
      "तुमने": 3443,
      "कैसा": 3444,
      "पड़ती": 3445,
      "कराई": 3446,
      "प्रेस": 3447,
      "सहारा": 3448,
      "दारों": 3449,
      "शोध": 3450,
      "अभिव्यक्ति": 3451,
      "लगेगी": 3452,
      "प्यारी": 3453,
      "हराया": 3454,
      "यादव": 3455,
      "आंखें": 3456,
      "खेलने": 3457,
      "आदत": 3458,
      "व्यवसाय": 3459,
      "भुग": 3460,
      "सिर्फ़": 3461,
      "लुक": 3462,
      "लुओं": 3463,
      "लंबे": 3464,
      "पहुंची": 3465,
      "अगली": 3466,
      "बचाने": 3467,
      "पसन्द": 3468,
      "इलाकों": 3469,
      "पहुँचा": 3470,
      "बढ़ाने": 3471,
      "करोड़": 3472,
      "पाकिस्तानी": 3473,
      "चैनल": 3474,
      "दौरे": 3475,
      "ग़ज़": 3476,
      "फुट": 3477,
      "सपनों": 3478,
      "अमेरिकी": 3479,
      "मस्जिद": 3480,
      "मस्तिष्": 3481,
      "ट्रेन": 3482,
      "रिश्ता": 3483,
      "सकेगा": 3484,
      "अध्यक्षता": 3485,
      "बल्ले": 3486,
      "परंतु": 3487,
      "मुस्लि": 3488,
      "ानिस्तान": 3489,
      "दुर्घटना": 3490,
      "बहाने": 3491,
      "ब्लाग": 3492,
      "निकाला": 3493,
      "जिम्मेदार": 3494,
      "नतीजा": 3495,
      "विवेक": 3496,
      "चिकित्सक": 3497,
      "हल्के": 3498,
      "क्रांति": 3499,
      "टिकट": 3500,
      "सृष्टि": 3501,
      "जरुरत": 3502,
      "गायब": 3503,
      "पत्रकारिता": 3504,
      "तस्वीरें": 3505,
      "अथवा": 3506,
      "विस्तार": 3507,
      "समूह": 3508,
      "हड़ताल": 3509,
      "प्रशंसा": 3510,
      "नियंत्रण": 3511,
      "पटेल": 3512,
      "बहिष्कार": 3513,
      "पीड़ित": 3514,
      "अनिल": 3515,
      "घरेलू": 3516,
      "चरित्र": 3517,
      "अंदाज": 3518,
      "प्राथमिकता": 3519,
      "वातावरण": 3520,
      "सिद्धांत": 3521,
      "ग्रंथ": 3522,
      "ब्राह्मण": 3523,
      "मालूम": 3524,
      "मस्तिष्क": 3525,
      "ंघ": 3526,
      "ंकी": 3527,
      "ंसा": 3528,
      "अँ": 3529,
      "अज": 3530,
      "अली": 3531,
      "अफ़": 3532,
      "अनो": 3533,
      "अमल": 3534,
      "अल्ला": 3535,
      "आर्": 3536,
      "आलो": 3537,
      "आंध": 3538,
      "आयु": 3539,
      "आंक": 3540,
      "आलू": 3541,
      "इले": 3542,
      "इरा": 3543,
      "इज्": 3544,
      "इमर": 3545,
      "उपह": 3546,
      "उंड": 3547,
      "उतना": 3548,
      "उतनी": 3549,
      "ऑन": 3550,
      "ऑफ": 3551,
      "ओलं": 3552,
      "औद्योग": 3553,
      "कप": 3554,
      "कहूं": 3555,
      "खार": 3556,
      "ग्रे": 3557,
      "गर्म": 3558,
      "घ्र": 3559,
      "जक": 3560,
      "जॉ": 3561,
      "जरि": 3562,
      "जवान": 3563,
      "झील": 3564,
      "टु": 3565,
      "टके": 3566,
      "टिया": 3567,
      "तड़": 3568,
      "तबा": 3569,
      "तौर": 3570,
      "तलब": 3571,
      "थु": 3572,
      "दख": 3573,
      "दरा": 3574,
      "धम": 3575,
      "नॉ": 3576,
      "नरे": 3577,
      "नशा": 3578,
      "नक्स": 3579,
      "नमस्": 3580,
      "पग": 3581,
      "पचार": 3582,
      "फसल": 3583,
      "बों": 3584,
      "भोग": 3585,
      "भजन": 3586,
      "मई": 3587,
      "मचा": 3588,
      "मंद": 3589,
      "ममता": 3590,
      "मछली": 3591,
      "यौ": 3592,
      "यर्स": 3593,
      "रस्": 3594,
      "वट": 3595,
      "श्रा": 3596,
      "सॉ": 3597,
      "सता": 3598,
      "सरा": 3599,
      "सवे": 3600,
      "सौर": 3601,
      "सप्ता": 3602,
      "हज": 3603,
      "हौ": 3604,
      "िंग": 3605,
      "ृत": 3606,
      "ैध": 3607,
      "ोरी": 3608,
      "काले": 3609,
      "यार": 3610,
      "केस": 3611,
      "नेह": 3612,
      "सेल": 3613,
      "सेव": 3614,
      "कीन": 3615,
      "कीर्": 3616,
      "ताप": 3617,
      "तालाब": 3618,
      "करु": 3619,
      "करार": 3620,
      "नाई": 3621,
      "स्पि": 3622,
      "किस्सा": 3623,
      "होश": 3624,
      "क्यूँ": 3625,
      "परमा": 3626,
      "लाते": 3627,
      "लागत": 3628,
      "लांट": 3629,
      "साक्षा": 3630,
      "जाहिर": 3631,
      "वाना": 3632,
      "राखी": 3633,
      "लियन": 3634,
      "विर": 3635,
      "विदा": 3636,
      "विजे": 3637,
      "विपरी": 3638,
      "विवरण": 3639,
      "न्ना": 3640,
      "्यु": 3641,
      "बाढ़": 3642,
      "देन": 3643,
      "तिल": 3644,
      "दिखे": 3645,
      "दिग्": 3646,
      "रीक्षण": 3647,
      "निधि": 3648,
      "नियुक्ति": 3649,
      "सीमित": 3650,
      "पात": 3651,
      "पाकर": 3652,
      "पाना": 3653,
      "पावर": 3654,
      "पागल": 3655,
      "पाँच": 3656,
      "मुह": 3657,
      "संदेश": 3658,
      "संतोष": 3659,
      "संदर्भ": 3660,
      "मेज": 3661,
      "मेह": 3662,
      "मेलन": 3663,
      "अपील": 3664,
      "ंगों": 3665,
      "कुं": 3666,
      "कुंड": 3667,
      "समस्त": 3668,
      "भाभी": 3669,
      "क्षति": 3670,
      "जिये": 3671,
      "सुनिश्चित": 3672,
      "सिस्ट": 3673,
      "खाता": 3674,
      "दोबारा": 3675,
      "द्वि": 3676,
      "पुन": 3677,
      "मीटिंग": 3678,
      "शिक": 3679,
      "रिक्त": 3680,
      "रियर": 3681,
      "मानवी": 3682,
      "वारिक": 3683,
      "तरण": 3684,
      "उन्हे": 3685,
      "ज़न": 3686,
      "बेट": 3687,
      "बेड": 3688,
      "बेचै": 3689,
      "जोखि": 3690,
      "बीमार": 3691,
      "चुनौ": 3692,
      "चारे": 3693,
      "ंडी": 3694,
      "बारह": 3695,
      "स्टॉ": 3696,
      "स्ट्र": 3697,
      "गुला": 3698,
      "गुप्त": 3699,
      "देशों": 3700,
      "लगाव": 3701,
      "लगाने": 3702,
      "दुः": 3703,
      "दुर": 3704,
      "दुष्": 3705,
      "मिलकर": 3706,
      "मिलते": 3707,
      "खुदा": 3708,
      "मंत्रा": 3709,
      "ब्दी": 3710,
      "नुक": 3711,
      "मोह": 3712,
      "मोटर": 3713,
      "मोशी": 3714,
      "सोई": 3715,
      "बनाता": 3716,
      "आज्": 3717,
      "वर्क": 3718,
      "टेन": 3719,
      "टेक्": 3720,
      "फ़ी": 3721,
      "िकता": 3722,
      "शनल": 3723,
      "डाला": 3724,
      "शीघ्र": 3725,
      "बुजुर्": 3726,
      "मौन": 3727,
      "उपभो": 3728,
      "बढ़िया": 3729,
      "प्राकृतिक": 3730,
      "आईपी": 3731,
      "जुड़ा": 3732,
      "जुड़ी": 3733,
      "अनुमान": 3734,
      "अनुवाद": 3735,
      "अनुमति": 3736,
      "डिट": 3737,
      "डिजा": 3738,
      "स्वप्": 3739,
      "टिस": 3740,
      "निर्या": 3741,
      "निर्धार": 3742,
      "गिंग": 3743,
      "बताई": 3744,
      "बताना": 3745,
      "प्रतियोग": 3746,
      "स्थापना": 3747,
      "गोल": 3748,
      "बच्चा": 3749,
      "सम्मेलन": 3750,
      "भूषण": 3751,
      "सामग्री": 3752,
      "शुरूआत": 3753,
      "अवैध": 3754,
      "फाइन": 3755,
      "कैम": 3756,
      "प्रेर": 3757,
      "बसपा": 3758,
      "अधिकतर": 3759,
      "लिखना": 3760,
      "लिखते": 3761,
      "ंगाल": 3762,
      "फ्लै": 3763,
      "मरने": 3764,
      "मिलाकर": 3765,
      "वैसा": 3766,
      "श्रीमती": 3767,
      "तुम्हारा": 3768,
      "बदलने": 3769,
      "व्यापक": 3770,
      "मूर्": 3771,
      "लोकसभा": 3772,
      "किसने": 3773,
      "सौं": 3774,
      "घाट": 3775,
      "चोर": 3776,
      "भोपाल": 3777,
      "चूक": 3778,
      "अनू": 3779,
      "गर्व": 3780,
      "गुरुवार": 3781,
      "हिन्दू": 3782,
      "छोड़ने": 3783,
      "निकलने": 3784,
      "आरोपियों": 3785,
      "कलाकार": 3786,
      "पसंदीदा": 3787,
      "तीसरा": 3788,
      "तीसरी": 3789,
      "साहित्यकार": 3790,
      "साहित्यिक": 3791,
      "आँख": 3792,
      "कल्या": 3793,
      "संगठ": 3794,
      "कर्मचारी": 3795,
      "स्त्रियों": 3796,
      "वार्ड": 3797,
      "ट्टा": 3798,
      "ट्टे": 3799,
      "जीवंत": 3800,
      "फरार": 3801,
      "डालकर": 3802,
      "छूट": 3803,
      "बंदी": 3804,
      "अभ्यास": 3805,
      "अतिरिक्त": 3806,
      "रिश्तों": 3807,
      "घोष": 3808,
      "घोटा": 3809,
      "चमक": 3810,
      "विधायक": 3811,
      "युवाओं": 3812,
      "ढाई": 3813,
      "ज़िंदगी": 3814,
      "रावण": 3815,
      "दिखने": 3816,
      "समर्थक": 3817,
      "सदस्यता": 3818,
      "अर्जुन": 3819,
      "अत्यन्त": 3820,
      "समुदाय": 3821,
      "राष्ट्रपति": 3822,
      "अंकल": 3823,
      "शून्य": 3824,
      "जंगली": 3825,
      "सांसद": 3826,
      "ब्रह्म": 3827,
      "अहंकार": 3828,
      "ट्रोल": 3829,
      "घूम": 3830,
      "गुजरा": 3831,
      "खुलासा": 3832,
      "अहमद": 3833,
      "जमकर": 3834,
      "फ्रें": 3835,
      "विधानसभा": 3836,
      "दर्शकों": 3837,
      "खरीदने": 3838,
      "प्रसन्नता": 3839,
      "आकर्षित": 3840,
      "मंजूरी": 3841,
      "मजदूर": 3842,
      "शैली": 3843,
      "कमाई": 3844,
      "बराबर": 3845,
      "वाहिक": 3846,
      "हिंदू": 3847,
      "जिन्हें": 3848,
      "उल्लेखनीय": 3849,
      "आतंकी": 3850,
      "स्मृति": 3851,
      "विद्युत": 3852,
      "मुकाबला": 3853,
      "दुश्मन": 3854,
      "ढूंढ": 3855,
      "धंधा": 3856,
      "निराशा": 3857,
      "जहाज": 3858,
      "प्रौद्योगिकी": 3859,
      "कुत्ते": 3860,
      "पारिवारिक": 3861,
      "बेहतरीन": 3862,
      "अमरीका": 3863,
      "तथ्य": 3864,
      "विश्लेषण": 3865,
      "भुगतान": 3866,
      "मुस्लिम": 3867,
      "इज्जत": 3868,
      "उपहार": 3869,
      "ओलंपिक": 3870,
      "औद्योगिक": 3871,
      "नमस्कार": 3872,
      "विपरीत": 3873,
      "मानवीय": 3874,
      "जोखिम": 3875,
      "मंत्रालय": 3876,
      "निर्धारित": 3877,
      "ंटी": 3878,
      "ंपि": 3879,
      "ंत्रिक": 3880,
      "अक": 3881,
      "अजय": 3882,
      "अत्या": 3883,
      "अटल": 3884,
      "अमृत": 3885,
      "आड": 3886,
      "आन्": 3887,
      "आमि": 3888,
      "आश्र": 3889,
      "आमंत्र": 3890,
      "आशंका": 3891,
      "इंग्": 3892,
      "ऋतु": 3893,
      "ऋषि": 3894,
      "एशन": 3895,
      "एशिया": 3896,
      "ओगे": 3897,
      "औष": 3898,
      "कद": 3899,
      "गह": 3900,
      "ग्या": 3901,
      "गंध": 3902,
      "गैर": 3903,
      "चलो": 3904,
      "चक्कर": 3905,
      "जवा": 3906,
      "जटिल": 3907,
      "झड़": 3908,
      "झलक": 3909,
      "ञा": 3910,
      "ट्स": 3911,
      "ड्र": 3912,
      "डिकल": 3913,
      "तप": 3914,
      "थन": 3915,
      "धमा": 3916,
      "धरी": 3917,
      "नमा": 3918,
      "नष्ट": 3919,
      "पड": 3920,
      "पया": 3921,
      "पवि": 3922,
      "पचा": 3923,
      "पल्": 3924,
      "प्ट": 3925,
      "पडा": 3926,
      "पटना": 3927,
      "पार्क": 3928,
      "फान": 3929,
      "बम": 3930,
      "बड़": 3931,
      "बहर": 3932,
      "बडा": 3933,
      "बचना": 3934,
      "भड़": 3935,
      "भंड": 3936,
      "भेंट": 3937,
      "मक्": 3938,
      "मल्": 3939,
      "मारे": 3940,
      "मज़ा": 3941,
      "मम्मी": 3942,
      "यकीन": 3943,
      "रज": 3944,
      "रथ": 3945,
      "रन": 3946,
      "रौ": 3947,
      "रहो": 3948,
      "रक्षण": 3949,
      "लम": 3950,
      "लने": 3951,
      "लघु": 3952,
      "लटका": 3953,
      "वश": 3954,
      "वत्ता": 3955,
      "शही": 3956,
      "शपथ": 3957,
      "सना": 3958,
      "सड़": 3959,
      "सपा": 3960,
      "सराह": 3961,
      "हस्त": 3962,
      "हंगा": 3963,
      "हवाई": 3964,
      "िये": 3965,
      "ुप": 3966,
      "ैव": 3967,
      "ोहार": 3968,
      "्न": 3969,
      "हैरान": 3970,
      "काने": 3971,
      "कांत": 3972,
      "कालेज": 3973,
      "ेंज": 3974,
      "याब": 3975,
      "याम": 3976,
      "याय": 3977,
      "यात्री": 3978,
      "केशन": 3979,
      "सेठ": 3980,
      "सेस": 3981,
      "कीय": 3982,
      "नामा": 3983,
      "कोलका": 3984,
      "स्पति": 3985,
      "स्तिक": 3986,
      "भीग": 3987,
      "किस्": 3988,
      "किला": 3989,
      "किलो": 3990,
      "होम": 3991,
      "परम्": 3992,
      "लाइस": 3993,
      "सांप": 3994,
      "साधन": 3995,
      "साधु": 3996,
      "हाउस": 3997,
      "वाक": 3998,
      "वाज": 3999,
      "लेती": 4000,
      "प्रदू": 4001,
      "प्रमो": 4002,
      "प्रबंध": 4003,
      "प्रयत्न": 4004,
      "रामा": 4005,
      "राजीव": 4006,
      "लिप": 4007,
      "लिहा": 4008,
      "विज": 4009,
      "विस्": 4010,
      "वित्": 4011,
      "विद्": 4012,
      "विधे": 4013,
      "विचित्र": 4014,
      "विनाश": 4015,
      "औरत": 4016,
      "ड़िया": 4017,
      "बाधा": 4018,
      "बालक": 4019,
      "बाइक": 4020,
      "तित": 4021,
      "तिका": 4022,
      "निपट": 4023,
      "निरीक्षण": 4024,
      "नीतीश": 4025,
      "सीखा": 4026,
      "पाट": 4027,
      "पाली": 4028,
      "पांडे": 4029,
      "पादक": 4030,
      "लीज": 4031,
      "लील": 4032,
      "लीवुड": 4033,
      "मुं": 4034,
      "मुक्ति": 4035,
      "संबो": 4036,
      "संविधान": 4037,
      "संरक्षण": 4038,
      "मेडिकल": 4039,
      "चालक": 4040,
      "अपन": 4041,
      "जीते": 4042,
      "रेडियो": 4043,
      "कुरा": 4044,
      "हिल": 4045,
      "भाष": 4046,
      "भागी": 4047,
      "भाविक": 4048,
      "दीजिए": 4049,
      "दाम": 4050,
      "दावा": 4051,
      "दादी": 4052,
      "दाश्त": 4053,
      "जियों": 4054,
      "जितना": 4055,
      "सुधा": 4056,
      "सिपा": 4057,
      "सिद्धि": 4058,
      "शाखा": 4059,
      "शाहरु": 4060,
      "खासत": 4061,
      "वेज": 4062,
      "वेटर": 4063,
      "गेट": 4064,
      "हरों": 4065,
      "पुष्टि": 4066,
      "रोचक": 4067,
      "धिया": 4068,
      "शिल्": 4069,
      "ढ़ा": 4070,
      "रिटी": 4071,
      "मानता": 4072,
      "मान्य": 4073,
      "पीने": 4074,
      "पीढ़ी": 4075,
      "ज़ोर": 4076,
      "बिनेट": 4077,
      "सबकुछ": 4078,
      "सबुक": 4079,
      "पहचा": 4080,
      "जोरी": 4081,
      "इनसे": 4082,
      "चुट": 4083,
      "चुप्पी": 4084,
      "सरदार": 4085,
      "ंडर": 4086,
      "स्टू": 4087,
      "गुफा": 4088,
      "देशी": 4089,
      "दूं": 4090,
      "दियाँ": 4091,
      "रुद्ध": 4092,
      "राजनेता": 4093,
      "राजनैतिक": 4094,
      "शुल्क": 4095,
      "लगाए": 4096,
      "लगाना": 4097,
      "कहती": 4098,
      "दुखी": 4099,
      "खुली": 4100,
      "जनजाति": 4101,
      "चिम": 4102,
      "चिंग": 4103,
      "चिट्": 4104,
      "बनाते": 4105,
      "परिजनों": 4106,
      "सूत्रों": 4107,
      "मुझको": 4108,
      "लोनी": 4109,
      "चीख": 4110,
      "व्यक्त": 4111,
      "चलन": 4112,
      "टेक": 4113,
      "टेड": 4114,
      "ाराम": 4115,
      "कमल": 4116,
      "कम्यु": 4117,
      "हुईं": 4118,
      "फ़्": 4119,
      "महज": 4120,
      "वरना": 4121,
      "ष्ठी": 4122,
      "खिलौ": 4123,
      "खिड़की": 4124,
      "त्योहार": 4125,
      "जानिए": 4126,
      "धातु": 4127,
      "बनते": 4128,
      "डाक": 4129,
      "योगदान": 4130,
      "कृपया": 4131,
      "लियाँ": 4132,
      "मौजू": 4133,
      "घरों": 4134,
      "उपस्थित": 4135,
      "बढ़ी": 4136,
      "बढ़ने": 4137,
      "अनुकूल": 4138,
      "समझते": 4139,
      "टिव": 4140,
      "उत्पन्न": 4141,
      "कर्ष": 4142,
      "गिरी": 4143,
      "जिसने": 4144,
      "मुखिया": 4145,
      "धारणा": 4146,
      "प्रतिभा": 4147,
      "प्रतिशत": 4148,
      "त्वचा": 4149,
      "स्थायी": 4150,
      "ध्यक्ष": 4151,
      "मारने": 4152,
      "पैरों": 4153,
      "अवतार": 4154,
      "र्थियों": 4155,
      "फांसी": 4156,
      "पड़ो": 4157,
      "पड़ने": 4158,
      "सहयोगी": 4159,
      "लिखित": 4160,
      "बैठकर": 4161,
      "कौशल": 4162,
      "चलाने": 4163,
      "ख़ि": 4164,
      "गलती": 4165,
      "फ्त": 4166,
      "मरण": 4167,
      "अभिन": 4168,
      "अभिनेता": 4169,
      "श्रीकृष्ण": 4170,
      "प्याज": 4171,
      "प्यास": 4172,
      "फैला": 4173,
      "पत्रकारों": 4174,
      "सुनने": 4175,
      "सदैव": 4176,
      "दिलच": 4177,
      "लौटे": 4178,
      "लगीं": 4179,
      "जयपुर": 4180,
      "क्षेत्रों": 4181,
      "पड़ेगी": 4182,
      "साहित": 4183,
      "मार्च": 4184,
      "मार्केट": 4185,
      "रणनीति": 4186,
      "परेशन": 4187,
      "देवता": 4188,
      "सोचता": 4189,
      "हिन्दु": 4190,
      "लंबी": 4191,
      "लंबित": 4192,
      "जन्मदिन": 4193,
      "पदक": 4194,
      "गिरने": 4195,
      "ंटों": 4196,
      "सैनिक": 4197,
      "सैकड़ों": 4198,
      "आँखें": 4199,
      "स्कूलों": 4200,
      "मनाने": 4201,
      "युवकों": 4202,
      "इलाके": 4203,
      "पहुँचे": 4204,
      "बोलता": 4205,
      "उन्होने": 4206,
      "स्टेट": 4207,
      "सेवाओं": 4208,
      "न्याय": 4209,
      "न्यायालय": 4210,
      "शर्त": 4211,
      "अंतर्गत": 4212,
      "धूप": 4213,
      "ब्रांड": 4214,
      "गणित": 4215,
      "गणेश": 4216,
      "ट्रेनिंग": 4217,
      "सर्वश्रेष्ठ": 4218,
      "अतिथि": 4219,
      "घोषित": 4220,
      "प्रतीक्षा": 4221,
      "खासकर": 4222,
      "वर्णन": 4223,
      "पुरुषों": 4224,
      "बॉलीवुड": 4225,
      "गुणवत्ता": 4226,
      "चढ़ा": 4227,
      "श्रेणी": 4228,
      "सन्ना": 4229,
      "दुर्गा": 4230,
      "मरीजों": 4231,
      "समुद्र": 4232,
      "लाइफ": 4233,
      "मर्श": 4234,
      "मानवता": 4235,
      "नारायण": 4236,
      "ध्व": 4237,
      "अहसास": 4238,
      "रविवार": 4239,
      "बिजनेस": 4240,
      "ऊंची": 4241,
      "झूठ": 4242,
      "मुद्दे": 4243,
      "मुद्दा": 4244,
      "बिलकुल": 4245,
      "गेंद": 4246,
      "मकसद": 4247,
      "लम्बी": 4248,
      "विनय": 4249,
      "समर्पित": 4250,
      "हटाया": 4251,
      "जाएँगे": 4252,
      "शीर्षक": 4253,
      "दरवाजे": 4254,
      "कम्पनी": 4255,
      "कब्जा": 4256,
      "निशाने": 4257,
      "पर्याप्त": 4258,
      "ब्रह्माण्ड": 4259,
      "कलेक्टर": 4260,
      "सुझाव": 4261,
      "भारतीयों": 4262,
      "महंगाई": 4263,
      "स्पर्धा": 4264,
      "महाराज": 4265,
      "इस्लाम": 4266,
      "इंजीनियर": 4267,
      "नजदीक": 4268,
      "कनाडा": 4269,
      "कमेटी": 4270,
      "लक्ष्मी": 4271,
      "सक्रिय": 4272,
      "चार्ज": 4273,
      "सभ्यता": 4274,
      "सख्त": 4275,
      "स्नातक": 4276,
      "किरदार": 4277,
      "अल्लाह": 4278,
      "सप्ताह": 4279,
      "साक्षात्कार": 4280,
      "चुनौती": 4281,
      "नुकसान": 4282,
      "आज्ञा": 4283,
      "निर्यात": 4284,
      "प्रतियोगिता": 4285,
      "प्रेरणा": 4286,
      "कल्याण": 4287,
      "आमिर": 4288,
      "आमंत्रित": 4289,
      "कोलकाता": 4290,
      "परम्परा": 4291,
      "विधेयक": 4292,
      "शाहरुख": 4293,
      "खासतौर": 4294,
      "कम्युनि": 4295,
      "मौजूदा": 4296,
      "ँसी": 4297,
      "अती": 4298,
      "असी": 4299,
      "असम": 4300,
      "अरु": 4301,
      "अभाव": 4302,
      "अग्": 4303,
      "आओ": 4304,
      "आक्रो": 4305,
      "आदर्श": 4306,
      "इट": 4307,
      "इकट": 4308,
      "ईरान": 4309,
      "उथ": 4310,
      "उभर": 4311,
      "उद्य": 4312,
      "उन्नत": 4313,
      "एसी": 4314,
      "औसत": 4315,
      "औपचार": 4316,
      "कन": 4317,
      "ख्य": 4318,
      "गठ": 4319,
      "गान": 4320,
      "गली": 4321,
      "गवर्": 4322,
      "गठन": 4323,
      "गानिस्तान": 4324,
      "चतु": 4325,
      "छल": 4326,
      "जं": 4327,
      "जज": 4328,
      "जानी": 4329,
      "जख्": 4330,
      "टुक": 4331,
      "टक्कर": 4332,
      "ठहरा": 4333,
      "ठिका": 4334,
      "डों": 4335,
      "ढी": 4336,
      "तद": 4337,
      "तह": 4338,
      "थक": 4339,
      "दया": 4340,
      "दहे": 4341,
      "दफ्": 4342,
      "दलित": 4343,
      "दशक": 4344,
      "धरे": 4345,
      "धूल": 4346,
      "नम": 4347,
      "नदियों": 4348,
      "पदा": 4349,
      "पार्": 4350,
      "पंक": 4351,
      "पट्टी": 4352,
      "फंड": 4353,
      "बँ": 4354,
      "बृ": 4355,
      "ब्या": 4356,
      "बृह": 4357,
      "बंगाल": 4358,
      "भान": 4359,
      "मट": 4360,
      "मध्यम": 4361,
      "यथ": 4362,
      "यलों": 4363,
      "रल": 4364,
      "रॉ": 4365,
      "रफ्": 4366,
      "रघु": 4367,
      "रमेश": 4368,
      "लस": 4369,
      "लखन": 4370,
      "लंदन": 4371,
      "वजन": 4372,
      "वक़": 4373,
      "शनि": 4374,
      "शर्म": 4375,
      "षक": 4376,
      "षेक": 4377,
      "सक्ष": 4378,
      "सटी": 4379,
      "सज्": 4380,
      "सफे": 4381,
      "सदियों": 4382,
      "सफाई": 4383,
      "हकी": 4384,
      "ित्व": 4385,
      "िणी": 4386,
      "ूद": 4387,
      "ूर": 4388,
      "ूनी": 4389,
      "ैंड": 4390,
      "हैदरा": 4391,
      "काका": 4392,
      "काया": 4393,
      "कांड": 4394,
      "यानि": 4395,
      "केज": 4396,
      "कील": 4397,
      "ताजा": 4398,
      "नानी": 4399,
      "नाश्": 4400,
      "कोड": 4401,
      "स्की": 4402,
      "स्वि": 4403,
      "स्कू": 4404,
      "स्क्री": 4405,
      "र्ण": 4406,
      "र्जी": 4407,
      "र्वाद": 4408,
      "किरण": 4409,
      "क्य": 4410,
      "क्व": 4411,
      "क्वा": 4412,
      "क्यो": 4413,
      "परमाण": 4414,
      "ान्त": 4415,
      "लाज": 4416,
      "लाप": 4417,
      "लाती": 4418,
      "साँ": 4419,
      "साला": 4420,
      "हाली": 4421,
      "जाज": 4422,
      "वाया": 4423,
      "वासियों": 4424,
      "इसने": 4425,
      "प्रवाह": 4426,
      "प्रबल": 4427,
      "प्रभु": 4428,
      "प्रयुक्त": 4429,
      "प्रवासी": 4430,
      "प्रवृत्ति": 4431,
      "राधा": 4432,
      "लिनी": 4433,
      "लिपि": 4434,
      "विड": 4435,
      "विल": 4436,
      "विभा": 4437,
      "विमान": 4438,
      "विद्र": 4439,
      "विपक्ष": 4440,
      "ड़ियाँ": 4441,
      "माइक": 4442,
      "बाजों": 4443,
      "देरी": 4444,
      "देगी": 4445,
      "तिर": 4446,
      "गाँ": 4447,
      "गाली": 4448,
      "दिला": 4449,
      "दिरों": 4450,
      "निश": 4451,
      "नियुक्त": 4452,
      "एकत्र": 4453,
      "रहित": 4454,
      "नीला": 4455,
      "मिट": 4456,
      "मिस": 4457,
      "मिया": 4458,
      "मिटा": 4459,
      "मिस्र": 4460,
      "मिजाज": 4461,
      "सील": 4462,
      "सीने": 4463,
      "सीसी": 4464,
      "सीधी": 4465,
      "पाइ": 4466,
      "पाँव": 4467,
      "पाएगा": 4468,
      "पाटिल": 4469,
      "त्ती": 4470,
      "मुड़": 4471,
      "मुम्ब": 4472,
      "संके": 4473,
      "संधान": 4474,
      "संरचना": 4475,
      "संग्रह": 4476,
      "मेला": 4477,
      "चाल": 4478,
      "चाहूं": 4479,
      "अपनों": 4480,
      "जीवित": 4481,
      "रेज": 4482,
      "रेड": 4483,
      "कुश": 4484,
      "समृ": 4485,
      "हिद": 4486,
      "हिम्मत": 4487,
      "भाल": 4488,
      "दीं": 4489,
      "दाँ": 4490,
      "दादा": 4491,
      "जिक्र": 4492,
      "जिज्ञा": 4493,
      "सुधर": 4494,
      "सिटी": 4495,
      "शाही": 4496,
      "शाला": 4497,
      "खाते": 4498,
      "वेयर": 4499,
      "दोहरा": 4500,
      "कियां": 4501,
      "फिक": 4502,
      "द्द": 4503,
      "द्वी": 4504,
      "पुरी": 4505,
      "च्च": 4506,
      "रोध": 4507,
      "रोधक": 4508,
      "रिसर्च": 4509,
      "रिलीज": 4510,
      "मानत": 4511,
      "मानस": 4512,
      "मानवा": 4513,
      "मानती": 4514,
      "वारदा": 4515,
      "पीस": 4516,
      "पीड़ा": 4517,
      "ज़र": 4518,
      "सबका": 4519,
      "पहन": 4520,
      "पहना": 4521,
      "ंदर्य": 4522,
      "म्प": 4523,
      "बीज": 4524,
      "चुने": 4525,
      "चारियों": 4526,
      "दून": 4527,
      "दूंगा": 4528,
      "लगने": 4529,
      "रुख": 4530,
      "शुमार": 4531,
      "शुक्ल": 4532,
      "लगाकर": 4533,
      "लगाड़ी": 4534,
      "लगाएं": 4535,
      "चेक": 4536,
      "चेतन": 4537,
      "दुल": 4538,
      "दुकानों": 4539,
      "टाटा": 4540,
      "देखिए": 4541,
      "मिलें": 4542,
      "जनवरी": 4543,
      "मंदी": 4544,
      "मंजि": 4545,
      "चिन्ह": 4546,
      "चिंत": 4547,
      "चित्त": 4548,
      "मोड़": 4549,
      "मोटा": 4550,
      "सोना": 4551,
      "सोचना": 4552,
      "बनाये": 4553,
      "प्लेट": 4554,
      "प्लांट": 4555,
      "सूत्र": 4556,
      "सूचित": 4557,
      "लोमा": 4558,
      "लोकता": 4559,
      "वर्मा": 4560,
      "वर्धन": 4561,
      "व्यू": 4562,
      "पिंग": 4563,
      "चलना": 4564,
      "टेस्ट": 4565,
      "टेबल": 4566,
      "फ़ोन": 4567,
      "अधिग्रहण": 4568,
      "पेशे": 4569,
      "महक": 4570,
      "महत्या": 4571,
      "महेश": 4572,
      "ष्णा": 4573,
      "जानने": 4574,
      "जानना": 4575,
      "योग्यता": 4576,
      "शीत": 4577,
      "बुल": 4578,
      "बुरी": 4579,
      "बुलाया": 4580,
      "जेब": 4581,
      "जेक्ट": 4582,
      "उपयुक्त": 4583,
      "उपयोगी": 4584,
      "उपन्यास": 4585,
      "खेला": 4586,
      "प्राय": 4587,
      "प्राणी": 4588,
      "बोधन": 4589,
      "आईं": 4590,
      "आईना": 4591,
      "जुम": 4592,
      "जुलाई": 4593,
      "पोषण": 4594,
      "भावों": 4595,
      "अनुसंधान": 4596,
      "उत्तम": 4597,
      "उत्सव": 4598,
      "पूर्वी": 4599,
      "यूपी": 4600,
      "गिन": 4601,
      "गिराव": 4602,
      "कार्यकर्ता": 4603,
      "मुख्या": 4604,
      "बताने": 4605,
      "प्रतिमा": 4606,
      "प्रतिष्ठा": 4607,
      "ंकन": 4608,
      "मतदाता": 4609,
      "गोवा": 4610,
      "डीए": 4611,
      "बच्ची": 4612,
      "सम्पन्न": 4613,
      "स्वाभाविक": 4614,
      "अवकाश": 4615,
      "डेटा": 4616,
      "ग्रुप": 4617,
      "तुमको": 4618,
      "भरपूर": 4619,
      "आयात": 4620,
      "जैव": 4621,
      "सहज": 4622,
      "सहारे": 4623,
      "सहजता": 4624,
      "पढ़कर": 4625,
      "चलाया": 4626,
      "पुरानी": 4627,
      "कानपुर": 4628,
      "धीन": 4629,
      "क़ी": 4630,
      "फोट": 4631,
      "अभिषेक": 4632,
      "वैष्ण": 4633,
      "क्षेत्री": 4634,
      "राज्यपाल": 4635,
      "प्यारे": 4636,
      "तैयारियां": 4637,
      "फैल": 4638,
      "फैशन": 4639,
      "बदलना": 4640,
      "बदलती": 4641,
      "बदलते": 4642,
      "व्याप": 4643,
      "गयीं": 4644,
      "आंसू": 4645,
      "एससी": 4646,
      "एसडी": 4647,
      "कवियों": 4648,
      "जलवायु": 4649,
      "लौटा": 4650,
      "आरम्भ": 4651,
      "लड़के": 4652,
      "खेलते": 4653,
      "ट्रि": 4654,
      "शान्ति": 4655,
      "पंथ": 4656,
      "पंक्ति": 4657,
      "साइकिल": 4658,
      "उठाकर": 4659,
      "चौक": 4660,
      "चौकी": 4661,
      "चौधरी": 4662,
      "महात्मा": 4663,
      "महावीर": 4664,
      "धुन": 4665,
      "सनसनी": 4666,
      "सौंदर्य": 4667,
      "घाटन": 4668,
      "घायलों": 4669,
      "छीन": 4670,
      "दृढ़": 4671,
      "लेंस": 4672,
      "पकड़ा": 4673,
      "कंपनियों": 4674,
      "चूत": 4675,
      "फेर": 4676,
      "फेसबुक": 4677,
      "साहस": 4678,
      "विद्यार्थियों": 4679,
      "गर्भ": 4680,
      "गर्दन": 4681,
      "मार्क": 4682,
      "गुरुजी": 4683,
      "भगवान्": 4684,
      "यासत": 4685,
      "लंका": 4686,
      "मांगते": 4687,
      "कविताओं": 4688,
      "ख्यात": 4689,
      "संस्कारों": 4690,
      "शहरों": 4691,
      "उठते": 4692,
      "खुशबू": 4693,
      "अगला": 4694,
      "पिछली": 4695,
      "बचने": 4696,
      "अर्थव्यवस्था": 4697,
      "कर्मचारियों": 4698,
      "प्रियं": 4699,
      "बोलते": 4700,
      "चैन": 4701,
      "चैंपि": 4702,
      "ख्वाब": 4703,
      "भ्रष्ट": 4704,
      "उपलब्धि": 4705,
      "जिलाधिकारी": 4706,
      "आखिरकार": 4707,
      "नैनो": 4708,
      "उद्घाटन": 4709,
      "गणना": 4710,
      "गतिविधि": 4711,
      "कांक्षा": 4712,
      "घंटा": 4713,
      "मंडल": 4714,
      "मंडरा": 4715,
      "समझाने": 4716,
      "बर्दाश्त": 4717,
      "मुस्कान": 4718,
      "मुस्कुरा": 4719,
      "टैक्स": 4720,
      "पत्थरों": 4721,
      "नागरिक": 4722,
      "हॉट": 4723,
      "न्यूज": 4724,
      "अपराधियों": 4725,
      "फूलों": 4726,
      "सच्चे": 4727,
      "मुसलमानों": 4728,
      "दायित्व": 4729,
      "झूम": 4730,
      "ढेरों": 4731,
      "तारीख": 4732,
      "गिरफ्तारी": 4733,
      "जिम्मेदारी": 4734,
      "प्रीमि": 4735,
      "विवेकान": 4736,
      "एकाद": 4737,
      "संतुष्ट": 4738,
      "भैया": 4739,
      "नानक": 4740,
      "टिप्पण": 4741,
      "सहमति": 4742,
      "विवादों": 4743,
      "ब्रिटेन": 4744,
      "निरंतर": 4745,
      "संस्थाओं": 4746,
      "संवाददाता": 4747,
      "मंजूर": 4748,
      "फार्म": 4749,
      "विस्तृत": 4750,
      "क्रेडिट": 4751,
      "भेदभाव": 4752,
      "गौरतलब": 4753,
      "मिनट": 4754,
      "रोमांच": 4755,
      "आतंकवाद": 4756,
      "अंधकार": 4757,
      "अधूरे": 4758,
      "एहसास": 4759,
      "पहाड़": 4760,
      "शुभकामनाएं": 4761,
      "ड्राइवर": 4762,
      "आजादी": 4763,
      "पश्चिम": 4764,
      "महोत्सव": 4765,
      "हार्दिक": 4766,
      "स्वतंत्रता": 4767,
      "एयरपोर्ट": 4768,
      "मिठास": 4769,
      "टेलीवि": 4770,
      "आत्महत्या": 4771,
      "आशीर्वाद": 4772,
      "कच्चे": 4773,
      "झारखंड": 4774,
      "ड्यूटी": 4775,
      "फेंक": 4776,
      "मशीन": 4777,
      "श्याम": 4778,
      "हादसे": 4779,
      "दिमाग": 4780,
      "ग़ज़ल": 4781,
      "अँधे": 4782,
      "आलोचना": 4783,
      "आंध्र": 4784,
      "ऑनलाइन": 4785,
      "जरिए": 4786,
      "सेवक": 4787,
      "कीर्तन": 4788,
      "परमात्मा": 4789,
      "बेचैनी": 4790,
      "स्टॉक": 4791,
      "दुःख": 4792,
      "उपभोक्ता": 4793,
      "डिजाइन": 4794,
      "स्वप्न": 4795,
      "घोषणा": 4796,
      "आडवाणी": 4797,
      "आन्दोलन": 4798,
      "आश्रय": 4799,
      "पवित्र": 4800,
      "बहरहाल": 4801,
      "सड़कों": 4802,
      "हंगामा": 4803,
      "लाइसेंस": 4804,
      "वित्तीय": 4805,
      "संबोधित": 4806,
      "पहचाना": 4807,
      "सन्नाटा": 4808,
      "इकट्": 4809,
      "वक़्त": 4810,
      "सक्षम": 4811,
      "सफेद": 4812,
      "हैदराबाद": 4813,
      "परमाणु": 4814,
      "मुम्बई": 4815,
      "ँकि": 4816,
      "ँति": 4817,
      "ँजी": 4818,
      "ंख": 4819,
      "ंसे": 4820,
      "अम्": 4821,
      "अद्य": 4822,
      "अख़": 4823,
      "अलब": 4824,
      "अनिवार": 4825,
      "अमिता": 4826,
      "अलगाव": 4827,
      "आरा": 4828,
      "आगा": 4829,
      "आर्य": 4830,
      "आलेख": 4831,
      "आवास": 4832,
      "आख़ि": 4833,
      "इस्ती": 4834,
      "ईल": 4835,
      "ईमेल": 4836,
      "उड": 4837,
      "उंग": 4838,
      "उड़ी": 4839,
      "उपे": 4840,
      "उठी": 4841,
      "उँग": 4842,
      "ऊंगा": 4843,
      "ऋग्": 4844,
      "एपी": 4845,
      "ऑफि": 4846,
      "ओपन": 4847,
      "कच": 4848,
      "कें": 4849,
      "कवा": 4850,
      "कड़": 4851,
      "कश्": 4852,
      "कटे": 4853,
      "कहूँ": 4854,
      "कौर": 4855,
      "कपुर": 4856,
      "खरा": 4857,
      "खरे": 4858,
      "खतरे": 4859,
      "गृ": 4860,
      "गित": 4861,
      "घन": 4862,
      "घटा": 4863,
      "घंटों": 4864,
      "चका": 4865,
      "चप्": 4866,
      "चेंज": 4867,
      "छान": 4868,
      "जगा": 4869,
      "जब्": 4870,
      "जयं": 4871,
      "झग": 4872,
      "झी": 4873,
      "झो": 4874,
      "झूल": 4875,
      "टॉ": 4876,
      "ट्री": 4877,
      "ठप": 4878,
      "ठु": 4879,
      "ठों": 4880,
      "डम": 4881,
      "डें": 4882,
      "ड्रे": 4883,
      "डियों": 4884,
      "डोर": 4885,
      "ढूँ": 4886,
      "तले": 4887,
      "तन्": 4888,
      "तबाद": 4889,
      "तारा": 4890,
      "दह": 4891,
      "दना": 4892,
      "दरी": 4893,
      "दस्त": 4894,
      "दस्ता": 4895,
      "धर्": 4896,
      "नह": 4897,
      "नारे": 4898,
      "नम्बर": 4899,
      "नदियाँ": 4900,
      "पका": 4901,
      "पते": 4902,
      "पन्": 4903,
      "पद्": 4904,
      "पब्": 4905,
      "पारा": 4906,
      "पडे": 4907,
      "प्टी": 4908,
      "पक्का": 4909,
      "फरी": 4910,
      "फ्री": 4911,
      "फ्रा": 4912,
      "फंस": 4913,
      "फ्यू": 4914,
      "फंसा": 4915,
      "बसे": 4916,
      "बान": 4917,
      "बले": 4918,
      "बरू": 4919,
      "बगल": 4920,
      "बटो": 4921,
      "बंट": 4922,
      "बराब": 4923,
      "बड़ों": 4924,
      "बढा": 4925,
      "बटन": 4926,
      "भई": 4927,
      "मची": 4928,
      "मस्त": 4929,
      "मध्या": 4930,
      "यंस": 4931,
      "रत्": 4932,
      "रचा": 4933,
      "रमन": 4934,
      "रत्न": 4935,
      "लव": 4936,
      "लरी": 4937,
      "लसी": 4938,
      "लानी": 4939,
      "लज्": 4940,
      "ल्यू": 4941,
      "लड्": 4942,
      "वस्था": 4943,
      "शबा": 4944,
      "शमी": 4945,
      "सती": 4946,
      "सस्ता": 4947,
      "हथ": 4948,
      "हता": 4949,
      "हर्": 4950,
      "हान": 4951,
      "हारा": 4952,
      "हस्ता": 4953,
      "हँस": 4954,
      "हँसी": 4955,
      "िम": 4956,
      "िल": 4957,
      "ियन": 4958,
      "ुली": 4959,
      "ूंगा": 4960,
      "ूर्ति": 4961,
      "ौती": 4962,
      "काँ": 4963,
      "काज": 4964,
      "काशी": 4965,
      "कार्ट": 4966,
      "काटने": 4967,
      "केश": 4968,
      "केयर": 4969,
      "सेट": 4970,
      "सेवन": 4971,
      "सेक्सी": 4972,
      "कीजिए": 4973,
      "ारिश": 4974,
      "नाट": 4975,
      "नाले": 4976,
      "नाते": 4977,
      "कोर": 4978,
      "कोश": 4979,
      "कोटा": 4980,
      "स्वर्ग": 4981,
      "स्मरण": 4982,
      "र्न": 4983,
      "र्व": 4984,
      "र्या": 4985,
      "भीत": 4986,
      "किट": 4987,
      "किस्से": 4988,
      "किशोर": 4989,
      "क्ला": 4990,
      "क्शा": 4991,
      "क्यू": 4992,
      "क्ट्र": 4993,
      "परम": 4994,
      "परवाही": 4995,
      "ान्": 4996,
      "लादेश": 4997,
      "लाखों": 4998,
      "लापरवाही": 4999,
      "साक्ष": 5000,
      "साझा": 5001,
      "हाथी": 5002,
      "हाबाद": 5003,
      "जाया": 5004,
      "जादू": 5005,
      "जाँच": 5006,
      "जाइए": 5007,
      "वाण": 5008,
      "वापसी": 5009,
      "वाधिक": 5010,
      "लेन": 5011,
      "लेशन": 5012,
      "प्रव": 5013,
      "प्रजा": 5014,
      "प्रवी": 5015,
      "प्रत्या": 5016,
      "प्रभारी": 5017,
      "प्रदाय": 5018,
      "राई": 5019,
      "राहे": 5020,
      "रात्मक": 5021,
      "लियो": 5022,
      "तीर्थ": 5023,
      "विकि": 5024,
      "विरा": 5025,
      "विज्ञ": 5026,
      "विकेट": 5027,
      "विरासत": 5028,
      "वितरण": 5029,
      "विरुद्ध": 5030,
      "न्दा": 5031,
      "औरों": 5032,
      "माओ": 5033,
      "माला": 5034,
      "मांड": 5035,
      "बाला": 5036,
      "बाज़ार": 5037,
      "बांग्": 5038,
      "देहा": 5039,
      "देहरा": 5040,
      "तिवारी": 5041,
      "गाए": 5042,
      "दिक्": 5043,
      "दिष्ट": 5044,
      "थात": 5045,
      "थाली": 5046,
      "रीय": 5047,
      "नित": 5048,
      "निस": 5049,
      "निदान": 5050,
      "निवास": 5051,
      "निधन": 5052,
      "निशान": 5053,
      "रहकर": 5054,
      "रहूँ": 5055,
      "रहेंगी": 5056,
      "नीत": 5057,
      "मिर्": 5058,
      "मियत": 5059,
      "मित्रों": 5060,
      "सीए": 5061,
      "सीब": 5062,
      "सीता": 5063,
      "सीपी": 5064,
      "पायल": 5065,
      "पाओगे": 5066,
      "त्त्व": 5067,
      "त्तम": 5068,
      "लीला": 5069,
      "मुठ": 5070,
      "मुर्": 5071,
      "मुनि": 5072,
      "मुशर": 5073,
      "मुद्रा": 5074,
      "मुफ्त": 5075,
      "संयम": 5076,
      "संगत": 5077,
      "संजीव": 5078,
      "संदीप": 5079,
      "संपादक": 5080,
      "मेघ": 5081,
      "मेहम": 5082,
      "मेश्वर": 5083,
      "चाचा": 5084,
      "चावल": 5085,
      "चांदी": 5086,
      "उसपर": 5087,
      "अपू": 5088,
      "जीने": 5089,
      "रेक्टर": 5090,
      "कुँ": 5091,
      "कुण्ड": 5092,
      "कुमारी": 5093,
      "समस": 5094,
      "सम्रा": 5095,
      "हिक": 5096,
      "हिम": 5097,
      "हिरासत": 5098,
      "क्षमा": 5099,
      "दाबाद": 5100,
      "ल्हे": 5101,
      "ोगे": 5102,
      "ोग्रा": 5103,
      "आपस": 5104,
      "आपूर्ति": 5105,
      "सुहा": 5106,
      "सुरा": 5107,
      "सुस्त": 5108,
      "सुप्री": 5109,
      "सिएशन": 5110,
      "सिमट": 5111,
      "खाकर": 5112,
      "खामोशी": 5113,
      "वेस्ट": 5114,
      "वेतन": 5115,
      "रूस": 5116,
      "रूपा": 5117,
      "रूकता": 5118,
      "पूजन": 5119,
      "पूँजी": 5120,
      "फिया": 5121,
      "रोका": 5122,
      "रोना": 5123,
      "सकें": 5124,
      "शिविर": 5125,
      "ढ़ियों": 5126,
      "रिस": 5127,
      "रिटा": 5128,
      "रिकार्ड": 5129,
      "मानना": 5130,
      "श्ती": 5131,
      "तकली": 5132,
      "ज़े": 5133,
      "बिग": 5134,
      "बिया": 5135,
      "बिंद": 5136,
      "बिहारी": 5137,
      "बिखरे": 5138,
      "साथियों": 5139,
      "सबकी": 5140,
      "पहलू": 5141,
      "पहलुओं": 5142,
      "बीते": 5143,
      "बीमा": 5144,
      "बीसी": 5145,
      "चुन": 5146,
      "चुरा": 5147,
      "सरस्व": 5148,
      "बादशाह": 5149,
      "स्टल": 5150,
      "स्टिक": 5151,
      "गुं": 5152,
      "गुम": 5153,
      "गुणा": 5154,
      "लोगो": 5155,
      "स्थली": 5156,
      "देशक": 5157,
      "दूँ": 5158,
      "रुके": 5159,
      "दुप": 5160,
      "टाल": 5161,
      "देखिये": 5162,
      "देखभाल": 5163,
      "मंह": 5164,
      "ब्लै": 5165,
      "नुसार": 5166,
      "चिद": 5167,
      "चिन्": 5168,
      "सोस": 5169,
      "बनाती": 5170,
      "प्लोमा": 5171,
      "छाप": 5172,
      "छाया": 5173,
      "छात्रा": 5174,
      "परिण": 5175,
      "परिसर": 5176,
      "परिचित": 5177,
      "सूखी": 5178,
      "वर्गी": 5179,
      "ज्जी": 5180,
      "पिल": 5181,
      "पिका": 5182,
      "पेज": 5183,
      "पेपर": 5184,
      "बैग": 5185,
      "बैंड": 5186,
      "वरदान": 5187,
      "खिए": 5188,
      "खिसक": 5189,
      "धाम": 5190,
      "स्तरीय": 5191,
      "्राष्ट": 5192,
      "डांस": 5193,
      "शीशे": 5194,
      "बुनिया": 5195,
      "मौज": 5196,
      "वोटर": 5197,
      "दर्जन": 5198,
      "बढ़ो": 5199,
      "बढ़ते": 5200,
      "निकले": 5201,
      "खेत": 5202,
      "बरसात": 5203,
      "बरकरार": 5204,
      "प्रांत": 5205,
      "बदन": 5206,
      "बोध": 5207,
      "अनुप": 5208,
      "अनुसूचित": 5209,
      "डि़": 5210,
      "डिप्लोमा": 5211,
      "उत्साहित": 5212,
      "शेखर": 5213,
      "कर्मियों": 5214,
      "गिनती": 5215,
      "गिलास": 5216,
      "कार्यवाही": 5217,
      "जिसको": 5218,
      "जिसमे": 5219,
      "मुखी": 5220,
      "प्रतिनिधि": 5221,
      "चाहें": 5222,
      "बहती": 5223,
      "गोपाल": 5224,
      "गोष्ठी": 5225,
      "सम्बंध": 5226,
      "सम्पूर्ण": 5227,
      "सामयिक": 5228,
      "स्वादिष्ट": 5229,
      "खोया": 5230,
      "अवधि": 5231,
      "अवशेष": 5232,
      "अवगत": 5233,
      "छेद": 5234,
      "छेड़": 5235,
      "सर्दी": 5236,
      "सर्वे": 5237,
      "सर्वर": 5238,
      "सर्जरी": 5239,
      "सर्वाधिक": 5240,
      "कैबिनेट": 5241,
      "स्थिर": 5242,
      "कारणों": 5243,
      "पत्ते": 5244,
      "पढ़ी": 5245,
      "हेल्": 5246,
      "बैठने": 5247,
      "श्रृ": 5248,
      "अंश": 5249,
      "कलम": 5250,
      "ख़री": 5251,
      "ख़बर": 5252,
      "ख़याल": 5253,
      "ण्डे": 5254,
      "स्थितियां": 5255,
      "क़दम": 5256,
      "शोभ": 5257,
      "दरगाह": 5258,
      "स्थानों": 5259,
      "वैसी": 5260,
      "वैभव": 5261,
      "वैदिक": 5262,
      "श्रीवास्तव": 5263,
      "श्रीलंका": 5264,
      "क्षेप": 5265,
      "फैसले": 5266,
      "सुनना": 5267,
      "सुनते": 5268,
      "डरता": 5269,
      "भवती": 5270,
      "व्यायाम": 5271,
      "विचारधारा": 5272,
      "आंख": 5273,
      "एसई": 5274,
      "णीय": 5275,
      "कॉम": 5276,
      "कॉन्": 5277,
      "कॉर्ड": 5278,
      "चुनावी": 5279,
      "करीना": 5280,
      "लड़कों": 5281,
      "लड़कियों": 5282,
      "पंजी": 5283,
      "साइड": 5284,
      "विषयों": 5285,
      "महासचिव": 5286,
      "व्यक्तियों": 5287,
      "सौदा": 5288,
      "घाटी": 5289,
      "थोड़े": 5290,
      "एँगे": 5291,
      "ग्स": 5292,
      "महिलाएं": 5293,
      "भोज": 5294,
      "चूँकि": 5295,
      "अनदेखी": 5296,
      "गर्भवती": 5297,
      "देवताओं": 5298,
      "सोचते": 5299,
      "आएगी": 5300,
      "ग्राहक": 5301,
      "लंबा": 5302,
      "लैपट": 5303,
      "छोड़कर": 5304,
      "कविताएं": 5305,
      "निकलते": 5306,
      "चलेगा": 5307,
      "परिवारों": 5308,
      "अंग्रेजों": 5309,
      "कथाकार": 5310,
      "सतत": 5311,
      "सतह": 5312,
      "ंकित": 5313,
      "पोस्टमार्ट": 5314,
      "कूद": 5315,
      "छुपा": 5316,
      "बनेगी": 5317,
      "गांवों": 5318,
      "इलाहाबाद": 5319,
      "जायें": 5320,
      "लकड़ी": 5321,
      "करोड़ों": 5322,
      "ब्लॉगर": 5323,
      "शिवजी": 5324,
      "पिताजी": 5325,
      "भ्रम": 5326,
      "रचनाओं": 5327,
      "रचनाएं": 5328,
      "शुरुआती": 5329,
      "ज्ञात": 5330,
      "धूम": 5331,
      "फुल": 5332,
      "लौटने": 5333,
      "अकेली": 5334,
      "पलट": 5335,
      "नेटवर्क": 5336,
      "जिनका": 5337,
      "जिनके": 5338,
      "जिनसे": 5339,
      "चमत्कार": 5340,
      "मंडी": 5341,
      "प्रतीत": 5342,
      "प्रतीका": 5343,
      "दर्जनों": 5344,
      "बर्फ": 5345,
      "सुधारने": 5346,
      "पूछने": 5347,
      "उम्मीदवार": 5348,
      "इंतज़ार": 5349,
      "किताबें": 5350,
      "मुस्करा": 5351,
      "स्वामीजी": 5352,
      "अर्थात": 5353,
      "आत्मविश्वास": 5354,
      "टैग": 5355,
      "बॉय": 5356,
      "गंभीरता": 5357,
      "म्रता": 5358,
      "इंडस्ट्री": 5359,
      "उलट": 5360,
      "चरम": 5361,
      "लाइट": 5362,
      "मनोज": 5363,
      "बहादुर": 5364,
      "करवाया": 5365,
      "करवाने": 5366,
      "आगरा": 5367,
      "शूटिंग": 5368,
      "मुलायम": 5369,
      "क्रोध": 5370,
      "खोलने": 5371,
      "मजबूर": 5372,
      "जंगलों": 5373,
      "ड्डी": 5374,
      "ध्द": 5375,
      "पर्यटक": 5376,
      "पर्यटन": 5377,
      "निश्चय": 5378,
      "सितारे": 5379,
      "सच्ची": 5380,
      "सच्चाई": 5381,
      "ढेर": 5382,
      "तुरन्त": 5383,
      "श्रद्धालु": 5384,
      "ंजलि": 5385,
      "इच्छाओं": 5386,
      "उड़ान": 5387,
      "प्रीत": 5388,
      "प्रारम्भ": 5389,
      "क्ष्म": 5390,
      "टाइम": 5391,
      "टाइम्स": 5392,
      "किसानों": 5393,
      "हल्का": 5394,
      "संतुलन": 5395,
      "संतुलित": 5396,
      "भैंस": 5397,
      "लम्बा": 5398,
      "सवारी": 5399,
      "हाईकोर्ट": 5400,
      "ंतरण": 5401,
      "दवाएं": 5402,
      "पंचमी": 5403,
      "भयभीत": 5404,
      "भक्तों": 5405,
      "मधुमेह": 5406,
      "लडकी": 5407,
      "सृजन": 5408,
      "जागरूकता": 5409,
      "मायावती": 5410,
      "तकनीक": 5411,
      "अकेलेपन": 5412,
      "आकर्षण": 5413,
      "कंट्रोल": 5414,
      "जरुरी": 5415,
      "बलात्कार": 5416,
      "बांटा": 5417,
      "ट्रांस": 5418,
      "फूट": 5419,
      "मॉडल": 5420,
      "सकारात्मक": 5421,
      "दरवाजा": 5422,
      "डॉक्टरों": 5423,
      "कम्प्यूटर": 5424,
      "अखबारों": 5425,
      "एजेंसी": 5426,
      "मजाक": 5427,
      "रैली": 5428,
      "समेट": 5429,
      "प्रशंसक": 5430,
      "नियंत्रित": 5431,
      "सुविधाओं": 5432,
      "कहानियां": 5433,
      "बुराई": 5434,
      "अग्रवाल": 5435,
      "सुझावों": 5436,
      "सब्जियों": 5437,
      "मोर्चा": 5438,
      "विशेषज्ञता": 5439,
      "भौतिक": 5440,
      "शौक": 5441,
      "ख़ुद": 5442,
      "अनाज": 5443,
      "प्रसारण": 5444,
      "प्रगतिशील": 5445,
      "मायने": 5446,
      "कुर्बानी": 5447,
      "सर्वोच्च": 5448,
      "उलझन": 5449,
      "ज्योतिषी": 5450,
      "अक्षय": 5451,
      "इंद्र": 5452,
      "ईमानदार": 5453,
      "फॉर्म": 5454,
      "त्रुटि": 5455,
      "खुशियां": 5456,
      "उपकरणों": 5457,
      "कैंसर": 5458,
      "आज़ाद": 5459,
      "इश्क": 5460,
      "उजागर": 5461,
      "दैनिक": 5462,
      "व्रत": 5463,
      "कोयला": 5464,
      "रहस्य": 5465,
      "हिमाचल": 5466,
      "सिफारिश": 5467,
      "पुण्य": 5468,
      "तुझको": 5469,
      "शिक्षकों": 5470,
      "बढ़ेगी": 5471,
      "समझौते": 5472,
      "इलेक्ट्र": 5473,
      "तड़प": 5474,
      "दखल": 5475,
      "यौन": 5476,
      "रस्सी": 5477,
      "सॉफ्ट": 5478,
      "सवेरे": 5479,
      "मुहब्बत": 5480,
      "सिस्टम": 5481,
      "द्वितीय": 5482,
      "बुजुर्ग": 5483,
      "अत्याचार": 5484,
      "इंग्लैंड": 5485,
      "औषधि": 5486,
      "पचास": 5487,
      "शहीद": 5488,
      "हस्तक्षेप": 5489,
      "प्रदूषण": 5490,
      "प्रमोद": 5491,
      "विद्वान": 5492,
      "भागीदारी": 5493,
      "सिपाही": 5494,
      "अभिनय": 5495,
      "असीम": 5496,
      "गवर्नर": 5497,
      "दहेज": 5498,
      "दफ्तर": 5499,
      "बृह्": 5500,
      "यथार्थ": 5501,
      "लखनऊ": 5502,
      "हकीकत": 5503,
      "स्क्रीन": 5504,
      "द्वीप": 5505,
      "गिरावट": 5506,
      "मुख्यालय": 5507,
      "वैष्णव": 5508,
      "चैंपियन": 5509,
      "टिप्पणियाँ": 5510,
      "अद्यतन": 5511,
      "अख़बार": 5512,
      "अमिताभ": 5513,
      "ऋग्वेद": 5514,
      "कवायद": 5515,
      "जब्त": 5516,
      "डेंगू": 5517,
      "दस्तावेज": 5518,
      "बराबरी": 5519,
      "प्रवीण": 5520,
      "देहरादून": 5521,
      "मुशर्र": 5522,
      "सम्राट": 5523,
      "सरस्वती": 5524,
      "लैपटॉप": 5525,
      "पोस्टमार्टम": 5526,
      "ँद": 5527,
      "ंश": 5528,
      "ंचा": 5529,
      "ंची": 5530,
      "ंजना": 5531,
      "अट": 5532,
      "अठ": 5533,
      "अड़": 5534,
      "असं": 5535,
      "अखा": 5536,
      "अमूल्य": 5537,
      "अड्": 5538,
      "अरवि": 5539,
      "अणु": 5540,
      "अप्रै": 5541,
      "अहिंसा": 5542,
      "अवार्ड": 5543,
      "आश": 5544,
      "आला": 5545,
      "आबा": 5546,
      "आति": 5547,
      "आंग": 5548,
      "आंत": 5549,
      "आमत": 5550,
      "आह्": 5551,
      "आवरण": 5552,
      "आश्रम": 5553,
      "आचार्य": 5554,
      "आभूषण": 5555,
      "इज": 5556,
      "इका": 5557,
      "इमार": 5558,
      "इयाँ": 5559,
      "इन्द्र": 5560,
      "ईस": 5561,
      "उधार": 5562,
      "उन्न": 5563,
      "उर्जा": 5564,
      "एट": 5565,
      "एव": 5566,
      "एटी": 5567,
      "एसो": 5568,
      "एएस": 5569,
      "एलब": 5570,
      "ऐलान": 5571,
      "ऑल": 5572,
      "ऑर्": 5573,
      "ऑफ़": 5574,
      "ऑडियो": 5575,
      "ओम": 5576,
      "कहो": 5577,
      "कते": 5578,
      "कबा": 5579,
      "कपा": 5580,
      "कहर": 5581,
      "कमान": 5582,
      "कटी": 5583,
      "कसर": 5584,
      "कंड": 5585,
      "कटा": 5586,
      "कमो": 5587,
      "कप्": 5588,
      "कक्षा": 5589,
      "कतार": 5590,
      "कलन": 5591,
      "कब्र": 5592,
      "कंट": 5593,
      "कपिल": 5594,
      "खत": 5595,
      "खता": 5596,
      "खडा": 5597,
      "खडी": 5598,
      "गज": 5599,
      "गढ": 5600,
      "गवाह": 5601,
      "गरेट": 5602,
      "घी": 5603,
      "घड़ी": 5604,
      "घोर": 5605,
      "चंग": 5606,
      "चश्": 5607,
      "चन्द": 5608,
      "चपेट": 5609,
      "छठ": 5610,
      "छप": 5611,
      "जले": 5612,
      "जगी": 5613,
      "ज्या": 5614,
      "जर्म": 5615,
      "जन्नत": 5616,
      "जमानत": 5617,
      "टम": 5618,
      "टमा": 5619,
      "टलों": 5620,
      "टकरा": 5621,
      "टंकी": 5622,
      "ठंडा": 5623,
      "डु": 5624,
      "डै": 5625,
      "डब्": 5626,
      "ड्री": 5627,
      "डरों": 5628,
      "डेंट": 5629,
      "ढल": 5630,
      "ढों": 5631,
      "णसी": 5632,
      "तर्": 5633,
      "तंग": 5634,
      "तब्दी": 5635,
      "दश": 5636,
      "दने": 5637,
      "दंड": 5638,
      "दराज": 5639,
      "दरत": 5640,
      "दण्ड": 5641,
      "दबाव": 5642,
      "दस्तक": 5643,
      "धरो": 5644,
      "धनिया": 5645,
      "धपुर": 5646,
      "धड़क": 5647,
      "नन": 5648,
      "नहा": 5649,
      "नन्": 5650,
      "नकार": 5651,
      "नन्ह": 5652,
      "नयी": 5653,
      "नवल": 5654,
      "नमू": 5655,
      "नगरी": 5656,
      "नंगी": 5657,
      "नमक": 5658,
      "नकारा": 5659,
      "नवीन": 5660,
      "पली": 5661,
      "पद्ध": 5662,
      "पण्ड": 5663,
      "पक्की": 5664,
      "फत": 5665,
      "फते": 5666,
      "फ्रे": 5667,
      "फलों": 5668,
      "फौर": 5669,
      "बें": 5670,
      "ब्यू": 5671,
      "बकरी": 5672,
      "बस्तर": 5673,
      "बत्ती": 5674,
      "भं": 5675,
      "भट": 5676,
      "भंग": 5677,
      "भयं": 5678,
      "मश": 5679,
      "मस": 5680,
      "मने": 5681,
      "मकर": 5682,
      "मला": 5683,
      "मरा": 5684,
      "मकिन": 5685,
      "मदन": 5686,
      "यश": 5687,
      "यस": 5688,
      "य्य": 5689,
      "यकों": 5690,
      "यद्य": 5691,
      "यिका": 5692,
      "रम": 5693,
      "रने": 5694,
      "रार": 5695,
      "रकम": 5696,
      "रक्षक": 5697,
      "रँग": 5698,
      "रसोई": 5699,
      "लभ": 5700,
      "लंग": 5701,
      "लयों": 5702,
      "लंड": 5703,
      "लवी": 5704,
      "लड़े": 5705,
      "लहरा": 5706,
      "लण्ड": 5707,
      "लानि": 5708,
      "लपट": 5709,
      "व्": 5710,
      "वक्": 5711,
      "वसू": 5712,
      "वसाय": 5713,
      "वसंत": 5714,
      "वकील": 5715,
      "शॉ": 5716,
      "शता": 5717,
      "शनों": 5718,
      "षिक": 5719,
      "सँ": 5720,
      "सने": 5721,
      "सनिक": 5722,
      "सलों": 5723,
      "सार्थ": 5724,
      "सफर": 5725,
      "सवालों": 5726,
      "सनीय": 5727,
      "ह्र": 5728,
      "हानी": 5729,
      "हारे": 5730,
      "हवन": 5731,
      "हंसी": 5732,
      "िप्त": 5733,
      "ुण": 5734,
      "ुओं": 5735,
      "ुसार": 5736,
      "ूत": 5737,
      "ूप": 5738,
      "ूहिक": 5739,
      "ेय": 5740,
      "ेन्द्र": 5741,
      "ॉरिटी": 5742,
      "कारे": 5743,
      "काबू": 5744,
      "कायदा": 5745,
      "कांडा": 5746,
      "काफ़ी": 5747,
      "ेंड": 5748,
      "नेशनल": 5749,
      "सेज": 5750,
      "सेहत": 5751,
      "हीर": 5752,
      "ारस": 5753,
      "तादा": 5754,
      "नात": 5755,
      "नाना": 5756,
      "नाकाम": 5757,
      "नास्तिक": 5758,
      "कोठ": 5759,
      "कोष": 5760,
      "कोह": 5761,
      "कोशिका": 5762,
      "कोर्स": 5763,
      "कोलम्": 5764,
      "स्के": 5765,
      "स्कर": 5766,
      "स्ति": 5767,
      "स्मार": 5768,
      "स्त्रा": 5769,
      "स्वार्": 5770,
      "स्मार्ट": 5771,
      "स्नेह": 5772,
      "भीषण": 5773,
      "किक": 5774,
      "किड": 5775,
      "किशो": 5776,
      "होस्ट": 5777,
      "होगें": 5778,
      "क्लो": 5779,
      "क्यु": 5780,
      "परवाह": 5781,
      "परमेश्वर": 5782,
      "लात": 5783,
      "लापता": 5784,
      "लापन": 5785,
      "साया": 5786,
      "साइन": 5787,
      "सामं": 5788,
      "सावन": 5789,
      "साहे": 5790,
      "जामा": 5791,
      "जागर": 5792,
      "जाग्र": 5793,
      "जाऊँ": 5794,
      "जापान": 5795,
      "वाए": 5796,
      "वाम": 5797,
      "वापि": 5798,
      "वायर": 5799,
      "हैंघ्": 5800,
      "लेनी": 5801,
      "लेखि": 5802,
      "लेटर": 5803,
      "प्रग": 5804,
      "प्रश": 5805,
      "प्रवि": 5806,
      "प्रथा": 5807,
      "प्रपत्र": 5808,
      "प्रकरण": 5809,
      "प्रसव": 5810,
      "प्रदीप": 5811,
      "प्रबन्ध": 5812,
      "प्रख्यात": 5813,
      "राँ": 5814,
      "रास": 5815,
      "राशन": 5816,
      "रावत": 5817,
      "रासाय": 5818,
      "लिटी": 5819,
      "लियत": 5820,
      "लिस्म": 5821,
      "विकी": 5822,
      "विंग": 5823,
      "विंड": 5824,
      "विष्": 5825,
      "विशे": 5826,
      "विक्रम": 5827,
      "विस्थापित": 5828,
      "विमर्श": 5829,
      "तेवर": 5830,
      "न्च": 5831,
      "न्ट": 5832,
      "न्नी": 5833,
      "माद": 5834,
      "माफ": 5835,
      "माव": 5836,
      "मास": 5837,
      "माथा": 5838,
      "मांस": 5839,
      "मांगा": 5840,
      "मापद": 5841,
      "मातृ": 5842,
      "बाघ": 5843,
      "बाते": 5844,
      "बाहु": 5845,
      "बाकू": 5846,
      "देही": 5847,
      "देसी": 5848,
      "देसाई": 5849,
      "तियाँ": 5850,
      "गायक": 5851,
      "गाइड": 5852,
      "दिसं": 5853,
      "थाना": 5854,
      "रीब": 5855,
      "निज": 5856,
      "निन": 5857,
      "निगा": 5858,
      "निसं": 5859,
      "निहाल": 5860,
      "निहार": 5861,
      "निवासी": 5862,
      "निपटा": 5863,
      "निखार": 5864,
      "निरोधक": 5865,
      "एकता": 5866,
      "रहनी": 5867,
      "नीच": 5868,
      "नीयत": 5869,
      "मियां": 5870,
      "मिलित": 5871,
      "मिश्रा": 5872,
      "सीय": 5873,
      "सीना": 5874,
      "सीएम": 5875,
      "सीटों": 5876,
      "पाशा": 5877,
      "पापी": 5878,
      "पाठी": 5879,
      "पावली": 5880,
      "पाएंगे": 5881,
      "त्तरी": 5882,
      "लीजिए": 5883,
      "लीजिये": 5884,
      "मुसा": 5885,
      "मुकद": 5886,
      "मुमकिन": 5887,
      "संहि": 5888,
      "संक्ष": 5889,
      "संपूर्ण": 5890,
      "संशो": 5891,
      "संतों": 5892,
      "संकल्प": 5893,
      "संयंत्र": 5894,
      "संपन्न": 5895,
      "संक्रांति": 5896,
      "संवर्धन": 5897,
      "मेधा": 5898,
      "येगा": 5899,
      "चालू": 5900,
      "चाकू": 5901,
      "चालान": 5902,
      "चाँद": 5903,
      "मैक": 5904,
      "जीप": 5905,
      "जीभ": 5906,
      "जीपी": 5907,
      "जीतने": 5908,
      "रेत": 5909,
      "रेप": 5910,
      "रेलगाड़ी": 5911,
      "कुंभ": 5912,
      "कुदरत": 5913,
      "हिस्": 5914,
      "हियों": 5915,
      "भागा": 5916,
      "भाइयों": 5917,
      "भाँति": 5918,
      "क्षी": 5919,
      "दीदी": 5920,
      "दीपक": 5921,
      "दीवाना": 5922,
      "दीपावली": 5923,
      "दाग": 5924,
      "दाने": 5925,
      "दामन": 5926,
      "दायर": 5927,
      "दामों": 5928,
      "गीतों": 5929,
      "हमं": 5930,
      "हमको": 5931,
      "ल्ट": 5932,
      "ल्या": 5933,
      "ल्टा": 5934,
      "ल्डर": 5935,
      "ल्लत": 5936,
      "ल्लुक": 5937,
      "आपत्ति": 5938,
      "जिम": 5939,
      "जिया": 5940,
      "जियम": 5941,
      "जिटल": 5942,
      "सुरे": 5943,
      "सुओं": 5944,
      "सुदृढ़": 5945,
      "सिं": 5946,
      "सिक्": 5947,
      "सिरे": 5948,
      "सिकता": 5949,
      "सितं": 5950,
      "सिविल": 5951,
      "सियासत": 5952,
      "सिगरेट": 5953,
      "शाप": 5954,
      "शाहिद": 5955,
      "शासनिक": 5956,
      "खाया": 5957,
      "वेग": 5958,
      "रूसी": 5959,
      "गेहूं": 5960,
      "फिक्": 5961,
      "हरभजन": 5962,
      "पुरे": 5963,
      "मीरा": 5964,
      "तुझे": 5965,
      "तुलसी": 5966,
      "रोह": 5967,
      "रोती": 5968,
      "सकेंगे": 5969,
      "सकूँ": 5970,
      "शिशु": 5971,
      "शिष्य": 5972,
      "शिखर": 5973,
      "रियल": 5974,
      "रिक्शा": 5975,
      "रिकॉर्ड": 5976,
      "माननीय": 5977,
      "मानसिकता": 5978,
      "वारे": 5979,
      "पीता": 5980,
      "पीसी": 5981,
      "पीजी": 5982,
      "पीएम": 5983,
      "ज़्": 5984,
      "ज़रा": 5985,
      "बिगड़": 5986,
      "बिपाशा": 5987,
      "सबने": 5988,
      "सबूत": 5989,
      "बेन": 5990,
      "बेस": 5991,
      "बेचा": 5992,
      "बेबी": 5993,
      "बेसिक": 5994,
      "बेशुमार": 5995,
      "पहल": 5996,
      "टीना": 5997,
      "टीसी": 5998,
      "जोन": 5999
    },
    "merges": [
      [
        "ह",
        "ै"
      ],
      [
        "क",
        "ा"
      ],
      [
        "े",
        "ं"
      ],
      [
        "य",
        "ा"
      ],
      [
        "क",
        "े"
      ],
      [
        "्",
        "र"
      ],
      [
        "न",
        "े"
      ],
      [
        "म",
        "ें"
      ],
      [
        "स",
        "े"
      ],
      [
        "क",
        "ी"
      ],
      [
        "ह",
        "ी"
      ],
      [
        "ा",
        "र"
      ],
      [
        "त",
        "ा"
      ],
      [
        "ो",
        "ं"
      ],
      [
        "क",
        "र"
      ],
      [
        "न",
        "ा"
      ],
      [
        "क",
        "ो"
      ],
      [
        "स",
        "्"
      ],
      [
        "र",
        "्"
      ],
      [
        "भ",
        "ी"
      ],
      [
        "क",
        "ि"
      ],
      [
        "ह",
        "ो"
      ],
      [
        "क",
        "्"
      ],
      [
        "प",
        "र"
      ],
      [
        "ा",
        "न"
      ],
      [
        "ल",
        "ा"
      ],
      [
        "स",
        "ा"
      ],
      [
        "ह",
        "ा"
      ],
      [
        "ज",
        "ा"
      ],
      [
        "व",
        "ा"
      ],
      [
        "है",
        "ं"
      ],
      [
        "इ",
        "स"
      ],
      [
        "ल",
        "े"
      ],
      [
        "प",
        "्र"
      ],
      [
        "र",
        "ा"
      ],
      [
        "ल",
        "ि"
      ],
      [
        "ही",
        "ं"
      ],
      [
        "त",
        "ी"
      ],
      [
        "व",
        "ि"
      ],
      [
        "त",
        "े"
      ],
      [
        "न",
        "्"
      ],
      [
        "औ",
        "र"
      ],
      [
        "न",
        "हीं"
      ],
      [
        "ड",
        "़"
      ],
      [
        "म",
        "ा"
      ],
      [
        "्",
        "य"
      ],
      [
        "ब",
        "ा"
      ],
      [
        "द",
        "े"
      ],
      [
        "ह",
        "ु"
      ],
      [
        "त",
        "ि"
      ],
      [
        "ग",
        "ा"
      ],
      [
        "द",
        "ि"
      ],
      [
        "थ",
        "ा"
      ],
      [
        "र",
        "ी"
      ],
      [
        "न",
        "ि"
      ],
      [
        "ए",
        "क"
      ],
      [
        "र",
        "ह"
      ],
      [
        "न",
        "ी"
      ],
      [
        "त",
        "ो"
      ],
      [
        "म",
        "ि"
      ],
      [
        "स",
        "ी"
      ],
      [
        "प",
        "ा"
      ],
      [
        "त",
        "्"
      ],
      [
        "ल",
        "ी"
      ],
      [
        "म",
        "ु"
      ],
      [
        "स",
        "ं"
      ],
      [
        "म",
        "े"
      ],
      [
        "त",
        "्र"
      ],
      [
        "य",
        "े"
      ],
      [
        "य",
        "ह"
      ],
      [
        "लि",
        "ए"
      ],
      [
        "च",
        "ा"
      ],
      [
        "उ",
        "स"
      ],
      [
        "म",
        "ै"
      ],
      [
        "अ",
        "प"
      ],
      [
        "ज",
        "ी"
      ],
      [
        "ं",
        "ग"
      ],
      [
        "र",
        "े"
      ],
      [
        "क",
        "ु"
      ],
      [
        "स",
        "म"
      ],
      [
        "का",
        "र"
      ],
      [
        "ह",
        "ि"
      ],
      [
        "भ",
        "ा"
      ],
      [
        "क्",
        "ष"
      ],
      [
        "द",
        "ी"
      ],
      [
        "द",
        "ा"
      ],
      [
        "ग",
        "ी"
      ],
      [
        "ह",
        "म"
      ],
      [
        "य",
        "ों"
      ],
      [
        "ल",
        "्"
      ],
      [
        "थ",
        "ी"
      ],
      [
        "ग",
        "या"
      ],
      [
        "मै",
        "ं"
      ],
      [
        "ो",
        "ग"
      ],
      [
        "आ",
        "प"
      ],
      [
        "ज",
        "ि"
      ],
      [
        "स",
        "ु"
      ],
      [
        "स",
        "ि"
      ],
      [
        "श",
        "ा"
      ],
      [
        "उ",
        "न"
      ],
      [
        "ख",
        "ा"
      ],
      [
        "्",
        "या"
      ],
      [
        "व",
        "े"
      ],
      [
        "द",
        "ो"
      ],
      [
        "र",
        "ू"
      ],
      [
        "प",
        "ू"
      ],
      [
        "व",
        "ह"
      ],
      [
        "थ",
        "े"
      ],
      [
        "कि",
        "या"
      ],
      [
        "ग",
        "े"
      ],
      [
        "फ",
        "ि"
      ],
      [
        "द",
        "्"
      ],
      [
        "्",
        "ट"
      ],
      [
        "ह",
        "र"
      ],
      [
        "प",
        "ु"
      ],
      [
        "म",
        "ी"
      ],
      [
        "न्",
        "ह"
      ],
      [
        "त",
        "ु"
      ],
      [
        "च",
        "्"
      ],
      [
        "र",
        "ो"
      ],
      [
        "स",
        "क"
      ],
      [
        "कु",
        "छ"
      ],
      [
        "ध",
        "ि"
      ],
      [
        "रह",
        "े"
      ],
      [
        "श",
        "ि"
      ],
      [
        "ढ",
        "़"
      ],
      [
        "र",
        "हा"
      ],
      [
        "र",
        "ि"
      ],
      [
        "म",
        "ान"
      ],
      [
        "श",
        "्"
      ],
      [
        "व",
        "ार"
      ],
      [
        "त",
        "र"
      ],
      [
        "त",
        "क"
      ],
      [
        "उ",
        "न्ह"
      ],
      [
        "न",
        "ों"
      ],
      [
        "प",
        "ी"
      ],
      [
        "ज",
        "़"
      ],
      [
        "ब",
        "हु"
      ],
      [
        "को",
        "ई"
      ],
      [
        "क्",
        "या"
      ],
      [
        "ब",
        "ि"
      ],
      [
        "सा",
        "थ"
      ],
      [
        "अ",
        "ब"
      ],
      [
        "स",
        "ब"
      ],
      [
        "ार",
        "ी"
      ],
      [
        "ब",
        "े"
      ],
      [
        "बहु",
        "त"
      ],
      [
        "प",
        "ह"
      ],
      [
        "ं",
        "द"
      ],
      [
        "ट",
        "ी"
      ],
      [
        "म",
        "्"
      ],
      [
        "ज",
        "ो"
      ],
      [
        "क",
        "्र"
      ],
      [
        "अप",
        "ने"
      ],
      [
        "ब",
        "ी"
      ],
      [
        "ि",
        "त"
      ],
      [
        "इ",
        "न"
      ],
      [
        "बा",
        "त"
      ],
      [
        "च",
        "ु"
      ],
      [
        "च",
        "ार"
      ],
      [
        "स",
        "र"
      ],
      [
        "ं",
        "ड"
      ],
      [
        "ह",
        "ू"
      ],
      [
        "ि",
        "या"
      ],
      [
        "ब",
        "ार"
      ],
      [
        "बा",
        "द"
      ],
      [
        "स्",
        "ट"
      ],
      [
        "ग",
        "ु"
      ],
      [
        "ल",
        "ोग"
      ],
      [
        "स्",
        "थ"
      ],
      [
        "दे",
        "श"
      ],
      [
        "द",
        "ू"
      ],
      [
        "ग",
        "ई"
      ],
      [
        "र",
        "ही"
      ],
      [
        "ल",
        "ग"
      ],
      [
        "दि",
        "या"
      ],
      [
        "व",
        "ी"
      ],
      [
        "ओ",
        "ं"
      ],
      [
        "र",
        "ु"
      ],
      [
        "रा",
        "ज"
      ],
      [
        "श",
        "ु"
      ],
      [
        "कर",
        "ने"
      ],
      [
        "ान",
        "ी"
      ],
      [
        "ल",
        "गा"
      ],
      [
        "हो",
        "ता"
      ],
      [
        "क",
        "ह"
      ],
      [
        "च",
        "े"
      ],
      [
        "द",
        "ु"
      ],
      [
        "हा",
        "ं"
      ],
      [
        "ड़",
        "ा"
      ],
      [
        "ट",
        "ा"
      ],
      [
        "दे",
        "ख"
      ],
      [
        "मि",
        "ल"
      ],
      [
        "कि",
        "न"
      ],
      [
        "ड़",
        "ी"
      ],
      [
        "ख",
        "ु"
      ],
      [
        "ज",
        "न"
      ],
      [
        "म",
        "ं"
      ],
      [
        "ब",
        "्"
      ],
      [
        "हु",
        "आ"
      ],
      [
        "न",
        "ु"
      ],
      [
        "च",
        "ि"
      ],
      [
        "म",
        "ो"
      ],
      [
        "फि",
        "र"
      ],
      [
        "ष",
        "्ट"
      ],
      [
        "स",
        "ो"
      ],
      [
        "ब",
        "ना"
      ],
      [
        "प",
        "्"
      ],
      [
        "छ",
        "ा"
      ],
      [
        "पर",
        "ि"
      ],
      [
        "स",
        "ू"
      ],
      [
        "मु",
        "झ"
      ],
      [
        "ल",
        "ो"
      ],
      [
        "आ",
        "ज"
      ],
      [
        "ार",
        "े"
      ],
      [
        "्र",
        "े"
      ],
      [
        "ै",
        "से"
      ],
      [
        "च",
        "ी"
      ],
      [
        "व",
        "र्"
      ],
      [
        "र्",
        "य"
      ],
      [
        "ले",
        "किन"
      ],
      [
        "भ",
        "ार"
      ],
      [
        "का",
        "म"
      ],
      [
        "व",
        "्य"
      ],
      [
        "ज",
        "्"
      ],
      [
        "प",
        "ि"
      ],
      [
        "जा",
        "ए"
      ],
      [
        "कि",
        "सी"
      ],
      [
        "ड़",
        "े"
      ],
      [
        "ं",
        "ध"
      ],
      [
        "म",
        "न"
      ],
      [
        "इस",
        "के"
      ],
      [
        "च",
        "ल"
      ],
      [
        "य",
        "ु"
      ],
      [
        "जा",
        "ता"
      ],
      [
        "ट",
        "े"
      ],
      [
        "ार",
        "ा"
      ],
      [
        "उ",
        "से"
      ],
      [
        "ग",
        "र"
      ],
      [
        "अप",
        "नी"
      ],
      [
        "क",
        "म"
      ],
      [
        "हु",
        "ई"
      ],
      [
        "फ",
        "़"
      ],
      [
        "अ",
        "धि"
      ],
      [
        "ार",
        "्"
      ],
      [
        "ों",
        "ने"
      ],
      [
        "प",
        "े"
      ],
      [
        "ब",
        "ै"
      ],
      [
        "म",
        "ह"
      ],
      [
        "व",
        "र"
      ],
      [
        "ष",
        "्"
      ],
      [
        "मुझ",
        "े"
      ],
      [
        "ख",
        "ि"
      ],
      [
        "त",
        "्य"
      ],
      [
        "्र",
        "ी"
      ],
      [
        "त",
        "रह"
      ],
      [
        "य",
        "ो"
      ],
      [
        "ज",
        "ान"
      ],
      [
        "हु",
        "ए"
      ],
      [
        "ू",
        "ल"
      ],
      [
        "हा",
        "ँ"
      ],
      [
        "उन्ह",
        "ोंने"
      ],
      [
        "ि",
        "क"
      ],
      [
        "ध",
        "ा"
      ],
      [
        "स्",
        "त"
      ],
      [
        "्र",
        "ा"
      ],
      [
        "ब",
        "न"
      ],
      [
        "श",
        "न"
      ],
      [
        "दि",
        "न"
      ],
      [
        "पह",
        "ले"
      ],
      [
        "ड",
        "ा"
      ],
      [
        "ग",
        "ए"
      ],
      [
        "य",
        "ोग"
      ],
      [
        "कर",
        "ते"
      ],
      [
        "ं",
        "च"
      ],
      [
        "क",
        "ृ"
      ],
      [
        "ट",
        "र"
      ],
      [
        "ें",
        "गे"
      ],
      [
        "क्ष",
        "ा"
      ],
      [
        "ं",
        "त"
      ],
      [
        "र",
        "ख"
      ],
      [
        "श",
        "ी"
      ],
      [
        "लि",
        "या"
      ],
      [
        "ना",
        "म"
      ],
      [
        "अ",
        "च्"
      ],
      [
        "ब",
        "ु"
      ],
      [
        "म",
        "ौ"
      ],
      [
        "क",
        "ई"
      ],
      [
        "हो",
        "ती"
      ],
      [
        "व",
        "न"
      ],
      [
        "सक",
        "ता"
      ],
      [
        "का",
        "री"
      ],
      [
        "दो",
        "नों"
      ],
      [
        "व",
        "ो"
      ],
      [
        "उन्ह",
        "ें"
      ],
      [
        "ज",
        "ब"
      ],
      [
        "द",
        "र्"
      ],
      [
        "ज्",
        "ञ"
      ],
      [
        "ज",
        "े"
      ],
      [
        "घ",
        "र"
      ],
      [
        "ि",
        "यों"
      ],
      [
        "न्",
        "द"
      ],
      [
        "हो",
        "गा"
      ],
      [
        "चा",
        "हि"
      ],
      [
        "क्",
        "ति"
      ],
      [
        "कर",
        "ना"
      ],
      [
        "उस",
        "के"
      ],
      [
        "सम",
        "य"
      ],
      [
        "उन",
        "के"
      ],
      [
        "उ",
        "प"
      ],
      [
        "ब",
        "ढ़"
      ],
      [
        "नि",
        "क"
      ],
      [
        "ख",
        "े"
      ],
      [
        "ब",
        "र"
      ],
      [
        "प्र",
        "ा"
      ],
      [
        "ब",
        "द"
      ],
      [
        "ब",
        "ो"
      ],
      [
        "हो",
        "ने"
      ],
      [
        "इस",
        "से"
      ],
      [
        "रू",
        "प"
      ],
      [
        "आ",
        "ई"
      ],
      [
        "ज",
        "ु"
      ],
      [
        "प",
        "ो"
      ],
      [
        "भा",
        "व"
      ],
      [
        "अ",
        "नु"
      ],
      [
        "ड",
        "ि"
      ],
      [
        "स्",
        "व"
      ],
      [
        "क",
        "हा"
      ],
      [
        "स",
        "भी"
      ],
      [
        "त्र",
        "ी"
      ],
      [
        "य",
        "ी"
      ],
      [
        "मे",
        "रे"
      ],
      [
        "सम",
        "झ"
      ],
      [
        "ट",
        "ि"
      ],
      [
        "प",
        "हु"
      ],
      [
        "क्",
        "त"
      ],
      [
        "नि",
        "र्"
      ],
      [
        "ल",
        "ों"
      ],
      [
        "उ",
        "त्"
      ],
      [
        "हू",
        "ं"
      ],
      [
        "श",
        "े"
      ],
      [
        "इस",
        "ी"
      ],
      [
        "हू",
        "ँ"
      ],
      [
        "भ",
        "ि"
      ],
      [
        "कर",
        "्"
      ],
      [
        "पू",
        "र्"
      ],
      [
        "य",
        "ू"
      ],
      [
        "ग",
        "ि"
      ],
      [
        "ठ",
        "ा"
      ],
      [
        "का",
        "र्य"
      ],
      [
        "जि",
        "स"
      ],
      [
        "फ",
        "ी"
      ],
      [
        "मा",
        "म"
      ],
      [
        "मु",
        "ख"
      ],
      [
        "ध",
        "ार"
      ],
      [
        "ब",
        "ता"
      ],
      [
        "प्र",
        "ति"
      ],
      [
        "त्",
        "व"
      ],
      [
        "उन",
        "की"
      ],
      [
        "चाहि",
        "ए"
      ],
      [
        "पु",
        "लि"
      ],
      [
        "स्",
        "था"
      ],
      [
        "चा",
        "ह"
      ],
      [
        "ौ",
        "र"
      ],
      [
        "पुलि",
        "स"
      ],
      [
        "ं",
        "क"
      ],
      [
        "ऐ",
        "सा"
      ],
      [
        "प",
        "ार"
      ],
      [
        "कर",
        "ें"
      ],
      [
        "स्",
        "ता"
      ],
      [
        "म",
        "त"
      ],
      [
        "ब",
        "ह"
      ],
      [
        "ग",
        "ो"
      ],
      [
        "ड",
        "ी"
      ],
      [
        "य",
        "हां"
      ],
      [
        "स",
        "मा"
      ],
      [
        "जा",
        "ती"
      ],
      [
        "क",
        "ों"
      ],
      [
        "ठ",
        "ी"
      ],
      [
        "मैं",
        "ने"
      ],
      [
        "छ",
        "ो"
      ],
      [
        "ध",
        "्य"
      ],
      [
        "म",
        "ार"
      ],
      [
        "पा",
        "स"
      ],
      [
        "य",
        "ही"
      ],
      [
        "क्",
        "यों"
      ],
      [
        "वा",
        "द"
      ],
      [
        "फि",
        "ल्"
      ],
      [
        "इ",
        "से"
      ],
      [
        "क",
        "भी"
      ],
      [
        "ण",
        "ा"
      ],
      [
        "ब",
        "च्"
      ],
      [
        "सम",
        "्"
      ],
      [
        "र",
        "त"
      ],
      [
        "ज",
        "ू"
      ],
      [
        "ज",
        "ार"
      ],
      [
        "ऐ",
        "से"
      ],
      [
        "य",
        "र"
      ],
      [
        "सब",
        "से"
      ],
      [
        "ए",
        "ं"
      ],
      [
        "्या",
        "दा"
      ],
      [
        "भ",
        "ू"
      ],
      [
        "उस",
        "की"
      ],
      [
        "लोग",
        "ों"
      ],
      [
        "अ",
        "न्"
      ],
      [
        "हो",
        "गी"
      ],
      [
        "सा",
        "म"
      ],
      [
        "प",
        "ता"
      ],
      [
        "ंग",
        "्रे"
      ],
      [
        "दू",
        "स"
      ],
      [
        "ं",
        "स"
      ],
      [
        "ल",
        "ू"
      ],
      [
        "स्",
        "वा"
      ],
      [
        "वा",
        "ले"
      ],
      [
        "शु",
        "रू"
      ],
      [
        "ख",
        "ो"
      ],
      [
        "ह",
        "ों"
      ],
      [
        "प",
        "ै"
      ],
      [
        "ज",
        "ग"
      ],
      [
        "मे",
        "री"
      ],
      [
        "भा",
        "ग"
      ],
      [
        "अ",
        "व"
      ],
      [
        "हा",
        "ल"
      ],
      [
        "भार",
        "त"
      ],
      [
        "च",
        "ना"
      ],
      [
        "र्",
        "थ"
      ],
      [
        "जी",
        "वन"
      ],
      [
        "फ",
        "ा"
      ],
      [
        "हा",
        "थ"
      ],
      [
        "इस",
        "का"
      ],
      [
        "वि",
        "श्"
      ],
      [
        "सक",
        "ते"
      ],
      [
        "ं",
        "ह"
      ],
      [
        "छ",
        "े"
      ],
      [
        "ज",
        "्यादा"
      ],
      [
        "ड",
        "े"
      ],
      [
        "अप",
        "ना"
      ],
      [
        "द्",
        "ध"
      ],
      [
        "द",
        "ान"
      ],
      [
        "क",
        "ता"
      ],
      [
        "स",
        "र्"
      ],
      [
        "कर",
        "ता"
      ],
      [
        "सर",
        "कार"
      ],
      [
        "ग",
        "्र"
      ],
      [
        "प",
        "न"
      ],
      [
        "नि",
        "या"
      ],
      [
        "फिल्",
        "म"
      ],
      [
        "त",
        "ना"
      ],
      [
        "जा",
        "ने"
      ],
      [
        "तु",
        "म"
      ],
      [
        "भ",
        "र"
      ],
      [
        "न्",
        "न"
      ],
      [
        "हम",
        "ारे"
      ],
      [
        "्ट",
        "ी"
      ],
      [
        "आ",
        "या"
      ],
      [
        "क",
        "ै"
      ],
      [
        "ब",
        "ंध"
      ],
      [
        "क",
        "ैसे"
      ],
      [
        "प",
        "ड़"
      ],
      [
        "भ",
        "ग"
      ],
      [
        "कर",
        "ा"
      ],
      [
        "ज",
        "ै"
      ],
      [
        "र्",
        "ट"
      ],
      [
        "प्र",
        "े"
      ],
      [
        "ज्ञ",
        "ान"
      ],
      [
        "द",
        "्र"
      ],
      [
        "व",
        "ान"
      ],
      [
        "ष",
        "ा"
      ],
      [
        "उन",
        "का"
      ],
      [
        "स",
        "ह"
      ],
      [
        "हो",
        "ते"
      ],
      [
        "इस",
        "लिए"
      ],
      [
        "रा",
        "म"
      ],
      [
        "स्थ",
        "ि"
      ],
      [
        "त",
        "ब"
      ],
      [
        "त",
        "ार"
      ],
      [
        "द",
        "ार"
      ],
      [
        "ब",
        "स"
      ],
      [
        "र",
        "ों"
      ],
      [
        "ल",
        "न"
      ],
      [
        "त्",
        "म"
      ],
      [
        "कार",
        "ण"
      ],
      [
        "का",
        "फी"
      ],
      [
        "मं",
        "त्री"
      ],
      [
        "अच्",
        "छा"
      ],
      [
        "ज",
        "रू"
      ],
      [
        "प",
        "र्"
      ],
      [
        "प",
        "त्"
      ],
      [
        "प",
        "ढ़"
      ],
      [
        "ह",
        "े"
      ],
      [
        "अ",
        "भी"
      ],
      [
        "रा",
        "त"
      ],
      [
        "लि",
        "ये"
      ],
      [
        "अधि",
        "क"
      ],
      [
        "वा",
        "ला"
      ],
      [
        "ले",
        "ख"
      ],
      [
        "लि",
        "ख"
      ],
      [
        "मे",
        "रा"
      ],
      [
        "उस",
        "का"
      ],
      [
        "बै",
        "ठ"
      ],
      [
        "ं",
        "गा"
      ],
      [
        "त",
        "ै"
      ],
      [
        "द",
        "्य"
      ],
      [
        "क्ष",
        "ण"
      ],
      [
        "आप",
        "को"
      ],
      [
        "तु",
        "म्"
      ],
      [
        "क",
        "ौ"
      ],
      [
        "च",
        "ला"
      ],
      [
        "ज",
        "र"
      ],
      [
        "य",
        "ं"
      ],
      [
        "श",
        "्र"
      ],
      [
        "पु",
        "र"
      ],
      [
        "प्",
        "त"
      ],
      [
        "अ",
        "ं"
      ],
      [
        "न",
        "ो"
      ],
      [
        "क",
        "ल"
      ],
      [
        "ख",
        "़"
      ],
      [
        "व",
        "ं"
      ],
      [
        "स",
        "ार"
      ],
      [
        "का",
        "न"
      ],
      [
        "सा",
        "ल"
      ],
      [
        "द्",
        "वार"
      ],
      [
        "ं",
        "प"
      ],
      [
        "आ",
        "गे"
      ],
      [
        "ग",
        "ल"
      ],
      [
        "ध",
        "ान"
      ],
      [
        "य",
        "त"
      ],
      [
        "ले",
        "कर"
      ],
      [
        "ती",
        "य"
      ],
      [
        "उस",
        "ने"
      ],
      [
        "क्र",
        "म"
      ],
      [
        "लग",
        "ता"
      ],
      [
        "ट",
        "ना"
      ],
      [
        "ण",
        "्"
      ],
      [
        "ध",
        "ी"
      ],
      [
        "र्",
        "म"
      ],
      [
        "इस",
        "में"
      ],
      [
        "स्थि",
        "ति"
      ],
      [
        "न",
        "ौ"
      ],
      [
        "फ",
        "्"
      ],
      [
        "क्",
        "स"
      ],
      [
        "पूर्",
        "ण"
      ],
      [
        "क",
        "़"
      ],
      [
        "फ",
        "ो"
      ],
      [
        "म",
        "र"
      ],
      [
        "श",
        "ो"
      ],
      [
        "मि",
        "ला"
      ],
      [
        "त्र",
        "ा"
      ],
      [
        "द",
        "र"
      ],
      [
        "कर",
        "े"
      ],
      [
        "दि",
        "खा"
      ],
      [
        "स्थ",
        "ान"
      ],
      [
        "अ",
        "भि"
      ],
      [
        "य",
        "न"
      ],
      [
        "ल",
        "गे"
      ],
      [
        "व",
        "ै"
      ],
      [
        "श",
        "्री"
      ],
      [
        "क्ष",
        "े"
      ],
      [
        "राज",
        "्य"
      ],
      [
        "जाए",
        "गा"
      ],
      [
        "प",
        "्या"
      ],
      [
        "श",
        "्य"
      ],
      [
        "ह",
        "रा"
      ],
      [
        "वा",
        "स"
      ],
      [
        "वा",
        "ली"
      ],
      [
        "नी",
        "ति"
      ],
      [
        "तै",
        "या"
      ],
      [
        "तुम्",
        "ह"
      ],
      [
        "ल",
        "य"
      ],
      [
        "ह",
        "में"
      ],
      [
        "ने",
        "ता"
      ],
      [
        "जा",
        "ते"
      ],
      [
        "सक",
        "ती"
      ],
      [
        "साम",
        "ने"
      ],
      [
        "ओ",
        "र"
      ],
      [
        "फ",
        "ै"
      ],
      [
        "व",
        "ल"
      ],
      [
        "ल्",
        "ली"
      ],
      [
        "सि",
        "ंह"
      ],
      [
        "ग",
        "ये"
      ],
      [
        "त",
        "ं"
      ],
      [
        "ध",
        "्या"
      ],
      [
        "प",
        "त्र"
      ],
      [
        "य",
        "हाँ"
      ],
      [
        "या",
        "द"
      ],
      [
        "थी",
        "ं"
      ],
      [
        "सु",
        "न"
      ],
      [
        "इ",
        "ं"
      ],
      [
        "क",
        "ट"
      ],
      [
        "त",
        "न"
      ],
      [
        "प",
        "ानी"
      ],
      [
        "दे",
        "खा"
      ],
      [
        "खु",
        "द"
      ],
      [
        "बद",
        "ल"
      ],
      [
        "शे",
        "ष"
      ],
      [
        "ड",
        "र"
      ],
      [
        "त",
        "ों"
      ],
      [
        "ब",
        "ू"
      ],
      [
        "भ",
        "व"
      ],
      [
        "व",
        "्या"
      ],
      [
        "स",
        "द"
      ],
      [
        "ती",
        "न"
      ],
      [
        "दि",
        "ल"
      ],
      [
        "बार",
        "े"
      ],
      [
        "ग",
        "यी"
      ],
      [
        "म",
        "ू"
      ],
      [
        "जा",
        "ना"
      ],
      [
        "वि",
        "चार"
      ],
      [
        "आप",
        "के"
      ],
      [
        "जान",
        "कारी"
      ],
      [
        "आ",
        "ं"
      ],
      [
        "ए",
        "स"
      ],
      [
        "क",
        "वि"
      ],
      [
        "ज",
        "ल"
      ],
      [
        "ण",
        "ी"
      ],
      [
        "ब",
        "्र"
      ],
      [
        "्य",
        "ू"
      ],
      [
        "क",
        "ॉ"
      ],
      [
        "ल",
        "ौ"
      ],
      [
        "हि",
        "ला"
      ],
      [
        "बी",
        "च"
      ],
      [
        "चु",
        "ना"
      ],
      [
        "दू",
        "र"
      ],
      [
        "दु",
        "निया"
      ],
      [
        "लो",
        "क"
      ],
      [
        "कृ",
        "ति"
      ],
      [
        "द्वार",
        "ा"
      ],
      [
        "आ",
        "स"
      ],
      [
        "ज",
        "ैसे"
      ],
      [
        "द",
        "म"
      ],
      [
        "द",
        "ौर"
      ],
      [
        "ध",
        "न"
      ],
      [
        "ध",
        "र"
      ],
      [
        "फ",
        "ल"
      ],
      [
        "ल",
        "गी"
      ],
      [
        "ह",
        "ार"
      ],
      [
        "कर",
        "ी"
      ],
      [
        "कि",
        "स"
      ],
      [
        "पर",
        "ा"
      ],
      [
        "वा",
        "ल"
      ],
      [
        "वा",
        "ह"
      ],
      [
        "मि",
        "ले"
      ],
      [
        "भा",
        "षा"
      ],
      [
        "खि",
        "ला"
      ],
      [
        "आ",
        "र"
      ],
      [
        "ल",
        "ड़"
      ],
      [
        "व",
        "हां"
      ],
      [
        "पू",
        "री"
      ],
      [
        "खे",
        "ल"
      ],
      [
        "च",
        "ान"
      ],
      [
        "ज",
        "य"
      ],
      [
        "ट",
        "्र"
      ],
      [
        "श",
        "ान"
      ],
      [
        "बा",
        "हर"
      ],
      [
        "दि",
        "ल्ली"
      ],
      [
        "समा",
        "ज"
      ],
      [
        "आ",
        "द"
      ],
      [
        "ज",
        "न्"
      ],
      [
        "प",
        "ं"
      ],
      [
        "य",
        "म"
      ],
      [
        "स",
        "ल"
      ],
      [
        "कर",
        "ती"
      ],
      [
        "सा",
        "इ"
      ],
      [
        "वि",
        "ष"
      ],
      [
        "त्",
        "या"
      ],
      [
        "उ",
        "ठा"
      ],
      [
        "च",
        "ौ"
      ],
      [
        "त",
        "री"
      ],
      [
        "भ",
        "े"
      ],
      [
        "म",
        "हा"
      ],
      [
        "रा",
        "ष्ट"
      ],
      [
        "मा",
        "ण"
      ],
      [
        "बे",
        "ह"
      ],
      [
        "व्य",
        "क्ति"
      ],
      [
        "अ",
        "लग"
      ],
      [
        "ग",
        "त"
      ],
      [
        "घ",
        "टना"
      ],
      [
        "ध",
        "ु"
      ],
      [
        "न",
        "ही"
      ],
      [
        "म",
        "ूल"
      ],
      [
        "स",
        "न"
      ],
      [
        "स",
        "ौ"
      ],
      [
        "का",
        "ंग्रे"
      ],
      [
        "हो",
        "ना"
      ],
      [
        "भार",
        "तीय"
      ],
      [
        "व्य",
        "व"
      ],
      [
        "माम",
        "ले"
      ],
      [
        "कौ",
        "न"
      ],
      [
        "ण्",
        "ड"
      ],
      [
        "क्षे",
        "त्र"
      ],
      [
        "घ",
        "ा"
      ],
      [
        "छ",
        "ी"
      ],
      [
        "त",
        "नी"
      ],
      [
        "थ",
        "ो"
      ],
      [
        "ल",
        "ब"
      ],
      [
        "पू",
        "रा"
      ],
      [
        "ठी",
        "क"
      ],
      [
        "जू",
        "द"
      ],
      [
        "ए",
        "ँ"
      ],
      [
        "ए",
        "म"
      ],
      [
        "ग",
        "्"
      ],
      [
        "च",
        "ों"
      ],
      [
        "द",
        "ृ"
      ],
      [
        "प",
        "ड़े"
      ],
      [
        "म",
        "हिला"
      ],
      [
        "र",
        "ंग"
      ],
      [
        "वि",
        "द"
      ],
      [
        "ं",
        "व"
      ],
      [
        "क",
        "हीं"
      ],
      [
        "च",
        "ो"
      ],
      [
        "भ",
        "ो"
      ],
      [
        "य",
        "द"
      ],
      [
        "ल",
        "ें"
      ],
      [
        "श",
        "ब्"
      ],
      [
        "का",
        "ल"
      ],
      [
        "कर",
        "ण"
      ],
      [
        "ंद",
        "र"
      ],
      [
        "चु",
        "का"
      ],
      [
        "घ",
        "्"
      ],
      [
        "प",
        "क"
      ],
      [
        "ब",
        "ल"
      ],
      [
        "भ",
        "ु"
      ],
      [
        "व",
        "ृ"
      ],
      [
        "ह",
        "्"
      ],
      [
        "का",
        "र्"
      ],
      [
        "या",
        "ं"
      ],
      [
        "हम",
        "ारी"
      ],
      [
        "सि",
        "र्"
      ],
      [
        "ष्",
        "ठ"
      ],
      [
        "मुख",
        "्य"
      ],
      [
        "कांग्रे",
        "स"
      ],
      [
        "ए",
        "वं"
      ],
      [
        "क",
        "ूल"
      ],
      [
        "क",
        "ंप"
      ],
      [
        "च",
        "ू"
      ],
      [
        "ज",
        "ना"
      ],
      [
        "त",
        "ने"
      ],
      [
        "न",
        "ई"
      ],
      [
        "फ",
        "े"
      ],
      [
        "सा",
        "ह"
      ],
      [
        "सा",
        "हि"
      ],
      [
        "भा",
        "ई"
      ],
      [
        "विद",
        "्या"
      ],
      [
        "अ",
        "न"
      ],
      [
        "अ",
        "स्"
      ],
      [
        "ग",
        "र्"
      ],
      [
        "ट",
        "ो"
      ],
      [
        "ड",
        "िया"
      ],
      [
        "प",
        "ड़ा"
      ],
      [
        "म",
        "ृ"
      ],
      [
        "म",
        "ार्"
      ],
      [
        "र",
        "ण"
      ],
      [
        "ल",
        "ॉ"
      ],
      [
        "ष",
        "ण"
      ],
      [
        "पर",
        "े"
      ],
      [
        "प्र",
        "कार"
      ],
      [
        "वि",
        "शेष"
      ],
      [
        "दे",
        "व"
      ],
      [
        "हि",
        "ं"
      ],
      [
        "गु",
        "रु"
      ],
      [
        "सो",
        "च"
      ],
      [
        "चुना",
        "व"
      ],
      [
        "उ",
        "सी"
      ],
      [
        "ख",
        "ी"
      ],
      [
        "ब",
        "ड़ी"
      ],
      [
        "ल",
        "ु"
      ],
      [
        "दे",
        "र"
      ],
      [
        "रह",
        "ता"
      ],
      [
        "कु",
        "ल"
      ],
      [
        "हि",
        "न्"
      ],
      [
        "आप",
        "की"
      ],
      [
        "क्र",
        "िया"
      ],
      [
        "भग",
        "वान"
      ],
      [
        "शब्",
        "द"
      ],
      [
        "या",
        "स"
      ],
      [
        "के",
        "वल"
      ],
      [
        "इस",
        "की"
      ],
      [
        "वि",
        "का"
      ],
      [
        "दि",
        "र"
      ],
      [
        "रह",
        "ते"
      ],
      [
        "सु",
        "र"
      ],
      [
        "ष्ट",
        "ि"
      ],
      [
        "विश्",
        "व"
      ],
      [
        "आ",
        "ए"
      ],
      [
        "आ",
        "ने"
      ],
      [
        "ग",
        "्रा"
      ],
      [
        "झ",
        "ा"
      ],
      [
        "ध",
        "े"
      ],
      [
        "ल",
        "ं"
      ],
      [
        "ल",
        "ै"
      ],
      [
        "मा",
        "ंग"
      ],
      [
        "रह",
        "ने"
      ],
      [
        "सु",
        "बह"
      ],
      [
        "छो",
        "ड़"
      ],
      [
        "कवि",
        "ता"
      ],
      [
        "जन्",
        "म"
      ],
      [
        "ख",
        "्या"
      ],
      [
        "प",
        "द"
      ],
      [
        "्",
        "स"
      ],
      [
        "का",
        "श"
      ],
      [
        "वा",
        "ब"
      ],
      [
        "दे",
        "ने"
      ],
      [
        "मि",
        "त"
      ],
      [
        "सं",
        "स्"
      ],
      [
        "शा",
        "यद"
      ],
      [
        "प्रे",
        "म"
      ],
      [
        "न",
        "र"
      ],
      [
        "य",
        "क"
      ],
      [
        "श",
        "हर"
      ],
      [
        "स",
        "ला"
      ],
      [
        "ह",
        "न"
      ],
      [
        "पू",
        "रे"
      ],
      [
        "कह",
        "ानी"
      ],
      [
        "निक",
        "ल"
      ],
      [
        "गि",
        "र"
      ],
      [
        "बच्",
        "चों"
      ],
      [
        "अ",
        "ध्य"
      ],
      [
        "आ",
        "रो"
      ],
      [
        "उ",
        "ठ"
      ],
      [
        "ऐ",
        "सी"
      ],
      [
        "च",
        "ले"
      ],
      [
        "द",
        "न"
      ],
      [
        "ब",
        "ड़ा"
      ],
      [
        "व",
        "ज"
      ],
      [
        "क्",
        "टर"
      ],
      [
        "जा",
        "ये"
      ],
      [
        "मा",
        "ँ"
      ],
      [
        "खु",
        "श"
      ],
      [
        "परि",
        "वार"
      ],
      [
        "वर्",
        "ष"
      ],
      [
        "पो",
        "र्ट"
      ],
      [
        "पहु",
        "ंच"
      ],
      [
        "विका",
        "स"
      ],
      [
        "ं",
        "ट"
      ],
      [
        "क",
        "ला"
      ],
      [
        "प",
        "सं"
      ],
      [
        "ब",
        "ंद"
      ],
      [
        "य",
        "ल"
      ],
      [
        "य",
        "ता"
      ],
      [
        "र",
        "खा"
      ],
      [
        "ह",
        "रे"
      ],
      [
        "ंग",
        "े"
      ],
      [
        "पह",
        "ली"
      ],
      [
        "राज",
        "नीति"
      ],
      [
        "बता",
        "या"
      ],
      [
        "स्ता",
        "न"
      ],
      [
        "जरू",
        "रत"
      ],
      [
        "आद",
        "मी"
      ],
      [
        "अ",
        "ंग्रे"
      ],
      [
        "ब",
        "ड़े"
      ],
      [
        "स",
        "ै"
      ],
      [
        "ह",
        "मे"
      ],
      [
        "स्",
        "वी"
      ],
      [
        "ति",
        "हा"
      ],
      [
        "पा",
        "ल"
      ],
      [
        "पहु",
        "ं"
      ],
      [
        "अ",
        "ग"
      ],
      [
        "ख",
        "ू"
      ],
      [
        "च",
        "ित"
      ],
      [
        "त",
        "रा"
      ],
      [
        "प",
        "ति"
      ],
      [
        "व",
        "हाँ"
      ],
      [
        "पर",
        "ी"
      ],
      [
        "प्र",
        "देश"
      ],
      [
        "ती",
        "स"
      ],
      [
        "दे",
        "ते"
      ],
      [
        "हम",
        "ने"
      ],
      [
        "शा",
        "मिल"
      ],
      [
        "द्",
        "धि"
      ],
      [
        "पी",
        "छे"
      ],
      [
        "अधि",
        "कार"
      ],
      [
        "बच्",
        "चे"
      ],
      [
        "जग",
        "ह"
      ],
      [
        "सिर्",
        "फ"
      ],
      [
        "साहि",
        "त्य"
      ],
      [
        "आ",
        "ँ"
      ],
      [
        "आ",
        "ती"
      ],
      [
        "आ",
        "खि"
      ],
      [
        "क",
        "ल्"
      ],
      [
        "घ",
        "ु"
      ],
      [
        "ध",
        "र्म"
      ],
      [
        "ब",
        "चा"
      ],
      [
        "स्",
        "ते"
      ],
      [
        "पि",
        "छ"
      ],
      [
        "मह",
        "त्व"
      ],
      [
        "्री",
        "य"
      ],
      [
        "कार्य",
        "क्रम"
      ],
      [
        "पार",
        "्टी"
      ],
      [
        "अन्",
        "य"
      ],
      [
        "तैया",
        "र"
      ],
      [
        "व्यव",
        "स्था"
      ],
      [
        "क",
        "था"
      ],
      [
        "प",
        "स"
      ],
      [
        "स",
        "त"
      ],
      [
        "स्",
        "तु"
      ],
      [
        "वि",
        "रो"
      ],
      [
        "सं",
        "ग"
      ],
      [
        "बि",
        "ना"
      ],
      [
        "चु",
        "की"
      ],
      [
        "दर्",
        "शन"
      ],
      [
        "भू",
        "मि"
      ],
      [
        "दूस",
        "रे"
      ],
      [
        "दौर",
        "ान"
      ],
      [
        "हमे",
        "शा"
      ],
      [
        "ं",
        "कि"
      ],
      [
        "ऊ",
        "पर"
      ],
      [
        "न",
        "जर"
      ],
      [
        "ब",
        "च"
      ],
      [
        "स",
        "ही"
      ],
      [
        "ें",
        "द्र"
      ],
      [
        "स्",
        "या"
      ],
      [
        "स्",
        "कूल"
      ],
      [
        "कि",
        "ए"
      ],
      [
        "लि",
        "क"
      ],
      [
        "लि",
        "त"
      ],
      [
        "बा",
        "जार"
      ],
      [
        "गी",
        "त"
      ],
      [
        "ज़",
        "ा"
      ],
      [
        "टी",
        "म"
      ],
      [
        "कह",
        "ते"
      ],
      [
        "पो",
        "स्ट"
      ],
      [
        "ध्या",
        "न"
      ],
      [
        "अ",
        "गर"
      ],
      [
        "आ",
        "व"
      ],
      [
        "क",
        "ू"
      ],
      [
        "ग",
        "ू"
      ],
      [
        "छ",
        "ु"
      ],
      [
        "ब",
        "ने"
      ],
      [
        "म",
        "ना"
      ],
      [
        "के",
        "ट"
      ],
      [
        "हा",
        "ला"
      ],
      [
        "वा",
        "ई"
      ],
      [
        "न्",
        "य"
      ],
      [
        "गा",
        "ंव"
      ],
      [
        "त्",
        "ता"
      ],
      [
        "पु",
        "रा"
      ],
      [
        "तर",
        "फ"
      ],
      [
        "ंद",
        "गी"
      ],
      [
        "रु",
        "प"
      ],
      [
        "यु",
        "व"
      ],
      [
        "फ़",
        "ि"
      ],
      [
        "ार्",
        "थ"
      ],
      [
        "ष्",
        "ण"
      ],
      [
        "प्रा",
        "प्त"
      ],
      [
        "तं",
        "त्र"
      ],
      [
        "अ",
        "र्थ"
      ],
      [
        "आ",
        "ता"
      ],
      [
        "आ",
        "ते"
      ],
      [
        "इ",
        "ला"
      ],
      [
        "ख",
        "ों"
      ],
      [
        "ज",
        "पा"
      ],
      [
        "ज",
        "ल्"
      ],
      [
        "त",
        "था"
      ],
      [
        "न",
        "या"
      ],
      [
        "ल",
        "त"
      ],
      [
        "ष",
        "्य"
      ],
      [
        "दे",
        "ता"
      ],
      [
        "दि",
        "नों"
      ],
      [
        "मि",
        "ली"
      ],
      [
        "हम",
        "ारा"
      ],
      [
        "शा",
        "म"
      ],
      [
        "मी",
        "डिया"
      ],
      [
        "म्",
        "मी"
      ],
      [
        "जन",
        "ता"
      ],
      [
        "अच्",
        "छी"
      ],
      [
        "पहु",
        "ँ"
      ],
      [
        "कर्",
        "म"
      ],
      [
        "क",
        "त"
      ],
      [
        "च",
        "र्"
      ],
      [
        "च",
        "ली"
      ],
      [
        "ज",
        "ों"
      ],
      [
        "ज",
        "ारी"
      ],
      [
        "म",
        "ही"
      ],
      [
        "म",
        "गर"
      ],
      [
        "ल",
        "ब्"
      ],
      [
        "श",
        "क्ति"
      ],
      [
        "स",
        "वाल"
      ],
      [
        "या",
        "ँ"
      ],
      [
        "कर",
        "के"
      ],
      [
        "कर",
        "ेंगे"
      ],
      [
        "स्",
        "तर"
      ],
      [
        "जा",
        "य"
      ],
      [
        "दे",
        "ना"
      ],
      [
        "भा",
        "जपा"
      ],
      [
        "शि",
        "क्षा"
      ],
      [
        "सू",
        "चना"
      ],
      [
        "बढ़",
        "ा"
      ],
      [
        "टि",
        "ंग"
      ],
      [
        "पूर्",
        "व"
      ],
      [
        "आ",
        "न"
      ],
      [
        "ज",
        "वाब"
      ],
      [
        "ट",
        "ू"
      ],
      [
        "ट",
        "्टी"
      ],
      [
        "द",
        "ें"
      ],
      [
        "म",
        "द"
      ],
      [
        "ल",
        "क"
      ],
      [
        "व",
        "ही"
      ],
      [
        "श",
        "ं"
      ],
      [
        "ह",
        "जार"
      ],
      [
        "।",
        "।"
      ],
      [
        "कर",
        "ो"
      ],
      [
        "स्",
        "त्र"
      ],
      [
        "र्",
        "ष"
      ],
      [
        "प्र",
        "ि"
      ],
      [
        "वि",
        "त"
      ],
      [
        "पा",
        "कि"
      ],
      [
        "िया",
        "ं"
      ],
      [
        "मं",
        "दिर"
      ],
      [
        "ब्",
        "लॉ"
      ],
      [
        "बना",
        "ने"
      ],
      [
        "न्द",
        "्र"
      ],
      [
        "बो",
        "ल"
      ],
      [
        "चाह",
        "ता"
      ],
      [
        "इ",
        "न्"
      ],
      [
        "च",
        "ै"
      ],
      [
        "ट",
        "क"
      ],
      [
        "त",
        "म"
      ],
      [
        "त",
        "ू"
      ],
      [
        "प",
        "ृ"
      ],
      [
        "श",
        "री"
      ],
      [
        "स",
        "भा"
      ],
      [
        "ला",
        "ल"
      ],
      [
        "सा",
        "मान"
      ],
      [
        "मा",
        "ल"
      ],
      [
        "मा",
        "ना"
      ],
      [
        "आप",
        "का"
      ],
      [
        "आप",
        "ने"
      ],
      [
        "शि",
        "व"
      ],
      [
        "वार",
        "्"
      ],
      [
        "यु",
        "क्त"
      ],
      [
        "स्व",
        "यं"
      ],
      [
        "हों",
        "गे"
      ],
      [
        "प्या",
        "र"
      ],
      [
        "हिन्",
        "दी"
      ],
      [
        "अंग्रे",
        "जी"
      ],
      [
        "आव",
        "श्य"
      ],
      [
        "आ",
        "म"
      ],
      [
        "आ",
        "धार"
      ],
      [
        "उ",
        "न्"
      ],
      [
        "उ",
        "दा"
      ],
      [
        "ए",
        "ल"
      ],
      [
        "ख",
        "्"
      ],
      [
        "ट",
        "ल"
      ],
      [
        "म",
        "ता"
      ],
      [
        "य",
        "दि"
      ],
      [
        "जा",
        "ंच"
      ],
      [
        "नी",
        "चे"
      ],
      [
        "सम",
        "स्या"
      ],
      [
        "सि",
        "क"
      ],
      [
        "वे",
        "श"
      ],
      [
        "द्",
        "धा"
      ],
      [
        "शि",
        "का"
      ],
      [
        "स्ट",
        "े"
      ],
      [
        "पि",
        "ता"
      ],
      [
        "दूस",
        "री"
      ],
      [
        "अस्",
        "पता"
      ],
      [
        "पसं",
        "द"
      ],
      [
        "आ",
        "यो"
      ],
      [
        "क",
        "ब"
      ],
      [
        "ग",
        "ं"
      ],
      [
        "ट",
        "्ट"
      ],
      [
        "द",
        "ौ"
      ],
      [
        "प",
        "क्ष"
      ],
      [
        "भ",
        "्र"
      ],
      [
        "र",
        "चना"
      ],
      [
        "ो",
        "र"
      ],
      [
        "से",
        "वा"
      ],
      [
        "र्",
        "ड"
      ],
      [
        "न्",
        "या"
      ],
      [
        "मे",
        "रि"
      ],
      [
        "उस",
        "से"
      ],
      [
        "जी",
        "व"
      ],
      [
        "ंग",
        "ल"
      ],
      [
        "शु",
        "रु"
      ],
      [
        "चि",
        "त्र"
      ],
      [
        "कृ",
        "त"
      ],
      [
        "मौ",
        "जूद"
      ],
      [
        "उप",
        "लब्"
      ],
      [
        "विश्",
        "वास"
      ],
      [
        "पड़",
        "ता"
      ],
      [
        "राष्ट",
        "्रीय"
      ],
      [
        "अस्पता",
        "ल"
      ],
      [
        "आ",
        "वा"
      ],
      [
        "आ",
        "ये"
      ],
      [
        "फ",
        "र"
      ],
      [
        "म",
        "नु"
      ],
      [
        "श",
        "र्"
      ],
      [
        "स",
        "च"
      ],
      [
        "स",
        "ारे"
      ],
      [
        "स",
        "फल"
      ],
      [
        "ह",
        "री"
      ],
      [
        "सा",
        "त"
      ],
      [
        "मा",
        "ह"
      ],
      [
        "रह",
        "ती"
      ],
      [
        "सं",
        "बंध"
      ],
      [
        "हि",
        "त"
      ],
      [
        "जि",
        "ला"
      ],
      [
        "यो",
        "जना"
      ],
      [
        "ज्ञ",
        "ा"
      ],
      [
        "निर्",
        "माण"
      ],
      [
        "आखि",
        "र"
      ],
      [
        "मही",
        "ने"
      ],
      [
        "ं",
        "भ"
      ],
      [
        "अ",
        "ंत"
      ],
      [
        "इ",
        "तना"
      ],
      [
        "क",
        "हां"
      ],
      [
        "ग",
        "़"
      ],
      [
        "ध",
        "ू"
      ],
      [
        "न",
        "ै"
      ],
      [
        "फ",
        "ु"
      ],
      [
        "ब",
        "्रा"
      ],
      [
        "व",
        "हीं"
      ],
      [
        "व",
        "ैसे"
      ],
      [
        "स",
        "प"
      ],
      [
        "या",
        "त्रा"
      ],
      [
        "ता",
        "ब"
      ],
      [
        "र्",
        "स"
      ],
      [
        "भी",
        "तर"
      ],
      [
        "वा",
        "लों"
      ],
      [
        "रा",
        "ब"
      ],
      [
        "क्र",
        "ि"
      ],
      [
        "इन",
        "में"
      ],
      [
        "चु",
        "के"
      ],
      [
        "लगा",
        "तार"
      ],
      [
        "जाए",
        "गी"
      ],
      [
        "डा",
        "ल"
      ],
      [
        "अच्",
        "छे"
      ],
      [
        "उत्",
        "तर"
      ],
      [
        "भि",
        "न्न"
      ],
      [
        "लौ",
        "ट"
      ],
      [
        "खिला",
        "फ"
      ],
      [
        "चर्",
        "चा"
      ],
      [
        "ं",
        "ति"
      ],
      [
        "अ",
        "के"
      ],
      [
        "अ",
        "दा"
      ],
      [
        "अ",
        "मेरि"
      ],
      [
        "छ",
        "ू"
      ],
      [
        "त",
        "ला"
      ],
      [
        "प",
        "ल"
      ],
      [
        "प",
        "ित"
      ],
      [
        "ब",
        "ं"
      ],
      [
        "म",
        "स्"
      ],
      [
        "व",
        "त"
      ],
      [
        "व",
        "क्त"
      ],
      [
        "स",
        "ारी"
      ],
      [
        "ू",
        "ँ"
      ],
      [
        "र्",
        "क"
      ],
      [
        "कि",
        "ल"
      ],
      [
        "प्र",
        "योग"
      ],
      [
        "प्र",
        "यास"
      ],
      [
        "वि",
        "क"
      ],
      [
        "मा",
        "ं"
      ],
      [
        "दि",
        "ए"
      ],
      [
        "नि",
        "य"
      ],
      [
        "उन",
        "से"
      ],
      [
        "श्",
        "वर"
      ],
      [
        "जो",
        "र"
      ],
      [
        "िया",
        "ँ"
      ],
      [
        "देख",
        "ने"
      ],
      [
        "मो",
        "दी"
      ],
      [
        "माम",
        "ला"
      ],
      [
        "हिं",
        "दी"
      ],
      [
        "मद",
        "द"
      ],
      [
        "अ",
        "भ"
      ],
      [
        "आ",
        "त"
      ],
      [
        "उ",
        "द्"
      ],
      [
        "उ",
        "च्"
      ],
      [
        "उ",
        "म्मी"
      ],
      [
        "ख",
        "ंड"
      ],
      [
        "ख",
        "बर"
      ],
      [
        "ग",
        "ण"
      ],
      [
        "ग",
        "ति"
      ],
      [
        "छ",
        "ि"
      ],
      [
        "ट",
        "्रे"
      ],
      [
        "न",
        "गर"
      ],
      [
        "स",
        "हा"
      ],
      [
        "स्",
        "सा"
      ],
      [
        "हो",
        "कर"
      ],
      [
        "वा",
        "दी"
      ],
      [
        "रा",
        "ह"
      ],
      [
        "वि",
        "भाग"
      ],
      [
        "त्र",
        "ों"
      ],
      [
        "रो",
        "क"
      ],
      [
        "बात",
        "ें"
      ],
      [
        "ंध",
        "ी"
      ],
      [
        "न्द",
        "र"
      ],
      [
        "डि",
        "यो"
      ],
      [
        "मत",
        "लब"
      ],
      [
        "क्यों",
        "कि"
      ],
      [
        "सर्",
        "व"
      ],
      [
        "द्य",
        "ोग"
      ],
      [
        "शरी",
        "र"
      ],
      [
        "मनु",
        "ष्य"
      ],
      [
        "अ",
        "ति"
      ],
      [
        "इ",
        "न्ह"
      ],
      [
        "ग",
        "ढ़"
      ],
      [
        "ज",
        "ें"
      ],
      [
        "द",
        "ारी"
      ],
      [
        "ू",
        "न"
      ],
      [
        "का",
        "ं"
      ],
      [
        "ने",
        "ट"
      ],
      [
        "ता",
        "न"
      ],
      [
        "ला",
        "भ"
      ],
      [
        "प्र",
        "भा"
      ],
      [
        "प्र",
        "त्य"
      ],
      [
        "रा",
        "य"
      ],
      [
        "जि",
        "त"
      ],
      [
        "जि",
        "न"
      ],
      [
        "सु",
        "ना"
      ],
      [
        "सि",
        "ल"
      ],
      [
        "शा",
        "सन"
      ],
      [
        "खा",
        "ने"
      ],
      [
        "रि",
        "श्"
      ],
      [
        "रि",
        "पोर्ट"
      ],
      [
        "पह",
        "चान"
      ],
      [
        "भाव",
        "ना"
      ],
      [
        "चाह",
        "ते"
      ],
      [
        "स्वा",
        "स्थ"
      ],
      [
        "मुख्य",
        "मंत्री"
      ],
      [
        "अ",
        "ंदर"
      ],
      [
        "ख",
        "री"
      ],
      [
        "घ",
        "ं"
      ],
      [
        "घ",
        "ो"
      ],
      [
        "च",
        "म"
      ],
      [
        "ज",
        "्य"
      ],
      [
        "ड",
        "ॉ"
      ],
      [
        "त",
        "य"
      ],
      [
        "थ",
        "ि"
      ],
      [
        "न",
        "ए"
      ],
      [
        "म",
        "ल"
      ],
      [
        "म",
        "ंड"
      ],
      [
        "ला",
        "वा"
      ],
      [
        "जा",
        "कर"
      ],
      [
        "जा",
        "ति"
      ],
      [
        "प्र",
        "ती"
      ],
      [
        "प्र",
        "भाव"
      ],
      [
        "वि",
        "धा"
      ],
      [
        "वि",
        "भिन्न"
      ],
      [
        "ड़",
        "ों"
      ],
      [
        "त्",
        "त"
      ],
      [
        "त्",
        "मा"
      ],
      [
        "जि",
        "ंदगी"
      ],
      [
        "खा",
        "स"
      ],
      [
        "दो",
        "लन"
      ],
      [
        "धि",
        "त"
      ],
      [
        "रहे",
        "गा"
      ],
      [
        "रहे",
        "गी"
      ],
      [
        "शि",
        "श"
      ],
      [
        "रु",
        "ष"
      ],
      [
        "देख",
        "ते"
      ],
      [
        "वर्",
        "ग"
      ],
      [
        "वर्",
        "ण"
      ],
      [
        "चल",
        "ते"
      ],
      [
        "यु",
        "वा"
      ],
      [
        "दर्",
        "ज"
      ],
      [
        "समझ",
        "ा"
      ],
      [
        "ध्य",
        "म"
      ],
      [
        "फो",
        "न"
      ],
      [
        "बेह",
        "द"
      ],
      [
        "पाकि",
        "स्तान"
      ],
      [
        "आ",
        "दि"
      ],
      [
        "क",
        "मी"
      ],
      [
        "ढ",
        "ा"
      ],
      [
        "ब",
        "र्"
      ],
      [
        "ब",
        "नी"
      ],
      [
        "म",
        "ारी"
      ],
      [
        "स",
        "के"
      ],
      [
        "स",
        "ों"
      ],
      [
        "में",
        "ट"
      ],
      [
        "ता",
        "ओं"
      ],
      [
        "भी",
        "र"
      ],
      [
        "प्र",
        "ो"
      ],
      [
        "न्",
        "तु"
      ],
      [
        "पा",
        "ंच"
      ],
      [
        "सं",
        "भव"
      ],
      [
        "सु",
        "धार"
      ],
      [
        "शा",
        "दी"
      ],
      [
        "पू",
        "छ"
      ],
      [
        "रि",
        "या"
      ],
      [
        "ज़",
        "ि"
      ],
      [
        "परि",
        "णा"
      ],
      [
        "ची",
        "न"
      ],
      [
        "मौ",
        "त"
      ],
      [
        "उप",
        "योग"
      ],
      [
        "सम्",
        "मान"
      ],
      [
        "तुम्ह",
        "ें"
      ],
      [
        "सुर",
        "क्षा"
      ],
      [
        "अध्य",
        "क्ष"
      ],
      [
        "कल्",
        "प"
      ],
      [
        "पिछ",
        "ले"
      ],
      [
        "उम्मी",
        "द"
      ],
      [
        "ँ",
        "व"
      ],
      [
        "अ",
        "चान"
      ],
      [
        "अ",
        "लावा"
      ],
      [
        "आ",
        "कर"
      ],
      [
        "इ",
        "ल"
      ],
      [
        "इ",
        "ंत"
      ],
      [
        "ग",
        "री"
      ],
      [
        "ज",
        "मी"
      ],
      [
        "ब",
        "ल्"
      ],
      [
        "श",
        "क"
      ],
      [
        "स",
        "चि"
      ],
      [
        "ै",
        "र"
      ],
      [
        "को",
        "शिश"
      ],
      [
        "कि",
        "ताब"
      ],
      [
        "क्",
        "ट"
      ],
      [
        "पर",
        "ं"
      ],
      [
        "प्र",
        "मुख"
      ],
      [
        "रा",
        "व"
      ],
      [
        "बा",
        "व"
      ],
      [
        "गा",
        "ंधी"
      ],
      [
        "दि",
        "ख"
      ],
      [
        "मु",
        "स्"
      ],
      [
        "कु",
        "मार"
      ],
      [
        "सम",
        "ान"
      ],
      [
        "सम",
        "र्थ"
      ],
      [
        "कार",
        "ों"
      ],
      [
        "वे",
        "ब"
      ],
      [
        "दो",
        "स्त"
      ],
      [
        "पू",
        "र"
      ],
      [
        "पु",
        "रुष"
      ],
      [
        "खु",
        "शी"
      ],
      [
        "ष्ट",
        "ा"
      ],
      [
        "बना",
        "या"
      ],
      [
        "कम",
        "रे"
      ],
      [
        "स्वा",
        "मी"
      ],
      [
        "ग्र",
        "ह"
      ],
      [
        "सद",
        "स्"
      ],
      [
        "साइ",
        "ट"
      ],
      [
        "दृ",
        "ष्टि"
      ],
      [
        "कंप",
        "नी"
      ],
      [
        "वज",
        "ह"
      ],
      [
        "विरो",
        "ध"
      ],
      [
        "हाला",
        "ंकि"
      ],
      [
        "शिका",
        "यत"
      ],
      [
        "स्वास्थ",
        "्य"
      ],
      [
        "परिणा",
        "म"
      ],
      [
        "अचान",
        "क"
      ],
      [
        "अ",
        "र्"
      ],
      [
        "आ",
        "त्म"
      ],
      [
        "इ",
        "तिहा"
      ],
      [
        "क",
        "ठ"
      ],
      [
        "ट",
        "ै"
      ],
      [
        "द",
        "य"
      ],
      [
        "ब",
        "ॉ"
      ],
      [
        "ब",
        "न्"
      ],
      [
        "य",
        "ें"
      ],
      [
        "स",
        "व"
      ],
      [
        "ह",
        "वा"
      ],
      [
        "े",
        "क"
      ],
      [
        "ान",
        "ि"
      ],
      [
        "प्र",
        "धान"
      ],
      [
        "वि",
        "ज्ञान"
      ],
      [
        "ड़",
        "क"
      ],
      [
        "बा",
        "की"
      ],
      [
        "दि",
        "यों"
      ],
      [
        "नी",
        "य"
      ],
      [
        "मि",
        "क"
      ],
      [
        "त्र",
        "ि"
      ],
      [
        "ल्",
        "ला"
      ],
      [
        "फि",
        "ल"
      ],
      [
        "इन",
        "का"
      ],
      [
        "चु",
        "प"
      ],
      [
        "स्ट",
        "र"
      ],
      [
        "गु",
        "ण"
      ],
      [
        "स्थ",
        "ित"
      ],
      [
        "मिल",
        "ने"
      ],
      [
        "मिल",
        "ती"
      ],
      [
        "चल",
        "ता"
      ],
      [
        "पे",
        "श"
      ],
      [
        "दूस",
        "रा"
      ],
      [
        "जै",
        "सा"
      ],
      [
        "पत्",
        "थ"
      ],
      [
        "थो",
        "ड़ी"
      ],
      [
        "साह",
        "ब"
      ],
      [
        "भूमि",
        "का"
      ],
      [
        "गं",
        "भीर"
      ],
      [
        "उपलब्",
        "ध"
      ],
      [
        "इतिहा",
        "स"
      ],
      [
        "अ",
        "ने"
      ],
      [
        "अ",
        "त्य"
      ],
      [
        "इ",
        "क"
      ],
      [
        "ए",
        "न"
      ],
      [
        "क",
        "हाँ"
      ],
      [
        "ग",
        "म"
      ],
      [
        "ग",
        "्री"
      ],
      [
        "च",
        "ढ़"
      ],
      [
        "ट",
        "न"
      ],
      [
        "त",
        "ः"
      ],
      [
        "त",
        "ृ"
      ],
      [
        "ब",
        "जे"
      ],
      [
        "भ",
        "ारी"
      ],
      [
        "म",
        "्र"
      ],
      [
        "श",
        "्रे"
      ],
      [
        "स",
        "न्"
      ],
      [
        "या",
        "न"
      ],
      [
        "ना",
        "थ"
      ],
      [
        "ला",
        "या"
      ],
      [
        "वा",
        "पस"
      ],
      [
        "रा",
        "हु"
      ],
      [
        "्य",
        "ता"
      ],
      [
        "ति",
        "क"
      ],
      [
        "सं",
        "घ"
      ],
      [
        "वे",
        "द"
      ],
      [
        "दु",
        "र्"
      ],
      [
        "देख",
        "कर"
      ],
      [
        "सू",
        "र"
      ],
      [
        "जब",
        "कि"
      ],
      [
        "दर्",
        "द"
      ],
      [
        "जरू",
        "री"
      ],
      [
        "बैठ",
        "क"
      ],
      [
        "परे",
        "शान"
      ],
      [
        "खू",
        "ब"
      ],
      [
        "ं",
        "ब"
      ],
      [
        "ं",
        "ता"
      ],
      [
        "इ",
        "ंड"
      ],
      [
        "उ",
        "ल"
      ],
      [
        "क",
        "ेंद्र"
      ],
      [
        "ख",
        "ड़ा"
      ],
      [
        "च",
        "र"
      ],
      [
        "ट",
        "ों"
      ],
      [
        "ड",
        "ू"
      ],
      [
        "त",
        "भी"
      ],
      [
        "ब",
        "धा"
      ],
      [
        "म",
        "री"
      ],
      [
        "य",
        "हीं"
      ],
      [
        "स",
        "मु"
      ],
      [
        "ह",
        "त्या"
      ],
      [
        "ि",
        "श"
      ],
      [
        "ि",
        "का"
      ],
      [
        "ें",
        "ट"
      ],
      [
        "या",
        "नी"
      ],
      [
        "ना",
        "ग"
      ],
      [
        "ला",
        "इ"
      ],
      [
        "ले",
        "ट"
      ],
      [
        "पा",
        "ठ"
      ],
      [
        "जि",
        "क"
      ],
      [
        "सि",
        "द्ध"
      ],
      [
        "च्",
        "छा"
      ],
      [
        "बि",
        "ल्"
      ],
      [
        "चे",
        "हरे"
      ],
      [
        "मन",
        "ो"
      ],
      [
        "पे",
        "ट"
      ],
      [
        "जान",
        "ते"
      ],
      [
        "धार",
        "ण"
      ],
      [
        "बंध",
        "न"
      ],
      [
        "अं",
        "तर"
      ],
      [
        "दिखा",
        "ई"
      ],
      [
        "लड़",
        "की"
      ],
      [
        "महत्व",
        "पूर्ण"
      ],
      [
        "ं",
        "दा"
      ],
      [
        "अ",
        "क्"
      ],
      [
        "ख",
        "त्म"
      ],
      [
        "च",
        "ंद"
      ],
      [
        "ज",
        "हां"
      ],
      [
        "द",
        "स"
      ],
      [
        "न",
        "ज"
      ],
      [
        "प",
        "ड़ी"
      ],
      [
        "ब",
        "हा"
      ],
      [
        "म",
        "र्"
      ],
      [
        "ष",
        "ित"
      ],
      [
        "स",
        "ारा"
      ],
      [
        "ह",
        "ॉ"
      ],
      [
        "ि",
        "न"
      ],
      [
        "कर",
        "वा"
      ],
      [
        "स्",
        "त्री"
      ],
      [
        "ला",
        "इन"
      ],
      [
        "सा",
        "मा"
      ],
      [
        "ले",
        "ने"
      ],
      [
        "प्र",
        "काश"
      ],
      [
        "वि",
        "वाह"
      ],
      [
        "ते",
        "ज"
      ],
      [
        "मा",
        "ध्यम"
      ],
      [
        "दे",
        "वी"
      ],
      [
        "सी",
        "मा"
      ],
      [
        "पा",
        "या"
      ],
      [
        "सं",
        "ख्या"
      ],
      [
        "जी",
        "त"
      ],
      [
        "सि",
        "र"
      ],
      [
        "मान",
        "व"
      ],
      [
        "टी",
        "वी"
      ],
      [
        "इन",
        "के"
      ],
      [
        "बै",
        "ंक"
      ],
      [
        "वर",
        "ण"
      ],
      [
        "कृ",
        "ष्ण"
      ],
      [
        "स्व",
        "रूप"
      ],
      [
        "त्म",
        "क"
      ],
      [
        "पत्",
        "नी"
      ],
      [
        "पढ़",
        "ा"
      ],
      [
        "यं",
        "त्र"
      ],
      [
        "सल",
        "मान"
      ],
      [
        "विष",
        "य"
      ],
      [
        "राष्ट",
        "्र"
      ],
      [
        "मूल",
        "्य"
      ],
      [
        "विद्या",
        "लय"
      ],
      [
        "आरो",
        "पी"
      ],
      [
        "ब्लॉ",
        "ग"
      ],
      [
        "बधा",
        "ई"
      ],
      [
        "अ",
        "ंक"
      ],
      [
        "आ",
        "ग"
      ],
      [
        "उ",
        "पा"
      ],
      [
        "ज",
        "ता"
      ],
      [
        "थ",
        "म"
      ],
      [
        "द",
        "ल"
      ],
      [
        "ध",
        "ारा"
      ],
      [
        "न",
        "ज़"
      ],
      [
        "न",
        "ारा"
      ],
      [
        "प",
        "ट"
      ],
      [
        "ब",
        "त"
      ],
      [
        "म",
        "ण"
      ],
      [
        "म",
        "जब"
      ],
      [
        "म",
        "ध्य"
      ],
      [
        "र",
        "ोग"
      ],
      [
        "श",
        "ू"
      ],
      [
        "ो",
        "ह"
      ],
      [
        "र्",
        "ति"
      ],
      [
        "भी",
        "ड़"
      ],
      [
        "कि",
        "तने"
      ],
      [
        "ला",
        "ई"
      ],
      [
        "ला",
        "ने"
      ],
      [
        "सा",
        "य"
      ],
      [
        "वा",
        "स्त"
      ],
      [
        "ले",
        "ते"
      ],
      [
        "प्र",
        "दान"
      ],
      [
        "प्र",
        "स्तु"
      ],
      [
        "वि",
        "देश"
      ],
      [
        "न्",
        "यू"
      ],
      [
        "बा",
        "जी"
      ],
      [
        "दि",
        "व"
      ],
      [
        "मु",
        "ला"
      ],
      [
        "चा",
        "य"
      ],
      [
        "ंग",
        "ी"
      ],
      [
        "क्ष",
        "क"
      ],
      [
        "क्ष",
        "ित"
      ],
      [
        "क्ष",
        "मता"
      ],
      [
        "जि",
        "से"
      ],
      [
        "क्र",
        "ी"
      ],
      [
        "क्र",
        "ो"
      ],
      [
        "लग",
        "भग"
      ],
      [
        "शु",
        "भ"
      ],
      [
        "मिल",
        "ता"
      ],
      [
        "मो",
        "बा"
      ],
      [
        "शी",
        "ल"
      ],
      [
        "अनु",
        "सार"
      ],
      [
        "अनु",
        "भव"
      ],
      [
        "खो",
        "ल"
      ],
      [
        "पै",
        "दा"
      ],
      [
        "व्या",
        "पार"
      ],
      [
        "आं",
        "दोलन"
      ],
      [
        "आस",
        "ान"
      ],
      [
        "करी",
        "ब"
      ],
      [
        "मार्",
        "ग"
      ],
      [
        "अग",
        "ले"
      ],
      [
        "परी",
        "क्षा"
      ],
      [
        "पहुँ",
        "च"
      ],
      [
        "आन",
        "ंद"
      ],
      [
        "आवश्य",
        "कता"
      ],
      [
        "अमेरि",
        "का"
      ],
      [
        "इन्ह",
        "ें"
      ],
      [
        "घं",
        "टे"
      ],
      [
        "अने",
        "क"
      ],
      [
        "राहु",
        "ल"
      ],
      [
        "मजब",
        "ू"
      ],
      [
        "अ",
        "फ"
      ],
      [
        "ऊ",
        "ँ"
      ],
      [
        "ए",
        "क्"
      ],
      [
        "क",
        "म्"
      ],
      [
        "क",
        "दम"
      ],
      [
        "च",
        "य"
      ],
      [
        "ज",
        "ंग"
      ],
      [
        "ठ",
        "न"
      ],
      [
        "ड",
        "्"
      ],
      [
        "द",
        "ेंगे"
      ],
      [
        "ध",
        "्"
      ],
      [
        "प",
        "ण"
      ],
      [
        "प",
        "र्य"
      ],
      [
        "म",
        "न्"
      ],
      [
        "म",
        "ंगल"
      ],
      [
        "य",
        "दा"
      ],
      [
        "श",
        "व"
      ],
      [
        "स",
        "ान"
      ],
      [
        "स",
        "त्य"
      ],
      [
        "ह",
        "ल"
      ],
      [
        "ि",
        "ता"
      ],
      [
        "ता",
        "कत"
      ],
      [
        "कर",
        "नी"
      ],
      [
        "स्",
        "ती"
      ],
      [
        "स्",
        "तक"
      ],
      [
        "सा",
        "ं"
      ],
      [
        "सा",
        "ंस"
      ],
      [
        "जा",
        "म"
      ],
      [
        "ले",
        "ज"
      ],
      [
        "प्र",
        "क्रिया"
      ],
      [
        "वि",
        "धि"
      ],
      [
        "न्",
        "त"
      ],
      [
        "गा",
        "ड़ी"
      ],
      [
        "गा",
        "ँव"
      ],
      [
        "नि",
        "श्"
      ],
      [
        "नि",
        "यम"
      ],
      [
        "तो",
        "ड़"
      ],
      [
        "मि",
        "त्र"
      ],
      [
        "दी",
        "प"
      ],
      [
        "जि",
        "म्"
      ],
      [
        "सि",
        "त"
      ],
      [
        "हर",
        "ण"
      ],
      [
        "शि",
        "त"
      ],
      [
        "बि",
        "त"
      ],
      [
        "चार",
        "ों"
      ],
      [
        "सर",
        "कारी"
      ],
      [
        "वी",
        "र"
      ],
      [
        "अधि",
        "कारी"
      ],
      [
        "मौ",
        "सम"
      ],
      [
        "न्द",
        "गी"
      ],
      [
        "चाहि",
        "ये"
      ],
      [
        "हाथ",
        "ों"
      ],
      [
        "गल",
        "त"
      ],
      [
        "तुम्ह",
        "ारे"
      ],
      [
        "ब्र",
        "ह्"
      ],
      [
        "भो",
        "जन"
      ],
      [
        "जल्",
        "दी"
      ],
      [
        "प्रि",
        "य"
      ],
      [
        "फिल",
        "हाल"
      ],
      [
        "अ",
        "ह"
      ],
      [
        "अ",
        "परा"
      ],
      [
        "अ",
        "सल"
      ],
      [
        "आ",
        "शा"
      ],
      [
        "ए",
        "फ"
      ],
      [
        "ज",
        "हाँ"
      ],
      [
        "ठ",
        "े"
      ],
      [
        "ध",
        "ो"
      ],
      [
        "फ",
        "ूल"
      ],
      [
        "भ",
        "ूल"
      ],
      [
        "र",
        "वि"
      ],
      [
        "स",
        "च्"
      ],
      [
        "ौ",
        "ल"
      ],
      [
        "की",
        "मत"
      ],
      [
        "ना",
        "क"
      ],
      [
        "को",
        "र्ट"
      ],
      [
        "स्",
        "से"
      ],
      [
        "कि",
        "ये"
      ],
      [
        "सा",
        "फ"
      ],
      [
        "मा",
        "ता"
      ],
      [
        "मु",
        "श्"
      ],
      [
        "मु",
        "ंह"
      ],
      [
        "मु",
        "सलमान"
      ],
      [
        "दा",
        "य"
      ],
      [
        "खा",
        "ना"
      ],
      [
        "पू",
        "जा"
      ],
      [
        "रो",
        "ज"
      ],
      [
        "ज़",
        "ार"
      ],
      [
        "ज़",
        "रू"
      ],
      [
        "बि",
        "क"
      ],
      [
        "बि",
        "ज"
      ],
      [
        "कह",
        "ना"
      ],
      [
        "मं",
        "त्र"
      ],
      [
        "ब्",
        "ला"
      ],
      [
        "चि",
        "ंता"
      ],
      [
        "रख",
        "ने"
      ],
      [
        "रख",
        "ना"
      ],
      [
        "जे",
        "ल"
      ],
      [
        "जिस",
        "के"
      ],
      [
        "छो",
        "टी"
      ],
      [
        "अन्",
        "ना"
      ],
      [
        "अव",
        "सर"
      ],
      [
        "नौ",
        "करी"
      ],
      [
        "मिले",
        "गा"
      ],
      [
        "ट्र",
        "ो"
      ],
      [
        "बेह",
        "तर"
      ],
      [
        "बच",
        "पन"
      ],
      [
        "सामा",
        "जिक"
      ],
      [
        "अ",
        "ंग"
      ],
      [
        "अ",
        "सर"
      ],
      [
        "इ",
        "तनी"
      ],
      [
        "ई",
        "श्वर"
      ],
      [
        "ऊ",
        "ं"
      ],
      [
        "ख",
        "ड़े"
      ],
      [
        "घ",
        "ू"
      ],
      [
        "झ",
        "ु"
      ],
      [
        "झ",
        "ू"
      ],
      [
        "ट",
        "्"
      ],
      [
        "ट",
        "का"
      ],
      [
        "ट",
        "ने"
      ],
      [
        "ढ",
        "े"
      ],
      [
        "त",
        "ें"
      ],
      [
        "त",
        "ारी"
      ],
      [
        "न",
        "ल"
      ],
      [
        "न",
        "व"
      ],
      [
        "न",
        "दी"
      ],
      [
        "प",
        "ैसे"
      ],
      [
        "भ",
        "क्ति"
      ],
      [
        "ल",
        "र"
      ],
      [
        "श",
        "ल"
      ],
      [
        "स",
        "्र"
      ],
      [
        "स",
        "जा"
      ],
      [
        "स",
        "दा"
      ],
      [
        "स",
        "त्ता"
      ],
      [
        "ह",
        "क"
      ],
      [
        "सा",
        "स"
      ],
      [
        "प्र",
        "कृति"
      ],
      [
        "लि",
        "खा"
      ],
      [
        "ते",
        "ल"
      ],
      [
        "ते",
        "रे"
      ],
      [
        "ति",
        "म"
      ],
      [
        "नि",
        "का"
      ],
      [
        "नि",
        "जी"
      ],
      [
        "पा",
        "ई"
      ],
      [
        "मु",
        "द्"
      ],
      [
        "सं",
        "चा"
      ],
      [
        "मै",
        "ने"
      ],
      [
        "खा",
        "ली"
      ],
      [
        "तु",
        "र"
      ],
      [
        "शि",
        "कार"
      ],
      [
        "बि",
        "ल"
      ],
      [
        "चार",
        "ण"
      ],
      [
        "गु",
        "ज"
      ],
      [
        "लग",
        "ती"
      ],
      [
        "खु",
        "ला"
      ],
      [
        "परि",
        "वर्"
      ],
      [
        "मौ",
        "के"
      ],
      [
        "इसी",
        "लिए"
      ],
      [
        "जिस",
        "का"
      ],
      [
        "चाह",
        "े"
      ],
      [
        "जै",
        "सी"
      ],
      [
        "सह",
        "योग"
      ],
      [
        "श्र",
        "द्धा"
      ],
      [
        "करे",
        "गा"
      ],
      [
        "करे",
        "गी"
      ],
      [
        "फै",
        "सला"
      ],
      [
        "इं",
        "टर"
      ],
      [
        "कृति",
        "क"
      ],
      [
        "गिर",
        "फ्"
      ],
      [
        "स्वी",
        "कार"
      ],
      [
        "पहुं",
        "चे"
      ],
      [
        "प्रभा",
        "वित"
      ],
      [
        "बाव",
        "जूद"
      ],
      [
        "ष्टा",
        "चार"
      ],
      [
        "पत्थ",
        "र"
      ],
      [
        "जिम्",
        "मे"
      ],
      [
        "ं",
        "ज"
      ],
      [
        "ं",
        "सी"
      ],
      [
        "अ",
        "स"
      ],
      [
        "अ",
        "हम"
      ],
      [
        "अ",
        "द्"
      ],
      [
        "आ",
        "इ"
      ],
      [
        "इ",
        "च्छा"
      ],
      [
        "उ",
        "ड़"
      ],
      [
        "उ",
        "तर"
      ],
      [
        "ए",
        "गा"
      ],
      [
        "ग",
        "ें"
      ],
      [
        "च",
        "रण"
      ],
      [
        "ज",
        "मा"
      ],
      [
        "त",
        "स्वी"
      ],
      [
        "द",
        "ों"
      ],
      [
        "द",
        "बा"
      ],
      [
        "द",
        "क्ष"
      ],
      [
        "ध",
        "ानी"
      ],
      [
        "न",
        "ती"
      ],
      [
        "ब",
        "ढ"
      ],
      [
        "ब",
        "यान"
      ],
      [
        "भ",
        "विष"
      ],
      [
        "र",
        "स"
      ],
      [
        "्",
        "त"
      ],
      [
        "का",
        "त"
      ],
      [
        "या",
        "लय"
      ],
      [
        "से",
        "ना"
      ],
      [
        "ता",
        "ल"
      ],
      [
        "स्",
        "प"
      ],
      [
        "कि",
        "त्"
      ],
      [
        "कि",
        "यों"
      ],
      [
        "हो",
        "नी"
      ],
      [
        "सा",
        "ई"
      ],
      [
        "प्र",
        "ी"
      ],
      [
        "प्र",
        "ार"
      ],
      [
        "प्र",
        "थम"
      ],
      [
        "रा",
        "जा"
      ],
      [
        "रा",
        "शि"
      ],
      [
        "वि",
        "वे"
      ],
      [
        "त्",
        "ति"
      ],
      [
        "त्",
        "कार"
      ],
      [
        "मे",
        "ल"
      ],
      [
        "उस",
        "में"
      ],
      [
        "सम",
        "ी"
      ],
      [
        "क्ष",
        "्"
      ],
      [
        "ल्",
        "ड"
      ],
      [
        "सु",
        "ख"
      ],
      [
        "उन",
        "में"
      ],
      [
        "पू",
        "छा"
      ],
      [
        "बे",
        "टी"
      ],
      [
        "ंड",
        "ा"
      ],
      [
        "गई",
        "ं"
      ],
      [
        "लगा",
        "या"
      ],
      [
        "टा",
        "इ"
      ],
      [
        "चि",
        "कित्"
      ],
      [
        "मो",
        "हन"
      ],
      [
        "सो",
        "चा"
      ],
      [
        "सू",
        "स"
      ],
      [
        "मह",
        "सूस"
      ],
      [
        "बन",
        "ने"
      ],
      [
        "उत्",
        "पा"
      ],
      [
        "पै",
        "सा"
      ],
      [
        "हाल",
        "त"
      ],
      [
        "करा",
        "या"
      ],
      [
        "पर्",
        "क"
      ],
      [
        "पत्",
        "ति"
      ],
      [
        "बैठ",
        "े"
      ],
      [
        "फो",
        "टो"
      ],
      [
        "तैया",
        "री"
      ],
      [
        "नेता",
        "ओं"
      ],
      [
        "किस",
        "ान"
      ],
      [
        "महिला",
        "ओं"
      ],
      [
        "पुरा",
        "ने"
      ],
      [
        "युव",
        "क"
      ],
      [
        "पृ",
        "ष्ठ"
      ],
      [
        "सामान",
        "्य"
      ],
      [
        "उदा",
        "हरण"
      ],
      [
        "क्रि",
        "केट"
      ],
      [
        "अदा",
        "लत"
      ],
      [
        "उच्",
        "चारण"
      ],
      [
        "इंत",
        "जार"
      ],
      [
        "जमी",
        "न"
      ],
      [
        "मोबा",
        "इल"
      ],
      [
        "मुश्",
        "किल"
      ],
      [
        "भविष",
        "्य"
      ],
      [
        "आ",
        "श्"
      ],
      [
        "आ",
        "त्मा"
      ],
      [
        "इ",
        "यों"
      ],
      [
        "इ",
        "तने"
[...]
