{
  "version": "1.0",
  "truncation": null,
  "padding": null,
  "added_tokens": [
    {
      "id": 0,
      "content": "[PAD]",
      "single_word": false,
      "lstrip": false,
      "rstrip": false,
      "normalized": false,
      "special": true
    },
    {
      "id": 1,
      "content": "[UNK]",
      "single_word": false,
      "lstrip": false,
      "rstrip": false,
      "normalized": false,
      "special": true
    },
    {
      "id": 2,
      "content": "[BOS]",
      "single_word": false,
      "lstrip": false,
      "rstrip": false,
      "normalized": false,
      "special": true
    },
    {
      "id": 3,
      "content": "[EOS]",
      "single_word": false,
      "lstrip": false,
      "rstrip": false,
      "normalized": false,
      "special": true
    }
  ],
  "normalizer": null,
  "pre_tokenizer": {
    "type": "Whitespace"
  },
  "post_processor": null,
  "decoder": null,
  "model": {
    "type": "BPE",
    "dropout": null,
    "unk_token": "[UNK]",
    "continuing_subword_prefix": null,
    "end_of_word_suffix": null,
    "fuse_unk": false,
    "byte_fallback": false,
    "ignore_merges": false,
    "vocab": {
      "[PAD]": 0,
      "[UNK]": 1,
      "[BOS]": 2,
      "[EOS]": 3,
      "#": 4,
      "&": 5,
      "+": 6,
      "3": 7,
      "<": 8,
      "=": 9,
      ">": 10,
      "?": 11,
      "`": 12,
      "{": 13,
      "}": 14,
      "~": 15,
      "": 16,
      "": 17,
      "¡": 18,
      "«": 19,
      "·": 20,
      "»": 21,
      "̈": 22,
      "А": 23,
      "Б": 24,
      "Г": 25,
      "Н": 26,
      "а": 27,
      "в": 28,
      "д": 29,
      "е": 30,
      "з": 31,
      "и": 32,
      "к": 33,
      "л": 34,
      "н": 35,
      "о": 36,
      "р": 37,
      "у": 38,
      "ш": 39,
      "я": 40,
      "ә": 41,
      "ח": 42,
      "פ": 43,
      "ר": 44,
      "ת": 45,
      "ا": 46,
      "س": 47,
      "غ": 48,
      "ك": 49,
      "ن": 50,
      "و": 51,
      "پ": 52,
      "چ": 53,
      "ک": 54,
      "ی": 55,
      "ँ": 56,
      "ं": 57,
      "ः": 58,
      "अ": 59,
      "आ": 60,
      "इ": 61,
      "ई": 62,
      "उ": 63,
      "ऊ": 64,
      "ऋ": 65,
      "ऍ": 66,
      "ऎ": 67,
      "ए": 68,
      "ऐ": 69,
      "ऑ": 70,
      "ओ": 71,
      "औ": 72,
      "क": 73,
      "ख": 74,
      "ग": 75,
      "घ": 76,
      "ङ": 77,
      "च": 78,
      "छ": 79,
      "ज": 80,
      "झ": 81,
      "ञ": 82,
      "ट": 83,
      "ठ": 84,
      "ड": 85,
      "ढ": 86,
      "ण": 87,
      "त": 88,
      "थ": 89,
      "द": 90,
      "ध": 91,
      "न": 92,
      "प": 93,
      "फ": 94,
      "ब": 95,
      "भ": 96,
      "म": 97,
      "य": 98,
      "र": 99,
      "ल": 100,
      "ळ": 101,
      "व": 102,
      "श": 103,
      "ष": 104,
      "स": 105,
      "ह": 106,
      "़": 107,
      "ऽ": 108,
      "ा": 109,
      "ि": 110,
      "ी": 111,
      "ु": 112,
      "ू": 113,
      "ृ": 114,
      "ॅ": 115,
      "ॆ": 116,
      "े": 117,
      "ै": 118,
      "ॉ": 119,
      "ॊ": 120,
      "ो": 121,
      "ौ": 122,
      "्": 123,
      "ॐ": 124,
      "॓": 125,
      "।": 126,
      "॥": 127,
      "॰": 128,
      "™": 129,
      "←": 130,
      "↑": 131,
      "→": 132,
      "−": 133,
      "►": 134,
      "●": 135,
      "☼": 136,
      "♠": 137,
      "♥": 138,
      "": 139,
      "": 140,
      "": 141,
      "": 142,
      "है": 143,
      "का": 144,
      "ें": 145,
      "के": 146,
      "या": 147,
      "्र": 148,
      "ने": 149,
      "में": 150,
      "की": 151,
      "से": 152,
      "ही": 153,
      "ार": 154,
      "ता": 155,
      "ों": 156,
      "कर": 157,
      "ना": 158,
      "को": 159,
      "स्": 160,
      "र्": 161,
      "भी": 162,
      "कि": 163,
      "हो": 164,
      "क्": 165,
      "पर": 166,
      "ान": 167,
      "ला": 168,
      "सा": 169,
      "हा": 170,
      "इस": 171,
      "जा": 172,
      "ले": 173,
      "वा": 174,
      "हैं": 175,
      "लि": 176,
      "प्र": 177,
      "रा": 178,
      "हीं": 179,
      "ती": 180,
      "वि": 181,
      "ते": 182,
      "न्": 183,
      "नहीं": 184,
      "ड़": 185,
      "और": 186,
      "मा": 187,
      "्य": 188,
      "दे": 189,
      "बा": 190,
      "हु": 191,
      "गा": 192,
      "ति": 193,
      "दि": 194,
      "था": 195,
      "नि": 196,
      "री": 197,
      "एक": 198,
      "रह": 199,
      "नी": 200,
      "तो": 201,
      "मि": 202,
      "पा": 203,
      "त्": 204,
      "ली": 205,
      "सी": 206,
      "मु": 207,
      "सं": 208,
      "मे": 209,
      "ये": 210,
      "त्र": 211,
      "लिए": 212,
      "यह": 213,
      "उस": 214,
      "चा": 215,
      "अप": 216,
      "जी": 217,
      "मै": 218,
      "ंग": 219,
      "रे": 220,
      "कु": 221,
      "सम": 222,
      "कार": 223,
      "क्ष": 224,
      "हि": 225,
      "भा": 226,
      "दी": 227,
      "दा": 228,
      "गी": 229,
      "हम": 230,
      "यों": 231,
      "ल्": 232,
      "थी": 233,
      "ोग": 234,
      "मैं": 235,
      "जि": 236,
      "आप": 237,
      "गया": 238,
      "सि": 239,
      "शा": 240,
      "सु": 241,
      "उन": 242,
      "खा": 243,
      "दो": 244,
      "द्": 245,
      "वे": 246,
      "रू": 247,
      "पू": 248,
      "थे": 249,
      "वह": 250,
      "गे": 251,
      "किया": 252,
      "फि": 253,
      "्या": 254,
      "पु": 255,
      "्ट": 256,
      "मी": 257,
      "हर": 258,
      "तु": 259,
      "न्ह": 260,
      "च्": 261,
      "सक": 262,
      "रो": 263,
      "कुछ": 264,
      "धि": 265,
      "शि": 266,
      "रहे": 267,
      "रि": 268,
      "ढ़": 269,
      "रहा": 270,
      "मान": 271,
      "श्": 272,
      "वार": 273,
      "तर": 274,
      "उन्ह": 275,
      "तक": 276,
      "पी": 277,
      "बि": 278,
      "कोई": 279,
      "ज़": 280,
      "क्या": 281,
      "नों": 282,
      "ारी": 283,
      "सब": 284,
      "अब": 285,
      "बहु": 286,
      "म्": 287,
      "साथ": 288,
      "पह": 289,
      "बे": 290,
      "ंद": 291,
      "टी": 292,
      "इन": 293,
      "बहुत": 294,
      "जो": 295,
      "बी": 296,
      "अपने": 297,
      "बात": 298,
      "क्र": 299,
      "ित": 300,
      "िया": 301,
      "बाद": 302,
      "गु": 303,
      "लोग": 304,
      "देश": 305,
      "चार": 306,
      "स्ट": 307,
      "चु": 308,
      "दू": 309,
      "रही": 310,
      "सर": 311,
      "ंड": 312,
      "बार": 313,
      "हू": 314,
      "स्थ": 315,
      "गई": 316,
      "लग": 317,
      "दिया": 318,
      "वी": 319,
      "होता": 320,
      "करने": 321,
      "रु": 322,
      "ड़ा": 323,
      "ओं": 324,
      "देख": 325,
      "शु": 326,
      "ानी": 327,
      "राज": 328,
      "कह": 329,
      "ड़ी": 330,
      "मिल": 331,
      "दु": 332,
      "किन": 333,
      "चे": 334,
      "लगा": 335,
      "हां": 336,
      "खु": 337,
      "टा": 338,
      "हुआ": 339,
      "ब्": 340,
      "मं": 341,
      "नु": 342,
      "जन": 343,
      "चि": 344,
      "ष्ट": 345,
      "फिर": 346,
      "सो": 347,
      "बना": 348,
      "सू": 349,
      "मुझ": 350,
      "छा": 351,
      "लो": 352,
      "मो": 353,
      "परि": 354,
      "प्": 355,
      "आज": 356,
      "ची": 357,
      "वर्": 358,
      "्रे": 359,
      "लेकिन": 360,
      "ारे": 361,
      "ैसे": 362,
      "भार": 363,
      "काम": 364,
      "र्य": 365,
      "अपनी": 366,
      "व्य": 367,
      "इसके": 368,
      "ंध": 369,
      "पि": 370,
      "ज्": 371,
      "टे": 372,
      "ड़े": 373,
      "मन": 374,
      "मह": 375,
      "किसी": 376,
      "चल": 377,
      "ारा": 378,
      "जाए": 379,
      "जाता": 380,
      "कम": 381,
      "मुझे": 382,
      "उसे": 383,
      "यु": 384,
      "्री": 385,
      "फ़": 386,
      "गर": 387,
      "पे": 388,
      "ार्": 389,
      "हुई": 390,
      "जान": 391,
      "ोंने": 392,
      "त्य": 393,
      "बै": 394,
      "्रा": 395,
      "अधि": 396,
      "वर": 397,
      "धा": 398,
      "खि": 399,
      "हुए": 400,
      "तरह": 401,
      "स्त": 402,
      "गए": 403,
      "यो": 404,
      "शन": 405,
      "पहले": 406,
      "िक": 407,
      "ूल": 408,
      "उन्होंने": 409,
      "ष्": 410,
      "हाँ": 411,
      "अच्": 412,
      "दिन": 413,
      "ंत": 414,
      "टर": 415,
      "डा": 416,
      "योग": 417,
      "ंच": 418,
      "उन्हें": 419,
      "बु": 420,
      "मौ": 421,
      "वन": 422,
      "करते": 423,
      "लिया": 424,
      "क्षा": 425,
      "जब": 426,
      "रख": 427,
      "शी": 428,
      "बन": 429,
      "करें": 430,
      "नाम": 431,
      "कई": 432,
      "चाहि": 433,
      "सकता": 434,
      "उप": 435,
      "घर": 436,
      "वो": 437,
      "कारी": 438,
      "होगा": 439,
      "ियों": 440,
      "कृ": 441,
      "होती": 442,
      "क्ति": 443,
      "दर्": 444,
      "उनके": 445,
      "उसके": 446,
      "करना": 447,
      "न्द": 448,
      "दोनों": 449,
      "बो": 450,
      "बढ़": 451,
      "समय": 452,
      "ज्ञ": 453,
      "जे": 454,
      "बद": 455,
      "खे": 456,
      "सभी": 457,
      "स्व": 458,
      "होने": 459,
      "प्रा": 460,
      "कल": 461,
      "भाव": 462,
      "अनु": 463,
      "डि": 464,
      "बर": 465,
      "जु": 466,
      "यी": 467,
      "इससे": 468,
      "रूप": 469,
      "उत्": 470,
      "पो": 471,
      "टि": 472,
      "मेरे": 473,
      "चाहिए": 474,
      "कहा": 475,
      "निर्": 476,
      "त्री": 477,
      "इसी": 478,
      "पहु": 479,
      "आई": 480,
      "ठा": 481,
      "जिस": 482,
      "लों": 483,
      "ौर": 484,
      "शे": 485,
      "क्त": 486,
      "उनकी": 487,
      "हूँ": 488,
      "भि": 489,
      "यू": 490,
      "मुख": 491,
      "त्व": 492,
      "समझ": 493,
      "हूं": 494,
      "गि": 495,
      "पूर्": 496,
      "कर्": 497,
      "पुलि": 498,
      "कों": 499,
      "फी": 500,
      "कार्य": 501,
      "चाह": 502,
      "मैंने": 503,
      "पुलिस": 504,
      "ेंगे": 505,
      "बता": 506,
      "स्ता": 507,
      "प्रति": 508,
      "छो": 509,
      "पार": 510,
      "मत": 511,
      "यहां": 512,
      "स्था": 513,
      "जाती": 514,
      "पास": 515,
      "ऐसा": 516,
      "धार": 517,
      "माम": 518,
      "गो": 519,
      "डी": 520,
      "लोगों": 521,
      "कभी": 522,
      "ध्य": 523,
      "बह": 524,
      "भू": 525,
      "मार": 526,
      "समा": 527,
      "क्यों": 528,
      "दूस": 529,
      "जार": 530,
      "सबसे": 531,
      "ठी": 532,
      "स्वा": 533,
      "एं": 534,
      "बच्": 535,
      "सम्": 536,
      "जू": 537,
      "णा": 538,
      "यर": 539,
      "यही": 540,
      "भारत": 541,
      "फिल्": 542,
      "ंस": 543,
      "साम": 544,
      "्यादा": 545,
      "अन्": 546,
      "रत": 547,
      "उसकी": 548,
      "इसे": 549,
      "ऐसे": 550,
      "ंक": 551,
      "अव": 552,
      "पै": 553,
      "पता": 554,
      "जीवन": 555,
      "लू": 556,
      "हों": 557,
      "र्थ": 558,
      "वाले": 559,
      "ग्र": 560,
      "छे": 561,
      "करता": 562,
      "वाद": 563,
      "मेरी": 564,
      "सकते": 565,
      "शुरू": 566,
      "दान": 567,
      "इसका": 568,
      "अपना": 569,
      "ंग्रे": 570,
      "ंह": 571,
      "होगी": 572,
      "न्न": 573,
      "द्ध": 574,
      "जग": 575,
      "फा": 576,
      "डे": 577,
      "भाग": 578,
      "खो": 579,
      "निया": 580,
      "ज्यादा": 581,
      "चना": 582,
      "हाथ": 583,
      "विश्": 584,
      "तुम": 585,
      "तना": 586,
      "पन": 587,
      "करा": 588,
      "हाल": 589,
      "बंध": 590,
      "कारण": 591,
      "कैसे": 592,
      "द्र": 593,
      "भग": 594,
      "भर": 595,
      "निक": 596,
      "अच्छा": 597,
      "षा": 598,
      "होते": 599,
      "प्रे": 600,
      "राम": 601,
      "उसका": 602,
      "हमारे": 603,
      "पुर": 604,
      "सरकार": 605,
      "कै": 606,
      "कता": 607,
      "पड़": 608,
      "फिल्म": 609,
      "सर्": 610,
      "हे": 611,
      "उनका": 612,
      "आया": 613,
      "यं": 614,
      "इसलिए": 615,
      "स्थि": 616,
      "अं": 617,
      "तब": 618,
      "तार": 619,
      "दार": 620,
      "बस": 621,
      "लिये": 622,
      "द्वार": 623,
      "अभी": 624,
      "वान": 625,
      "जाने": 626,
      "्टी": 627,
      "ंगा": 628,
      "र्ट": 629,
      "क्षण": 630,
      "त्म": 631,
      "उसने": 632,
      "ज्ञान": 633,
      "सह": 634,
      "कान": 635,
      "काफी": 636,
      "जै": 637,
      "मेरा": 638,
      "आपको": 639,
      "तुम्": 640,
      "मंत्री": 641,
      "आगे": 642,
      "चला": 643,
      "जरू": 644,
      "पर्": 645,
      "मर": 646,
      "लेकर": 647,
      "लिख": 648,
      "प्त": 649,
      "रों": 650,
      "लन": 651,
      "श्र": 652,
      "ैया": 653,
      "लेख": 654,
      "रात": 655,
      "बैठ": 656,
      "द्य": 657,
      "पढ़": 658,
      "र्म": 659,
      "क्स": 660,
      "इसमें": 661,
      "वाला": 662,
      "क्षे": 663,
      "अधिक": 664,
      "घट": 665,
      "पत्": 666,
      "कौ": 667,
      "जर": 668,
      "धान": 669,
      "त्रा": 670,
      "नो": 671,
      "वं": 672,
      "ंप": 673,
      "साल": 674,
      "पूर्ण": 675,
      "स्थिति": 676,
      "नौ": 677,
      "फो": 678,
      "यत": 679,
      "श्य": 680,
      "्ड": 681,
      "करे": 682,
      "वाली": 683,
      "लय": 684,
      "लगे": 685,
      "वै": 686,
      "सार": 687,
      "तीय": 688,
      "क्रम": 689,
      "ओर": 690,
      "ख़": 691,
      "गल": 692,
      "धी": 693,
      "लगता": 694,
      "दर": 695,
      "फ्": 696,
      "शो": 697,
      "श्री": 698,
      "तीन": 699,
      "माण": 700,
      "तुम्ह": 701,
      "सिंह": 702,
      "राज्य": 703,
      "अभि": 704,
      "आं": 705,
      "क़": 706,
      "याद": 707,
      "वास": 708,
      "दिखा": 709,
      "मिला": 710,
      "स्थान": 711,
      "पानी": 712,
      "फै": 713,
      "नीति": 714,
      "थीं": 715,
      "खुद": 716,
      "द्वारा": 717,
      "इं": 718,
      "तों": 719,
      "प्या": 720,
      "लगी": 721,
      "सकती": 722,
      "तैया": 723,
      "पत्र": 724,
      "हार": 725,
      "देखा": 726,
      "बदल": 727,
      "सामने": 728,
      "गये": 729,
      "जल": 730,
      "ध्या": 731,
      "यन": 732,
      "लड़": 733,
      "वल": 734,
      "हरा": 735,
      "जाते": 736,
      "जाएगा": 737,
      "जानकारी": 738,
      "यहाँ": 739,
      "हमें": 740,
      "शेष": 741,
      "गयी": 742,
      "व्या": 743,
      "नेता": 744,
      "विचार": 745,
      "्यू": 746,
      "चुना": 747,
      "लोक": 748,
      "तं": 749,
      "भव": 750,
      "वाल": 751,
      "भाषा": 752,
      "पूरी": 753,
      "बारे": 754,
      "कॉ": 755,
      "तन": 756,
      "वहां": 757,
      "हन": 758,
      "जाना": 759,
      "दिल": 760,
      "ल्ली": 761,
      "दुनिया": 762,
      "अलग": 763,
      "जैसे": 764,
      "दौर": 765,
      "धन": 766,
      "बू": 767,
      "मू": 768,
      "करी": 769,
      "किस": 770,
      "होना": 771,
      "परा": 772,
      "मिले": 773,
      "हिला": 774,
      "सुन": 775,
      "एस": 776,
      "आपके": 777,
      "आस": 778,
      "उठा": 779,
      "कट": 780,
      "कवि": 781,
      "धर": 782,
      "ब्र": 783,
      "सद": 784,
      "राष्ट": 785,
      "दूर": 786,
      "कृति": 787,
      "खेल": 788,
      "ंव": 789,
      "डर": 790,
      "दम": 791,
      "त्या": 792,
      "खिला": 793,
      "क्षेत्र": 794,
      "जन्": 795,
      "फल": 796,
      "यद": 797,
      "बीच": 798,
      "व्यक्ति": 799,
      "घटना": 800,
      "आर": 801,
      "ट्र": 802,
      "णी": 803,
      "शान": 804,
      "ष्य": 805,
      "करण": 806,
      "करती": 807,
      "र्फ": 808,
      "छी": 809,
      "धु": 810,
      "पड़ा": 811,
      "सन": 812,
      "सल": 813,
      "साइ": 814,
      "पूरा": 815,
      "चौ": 816,
      "तनी": 817,
      "लौ": 818,
      "शब्": 819,
      "विद्": 820,
      "बाहर": 821,
      "समाज": 822,
      "गत": 823,
      "ग्": 824,
      "घा": 825,
      "चान": 826,
      "डिया": 827,
      "दृ": 828,
      "पड़े": 829,
      "भे": 830,
      "दिल्ली": 831,
      "बेह": 832,
      "कौन": 833,
      "चों": 834,
      "पं": 835,
      "बड़ी": 836,
      "भो": 837,
      "महा": 838,
      "मूल": 839,
      "यम": 840,
      "काल": 841,
      "भारतीय": 842,
      "मामले": 843,
      "जय": 844,
      "नही": 845,
      "भु": 846,
      "मृ": 847,
      "महिला": 848,
      "रंग": 849,
      "लें": 850,
      "वृ": 851,
      "सौ": 852,
      "व्यव": 853,
      "आद": 854,
      "कहीं": 855,
      "खी": 856,
      "तरी": 857,
      "पक": 858,
      "कार्": 859,
      "कांग्रे": 860,
      "शायद": 861,
      "ंदर": 862,
      "सोच": 863,
      "एवं": 864,
      "जना": 865,
      "फे": 866,
      "लब": 867,
      "इसकी": 868,
      "दिर": 869,
      "हिं": 870,
      "शब्द": 871,
      "कंप": 872,
      "चो": 873,
      "थो": 874,
      "प्रकार": 875,
      "मुख्य": 876,
      "जूद": 877,
      "चुनाव": 878,
      "अन": 879,
      "एम": 880,
      "तने": 881,
      "यां": 882,
      "साहि": 883,
      "वाह": 884,
      "देर": 885,
      "रहता": 886,
      "कुल": 887,
      "हमारी": 888,
      "ष्टि": 889,
      "छोड़": 890,
      "ठीक": 891,
      "घ्": 892,
      "ण्ड": 893,
      "बड़ा": 894,
      "सत": 895,
      "ह्": 896,
      "परे": 897,
      "विक": 898,
      "विशेष": 899,
      "भाई": 900,
      "क्रिया": 901,
      "आए": 902,
      "एँ": 903,
      "ग्रा": 904,
      "टो": 905,
      "बल": 906,
      "आपकी": 907,
      "सिर्फ": 908,
      "विश्व": 909,
      "भगवान": 910,
      "विद्या": 911,
      "कांग्रेस": 912,
      "आने": 913,
      "कूल": 914,
      "गर्": 915,
      "नई": 916,
      "मार्": 917,
      "रण": 918,
      "शहर": 919,
      "जाये": 920,
      "देव": 921,
      "हिन्": 922,
      "गुरु": 923,
      "चुका": 924,
      "ष्ठ": 925,
      "जन्म": 926,
      "अस्": 927,
      "चू": 928,
      "धे": 929,
      "लु": 930,
      "लॉ": 931,
      "साह": 932,
      "विका": 933,
      "पीछे": 934,
      "अध्य": 935,
      "ख्या": 936,
      "लं": 937,
      "षण": 938,
      "केवल": 939,
      "मांग": 940,
      "पाल": 941,
      "सुर": 942,
      "अन्य": 943,
      "खू": 944,
      "चले": 945,
      "झा": 946,
      "बड़े": 947,
      "क्टर": 948,
      "रहते": 949,
      "संस्": 950,
      "सुबह": 951,
      "बच्चों": 952,
      "ंट": 953,
      "उसी": 954,
      "यक": 955,
      "यल": 956,
      "सला": 957,
      "्स": 958,
      "वाब": 959,
      "निकल": 960,
      "रहने": 961,
      "पूरे": 962,
      "परिवार": 963,
      "पहुंच": 964,
      "गिर": 965,
      "भूमि": 966,
      "दूसरे": 967,
      "आरो": 968,
      "ऐसी": 969,
      "पद": 970,
      "यता": 971,
      "लै": 972,
      "वज": 973,
      "हरे": 974,
      "यास": 975,
      "हाला": 976,
      "ंगे": 977,
      "द्धि": 978,
      "पोर्ट": 979,
      "आँ": 980,
      "काश": 981,
      "स्या": 982,
      "स्ते": 983,
      "परी": 984,
      "विरो": 985,
      "देने": 986,
      "मित": 987,
      "संग": 988,
      "हमने": 989,
      "शामिल": 990,
      "मीडिया": 991,
      "खुश": 992,
      "जगह": 993,
      "दौरान": 994,
      "कविता": 995,
      "धर्म": 996,
      "पसं": 997,
      "बंद": 998,
      "हमे": 999,
      "तिहा": 1000,
      "बिना": 1001,
      "पहली": 1002,
      "कहानी": 1003,
      "वर्ष": 1004,
      "स्वयं": 1005,
      "पहुं": 1006,
      "विकास": 1007,
      "अग": 1008,
      "कला": 1009,
      "खों": 1010,
      "घु": 1011,
      "चर्": 1012,
      "चित": 1013,
      "पति": 1014,
      "प्रदेश": 1015,
      "माँ": 1016,
      "गांव": 1017,
      "राजनीति": 1018,
      "अधिकार": 1019,
      "प्रेम": 1020,
      "आदमी": 1021,
      "अगर": 1022,
      "अंग्रे": 1023,
      "आखि": 1024,
      "तरा": 1025,
      "दन": 1026,
      "नर": 1027,
      "रखा": 1028,
      "सही": 1029,
      "तीस": 1030,
      "बाजार": 1031,
      "चुकी": 1032,
      "कहते": 1033,
      "महत्व": 1034,
      "ध्यान": 1035,
      "ंकि": 1036,
      "उठ": 1037,
      "पट": 1038,
      "स्तु": 1039,
      "लिक": 1040,
      "गीत": 1041,
      "ल्प": 1042,
      "तरफ": 1043,
      "्रीय": 1044,
      "तैयार": 1045,
      "साहित्य": 1046,
      "हमेशा": 1047,
      "आव": 1048,
      "आती": 1049,
      "तथा": 1050,
      "बच": 1051,
      "वहाँ": 1052,
      "सै": 1053,
      "किए": 1054,
      "वाई": 1055,
      "लित": 1056,
      "मिली": 1057,
      "पिछ": 1058,
      "अच्छी": 1059,
      "कार्यक्रम": 1060,
      "बताया": 1061,
      "स्तान": 1062,
      "जरूरत": 1063,
      "बने": 1064,
      "बचा": 1065,
      "मही": 1066,
      "शक्ति": 1067,
      "ेंद्र": 1068,
      "दिनों": 1069,
      "त्ता": 1070,
      "हमारा": 1071,
      "आपका": 1072,
      "मंदिर": 1073,
      "बच्चे": 1074,
      "अर्थ": 1075,
      "नया": 1076,
      "नजर": 1077,
      "मना": 1078,
      "लक": 1079,
      "स्वी": 1080,
      "लाल": 1081,
      "विष": 1082,
      "माल": 1083,
      "शिक्षा": 1084,
      "टीम": 1085,
      "युव": 1086,
      "दर्शन": 1087,
      "टिंग": 1088,
      "निर्माण": 1089,
      "कर्म": 1090,
      "पार्टी": 1091,
      "व्यवस्था": 1092,
      "आन": 1093,
      "इला": 1094,
      "ऊपर": 1095,
      "कू": 1096,
      "कथा": 1097,
      "जल्": 1098,
      "जारी": 1099,
      "तू": 1100,
      "पस": 1101,
      "सवाल": 1102,
      "केट": 1103,
      "करो": 1104,
      "स्तर": 1105,
      "स्कूल": 1106,
      "समस्या": 1107,
      "ियां": 1108,
      "ार्थ": 1109,
      "ष्ण": 1110,
      "बोल": 1111,
      "प्राप्त": 1112,
      "पहुँ": 1113,
      "कत": 1114,
      "गू": 1115,
      "छु": 1116,
      "जपा": 1117,
      "टू": 1118,
      "दें": 1119,
      "नए": 1120,
      "सेवा": 1121,
      "करके": 1122,
      "र्ष": 1123,
      "जाय": 1124,
      "वित": 1125,
      "देना": 1126,
      "पुरा": 1127,
      "ज़ा": 1128,
      "म्मी": 1129,
      "पिता": 1130,
      "न्द्र": 1131,
      "बढ़ा": 1132,
      "पोस्ट": 1133,
      "चाहता": 1134,
      "तंत्र": 1135,
      "आता": 1136,
      "इन्": 1137,
      "चै": 1138,
      "मनु": 1139,
      "लब्": 1140,
      "वही": 1141,
      "याँ": 1142,
      "यात्रा": 1143,
      "र्ड": 1144,
      "प्रि": 1145,
      "न्य": 1146,
      "देता": 1147,
      "देते": 1148,
      "उससे": 1149,
      "भाजपा": 1150,
      "वेश": 1151,
      "रुप": 1152,
      "बनाने": 1153,
      "सूचना": 1154,
      "योजना": 1155,
      "आवश्य": 1156,
      "आम": 1157,
      "आते": 1158,
      "चली": 1159,
      "जों": 1160,
      "टक": 1161,
      "ब्रा": 1162,
      "भ्र": 1163,
      "शं": 1164,
      "सारे": 1165,
      "जांच": 1166,
      "शाम": 1167,
      "शिव": 1168,
      "शिका": 1169,
      "ंदगी": 1170,
      "फ़ि": 1171,
      "करेंगे": 1172,
      "प्यार": 1173,
      "अके": 1174,
      "आये": 1175,
      "तम": 1176,
      "धू": 1177,
      "बं": 1178,
      "माना": 1179,
      "नीचे": 1180,
      "हित": 1181,
      "स्टे": 1182,
      "मौत": 1183,
      "उत्तर": 1184,
      "पूर्व": 1185,
      "होंगे": 1186,
      "पसंद": 1187,
      "ख्": 1188,
      "जवाब": 1189,
      "दौ": 1190,
      "मगर": 1191,
      "लत": 1192,
      "शरी": 1193,
      "सभा": 1194,
      "स्त्र": 1195,
      "मेरि": 1196,
      "जिला": 1197,
      "आपने": 1198,
      "द्धा": 1199,
      "जनता": 1200,
      "युक्त": 1201,
      "दूसरी": 1202,
      "ग्रह": 1203,
      "हिन्दी": 1204,
      "चर्चा": 1205,
      "अंग्रेजी": 1206,
      "आखिर": 1207,
      "ंभ": 1208,
      "अदा": 1209,
      "अंत": 1210,
      "उदा": 1211,
      "पृ": 1212,
      "हरी": 1213,
      "हजार": 1214,
      "ोर": 1215,
      "।।": 1216,
      "सामान": 1217,
      "पाकि": 1218,
      "संबंध": 1219,
      "चित्र": 1220,
      "डाल": 1221,
      "उपलब्": 1222,
      "भिन्न": 1223,
      "महीने": 1224,
      "पल": 1225,
      "पक्ष": 1226,
      "मद": 1227,
      "यदि": 1228,
      "ताब": 1229,
      "वालों": 1230,
      "राब": 1231,
      "विधा": 1232,
      "मां": 1233,
      "माह": 1234,
      "दिए": 1235,
      "जीव": 1236,
      "ंगल": 1237,
      "देखने": 1238,
      "पड़ता": 1239,
      "लौट": 1240,
      "हिंदी": 1241,
      "ंति": 1242,
      "अमेरि": 1243,
      "आवा": 1244,
      "आयो": 1245,
      "आधार": 1246,
      "इन्ह": 1247,
      "उन्": 1248,
      "उद्": 1249,
      "कब": 1250,
      "ग़": 1251,
      "टल": 1252,
      "तला": 1253,
      "मता": 1254,
      "रचना": 1255,
      "वहीं": 1256,
      "सच": 1257,
      "सहा": 1258,
      "सफल": 1259,
      "ूँ": 1260,
      "प्रयोग": 1261,
      "न्या": 1262,
      "रहती": 1263,
      "श्वर": 1264,
      "जोर": 1265,
      "क्रि": 1266,
      "ब्लॉ": 1267,
      "ंधी": 1268,
      "अच्छे": 1269,
      "ज्ञा": 1270,
      "राष्ट्रीय": 1271,
      "आत": 1272,
      "इतना": 1273,
      "एल": 1274,
      "खरी": 1275,
      "गं": 1276,
      "दारी": 1277,
      "वत": 1278,
      "शर्": 1279,
      "सप": 1280,
      "ून": 1281,
      "मेंट": 1282,
      "प्रभा": 1283,
      "शादी": 1284,
      "सुना": 1285,
      "पूछ": 1286,
      "रहेगी": 1287,
      "चीन": 1288,
      "मौजूद": 1289,
      "भावना": 1290,
      "खिलाफ": 1291,
      "अस्पता": 1292,
      "मनुष्य": 1293,
      "खंड": 1294,
      "गरी": 1295,
      "ट्रे": 1296,
      "ढा": 1297,
      "फर": 1298,
      "वैसे": 1299,
      "सके": 1300,
      "सों": 1301,
      "सारी": 1302,
      "हत": 1303,
      "तान": 1304,
      "र्स": 1305,
      "किस्": 1306,
      "लाभ": 1307,
      "प्रयास": 1308,
      "सिक": 1309,
      "शासन": 1310,
      "रोक": 1311,
      "वार्": 1312,
      "पहचान": 1313,
      "इनमें": 1314,
      "ियाँ": 1315,
      "चुके": 1316,
      "स्थित": 1317,
      "शुरु": 1318,
      "लगातार": 1319,
      "मोदी": 1320,
      "जाएगी": 1321,
      "कृत": 1322,
      "विश्वास": 1323,
      "फोन": 1324,
      "अस्पताल": 1325,
      "गति": 1326,
      "घो": 1327,
      "चम": 1328,
      "ट्ट": 1329,
      "ट्टी": 1330,
      "नै": 1331,
      "फु": 1332,
      "मस्": 1333,
      "वक्त": 1334,
      "नेट": 1335,
      "र्क": 1336,
      "भीतर": 1337,
      "किल": 1338,
      "सात": 1339,
      "ड़ों": 1340,
      "निय": 1341,
      "त्मा": 1342,
      "सिल": 1343,
      "खास": 1344,
      "धित": 1345,
      "रहेगा": 1346,
      "ज़ि": 1347,
      "बातें": 1348,
      "चाहते": 1349,
      "क्योंकि": 1350,
      "द्योग": 1351,
      "अध्यक्ष": 1352,
      "शरीर": 1353,
      "अति": 1354,
      "उच्": 1355,
      "उम्मी": 1356,
      "खबर": 1357,
      "डॉ": 1358,
      "दय": 1359,
      "पित": 1360,
      "ैर": 1361,
      "वादी": 1362,
      "राय": 1363,
      "गांधी": 1364,
      "जित": 1365,
      "दोलन": 1366,
      "शिश": 1367,
      "रिया": 1368,
      "रिश्": 1369,
      "रिपोर्ट": 1370,
      "रुष": 1371,
      "उपयोग": 1372,
      "न्दर": 1373,
      "दूसरा": 1374,
      "मुख्यमंत्री": 1375,
      "भूमिका": 1376,
      "अभ": 1377,
      "इतिहा": 1378,
      "कहां": 1379,
      "गम": 1380,
      "छि": 1381,
      "छू": 1382,
      "ज्य": 1383,
      "जमी": 1384,
      "बनी": 1385,
      "भारी": 1386,
      "शक": 1387,
      "ताओं": 1388,
      "होकर": 1389,
      "प्रती": 1390,
      "प्रभाव": 1391,
      "प्रमुख": 1392,
      "विभाग": 1393,
      "विभिन्न": 1394,
      "पांच": 1395,
      "त्रों": 1396,
      "उनसे": 1397,
      "खाने": 1398,
      "वर्ण": 1399,
      "चलते": 1400,
      "युवा": 1401,
      "मतलब": 1402,
      "मामला": 1403,
      "तुम्हें": 1404,
      "खूब": 1405,
      "वजह": 1406,
      "विरोध": 1407,
      "मदद": 1408,
      "इतिहास": 1409,
      "अफ": 1410,
      "अने": 1411,
      "आदि": 1412,
      "इंत": 1413,
      "कमी": 1414,
      "गण": 1415,
      "गढ़": 1416,
      "तय": 1417,
      "म्र": 1418,
      "मारी": 1419,
      "कां": 1420,
      "कोशिश": 1421,
      "किताब": 1422,
      "जाकर": 1423,
      "प्रत्य": 1424,
      "राव": 1425,
      "दिख": 1426,
      "संभव": 1427,
      "कुमार": 1428,
      "जिन": 1429,
      "वेब": 1430,
      "पुरुष": 1431,
      "श्च": 1432,
      "मिलने": 1433,
      "ष्टा": 1434,
      "वर्ग": 1435,
      "जबकि": 1436,
      "डियो": 1437,
      "ध्यम": 1438,
      "स्वामी": 1439,
      "स्वास्थ": 1440,
      "सर्व": 1441,
      "बेहद": 1442,
      "सुरक्षा": 1443,
      "हालांकि": 1444,
      "अर्": 1445,
      "अंदर": 1446,
      "आकर": 1447,
      "घं": 1448,
      "जें": 1449,
      "टै": 1450,
      "ठि": 1451,
      "थि": 1452,
      "करवा": 1453,
      "क्ट": 1454,
      "लाइ": 1455,
      "लेट": 1456,
      "प्रो": 1457,
      "त्त": 1458,
      "समान": 1459,
      "जिंदगी": 1460,
      "देखते": 1461,
      "दुर्": 1462,
      "चेहरे": 1463,
      "दर्ज": 1464,
      "बंधन": 1465,
      "राष्ट्र": 1466,
      "दृष्टि": 1467,
      "उम्मीद": 1468,
      "कहाँ": 1469,
      "दस": 1470,
      "दबा": 1471,
      "नगर": 1472,
      "बॉ": 1473,
      "बहा": 1474,
      "बन्": 1475,
      "मण": 1476,
      "मल": 1477,
      "मंड": 1478,
      "सव": 1479,
      "सचि": 1480,
      "ेक": 1481,
      "यानी": 1482,
      "नाथ": 1483,
      "समर्थ": 1484,
      "कारों": 1485,
      "हिस्": 1486,
      "ल्ला": 1487,
      "सुधार": 1488,
      "फिल": 1489,
      "गुण": 1490,
      "स्टर": 1491,
      "बनाया": 1492,
      "कमरे": 1493,
      "सम्मान": 1494,
      "जैसा": 1495,
      "जरूरी": 1496,
      "सदस्": 1497,
      "साइट": 1498,
      "साहब": 1499,
      "महत्वपूर्ण": 1500,
      "शिकायत": 1501,
      "पाकिस्तान": 1502,
      "उपलब्ध": 1503,
      "इल": 1504,
      "कल्प": 1505,
      "चढ़": 1506,
      "दल": 1507,
      "मर्": 1508,
      "यें": 1509,
      "सन्": 1510,
      "हल": 1511,
      "िश": 1512,
      "ेंट": 1513,
      "यान": 1514,
      "भीर": 1515,
      "लावा": 1516,
      "जाति": 1517,
      "प्रधान": 1518,
      "राहु": 1519,
      "नीय": 1520,
      "मिक": 1521,
      "मुस्": 1522,
      "ंगी": 1523,
      "दोस्त": 1524,
      "बिल्": 1525,
      "इनका": 1526,
      "परिणा": 1527,
      "दर्द": 1528,
      "समझा": 1529,
      "लड़की": 1530,
      "कंपनी": 1531,
      "परेशान": 1532,
      "पिछले": 1533,
      "स्वास्थ्य": 1534,
      "अत्य": 1535,
      "आग": 1536,
      "आत्म": 1537,
      "इक": 1538,
      "इंड": 1539,
      "तभी": 1540,
      "नज़": 1541,
      "नारा": 1542,
      "पड़ी": 1543,
      "बई": 1544,
      "यहीं": 1545,
      "समु": 1546,
      "सच्": 1547,
      "हवा": 1548,
      "ोह": 1549,
      "स्तक": 1550,
      "स्त्री": 1551,
      "भीड़": 1552,
      "लाइन": 1553,
      "विवाह": 1554,
      "ड़क": 1555,
      "दियों": 1556,
      "त्रि": 1557,
      "जिम्": 1558,
      "सिर": 1559,
      "पूर": 1560,
      "मिलता": 1561,
      "मिलती": 1562,
      "पेश": 1563,
      "पत्थ": 1564,
      "करेगा": 1565,
      "दिखाई": 1566,
      "थोड़ी": 1567,
      "अनेक": 1568,
      "परिणाम": 1569,
      "ँव": 1570,
      "अलावा": 1571,
      "केंद्र": 1572,
      "ग्री": 1573,
      "चंद": 1574,
      "जमा": 1575,
      "टों": 1576,
      "तः": 1577,
      "तृ": 1578,
      "ध्": 1579,
      "बल्": 1580,
      "मन्": 1581,
      "स्ती": 1582,
      "परं": 1583,
      "लाई": 1584,
      "साय": 1585,
      "लेने": 1586,
      "वास्त": 1587,
      "विज्ञान": 1588,
      "न्तु": 1589,
      "बाकी": 1590,
      "तिक": 1591,
      "सीमा": 1592,
      "संघ": 1593,
      "जिक": 1594,
      "सिद्ध": 1595,
      "वेद": 1596,
      "शित": 1597,
      "इनके": 1598,
      "चुप": 1599,
      "लगभग": 1600,
      "खुशी": 1601,
      "सूर": 1602,
      "चलता": 1603,
      "जानते": 1604,
      "बैंक": 1605,
      "वरण": 1606,
      "इसीलिए": 1607,
      "धारण": 1608,
      "पैदा": 1609,
      "त्मक": 1610,
      "बैठक": 1611,
      "करीब": 1612,
      "सलमान": 1613,
      "अमेरिका": 1614,
      "इन्हें": 1615,
      "गंभीर": 1616,
      "ंता": 1617,
      "ंदा": 1618,
      "अचान": 1619,
      "एन": 1620,
      "खड़ा": 1621,
      "टन": 1622,
      "नव": 1623,
      "बर्": 1624,
      "बजे": 1625,
      "मजब": 1626,
      "रोग": 1627,
      "लक्ष": 1628,
      "श्रे": 1629,
      "सत्य": 1630,
      "कितने": 1631,
      "ानि": 1632,
      "लाया": 1633,
      "प्रदान": 1634,
      "विधि": 1635,
      "विदेश": 1636,
      "माध्यम": 1637,
      "्यता": 1638,
      "पाठ": 1639,
      "संख्या": 1640,
      "जीत": 1641,
      "मैने": 1642,
      "जिसे": 1643,
      "शिक्ष": 1644,
      "मानव": 1645,
      "वीर": 1646,
      "देखकर": 1647,
      "पेट": 1648,
      "अनुसार": 1649,
      "पढ़ा": 1650,
      "आंदोलन": 1651,
      "आसान": 1652,
      "भोजन": 1653,
      "आनंद": 1654,
      "राहुल": 1655,
      "जिम्मे": 1656,
      "अचानक": 1657,
      "मजबू": 1658,
      "उपा": 1659,
      "खत्म": 1660,
      "चर": 1661,
      "जता": 1662,
      "डू": 1663,
      "नज": 1664,
      "पण": 1665,
      "भूल": 1666,
      "मरी": 1667,
      "शव": 1668,
      "षित": 1669,
      "ौल": 1670,
      "नाग": 1671,
      "र्ति": 1672,
      "सामा": 1673,
      "प्रक्रिया": 1674,
      "प्रकाश": 1675,
      "प्रस्तु": 1676,
      "तेज": 1677,
      "देती": 1678,
      "दिव": 1679,
      "निका": 1680,
      "मित्र": 1681,
      "मुं": 1682,
      "मुला": 1683,
      "उसमें": 1684,
      "दाय": 1685,
      "सित": 1686,
      "च्छा": 1687,
      "टीवी": 1688,
      "गुज": 1689,
      "ब्ला": 1690,
      "सूस": 1691,
      "महसूस": 1692,
      "अधिकारी": 1693,
      "मौके": 1694,
      "खोल": 1695,
      "नौकरी": 1696,
      "गलत": 1697,
      "मूल्य": 1698,
      "आरोपी": 1699,
      "विषय": 1700,
      "पहुँच": 1701,
      "अक्": 1702,
      "इतनी": 1703,
      "उल": 1704,
      "उतर": 1705,
      "एक्": 1706,
      "जहां": 1707,
      "झू": 1708,
      "थम": 1709,
      "बत": 1710,
      "बधा": 1711,
      "मध्य": 1712,
      "यदा": 1713,
      "वजूद": 1714,
      "शू": 1715,
      "सारा": 1716,
      "हॉ": 1717,
      "हत्या": 1718,
      "िता": 1719,
      "कीमत": 1720,
      "करनी": 1721,
      "लाने": 1722,
      "सां": 1723,
      "वापस": 1724,
      "रास्ता": 1725,
      "तोड़": 1726,
      "पाया": 1727,
      "त्ति": 1728,
      "मेल": 1729,
      "चाय": 1730,
      "खाली": 1731,
      "रोज": 1732,
      "बिल": 1733,
      "शुभ": 1734,
      "बनाए": 1735,
      "रखने": 1736,
      "कृष्ण": 1737,
      "स्वरूप": 1738,
      "अनुभव": 1739,
      "हाथों": 1740,
      "यंत्र": 1741,
      "अंतर": 1742,
      "कानून": 1743,
      "पत्नी": 1744,
      "तुम्हारे": 1745,
      "व्यापार": 1746,
      "विद्यालय": 1747,
      "पहुंचे": 1748,
      "जल्दी": 1749,
      "प्रिय": 1750,
      "आवश्यकता": 1751,
      "ष्टाचार": 1752,
      "असर": 1753,
      "आइ": 1754,
      "उम्र": 1755,
      "कम्": 1756,
      "खें": 1757,
      "गार": 1758,
      "घू": 1759,
      "जहाँ": 1760,
      "धो": 1761,
      "धारा": 1762,
      "लड": 1763,
      "वती": 1764,
      "सदा": 1765,
      "हं": 1766,
      "सेना": 1767,
      "किये": 1768,
      "सांस": 1769,
      "जाओ": 1770,
      "जाम": 1771,
      "लेज": 1772,
      "लेते": 1773,
      "प्रका": 1774,
      "प्रार": 1775,
      "तेरे": 1776,
      "देवी": 1777,
      "गाड़ी": 1778,
      "तिम": 1779,
      "नियम": 1780,
      "मुद्": 1781,
      "मुंह": 1782,
      "मुसलमान": 1783,
      "समी": 1784,
      "बिक": 1785,
      "ज़ी": 1786,
      "क्री": 1787,
      "क्रो": 1788,
      "चारों": 1789,
      "कहना": 1790,
      "खुला": 1791,
      "मनो": 1792,
      "रखना": 1793,
      "शील": 1794,
      "चाहिये": 1795,
      "न्दगी": 1796,
      "चाहे": 1797,
      "अवसर": 1798,
      "बैठे": 1799,
      "मिलेगा": 1800,
      "बेहतर": 1801,
      "परीक्षा": 1802,
      "अगले": 1803,
      "बचपन": 1804,
      "ब्लॉग": 1805,
      "प्रभावित": 1806,
      "इंतजार": 1807,
      "घंटे": 1808,
      "बधाई": 1809,
      "अपरा": 1810,
      "ऊँ": 1811,
      "एफ": 1812,
      "कदम": 1813,
      "गें": 1814,
      "झु": 1815,
      "ठन": 1816,
      "ठे": 1817,
      "तारी": 1818,
      "दक्ष": 1819,
      "देंगे": 1820,
      "नदी": 1821,
      "फूल": 1822,
      "बढ": 1823,
      "भक्ति": 1824,
      "मंगल": 1825,
      "रवि": 1826,
      "षि": 1827,
      "ूं": 1828,
      "कात": 1829,
      "यालय": 1830,
      "ताकत": 1831,
      "कियों": 1832,
      "सास": 1833,
      "लियों": 1834,
      "प्रस्ता": 1835,
      "राह": 1836,
      "राजा": 1837,
      "न्यू": 1838,
      "माता": 1839,
      "बाल": 1840,
      "निजी": 1841,
      "पाई": 1842,
      "मुश्": 1843,
      "क्षमता": 1844,
      "दीप": 1845,
      "दास": 1846,
      "पूजा": 1847,
      "हरण": 1848,
      "तुर": 1849,
      "ज़ार": 1850,
      "ज़रू": 1851,
      "सरकारी": 1852,
      "चिंता": 1853,
      "महान": 1854,
      "जिसके": 1855,
      "सहयोग": 1856,
      "इंटर": 1857,
      "मार्ग": 1858,
      "अधिकारियों": 1859,
      "जमीन": 1860,
      "फिलहाल": 1861,
      "सामाजिक": 1862,
      "ंतर": 1863,
      "अंग": 1864,
      "अद्": 1865,
      "असल": 1866,
      "आशा": 1867,
      "ईश्वर": 1868,
      "कठि": 1869,
      "खर": 1870,
      "खड़े": 1871,
      "ट्": 1872,
      "टने": 1873,
      "तें": 1874,
      "दवा": 1875,
      "धानी": 1876,
      "नल": 1877,
      "पैसे": 1878,
      "पर्य": 1879,
      "पन्न": 1880,
      "भवि": 1881,
      "लर": 1882,
      "वरी": 1883,
      "स्र": 1884,
      "सान": 1885,
      "सत्ता": 1886,
      "्त": 1887,
      "कोर्ट": 1888,
      "कित्": 1889,
      "होनी": 1890,
      "साई": 1891,
      "साफ": 1892,
      "प्रमाण": 1893,
      "राशि": 1894,
      "तेल": 1895,
      "न्त": 1896,
      "गाँव": 1897,
      "रहना": 1898,
      "ल्ड": 1899,
      "खाना": 1900,
      "पुस्तक": 1901,
      "बिज": 1902,
      "बित": 1903,
      "इनकी": 1904,
      "देखी": 1905,
      "मंत्र": 1906,
      "चिकित्": 1907,
      "मोबा": 1908,
      "मोहन": 1909,
      "परिवर्": 1910,
      "मौसम": 1911,
      "जेल": 1912,
      "बदला": 1913,
      "प्राण": 1914,
      "अन्ना": 1915,
      "श्रम": 1916,
      "श्रद्धा": 1917,
      "फैसला": 1918,
      "किसान": 1919,
      "ब्रह्": 1920,
      "कृतिक": 1921,
      "ट्रो": 1922,
      "दृश्य": 1923,
      "गिरफ्": 1924,
      "अदालत": 1925,
      "क्रिकेट": 1926,
      "ंज": 1927,
      "आदेश": 1928,
      "आत्मा": 1929,
      "उड़": 1930,
      "चरण": 1931,
      "जंग": 1932,
      "टका": 1933,
      "ढे": 1934,
      "दों": 1935,
      "फ्र": 1936,
      "सवार": 1937,
      "सन्न": 1938,
      "हल्": 1939,
      "साध": 1940,
      "लेना": 1941,
      "लिंग": 1942,
      "लिखा": 1943,
      "प्रबंधन": 1944,
      "मात्र": 1945,
      "बाजी": 1946,
      "बावजूद": 1947,
      "निकाल": 1948,
      "त्कार": 1949,
      "सुख": 1950,
      "सुंदर": 1951,
      "बीर": 1952,
      "चारण": 1953,
      "ंडा": 1954,
      "ंडे": 1955,
      "गईं": 1956,
      "लगती": 1957,
      "रुक": 1958,
      "टाइ": 1959,
      "वर्त": 1960,
      "उत्पा": 1961,
      "जिसका": 1962,
      "जिसमें": 1963,
      "जिससे": 1964,
      "कराया": 1965,
      "मृत्य": 1966,
      "महिलाओं": 1967,
      "युवक": 1968,
      "भ्रष्टाचार": 1969,
      "अकेले": 1970,
      "सहायता": 1971,
      "खरीद": 1972,
      "पत्थर": 1973,
      "मुश्किल": 1974,
      "भविष्य": 1975,
      "अस": 1976,
      "अनि": 1977,
      "इतने": 1978,
      "इच्छा": 1979,
      "ऊं": 1980,
      "एगा": 1981,
      "कही": 1982,
      "खराब": 1983,
      "नती": 1984,
      "पौ": 1985,
      "बज": 1986,
      "बयान": 1987,
      "शनि": 1988,
      "सृ": 1989,
      "सजा": 1990,
      "हक": 1991,
      "हें": 1992,
      "िका": 1993,
      "ेश": 1994,
      "नाक": 1995,
      "स्प": 1996,
      "क्का": 1997,
      "क्शन": 1998,
      "वासी": 1999,
      "प्रकृति": 2000,
      "प्रथम": 2001,
      "प्रसन्न": 2002,
      "विवे": 2003,
      "संचा": 2004,
      "संतु": 2005,
      "हिर": 2006,
      "सुविधा": 2007,
      "उनमें": 2008,
      "श्न": 2009,
      "सबके": 2010,
      "बेटी": 2011,
      "शुक्र": 2012,
      "लगाया": 2013,
      "कामना": 2014,
      "युग": 2015,
      "फ़ा": 2016,
      "बनने": 2017,
      "बोर्ड": 2018,
      "चाहती": 2019,
      "छोटी": 2020,
      "हालत": 2021,
      "हेतु": 2022,
      "अंतिम": 2023,
      "जैसी": 2024,
      "पर्क": 2025,
      "पत्ति": 2026,
      "नेताओं": 2027,
      "्यूटर": 2028,
      "स्तेमाल": 2029,
      "पुराने": 2030,
      "पृष्ठ": 2031,
      "तलाश": 2032,
      "गरीब": 2033,
      "उच्चारण": 2034,
      "श्चर्य": 2035,
      "नज़र": 2036,
      "वर्तमान": 2037,
      "मृत्यु": 2038,
      "अख": 2039,
      "अहम": 2040,
      "आश्चर्य": 2041,
      "इयों": 2042,
      "इस्तेमाल": 2043,
      "एका": 2044,
      "खान": 2045,
      "गहरा": 2046,
      "चक": 2047,
      "चय": 2048,
      "जम": 2049,
      "डो": 2050,
      "ड्": 2051,
      "तस्वी": 2052,
      "भरो": 2053,
      "रस": 2054,
      "शल": 2055,
      "हट": 2056,
      "हृ": 2057,
      "स्ना": 2058,
      "कितना": 2059,
      "कितनी": 2060,
      "लास": 2061,
      "साद": 2062,
      "हाई": 2063,
      "प्री": 2064,
      "रास्ते": 2065,
      "विन": 2066,
      "विधान": 2067,
      "गाय": 2068,
      "नियों": 2069,
      "निशा": 2070,
      "निश्": 2071,
      "संसार": 2072,
      "संगीत": 2073,
      "मैच": 2074,
      "ल्स": 2075,
      "शाल": 2076,
      "दोष": 2077,
      "दोनो": 2078,
      "पूछा": 2079,
      "हरि": 2080,
      "शिकार": 2081,
      "बिहार": 2082,
      "बेटा": 2083,
      "बातची": 2084,
      "ियान": 2085,
      "बारिश": 2086,
      "वीं": 2087,
      "खुल": 2088,
      "सोचा": 2089,
      "योगी": 2090,
      "रखें": 2091,
      "निर्देश": 2092,
      "पैसा": 2093,
      "जगत": 2094,
      "करेगी": 2095,
      "तैयारी": 2096,
      "ब्रि": 2097,
      "घायल": 2098,
      "अध्ययन": 2099,
      "आँखों": 2100,
      "स्वीकार": 2101,
      "बंधित": 2102,
      "उदाहरण": 2103,
      "सामान्य": 2104,
      "माहौल": 2105,
      "सफलता": 2106,
      "वार्ता": 2107,
      "प्रत्येक": 2108,
      "बिल्कुल": 2109,
      "वास्तव": 2110,
      "दिवस": 2111,
      "मुंबई": 2112,
      "दक्षि": 2113,
      "परिवर्तन": 2114,
      "बातचीत": 2115,
      "अजी": 2116,
      "उड़ा": 2117,
      "छह": 2118,
      "झे": 2119,
      "धन्य": 2120,
      "नें": 2121,
      "पॉ": 2122,
      "फर्": 2123,
      "फ्ट": 2124,
      "बारी": 2125,
      "भरी": 2126,
      "मक": 2127,
      "रै": 2128,
      "रान": 2129,
      "लना": 2130,
      "लम्": 2131,
      "हटा": 2132,
      "िए": 2133,
      "ृह": 2134,
      "्रवाई": 2135,
      "ताल": 2136,
      "सागर": 2137,
      "प्रदर्शन": 2138,
      "प्रशासन": 2139,
      "विजय": 2140,
      "माया": 2141,
      "दिये": 2142,
      "दिशा": 2143,
      "निर": 2144,
      "सीबी": 2145,
      "संत": 2146,
      "संकट": 2147,
      "रेल": 2148,
      "समार": 2149,
      "कार्रवाई": 2150,
      "क्षित": 2151,
      "हमले": 2152,
      "जिले": 2153,
      "शाह": 2154,
      "शांति": 2155,
      "उनको": 2156,
      "पुत्र": 2157,
      "मीण": 2158,
      "शिया": 2159,
      "मानी": 2160,
      "तकनी": 2161,
      "बातों": 2162,
      "क्रा": 2163,
      "स्थल": 2164,
      "देखें": 2165,
      "कहे": 2166,
      "मंजू": 2167,
      "आजकल": 2168,
      "चलती": 2169,
      "बढ़ती": 2170,
      "जेपी": 2171,
      "टिप्": 2172,
      "पर्या": 2173,
      "लिखने": 2174,
      "लेखक": 2175,
      "लेखन": 2176,
      "फोटो": 2177,
      "उठाया": 2178,
      "भेज": 2179,
      "भुत": 2180,
      "वृद्धि": 2181,
      "शब्दों": 2182,
      "हालात": 2183,
      "पहुंचा": 2184,
      "राजनीतिक": 2185,
      "इलाज": 2186,
      "फ़िर": 2187,
      "नियमित": 2188,
      "डॉक्टर": 2189,
      "अभियान": 2190,
      "ज्यो": 2191,
      "सदस्य": 2192,
      "प्रधानमंत्री": 2193,
      "अक्सर": 2194,
      "प्रकाशित": 2195,
      "प्रस्ताव": 2196,
      "कठिन": 2197,
      "मोबाइल": 2198,
      "ँच": 2199,
      "अर": 2200,
      "अल": 2201,
      "उल्": 2202,
      "खर्": 2203,
      "खतरा": 2204,
      "गंगा": 2205,
      "टिक": 2206,
      "ड्रा": 2207,
      "णय": 2208,
      "नक": 2209,
      "नये": 2210,
      "पें": 2211,
      "पंच": 2212,
      "फू": 2213,
      "भय": 2214,
      "भक्त": 2215,
      "मज": 2216,
      "मधु": 2217,
      "यण": 2218,
      "वों": 2219,
      "समे": 2220,
      "ुक": 2221,
      "क्लिक": 2222,
      "जाग": 2223,
      "प्रचार": 2224,
      "प्रश्न": 2225,
      "विस्त": 2226,
      "विवाद": 2227,
      "न्स": 2228,
      "मास्टर": 2229,
      "बाबा": 2230,
      "एकदम": 2231,
      "रहेंगे": 2232,
      "नींद": 2233,
      "संस्था": 2234,
      "संबंधित": 2235,
      "मेहन": 2236,
      "चाप": 2237,
      "समर्": 2238,
      "कारो": 2239,
      "ल्म": 2240,
      "जिए": 2241,
      "जिद": 2242,
      "सियों": 2243,
      "सुन्दर": 2244,
      "वेदन": 2245,
      "पूं": 2246,
      "शिक्षण": 2247,
      "रिक": 2248,
      "ढ़ी": 2249,
      "बेच": 2250,
      "गुस्": 2251,
      "गुला": 2252,
      "स्ट्रे": 2253,
      "देखे": 2254,
      "देखना": 2255,
      "कहने": 2256,
      "दुख": 2257,
      "दुकान": 2258,
      "मंच": 2259,
      "परिष": 2260,
      "जाएंगे": 2261,
      "बैठी": 2262,
      "खिल": 2263,
      "बुरा": 2264,
      "शीर्ष": 2265,
      "यूँ": 2266,
      "छोटे": 2267,
      "स्वागत": 2268,
      "भाग्य": 2269,
      "निकला": 2270,
      "ज्ञानिक": 2271,
      "वैज्ञानिक": 2272,
      "दरवा": 2273,
      "पत्रकार": 2274,
      "धुनिक": 2275,
      "मृत": 2276,
      "ग्रामीण": 2277,
      "आरोप": 2278,
      "उठे": 2279,
      "रुपये": 2280,
      "हजारों": 2281,
      "आवाज": 2282,
      "आवाज़": 2283,
      "आयोजित": 2284,
      "ज्ञापन": 2285,
      "शर्मा": 2286,
      "सपने": 2287,
      "सिलसि": 2288,
      "वेबसाइट": 2289,
      "मुलाकात": 2290,
      "हृदय": 2291,
      "दक्षिण": 2292,
      "मेहनत": 2293,
      "ंतु": 2294,
      "ंबर": 2295,
      "अथ": 2296,
      "अग्र": 2297,
      "आयोग": 2298,
      "आर्थ": 2299,
      "इधर": 2300,
      "उतार": 2301,
      "एच": 2302,
      "कं": 2303,
      "गै": 2304,
      "गौर": 2305,
      "जनों": 2306,
      "झी": 2307,
      "ट्रा": 2308,
      "तमाम": 2309,
      "पहर": 2310,
      "पश्": 2311,
      "मति": 2312,
      "रता": 2313,
      "लेंगे": 2314,
      "वस्तु": 2315,
      "शर": 2316,
      "शनी": 2317,
      "सका": 2318,
      "सें": 2319,
      "ेक्षा": 2320,
      "काली": 2321,
      "ेंगी": 2322,
      "्रि": 2323,
      "ताछ": 2324,
      "र्जा": 2325,
      "किन्तु": 2326,
      "क्कर": 2327,
      "वायु": 2328,
      "वाणी": 2329,
      "प्रसाद": 2330,
      "राग": 2331,
      "तीनों": 2332,
      "बाबू": 2333,
      "मिट्टी": 2334,
      "त्न": 2335,
      "मुना": 2336,
      "उसको": 2337,
      "समू": 2338,
      "दाई": 2339,
      "ल्या": 2340,
      "सिया": 2341,
      "शाली": 2342,
      "दोपहर": 2343,
      "वहार": 2344,
      "म्स": 2345,
      "क्रे": 2346,
      "दूरी": 2347,
      "सरल": 2348,
      "बारा": 2349,
      "राजस्थान": 2350,
      "कहान": 2351,
      "चीज": 2352,
      "युद्ध": 2353,
      "बुध": 2354,
      "बुद्धि": 2355,
      "वोट": 2356,
      "बदले": 2357,
      "प्राचीन": 2358,
      "जुड़े": 2359,
      "निर्णय": 2360,
      "कर्ता": 2361,
      "बहन": 2362,
      "सम्बन्": 2363,
      "खोज": 2364,
      "लिखी": 2365,
      "शोर": 2366,
      "तुम्हारी": 2367,
      "आसानी": 2368,
      "पकड़": 2369,
      "कार्ड": 2370,
      "कार्यालय": 2371,
      "ग्राम": 2372,
      "जायेगा": 2373,
      "सलाह": 2374,
      "आवश्यक": 2375,
      "स्टेशन": 2376,
      "ग्रहण": 2377,
      "पृथ": 2378,
      "इंडिया": 2379,
      "तृत्व": 2380,
      "बल्कि": 2381,
      "परंपरा": 2382,
      "कम्प": 2383,
      "ज़रूरत": 2384,
      "अद्भुत": 2385,
      "संचालन": 2386,
      "अखबार": 2387,
      "समारोह": 2388,
      "ज्योति": 2389,
      "ँग": 2390,
      "ँगा": 2391,
      "आठ": 2392,
      "आकर्": 2393,
      "आकाश": 2394,
      "इंस": 2395,
      "एंगे": 2396,
      "कने": 2397,
      "जरु": 2398,
      "तट": 2399,
      "नृ": 2400,
      "नारी": 2401,
      "पथ": 2402,
      "पहा": 2403,
      "फर्क": 2404,
      "बौ": 2405,
      "बला": 2406,
      "मॉ": 2407,
      "मजा": 2408,
      "लड़ा": 2409,
      "वरि": 2410,
      "शै": 2411,
      "समि": 2412,
      "सहम": 2413,
      "हसास": 2414,
      "नाटक": 2415,
      "किंतु": 2416,
      "साब": 2417,
      "साथी": 2418,
      "लेता": 2419,
      "प्रणा": 2420,
      "प्रकट": 2421,
      "बां": 2422,
      "बाग": 2423,
      "तियों": 2424,
      "थाने": 2425,
      "निभा": 2426,
      "निवेश": 2427,
      "पाता": 2428,
      "पाती": 2429,
      "पाये": 2430,
      "संवाद": 2431,
      "संसद": 2432,
      "अपेक्षा": 2433,
      "हिंद": 2434,
      "हमला": 2435,
      "सिखा": 2436,
      "सुनी": 2437,
      "रूम": 2438,
      "मानते": 2439,
      "म्भ": 2440,
      "बीत": 2441,
      "बीजेपी": 2442,
      "स्थानी": 2443,
      "लगते": 2444,
      "वीडियो": 2445,
      "राजधानी": 2446,
      "टाई": 2447,
      "सोम": 2448,
      "बनाई": 2449,
      "सूर्य": 2450,
      "छात्र": 2451,
      "लोड": 2452,
      "ंधे": 2453,
      "पिक": 2454,
      "कमजोर": 2455,
      "अधिकां": 2456,
      "बुला": 2457,
      "रखते": 2458,
      "जुन": 2459,
      "यूनि": 2460,
      "स्थापित": 2461,
      "गोली": 2462,
      "पुरस्": 2463,
      "नोट": 2464,
      "शोक": 2465,
      "आंखों": 2466,
      "लोकतंत्र": 2467,
      "सुनकर": 2468,
      "आसपास": 2469,
      "पड़ेगा": 2470,
      "तरीके": 2471,
      "चोट": 2472,
      "थोड़ा": 2473,
      "विश्वविद्यालय": 2474,
      "दौड़": 2475,
      "आयोजन": 2476,
      "पूछताछ": 2477,
      "प्रतीक": 2478,
      "सचिव": 2479,
      "कल्पना": 2480,
      "मन्दिर": 2481,
      "सूरज": 2482,
      "आर्थिक": 2483,
      "समिति": 2484,
      "अधिकांश": 2485,
      "ँस": 2486,
      "आउ": 2487,
      "आना": 2488,
      "आधुनिक": 2489,
      "इस्": 2490,
      "उद्योग": 2491,
      "एंड": 2492,
      "कमा": 2493,
      "जत": 2494,
      "जला": 2495,
      "द्रा": 2496,
      "धक": 2497,
      "पत": 2498,
      "पान": 2499
    },
    "merges": [
      [
        "ह",
        "ै"
      ],
      [
        "क",
        "ा"
      ],
      [
        "े",
        "ं"
      ],
      [
        "क",
        "े"
      ],
      [
        "य",
        "ा"
      ],
      [
        "्",
        "र"
      ],
      [
        "न",
        "े"
      ],
      [
        "म",
        "ें"
      ],
      [
        "क",
        "ी"
      ],
      [
        "स",
        "े"
      ],
      [
        "ह",
        "ी"
      ],
      [
        "ा",
        "र"
      ],
      [
        "त",
        "ा"
      ],
      [
        "ो",
        "ं"
      ],
      [
        "क",
        "र"
      ],
      [
        "न",
        "ा"
      ],
      [
        "क",
        "ो"
      ],
      [
        "स",
        "्"
      ],
      [
        "र",
        "्"
      ],
      [
        "भ",
        "ी"
      ],
      [
        "क",
        "ि"
      ],
      [
        "ह",
        "ो"
      ],
      [
        "क",
        "्"
      ],
      [
        "प",
        "र"
      ],
      [
        "ा",
        "न"
      ],
      [
        "ल",
        "ा"
      ],
      [
        "स",
        "ा"
      ],
      [
        "ह",
        "ा"
      ],
      [
        "इ",
        "स"
      ],
      [
        "ज",
        "ा"
      ],
      [
        "ल",
        "े"
      ],
      [
        "व",
        "ा"
      ],
      [
        "है",
        "ं"
      ],
      [
        "ल",
        "ि"
      ],
      [
        "प",
        "्र"
      ],
      [
        "र",
        "ा"
      ],
      [
        "ही",
        "ं"
      ],
      [
        "त",
        "ी"
      ],
      [
        "व",
        "ि"
      ],
      [
        "त",
        "े"
      ],
      [
        "न",
        "्"
      ],
      [
        "न",
        "हीं"
      ],
      [
        "ड",
        "़"
      ],
      [
        "औ",
        "र"
      ],
      [
        "म",
        "ा"
      ],
      [
        "्",
        "य"
      ],
      [
        "द",
        "े"
      ],
      [
        "ब",
        "ा"
      ],
      [
        "ह",
        "ु"
      ],
      [
        "ग",
        "ा"
      ],
      [
        "त",
        "ि"
      ],
      [
        "द",
        "ि"
      ],
      [
        "थ",
        "ा"
      ],
      [
        "न",
        "ि"
      ],
      [
        "र",
        "ी"
      ],
      [
        "ए",
        "क"
      ],
      [
        "र",
        "ह"
      ],
      [
        "न",
        "ी"
      ],
      [
        "त",
        "ो"
      ],
      [
        "म",
        "ि"
      ],
      [
        "प",
        "ा"
      ],
      [
        "त",
        "्"
      ],
      [
        "ल",
        "ी"
      ],
      [
        "स",
        "ी"
      ],
      [
        "म",
        "ु"
      ],
      [
        "स",
        "ं"
      ],
      [
        "म",
        "े"
      ],
      [
        "य",
        "े"
      ],
      [
        "त",
        "्र"
      ],
      [
        "लि",
        "ए"
      ],
      [
        "य",
        "ह"
      ],
      [
        "उ",
        "स"
      ],
      [
        "च",
        "ा"
      ],
      [
        "अ",
        "प"
      ],
      [
        "ज",
        "ी"
      ],
      [
        "म",
        "ै"
      ],
      [
        "ं",
        "ग"
      ],
      [
        "र",
        "े"
      ],
      [
        "क",
        "ु"
      ],
      [
        "स",
        "म"
      ],
      [
        "का",
        "र"
      ],
      [
        "क्",
        "ष"
      ],
      [
        "ह",
        "ि"
      ],
      [
        "भ",
        "ा"
      ],
      [
        "द",
        "ी"
      ],
      [
        "द",
        "ा"
      ],
      [
        "ग",
        "ी"
      ],
      [
        "ह",
        "म"
      ],
      [
        "य",
        "ों"
      ],
      [
        "ल",
        "्"
      ],
      [
        "थ",
        "ी"
      ],
      [
        "ो",
        "ग"
      ],
      [
        "मै",
        "ं"
      ],
      [
        "ज",
        "ि"
      ],
      [
        "आ",
        "प"
      ],
      [
        "ग",
        "या"
      ],
      [
        "स",
        "ि"
      ],
      [
        "श",
        "ा"
      ],
      [
        "स",
        "ु"
      ],
      [
        "उ",
        "न"
      ],
      [
        "ख",
        "ा"
      ],
      [
        "द",
        "ो"
      ],
      [
        "द",
        "्"
      ],
      [
        "व",
        "े"
      ],
      [
        "र",
        "ू"
      ],
      [
        "प",
        "ू"
      ],
      [
        "थ",
        "े"
      ],
      [
        "व",
        "ह"
      ],
      [
        "ग",
        "े"
      ],
      [
        "कि",
        "या"
      ],
      [
        "फ",
        "ि"
      ],
      [
        "्",
        "या"
      ],
      [
        "प",
        "ु"
      ],
      [
        "्",
        "ट"
      ],
      [
        "म",
        "ी"
      ],
      [
        "ह",
        "र"
      ],
      [
        "त",
        "ु"
      ],
      [
        "न्",
        "ह"
      ],
      [
        "च",
        "्"
      ],
      [
        "स",
        "क"
      ],
      [
        "र",
        "ो"
      ],
      [
        "कु",
        "छ"
      ],
      [
        "ध",
        "ि"
      ],
      [
        "श",
        "ि"
      ],
      [
        "रह",
        "े"
      ],
      [
        "र",
        "ि"
      ],
      [
        "ढ",
        "़"
      ],
      [
        "र",
        "हा"
      ],
      [
        "म",
        "ान"
      ],
      [
        "श",
        "्"
      ],
      [
        "व",
        "ार"
      ],
      [
        "त",
        "र"
      ],
      [
        "उ",
        "न्ह"
      ],
      [
        "त",
        "क"
      ],
      [
        "प",
        "ी"
      ],
      [
        "ब",
        "ि"
      ],
      [
        "को",
        "ई"
      ],
      [
        "ज",
        "़"
      ],
      [
        "क्",
        "या"
      ],
      [
        "न",
        "ों"
      ],
      [
        "ार",
        "ी"
      ],
      [
        "स",
        "ब"
      ],
      [
        "अ",
        "ब"
      ],
      [
        "ब",
        "हु"
      ],
      [
        "म",
        "्"
      ],
      [
        "सा",
        "थ"
      ],
      [
        "प",
        "ह"
      ],
      [
        "ब",
        "े"
      ],
      [
        "ं",
        "द"
      ],
      [
        "ट",
        "ी"
      ],
      [
        "इ",
        "न"
      ],
      [
        "बहु",
        "त"
      ],
      [
        "ज",
        "ो"
      ],
      [
        "ब",
        "ी"
      ],
      [
        "अप",
        "ने"
      ],
      [
        "बा",
        "त"
      ],
      [
        "क",
        "्र"
      ],
      [
        "ि",
        "त"
      ],
      [
        "ि",
        "या"
      ],
      [
        "बा",
        "द"
      ],
      [
        "ग",
        "ु"
      ],
      [
        "ल",
        "ोग"
      ],
      [
        "दे",
        "श"
      ],
      [
        "च",
        "ार"
      ],
      [
        "स्",
        "ट"
      ],
      [
        "च",
        "ु"
      ],
      [
        "द",
        "ू"
      ],
      [
        "र",
        "ही"
      ],
      [
        "स",
        "र"
      ],
      [
        "ं",
        "ड"
      ],
      [
        "ब",
        "ार"
      ],
      [
        "ह",
        "ू"
      ],
      [
        "स्",
        "थ"
      ],
      [
        "ग",
        "ई"
      ],
      [
        "ल",
        "ग"
      ],
      [
        "दि",
        "या"
      ],
      [
        "व",
        "ी"
      ],
      [
        "हो",
        "ता"
      ],
      [
        "कर",
        "ने"
      ],
      [
        "र",
        "ु"
      ],
      [
        "ड़",
        "ा"
      ],
      [
        "ओ",
        "ं"
      ],
      [
        "दे",
        "ख"
      ],
      [
        "श",
        "ु"
      ],
      [
        "ान",
        "ी"
      ],
      [
        "रा",
        "ज"
      ],
      [
        "क",
        "ह"
      ],
      [
        "ड़",
        "ी"
      ],
      [
        "मि",
        "ल"
      ],
      [
        "द",
        "ु"
      ],
      [
        "कि",
        "न"
      ],
      [
        "च",
        "े"
      ],
      [
        "ल",
        "गा"
      ],
      [
        "हा",
        "ं"
      ],
      [
        "ख",
        "ु"
      ],
      [
        "ट",
        "ा"
      ],
      [
        "हु",
        "आ"
      ],
      [
        "ब",
        "्"
      ],
      [
        "म",
        "ं"
      ],
      [
        "न",
        "ु"
      ],
      [
        "ज",
        "न"
      ],
      [
        "च",
        "ि"
      ],
      [
        "ष",
        "्ट"
      ],
      [
        "फि",
        "र"
      ],
      [
        "स",
        "ो"
      ],
      [
        "ब",
        "ना"
      ],
      [
        "स",
        "ू"
      ],
      [
        "मु",
        "झ"
      ],
      [
        "छ",
        "ा"
      ],
      [
        "ल",
        "ो"
      ],
      [
        "म",
        "ो"
      ],
      [
        "पर",
        "ि"
      ],
      [
        "प",
        "्"
      ],
      [
        "आ",
        "ज"
      ],
      [
        "च",
        "ी"
      ],
      [
        "व",
        "र्"
      ],
      [
        "्र",
        "े"
      ],
      [
        "ले",
        "किन"
      ],
      [
        "ार",
        "े"
      ],
      [
        "ै",
        "से"
      ],
      [
        "भ",
        "ार"
      ],
      [
        "का",
        "म"
      ],
      [
        "र्",
        "य"
      ],
      [
        "अप",
        "नी"
      ],
      [
        "व",
        "्य"
      ],
      [
        "इस",
        "के"
      ],
      [
        "ं",
        "ध"
      ],
      [
        "प",
        "ि"
      ],
      [
        "ज",
        "्"
      ],
      [
        "ट",
        "े"
      ],
      [
        "ड़",
        "े"
      ],
      [
        "म",
        "न"
      ],
      [
        "म",
        "ह"
      ],
      [
        "कि",
        "सी"
      ],
      [
        "च",
        "ल"
      ],
      [
        "ार",
        "ा"
      ],
      [
        "जा",
        "ए"
      ],
      [
        "जा",
        "ता"
      ],
      [
        "क",
        "म"
      ],
      [
        "मुझ",
        "े"
      ],
      [
        "उ",
        "से"
      ],
      [
        "य",
        "ु"
      ],
      [
        "्र",
        "ी"
      ],
      [
        "फ",
        "़"
      ],
      [
        "ग",
        "र"
      ],
      [
        "प",
        "े"
      ],
      [
        "ार",
        "्"
      ],
      [
        "हु",
        "ई"
      ],
      [
        "ज",
        "ान"
      ],
      [
        "ों",
        "ने"
      ],
      [
        "त",
        "्य"
      ],
      [
        "ब",
        "ै"
      ],
      [
        "्र",
        "ा"
      ],
      [
        "अ",
        "धि"
      ],
      [
        "व",
        "र"
      ],
      [
        "ध",
        "ा"
      ],
      [
        "ख",
        "ि"
      ],
      [
        "हु",
        "ए"
      ],
      [
        "त",
        "रह"
      ],
      [
        "स्",
        "त"
      ],
      [
        "ग",
        "ए"
      ],
      [
        "य",
        "ो"
      ],
      [
        "श",
        "न"
      ],
      [
        "पह",
        "ले"
      ],
      [
        "ि",
        "क"
      ],
      [
        "ू",
        "ल"
      ],
      [
        "उन्ह",
        "ोंने"
      ],
      [
        "ष",
        "्"
      ],
      [
        "हा",
        "ँ"
      ],
      [
        "अ",
        "च्"
      ],
      [
        "दि",
        "न"
      ],
      [
        "ं",
        "त"
      ],
      [
        "ट",
        "र"
      ],
      [
        "ड",
        "ा"
      ],
      [
        "य",
        "ोग"
      ],
      [
        "ं",
        "च"
      ],
      [
        "उन्ह",
        "ें"
      ],
      [
        "ब",
        "ु"
      ],
      [
        "म",
        "ौ"
      ],
      [
        "व",
        "न"
      ],
      [
        "कर",
        "ते"
      ],
      [
        "लि",
        "या"
      ],
      [
        "क्ष",
        "ा"
      ],
      [
        "ज",
        "ब"
      ],
      [
        "र",
        "ख"
      ],
      [
        "श",
        "ी"
      ],
      [
        "ब",
        "न"
      ],
      [
        "कर",
        "ें"
      ],
      [
        "ना",
        "म"
      ],
      [
        "क",
        "ई"
      ],
      [
        "चा",
        "हि"
      ],
      [
        "सक",
        "ता"
      ],
      [
        "उ",
        "प"
      ],
      [
        "घ",
        "र"
      ],
      [
        "व",
        "ो"
      ],
      [
        "का",
        "री"
      ],
      [
        "हो",
        "गा"
      ],
      [
        "ि",
        "यों"
      ],
      [
        "क",
        "ृ"
      ],
      [
        "हो",
        "ती"
      ],
      [
        "क्",
        "ति"
      ],
      [
        "द",
        "र्"
      ],
      [
        "उन",
        "के"
      ],
      [
        "उस",
        "के"
      ],
      [
        "कर",
        "ना"
      ],
      [
        "न्",
        "द"
      ],
      [
        "दो",
        "नों"
      ],
      [
        "ब",
        "ो"
      ],
      [
        "ब",
        "ढ़"
      ],
      [
        "सम",
        "य"
      ],
      [
        "ज्",
        "ञ"
      ],
      [
        "ज",
        "े"
      ],
      [
        "ब",
        "द"
      ],
      [
        "ख",
        "े"
      ],
      [
        "स",
        "भी"
      ],
      [
        "स्",
        "व"
      ],
      [
        "हो",
        "ने"
      ],
      [
        "प्र",
        "ा"
      ],
      [
        "क",
        "ल"
      ],
      [
        "भा",
        "व"
      ],
      [
        "अ",
        "नु"
      ],
      [
        "ड",
        "ि"
      ],
      [
        "ब",
        "र"
      ],
      [
        "ज",
        "ु"
      ],
      [
        "य",
        "ी"
      ],
      [
        "इस",
        "से"
      ],
      [
        "रू",
        "प"
      ],
      [
        "उ",
        "त्"
      ],
      [
        "प",
        "ो"
      ],
      [
        "ट",
        "ि"
      ],
      [
        "मे",
        "रे"
      ],
      [
        "चाहि",
        "ए"
      ],
      [
        "क",
        "हा"
      ],
      [
        "नि",
        "र्"
      ],
      [
        "त्र",
        "ी"
      ],
      [
        "इस",
        "ी"
      ],
      [
        "प",
        "हु"
      ],
      [
        "आ",
        "ई"
      ],
      [
        "ठ",
        "ा"
      ],
      [
        "जि",
        "स"
      ],
      [
        "ल",
        "ों"
      ],
      [
        "ौ",
        "र"
      ],
      [
        "श",
        "े"
      ],
      [
        "क्",
        "त"
      ],
      [
        "उन",
        "की"
      ],
      [
        "हू",
        "ँ"
      ],
      [
        "भ",
        "ि"
      ],
      [
        "य",
        "ू"
      ],
      [
        "मु",
        "ख"
      ],
      [
        "त्",
        "व"
      ],
      [
        "सम",
        "झ"
      ],
      [
        "हू",
        "ं"
      ],
      [
        "ग",
        "ि"
      ],
      [
        "पू",
        "र्"
      ],
      [
        "कर",
        "्"
      ],
      [
        "पु",
        "लि"
      ],
      [
        "क",
        "ों"
      ],
      [
        "फ",
        "ी"
      ],
      [
        "का",
        "र्य"
      ],
      [
        "चा",
        "ह"
      ],
      [
        "मैं",
        "ने"
      ],
      [
        "पुलि",
        "स"
      ],
      [
        "ें",
        "गे"
      ],
      [
        "ब",
        "ता"
      ],
      [
        "स्",
        "ता"
      ],
      [
        "प्र",
        "ति"
      ],
      [
        "छ",
        "ो"
      ],
      [
        "प",
        "ार"
      ],
      [
        "म",
        "त"
      ],
      [
        "य",
        "हां"
      ],
      [
        "स्",
        "था"
      ],
      [
        "जा",
        "ती"
      ],
      [
        "पा",
        "स"
      ],
      [
        "ऐ",
        "सा"
      ],
      [
        "ध",
        "ार"
      ],
      [
        "मा",
        "म"
      ],
      [
        "ग",
        "ो"
      ],
      [
        "ड",
        "ी"
      ],
      [
        "लोग",
        "ों"
      ],
      [
        "क",
        "भी"
      ],
      [
        "ध",
        "्य"
      ],
      [
        "ब",
        "ह"
      ],
      [
        "भ",
        "ू"
      ],
      [
        "म",
        "ार"
      ],
      [
        "स",
        "मा"
      ],
      [
        "क्",
        "यों"
      ],
      [
        "दू",
        "स"
      ],
      [
        "ज",
        "ार"
      ],
      [
        "सब",
        "से"
      ],
      [
        "ठ",
        "ी"
      ],
      [
        "स्",
        "वा"
      ],
      [
        "ए",
        "ं"
      ],
      [
        "ब",
        "च्"
      ],
      [
        "सम",
        "्"
      ],
      [
        "ज",
        "ू"
      ],
      [
        "ण",
        "ा"
      ],
      [
        "य",
        "र"
      ],
      [
        "य",
        "ही"
      ],
      [
        "भार",
        "त"
      ],
      [
        "फि",
        "ल्"
      ],
      [
        "ं",
        "स"
      ],
      [
        "सा",
        "म"
      ],
      [
        "्या",
        "दा"
      ],
      [
        "अ",
        "न्"
      ],
      [
        "र",
        "त"
      ],
      [
        "उस",
        "की"
      ],
      [
        "इ",
        "से"
      ],
      [
        "ऐ",
        "से"
      ],
      [
        "ं",
        "क"
      ],
      [
        "अ",
        "व"
      ],
      [
        "प",
        "ै"
      ],
      [
        "प",
        "ता"
      ],
      [
        "जी",
        "वन"
      ],
      [
        "ल",
        "ू"
      ],
      [
        "ह",
        "ों"
      ],
      [
        "र्",
        "थ"
      ],
      [
        "वा",
        "ले"
      ],
      [
        "ग",
        "्र"
      ],
      [
        "छ",
        "े"
      ],
      [
        "कर",
        "ता"
      ],
      [
        "वा",
        "द"
      ],
      [
        "मे",
        "री"
      ],
      [
        "सक",
        "ते"
      ],
      [
        "शु",
        "रू"
      ],
      [
        "द",
        "ान"
      ],
      [
        "इस",
        "का"
      ],
      [
        "अप",
        "ना"
      ],
      [
        "ंग",
        "्रे"
      ],
      [
        "ं",
        "ह"
      ],
      [
        "हो",
        "गी"
      ],
      [
        "न्",
        "न"
      ],
      [
        "द्",
        "ध"
      ],
      [
        "ज",
        "ग"
      ],
      [
        "फ",
        "ा"
      ],
      [
        "ड",
        "े"
      ],
      [
        "भा",
        "ग"
      ],
      [
        "ख",
        "ो"
      ],
      [
        "नि",
        "या"
      ],
      [
        "ज",
        "्यादा"
      ],
      [
        "च",
        "ना"
      ],
      [
        "हा",
        "थ"
      ],
      [
        "वि",
        "श्"
      ],
      [
        "तु",
        "म"
      ],
      [
        "त",
        "ना"
      ],
      [
        "प",
        "न"
      ],
      [
        "कर",
        "ा"
      ],
      [
        "हा",
        "ल"
      ],
      [
        "ब",
        "ंध"
      ],
      [
        "कार",
        "ण"
      ],
      [
        "क",
        "ैसे"
      ],
      [
        "द",
        "्र"
      ],
      [
        "भ",
        "ग"
      ],
      [
        "भ",
        "र"
      ],
      [
        "नि",
        "क"
      ],
      [
        "अच्",
        "छा"
      ],
      [
        "ष",
        "ा"
      ],
      [
        "हो",
        "ते"
      ],
      [
        "प्र",
        "े"
      ],
      [
        "रा",
        "म"
      ],
      [
        "उस",
        "का"
      ],
      [
        "हम",
        "ारे"
      ],
      [
        "पु",
        "र"
      ],
      [
        "सर",
        "कार"
      ],
      [
        "क",
        "ै"
      ],
      [
        "क",
        "ता"
      ],
      [
        "प",
        "ड़"
      ],
      [
        "फिल्",
        "म"
      ],
      [
        "स",
        "र्"
      ],
      [
        "ह",
        "े"
      ],
      [
        "उन",
        "का"
      ],
      [
        "आ",
        "या"
      ],
      [
        "य",
        "ं"
      ],
      [
        "इस",
        "लिए"
      ],
      [
        "स्थ",
        "ि"
      ],
      [
        "अ",
        "ं"
      ],
      [
        "त",
        "ब"
      ],
      [
        "त",
        "ार"
      ],
      [
        "द",
        "ार"
      ],
      [
        "ब",
        "स"
      ],
      [
        "लि",
        "ये"
      ],
      [
        "द्",
        "वार"
      ],
      [
        "अ",
        "भी"
      ],
      [
        "व",
        "ान"
      ],
      [
        "जा",
        "ने"
      ],
      [
        "्ट",
        "ी"
      ],
      [
        "ं",
        "गा"
      ],
      [
        "र्",
        "ट"
      ],
      [
        "क्ष",
        "ण"
      ],
      [
        "त्",
        "म"
      ],
      [
        "उस",
        "ने"
      ],
      [
        "ज्ञ",
        "ान"
      ],
      [
        "स",
        "ह"
      ],
      [
        "का",
        "न"
      ],
      [
        "का",
        "फी"
      ],
      [
        "ज",
        "ै"
      ],
      [
        "मे",
        "रा"
      ],
      [
        "आप",
        "को"
      ],
      [
        "तु",
        "म्"
      ],
      [
        "मं",
        "त्री"
      ],
      [
        "आ",
        "गे"
      ],
      [
        "च",
        "ला"
      ],
      [
        "ज",
        "रू"
      ],
      [
        "प",
        "र्"
      ],
      [
        "म",
        "र"
      ],
      [
        "ले",
        "कर"
      ],
      [
        "लि",
        "ख"
      ],
      [
        "प्",
        "त"
      ],
      [
        "र",
        "ों"
      ],
      [
        "ल",
        "न"
      ],
      [
        "श",
        "्र"
      ],
      [
        "ै",
        "या"
      ],
      [
        "ले",
        "ख"
      ],
      [
        "रा",
        "त"
      ],
      [
        "बै",
        "ठ"
      ],
      [
        "द",
        "्य"
      ],
      [
        "प",
        "ढ़"
      ],
      [
        "र्",
        "म"
      ],
      [
        "क्",
        "स"
      ],
      [
        "इस",
        "में"
      ],
      [
        "वा",
        "ला"
      ],
      [
        "क्ष",
        "े"
      ],
      [
        "अधि",
        "क"
      ],
      [
        "घ",
        "ट"
      ],
      [
        "प",
        "त्"
      ],
      [
        "क",
        "ौ"
      ],
      [
        "ज",
        "र"
      ],
      [
        "ध",
        "ान"
      ],
      [
        "त्र",
        "ा"
      ],
      [
        "न",
        "ो"
      ],
      [
        "व",
        "ं"
      ],
      [
        "ं",
        "प"
      ],
      [
        "सा",
        "ल"
      ],
      [
        "पूर्",
        "ण"
      ],
      [
        "स्थि",
        "ति"
      ],
      [
        "न",
        "ौ"
      ],
      [
        "फ",
        "ो"
      ],
      [
        "य",
        "त"
      ],
      [
        "श",
        "्य"
      ],
      [
        "्",
        "ड"
      ],
      [
        "कर",
        "े"
      ],
      [
        "वा",
        "ली"
      ],
      [
        "ल",
        "य"
      ],
      [
        "ल",
        "गे"
      ],
      [
        "व",
        "ै"
      ],
      [
        "स",
        "ार"
      ],
      [
        "ती",
        "य"
      ],
      [
        "क्र",
        "म"
      ],
      [
        "ओ",
        "र"
      ],
      [
        "ख",
        "़"
      ],
      [
        "ग",
        "ल"
      ],
      [
        "ध",
        "ी"
      ],
      [
        "लग",
        "ता"
      ],
      [
        "द",
        "र"
      ],
      [
        "फ",
        "्"
      ],
      [
        "श",
        "ो"
      ],
      [
        "श",
        "्री"
      ],
      [
        "ती",
        "न"
      ],
      [
        "मा",
        "ण"
      ],
      [
        "तुम्",
        "ह"
      ],
      [
        "सि",
        "ंह"
      ],
      [
        "राज",
        "्य"
      ],
      [
        "अ",
        "भि"
      ],
      [
        "आ",
        "ं"
      ],
      [
        "क",
        "़"
      ],
      [
        "या",
        "द"
      ],
      [
        "वा",
        "स"
      ],
      [
        "दि",
        "खा"
      ],
      [
        "मि",
        "ला"
      ],
      [
        "स्थ",
        "ान"
      ],
      [
        "प",
        "ानी"
      ],
      [
        "फ",
        "ै"
      ],
      [
        "नी",
        "ति"
      ],
      [
        "थी",
        "ं"
      ],
      [
        "खु",
        "द"
      ],
      [
        "द्वार",
        "ा"
      ],
      [
        "इ",
        "ं"
      ],
      [
        "त",
        "ों"
      ],
      [
        "प",
        "्या"
      ],
      [
        "ल",
        "गी"
      ],
      [
        "सक",
        "ती"
      ],
      [
        "त",
        "ैया"
      ],
      [
        "प",
        "त्र"
      ],
      [
        "ह",
        "ार"
      ],
      [
        "दे",
        "खा"
      ],
      [
        "बद",
        "ल"
      ],
      [
        "साम",
        "ने"
      ],
      [
        "ग",
        "ये"
      ],
      [
        "ज",
        "ल"
      ],
      [
        "ध",
        "्या"
      ],
      [
        "य",
        "न"
      ],
      [
        "ल",
        "ड़"
      ],
      [
        "व",
        "ल"
      ],
      [
        "ह",
        "रा"
      ],
      [
        "जा",
        "ते"
      ],
      [
        "जाए",
        "गा"
      ],
      [
        "जान",
        "कारी"
      ],
      [
        "य",
        "हाँ"
      ],
      [
        "ह",
        "में"
      ],
      [
        "शे",
        "ष"
      ],
      [
        "ग",
        "यी"
      ],
      [
        "व",
        "्या"
      ],
      [
        "ने",
        "ता"
      ],
      [
        "वि",
        "चार"
      ],
      [
        "्य",
        "ू"
      ],
      [
        "चु",
        "ना"
      ],
      [
        "लो",
        "क"
      ],
      [
        "त",
        "ं"
      ],
      [
        "भ",
        "व"
      ],
      [
        "वा",
        "ल"
      ],
      [
        "भा",
        "षा"
      ],
      [
        "पू",
        "री"
      ],
      [
        "बार",
        "े"
      ],
      [
        "क",
        "ॉ"
      ],
      [
        "त",
        "न"
      ],
      [
        "व",
        "हां"
      ],
      [
        "ह",
        "न"
      ],
      [
        "जा",
        "ना"
      ],
      [
        "दि",
        "ल"
      ],
      [
        "ल्",
        "ली"
      ],
      [
        "दु",
        "निया"
      ],
      [
        "अ",
        "लग"
      ],
      [
        "ज",
        "ैसे"
      ],
      [
        "द",
        "ौर"
      ],
      [
        "ध",
        "न"
      ],
      [
        "ब",
        "ू"
      ],
      [
        "म",
        "ू"
      ],
      [
        "कर",
        "ी"
      ],
      [
        "कि",
        "स"
      ],
      [
        "हो",
        "ना"
      ],
      [
        "पर",
        "ा"
      ],
      [
        "मि",
        "ले"
      ],
      [
        "हि",
        "ला"
      ],
      [
        "सु",
        "न"
      ],
      [
        "ए",
        "स"
      ],
      [
        "आप",
        "के"
      ],
      [
        "आ",
        "स"
      ],
      [
        "उ",
        "ठा"
      ],
      [
        "क",
        "ट"
      ],
      [
        "क",
        "वि"
      ],
      [
        "ध",
        "र"
      ],
      [
        "ब",
        "्र"
      ],
      [
        "स",
        "द"
      ],
      [
        "रा",
        "ष्ट"
      ],
      [
        "दू",
        "र"
      ],
      [
        "कृ",
        "ति"
      ],
      [
        "खे",
        "ल"
      ],
      [
        "ं",
        "व"
      ],
      [
        "ड",
        "र"
      ],
      [
        "द",
        "म"
      ],
      [
        "त्",
        "या"
      ],
      [
        "खि",
        "ला"
      ],
      [
        "क्षे",
        "त्र"
      ],
      [
        "ज",
        "न्"
      ],
      [
        "फ",
        "ल"
      ],
      [
        "य",
        "द"
      ],
      [
        "बी",
        "च"
      ],
      [
        "व्य",
        "क्ति"
      ],
      [
        "घट",
        "ना"
      ],
      [
        "आ",
        "र"
      ],
      [
        "ट",
        "्र"
      ],
      [
        "ण",
        "ी"
      ],
      [
        "श",
        "ान"
      ],
      [
        "ष",
        "्य"
      ],
      [
        "कर",
        "ण"
      ],
      [
        "कर",
        "ती"
      ],
      [
        "र्",
        "फ"
      ],
      [
        "छ",
        "ी"
      ],
      [
        "ध",
        "ु"
      ],
      [
        "प",
        "ड़ा"
      ],
      [
        "स",
        "न"
      ],
      [
        "स",
        "ल"
      ],
      [
        "सा",
        "इ"
      ],
      [
        "पू",
        "रा"
      ],
      [
        "च",
        "ौ"
      ],
      [
        "त",
        "नी"
      ],
      [
        "ल",
        "ौ"
      ],
      [
        "श",
        "ब्"
      ],
      [
        "वि",
        "द्"
      ],
      [
        "बा",
        "हर"
      ],
      [
        "समा",
        "ज"
      ],
      [
        "ग",
        "त"
      ],
      [
        "ग",
        "्"
      ],
      [
        "घ",
        "ा"
      ],
      [
        "च",
        "ान"
      ],
      [
        "ड",
        "िया"
      ],
      [
        "द",
        "ृ"
      ],
      [
        "प",
        "ड़े"
      ],
      [
        "भ",
        "े"
      ],
      [
        "दि",
        "ल्ली"
      ],
      [
        "बे",
        "ह"
      ],
      [
        "कौ",
        "न"
      ],
      [
        "च",
        "ों"
      ],
      [
        "प",
        "ं"
      ],
      [
        "ब",
        "ड़ी"
      ],
      [
        "भ",
        "ो"
      ],
      [
        "म",
        "हा"
      ],
      [
        "म",
        "ूल"
      ],
      [
        "य",
        "म"
      ],
      [
        "का",
        "ल"
      ],
      [
        "भार",
        "तीय"
      ],
      [
        "माम",
        "ले"
      ],
      [
        "ज",
        "य"
      ],
      [
        "न",
        "ही"
      ],
      [
        "भ",
        "ु"
      ],
      [
        "म",
        "ृ"
      ],
      [
        "म",
        "हिला"
      ],
      [
        "र",
        "ंग"
      ],
      [
        "ल",
        "ें"
      ],
      [
        "व",
        "ृ"
      ],
      [
        "स",
        "ौ"
      ],
      [
        "व्य",
        "व"
      ],
      [
        "आ",
        "द"
      ],
      [
        "क",
        "हीं"
      ],
      [
        "ख",
        "ी"
      ],
      [
        "त",
        "री"
      ],
      [
        "प",
        "क"
      ],
      [
        "का",
        "र्"
      ],
      [
        "का",
        "ंग्रे"
      ],
      [
        "शा",
        "यद"
      ],
      [
        "ंद",
        "र"
      ],
      [
        "सो",
        "च"
      ],
      [
        "ए",
        "वं"
      ],
      [
        "ज",
        "ना"
      ],
      [
        "फ",
        "े"
      ],
      [
        "ल",
        "ब"
      ],
      [
        "इस",
        "की"
      ],
      [
        "दि",
        "र"
      ],
      [
        "हि",
        "ं"
      ],
      [
        "शब्",
        "द"
      ],
      [
        "क",
        "ंप"
      ],
      [
        "च",
        "ो"
      ],
      [
        "थ",
        "ो"
      ],
      [
        "प्र",
        "कार"
      ],
      [
        "मुख",
        "्य"
      ],
      [
        "जू",
        "द"
      ],
      [
        "चुना",
        "व"
      ],
      [
        "अ",
        "न"
      ],
      [
        "ए",
        "म"
      ],
      [
        "त",
        "ने"
      ],
      [
        "या",
        "ं"
      ],
      [
        "सा",
        "हि"
      ],
      [
        "वा",
        "ह"
      ],
      [
        "दे",
        "र"
      ],
      [
        "रह",
        "ता"
      ],
      [
        "कु",
        "ल"
      ],
      [
        "हम",
        "ारी"
      ],
      [
        "ष्ट",
        "ि"
      ],
      [
        "छो",
        "ड़"
      ],
      [
        "ठी",
        "क"
      ],
      [
        "घ",
        "्"
      ],
      [
        "ण",
        "्ड"
      ],
      [
        "ब",
        "ड़ा"
      ],
      [
        "स",
        "त"
      ],
      [
        "ह",
        "्"
      ],
      [
        "पर",
        "े"
      ],
      [
        "वि",
        "क"
      ],
      [
        "वि",
        "शेष"
      ],
      [
        "भा",
        "ई"
      ],
      [
        "क्र",
        "िया"
      ],
      [
        "आ",
        "ए"
      ],
      [
        "ए",
        "ँ"
      ],
      [
        "ग",
        "्रा"
      ],
      [
        "ट",
        "ो"
      ],
      [
        "ब",
        "ल"
      ],
      [
        "आप",
        "की"
      ],
      [
        "सि",
        "र्फ"
      ],
      [
        "विश्",
        "व"
      ],
      [
        "भग",
        "वान"
      ],
      [
        "विद्",
        "या"
      ],
      [
        "कांग्रे",
        "स"
      ],
      [
        "आ",
        "ने"
      ],
      [
        "क",
        "ूल"
      ],
      [
        "ग",
        "र्"
      ],
      [
        "न",
        "ई"
      ],
      [
        "म",
        "ार्"
      ],
      [
        "र",
        "ण"
      ],
      [
        "श",
        "हर"
      ],
      [
        "जा",
        "ये"
      ],
      [
        "दे",
        "व"
      ],
      [
        "हि",
        "न्"
      ],
      [
        "गु",
        "रु"
      ],
      [
        "चु",
        "का"
      ],
      [
        "ष्",
        "ठ"
      ],
      [
        "जन्",
        "म"
      ],
      [
        "अ",
        "स्"
      ],
      [
        "च",
        "ू"
      ],
      [
        "ध",
        "े"
      ],
      [
        "ल",
        "ु"
      ],
      [
        "ल",
        "ॉ"
      ],
      [
        "सा",
        "ह"
      ],
      [
        "वि",
        "का"
      ],
      [
        "पी",
        "छे"
      ],
      [
        "अ",
        "ध्य"
      ],
      [
        "ख",
        "्या"
      ],
      [
        "ल",
        "ं"
      ],
      [
        "ष",
        "ण"
      ],
      [
        "के",
        "वल"
      ],
      [
        "मा",
        "ंग"
      ],
      [
        "पा",
        "ल"
      ],
      [
        "सु",
        "र"
      ],
      [
        "अन्",
        "य"
      ],
      [
        "ख",
        "ू"
      ],
      [
        "च",
        "ले"
      ],
      [
        "झ",
        "ा"
      ],
      [
        "ब",
        "ड़े"
      ],
      [
        "क्",
        "टर"
      ],
      [
        "रह",
        "ते"
      ],
      [
        "सं",
        "स्"
      ],
      [
        "सु",
        "बह"
      ],
      [
        "बच्",
        "चों"
      ],
      [
        "ं",
        "ट"
      ],
      [
        "उ",
        "सी"
      ],
      [
        "य",
        "क"
      ],
      [
        "य",
        "ल"
      ],
      [
        "स",
        "ला"
      ],
      [
        "्",
        "स"
      ],
      [
        "वा",
        "ब"
      ],
      [
        "नि",
        "कल"
      ],
      [
        "रह",
        "ने"
      ],
      [
        "पू",
        "रे"
      ],
      [
        "परि",
        "वार"
      ],
      [
        "पहु",
        "ंच"
      ],
      [
        "गि",
        "र"
      ],
      [
        "भू",
        "मि"
      ],
      [
        "दूस",
        "रे"
      ],
      [
        "आ",
        "रो"
      ],
      [
        "ऐ",
        "सी"
      ],
      [
        "प",
        "द"
      ],
      [
        "य",
        "ता"
      ],
      [
        "ल",
        "ै"
      ],
      [
        "व",
        "ज"
      ],
      [
        "ह",
        "रे"
      ],
      [
        "या",
        "स"
      ],
      [
        "हा",
        "ला"
      ],
      [
        "ंग",
        "े"
      ],
      [
        "द्",
        "धि"
      ],
      [
        "पो",
        "र्ट"
      ],
      [
        "आ",
        "ँ"
      ],
      [
        "का",
        "श"
      ],
      [
        "स्",
        "या"
      ],
      [
        "स्",
        "ते"
      ],
      [
        "पर",
        "ी"
      ],
      [
        "वि",
        "रो"
      ],
      [
        "दे",
        "ने"
      ],
      [
        "मि",
        "त"
      ],
      [
        "सं",
        "ग"
      ],
      [
        "हम",
        "ने"
      ],
      [
        "शा",
        "मिल"
      ],
      [
        "मी",
        "डिया"
      ],
      [
        "खु",
        "श"
      ],
      [
        "जग",
        "ह"
      ],
      [
        "दौर",
        "ान"
      ],
      [
        "कवि",
        "ता"
      ],
      [
        "ध",
        "र्म"
      ],
      [
        "प",
        "सं"
      ],
      [
        "ब",
        "ंद"
      ],
      [
        "ह",
        "मे"
      ],
      [
        "ति",
        "हा"
      ],
      [
        "बि",
        "ना"
      ],
      [
        "पह",
        "ली"
      ],
      [
        "कह",
        "ानी"
      ],
      [
        "वर्",
        "ष"
      ],
      [
        "स्व",
        "यं"
      ],
      [
        "पहु",
        "ं"
      ],
      [
        "विका",
        "स"
      ],
      [
        "अ",
        "ग"
      ],
      [
        "क",
        "ला"
      ],
      [
        "ख",
        "ों"
      ],
      [
        "घ",
        "ु"
      ],
      [
        "च",
        "र्"
      ],
      [
        "च",
        "ित"
      ],
      [
        "प",
        "ति"
      ],
      [
        "प्र",
        "देश"
      ],
      [
        "मा",
        "ँ"
      ],
      [
        "गा",
        "ंव"
      ],
      [
        "राज",
        "नीति"
      ],
      [
        "अधि",
        "कार"
      ],
      [
        "प्रे",
        "म"
      ],
      [
        "आद",
        "मी"
      ],
      [
        "अ",
        "गर"
      ],
      [
        "अ",
        "ंग्रे"
      ],
      [
        "आ",
        "खि"
      ],
      [
        "त",
        "रा"
      ],
      [
        "द",
        "न"
      ],
      [
        "न",
        "र"
      ],
      [
        "र",
        "खा"
      ],
      [
        "स",
        "ही"
      ],
      [
        "ती",
        "स"
      ],
      [
        "बा",
        "जार"
      ],
      [
        "चु",
        "की"
      ],
      [
        "कह",
        "ते"
      ],
      [
        "मह",
        "त्व"
      ],
      [
        "ध्या",
        "न"
      ],
      [
        "ं",
        "कि"
      ],
      [
        "उ",
        "ठ"
      ],
      [
        "प",
        "ट"
      ],
      [
        "स्",
        "तु"
      ],
      [
        "लि",
        "क"
      ],
      [
        "गी",
        "त"
      ],
      [
        "ल्",
        "प"
      ],
      [
        "तर",
        "फ"
      ],
      [
        "्री",
        "य"
      ],
      [
        "तैया",
        "र"
      ],
      [
        "साहि",
        "त्य"
      ],
      [
        "हमे",
        "शा"
      ],
      [
        "आ",
        "व"
      ],
      [
        "आ",
        "ती"
      ],
      [
        "त",
        "था"
      ],
      [
        "ब",
        "च"
      ],
      [
        "व",
        "हाँ"
      ],
      [
        "स",
        "ै"
      ],
      [
        "कि",
        "ए"
      ],
      [
        "वा",
        "ई"
      ],
      [
        "लि",
        "त"
      ],
      [
        "मि",
        "ली"
      ],
      [
        "पि",
        "छ"
      ],
      [
        "अच्",
        "छी"
      ],
      [
        "कार्य",
        "क्रम"
      ],
      [
        "बता",
        "या"
      ],
      [
        "स्ता",
        "न"
      ],
      [
        "जरू",
        "रत"
      ],
      [
        "ब",
        "ने"
      ],
      [
        "ब",
        "चा"
      ],
      [
        "म",
        "ही"
      ],
      [
        "श",
        "क्ति"
      ],
      [
        "ें",
        "द्र"
      ],
      [
        "दि",
        "नों"
      ],
      [
        "त्",
        "ता"
      ],
      [
        "हम",
        "ारा"
      ],
      [
        "आप",
        "का"
      ],
      [
        "मं",
        "दिर"
      ],
      [
        "बच्",
        "चे"
      ],
      [
        "अ",
        "र्थ"
      ],
      [
        "न",
        "या"
      ],
      [
        "न",
        "जर"
      ],
      [
        "म",
        "ना"
      ],
      [
        "ल",
        "क"
      ],
      [
        "स्",
        "वी"
      ],
      [
        "ला",
        "ल"
      ],
      [
        "वि",
        "ष"
      ],
      [
        "मा",
        "ल"
      ],
      [
        "शि",
        "क्षा"
      ],
      [
        "टी",
        "म"
      ],
      [
        "यु",
        "व"
      ],
      [
        "दर्",
        "शन"
      ],
      [
        "टि",
        "ंग"
      ],
      [
        "निर्",
        "माण"
      ],
      [
        "कर्",
        "म"
      ],
      [
        "पार",
        "्टी"
      ],
      [
        "व्यव",
        "स्था"
      ],
      [
        "आ",
        "न"
      ],
      [
        "इ",
        "ला"
      ],
      [
        "ऊ",
        "पर"
      ],
      [
        "क",
        "ू"
      ],
      [
        "क",
        "था"
      ],
      [
        "ज",
        "ल्"
      ],
      [
        "ज",
        "ारी"
      ],
      [
        "त",
        "ू"
      ],
      [
        "प",
        "स"
      ],
      [
        "स",
        "वाल"
      ],
      [
        "के",
        "ट"
      ],
      [
        "कर",
        "ो"
      ],
      [
        "स्",
        "तर"
      ],
      [
        "स्",
        "कूल"
      ],
      [
        "सम",
        "स्या"
      ],
      [
        "िया",
        "ं"
      ],
      [
        "ार्",
        "थ"
      ],
      [
        "ष्",
        "ण"
      ],
      [
        "बो",
        "ल"
      ],
      [
        "प्रा",
        "प्त"
      ],
      [
        "पहु",
        "ँ"
      ],
      [
        "क",
        "त"
      ],
      [
        "ग",
        "ू"
      ],
      [
        "छ",
        "ु"
      ],
      [
        "ज",
        "पा"
      ],
      [
        "ट",
        "ू"
      ],
      [
        "द",
        "ें"
      ],
      [
        "न",
        "ए"
      ],
      [
        "से",
        "वा"
      ],
      [
        "कर",
        "के"
      ],
      [
        "र्",
        "ष"
      ],
      [
        "जा",
        "य"
      ],
      [
        "वि",
        "त"
      ],
      [
        "दे",
        "ना"
      ],
      [
        "पु",
        "रा"
      ],
      [
        "ज़",
        "ा"
      ],
      [
        "म्",
        "मी"
      ],
      [
        "पि",
        "ता"
      ],
      [
        "न्द",
        "्र"
      ],
      [
        "बढ़",
        "ा"
      ],
      [
        "पो",
        "स्ट"
      ],
      [
        "चाह",
        "ता"
      ],
      [
        "तं",
        "त्र"
      ],
      [
        "आ",
        "ता"
      ],
      [
        "इ",
        "न्"
      ],
      [
        "च",
        "ै"
      ],
      [
        "म",
        "नु"
      ],
      [
        "ल",
        "ब्"
      ],
      [
        "व",
        "ही"
      ],
      [
        "या",
        "ँ"
      ],
      [
        "या",
        "त्रा"
      ],
      [
        "र्",
        "ड"
      ],
      [
        "प्र",
        "ि"
      ],
      [
        "न्",
        "य"
      ],
      [
        "दे",
        "ता"
      ],
      [
        "दे",
        "ते"
      ],
      [
        "उस",
        "से"
      ],
      [
        "भा",
        "जपा"
      ],
      [
        "वे",
        "श"
      ],
      [
        "रु",
        "प"
      ],
      [
        "बना",
        "ने"
      ],
      [
        "सू",
        "चना"
      ],
      [
        "यो",
        "जना"
      ],
      [
        "आव",
        "श्य"
      ],
      [
        "आ",
        "म"
      ],
      [
        "आ",
        "ते"
      ],
      [
        "च",
        "ली"
      ],
      [
        "ज",
        "ों"
      ],
      [
        "ट",
        "क"
      ],
      [
        "ब",
        "्रा"
      ],
      [
        "भ",
        "्र"
      ],
      [
        "श",
        "ं"
      ],
      [
        "स",
        "ारे"
      ],
      [
        "जा",
        "ंच"
      ],
      [
        "शा",
        "म"
      ],
      [
        "शि",
        "व"
      ],
      [
        "शि",
        "का"
      ],
      [
        "ंद",
        "गी"
      ],
      [
        "फ़",
        "ि"
      ],
      [
        "करें",
        "गे"
      ],
      [
        "प्या",
        "र"
      ],
      [
        "अ",
        "के"
      ],
      [
        "आ",
        "ये"
      ],
      [
        "त",
        "म"
      ],
      [
        "ध",
        "ू"
      ],
      [
        "ब",
        "ं"
      ],
      [
        "मा",
        "ना"
      ],
      [
        "नी",
        "चे"
      ],
      [
        "हि",
        "त"
      ],
      [
        "स्ट",
        "े"
      ],
      [
        "मौ",
        "त"
      ],
      [
        "उत्",
        "तर"
      ],
      [
        "पूर्",
        "व"
      ],
      [
        "हों",
        "गे"
      ],
      [
        "पसं",
        "द"
      ],
      [
        "ख",
        "्"
      ],
      [
        "ज",
        "वाब"
      ],
      [
        "द",
        "ौ"
      ],
      [
        "म",
        "गर"
      ],
      [
        "ल",
        "त"
      ],
      [
        "श",
        "री"
      ],
      [
        "स",
        "भा"
      ],
      [
        "स्",
        "त्र"
      ],
      [
        "मे",
        "रि"
      ],
      [
        "जि",
        "ला"
      ],
      [
        "आप",
        "ने"
      ],
      [
        "द्",
        "धा"
      ],
      [
        "जन",
        "ता"
      ],
      [
        "यु",
        "क्त"
      ],
      [
        "दूस",
        "री"
      ],
      [
        "ग्र",
        "ह"
      ],
      [
        "हिन्",
        "दी"
      ],
      [
        "चर्",
        "चा"
      ],
      [
        "अंग्रे",
        "जी"
      ],
      [
        "आखि",
        "र"
      ],
      [
        "ं",
        "भ"
      ],
      [
        "अ",
        "दा"
      ],
      [
        "अ",
        "ंत"
      ],
      [
        "उ",
        "दा"
      ],
      [
        "प",
        "ृ"
      ],
      [
        "ह",
        "री"
      ],
      [
        "ह",
        "जार"
      ],
      [
        "ो",
        "र"
      ],
      [
        "।",
        "।"
      ],
      [
        "सा",
        "मान"
      ],
      [
        "पा",
        "कि"
      ],
      [
        "सं",
        "बंध"
      ],
      [
        "चि",
        "त्र"
      ],
      [
        "डा",
        "ल"
      ],
      [
        "उप",
        "लब्"
      ],
      [
        "भि",
        "न्न"
      ],
      [
        "मही",
        "ने"
      ],
      [
        "प",
        "ल"
      ],
      [
        "प",
        "क्ष"
      ],
      [
        "म",
        "द"
      ],
      [
        "य",
        "दि"
      ],
      [
        "ता",
        "ब"
      ],
      [
        "वा",
        "लों"
      ],
      [
        "रा",
        "ब"
      ],
      [
        "वि",
        "धा"
      ],
      [
        "मा",
        "ं"
      ],
      [
        "मा",
        "ह"
      ],
      [
        "दि",
        "ए"
      ],
      [
        "जी",
        "व"
      ],
      [
        "ंग",
        "ल"
      ],
      [
        "देख",
        "ने"
      ],
      [
        "पड़",
        "ता"
      ],
      [
        "लौ",
        "ट"
      ],
      [
        "हिं",
        "दी"
      ],
      [
        "ं",
        "ति"
      ],
      [
        "अ",
        "मेरि"
      ],
      [
        "आ",
        "वा"
      ],
      [
        "आ",
        "यो"
      ],
      [
        "आ",
        "धार"
      ],
      [
        "इ",
        "न्ह"
      ],
      [
        "उ",
        "न्"
      ],
      [
        "उ",
        "द्"
      ],
      [
        "क",
        "ब"
      ],
      [
        "ग",
        "़"
      ],
      [
        "ट",
        "ल"
      ],
      [
        "त",
        "ला"
      ],
      [
        "म",
        "ता"
      ],
      [
        "र",
        "चना"
      ],
      [
        "व",
        "हीं"
      ],
      [
        "स",
        "च"
      ],
      [
        "स",
        "हा"
      ],
      [
        "स",
        "फल"
      ],
      [
        "ू",
        "ँ"
      ],
      [
        "प्र",
        "योग"
      ],
      [
        "न्",
        "या"
      ],
      [
        "रह",
        "ती"
      ],
      [
        "श्",
        "वर"
      ],
      [
        "जो",
        "र"
      ],
      [
        "क्र",
        "ि"
      ],
      [
        "ब्",
        "लॉ"
      ],
      [
        "ंध",
        "ी"
      ],
      [
        "अच्",
        "छे"
      ],
      [
        "ज्ञ",
        "ा"
      ],
      [
        "राष्ट",
        "्रीय"
      ],
      [
        "आ",
        "त"
      ],
      [
        "इ",
        "तना"
      ],
      [
        "ए",
        "ल"
      ],
      [
        "ख",
        "री"
      ],
      [
        "ग",
        "ं"
      ],
      [
        "द",
        "ारी"
      ],
      [
        "व",
        "त"
      ],
      [
        "श",
        "र्"
      ],
      [
        "स",
        "प"
      ],
      [
        "ू",
        "न"
      ],
      [
        "में",
        "ट"
      ],
      [
        "प्र",
        "भा"
      ],
      [
        "शा",
        "दी"
      ],
      [
        "सु",
        "ना"
      ],
      [
        "पू",
        "छ"
      ],
      [
        "रहे",
        "गी"
      ],
      [
        "ची",
        "न"
      ],
      [
        "मौ",
        "जूद"
      ],
      [
        "भाव",
        "ना"
      ],
      [
        "खिला",
        "फ"
      ],
      [
        "अस्",
        "पता"
      ],
      [
        "मनु",
        "ष्य"
      ],
      [
        "ख",
        "ंड"
      ],
      [
        "ग",
        "री"
      ],
      [
        "ट",
        "्रे"
      ],
      [
        "ढ",
        "ा"
      ],
      [
        "फ",
        "र"
      ],
      [
        "व",
        "ैसे"
      ],
      [
        "स",
        "के"
      ],
      [
        "स",
        "ों"
      ],
      [
        "स",
        "ारी"
      ],
      [
        "ह",
        "त"
      ],
      [
        "ता",
        "न"
      ],
      [
        "र्",
        "स"
      ],
      [
        "कि",
        "स्"
      ],
      [
        "ला",
        "भ"
      ],
      [
        "प्र",
        "यास"
      ],
      [
        "सि",
        "क"
      ],
      [
        "शा",
        "सन"
      ],
      [
        "रो",
        "क"
      ],
      [
        "वार",
        "्"
      ],
      [
        "पह",
        "चान"
      ],
      [
        "इन",
        "में"
      ],
      [
        "िया",
        "ँ"
      ],
      [
        "चु",
        "के"
      ],
      [
        "स्थ",
        "ित"
      ],
      [
        "शु",
        "रु"
      ],
      [
        "लगा",
        "तार"
      ],
      [
        "मो",
        "दी"
      ],
      [
        "जाए",
        "गी"
      ],
      [
        "कृ",
        "त"
      ],
      [
        "विश्",
        "वास"
      ],
      [
        "फो",
        "न"
      ],
      [
        "अस्पता",
        "ल"
      ],
      [
        "ग",
        "ति"
      ],
      [
        "घ",
        "ो"
      ],
      [
        "च",
        "म"
      ],
      [
        "ट",
        "्ट"
      ],
      [
        "ट",
        "्टी"
      ],
      [
        "न",
        "ै"
      ],
      [
        "फ",
        "ु"
      ],
      [
        "म",
        "स्"
      ],
      [
        "व",
        "क्त"
      ],
      [
        "ने",
        "ट"
      ],
      [
        "र्",
        "क"
      ],
      [
        "भी",
        "तर"
      ],
      [
        "कि",
        "ल"
      ],
      [
        "सा",
        "त"
      ],
      [
        "ड़",
        "ों"
      ],
      [
        "नि",
        "य"
      ],
      [
        "त्",
        "मा"
      ],
      [
        "सि",
        "ल"
      ],
      [
        "खा",
        "स"
      ],
      [
        "धि",
        "त"
      ],
      [
        "रहे",
        "गा"
      ],
      [
        "ज़",
        "ि"
      ],
      [
        "बात",
        "ें"
      ],
      [
        "चाह",
        "ते"
      ],
      [
        "क्यों",
        "कि"
      ],
      [
        "द्य",
        "ोग"
      ],
      [
        "अध्य",
        "क्ष"
      ],
      [
        "शरी",
        "र"
      ],
      [
        "अ",
        "ति"
      ],
      [
        "उ",
        "च्"
      ],
      [
        "उ",
        "म्मी"
      ],
      [
        "ख",
        "बर"
      ],
      [
        "ड",
        "ॉ"
      ],
      [
        "द",
        "य"
      ],
      [
        "प",
        "ित"
      ],
      [
        "ै",
        "र"
      ],
      [
        "वा",
        "दी"
      ],
      [
        "रा",
        "य"
      ],
      [
        "गा",
        "ंधी"
      ],
      [
        "जि",
        "त"
      ],
      [
        "दो",
        "लन"
      ],
      [
        "शि",
        "श"
      ],
      [
        "रि",
        "या"
      ],
      [
        "रि",
        "श्"
      ],
      [
        "रि",
        "पोर्ट"
      ],
      [
        "रु",
        "ष"
      ],
      [
        "उप",
        "योग"
      ],
      [
        "न्द",
        "र"
      ],
      [
        "दूस",
        "रा"
      ],
      [
        "मुख्य",
        "मंत्री"
      ],
      [
        "भूमि",
        "का"
      ],
      [
        "अ",
        "भ"
      ],
      [
        "इ",
        "तिहा"
      ],
      [
        "क",
        "हां"
      ],
      [
        "ग",
        "म"
      ],
      [
        "छ",
        "ि"
      ],
      [
        "छ",
        "ू"
      ],
      [
        "ज",
        "्य"
      ],
      [
        "ज",
        "मी"
      ],
      [
        "ब",
        "नी"
      ],
      [
        "भ",
        "ारी"
      ],
      [
        "श",
        "क"
      ],
      [
        "ता",
        "ओं"
      ],
      [
        "हो",
        "कर"
      ],
      [
        "प्र",
        "ती"
      ],
      [
        "प्र",
        "भाव"
      ],
      [
        "प्र",
        "मुख"
      ],
      [
        "वि",
        "भाग"
      ],
      [
        "वि",
        "भिन्न"
      ],
      [
        "पा",
        "ंच"
      ],
      [
        "त्र",
        "ों"
      ],
      [
        "उन",
        "से"
      ],
      [
        "खा",
        "ने"
      ],
      [
        "वर्",
        "ण"
      ],
      [
        "चल",
        "ते"
      ],
      [
        "यु",
        "वा"
      ],
      [
        "मत",
        "लब"
      ],
      [
        "माम",
        "ला"
      ],
      [
        "तुम्ह",
        "ें"
      ],
      [
        "खू",
        "ब"
      ],
      [
        "वज",
        "ह"
      ],
      [
        "विरो",
        "ध"
      ],
      [
        "मद",
        "द"
      ],
      [
        "इतिहा",
        "स"
      ],
      [
        "अ",
        "फ"
      ],
      [
        "अ",
        "ने"
      ],
      [
        "आ",
        "दि"
      ],
      [
        "इ",
        "ंत"
      ],
      [
        "क",
        "मी"
      ],
      [
        "ग",
        "ण"
      ],
      [
        "ग",
        "ढ़"
      ],
      [
        "त",
        "य"
      ],
      [
        "म",
        "्र"
      ],
      [
        "म",
        "ारी"
      ],
      [
        "का",
        "ं"
      ],
      [
        "को",
        "शिश"
      ],
      [
        "कि",
        "ताब"
      ],
      [
        "जा",
        "कर"
      ],
      [
        "प्र",
        "त्य"
      ],
      [
        "रा",
        "व"
      ],
      [
        "दि",
        "ख"
      ],
      [
        "सं",
        "भव"
      ],
      [
        "कु",
        "मार"
      ],
      [
        "जि",
        "न"
      ],
      [
        "वे",
        "ब"
      ],
      [
        "पु",
        "रुष"
      ],
      [
        "श्",
        "च"
      ],
      [
        "मिल",
        "ने"
      ],
      [
        "ष्ट",
        "ा"
      ],
      [
        "वर्",
        "ग"
      ],
      [
        "जब",
        "कि"
      ],
      [
        "डि",
        "यो"
      ],
      [
        "ध्य",
        "म"
      ],
      [
        "स्वा",
        "मी"
      ],
      [
        "स्वा",
        "स्थ"
      ],
      [
        "सर्",
        "व"
      ],
      [
        "बेह",
        "द"
      ],
      [
        "सुर",
        "क्षा"
      ],
      [
        "हाला",
        "ंकि"
      ],
      [
        "अ",
        "र्"
      ],
      [
        "अ",
        "ंदर"
      ],
      [
        "आ",
        "कर"
      ],
      [
        "घ",
        "ं"
      ],
      [
        "ज",
        "ें"
      ],
      [
        "ट",
        "ै"
      ],
      [
        "ठ",
        "ि"
      ],
      [
        "थ",
        "ि"
      ],
      [
        "कर",
        "वा"
      ],
      [
        "क्",
        "ट"
      ],
      [
        "ला",
        "इ"
      ],
      [
        "ले",
        "ट"
      ],
      [
        "प्र",
        "ो"
      ],
      [
        "त्",
        "त"
      ],
      [
        "सम",
        "ान"
      ],
      [
        "जि",
        "ंदगी"
      ],
      [
        "देख",
        "ते"
      ],
      [
        "दु",
        "र्"
      ],
      [
        "चे",
        "हरे"
      ],
      [
        "दर्",
        "ज"
      ],
      [
        "बंध",
        "न"
      ],
      [
        "राष्ट",
        "्र"
      ],
      [
        "दृ",
        "ष्टि"
      ],
      [
        "उम्मी",
        "द"
      ],
      [
        "क",
        "हाँ"
      ],
      [
        "द",
        "स"
      ],
      [
        "द",
        "बा"
      ],
      [
        "न",
        "गर"
      ],
      [
        "ब",
        "ॉ"
      ],
      [
        "ब",
        "हा"
      ],
      [
        "ब",
        "न्"
      ],
      [
        "म",
        "ण"
      ],
      [
        "म",
        "ल"
      ],
      [
        "म",
        "ंड"
      ],
      [
        "स",
        "व"
      ],
      [
        "स",
        "चि"
      ],
      [
        "े",
        "क"
      ],
      [
        "या",
        "नी"
      ],
      [
        "ना",
        "थ"
      ],
      [
        "सम",
        "र्थ"
      ],
      [
        "कार",
        "ों"
      ],
      [
        "हि",
        "स्"
      ],
      [
        "ल्",
        "ला"
      ],
      [
        "सु",
        "धार"
      ],
      [
        "फि",
        "ल"
      ],
      [
        "गु",
        "ण"
      ],
      [
        "स्ट",
        "र"
      ],
      [
        "बना",
        "या"
      ],
      [
        "कम",
        "रे"
      ],
      [
        "सम्",
        "मान"
      ],
      [
        "जै",
        "सा"
      ],
      [
        "जरू",
        "री"
      ],
      [
        "सद",
        "स्"
      ],
      [
        "साइ",
        "ट"
      ],
      [
        "साह",
        "ब"
      ],
      [
        "महत्व",
        "पूर्ण"
      ],
      [
        "शिका",
        "यत"
      ],
      [
        "पाकि",
        "स्तान"
      ],
      [
        "उपलब्",
        "ध"
      ],
      [
        "इ",
        "ल"
      ],
      [
        "क",
        "ल्प"
      ],
      [
        "च",
        "ढ़"
      ],
      [
        "द",
        "ल"
      ],
      [
        "म",
        "र्"
      ],
      [
        "य",
        "ें"
      ],
      [
        "स",
        "न्"
      ],
      [
        "ह",
        "ल"
      ],
      [
        "ि",
        "श"
      ],
      [
        "ें",
        "ट"
      ],
      [
        "या",
        "न"
      ],
      [
        "भी",
        "र"
      ],
      [
        "ला",
        "वा"
      ],
      [
        "जा",
        "ति"
      ],
      [
        "प्र",
        "धान"
      ],
      [
        "रा",
        "हु"
      ],
      [
        "नी",
        "य"
      ],
      [
        "मि",
        "क"
      ],
      [
        "मु",
        "स्"
      ],
      [
        "ंग",
        "ी"
      ],
      [
        "दो",
        "स्त"
      ],
      [
        "बि",
        "ल्"
      ],
      [
        "इन",
        "का"
      ],
      [
        "परि",
        "णा"
      ],
      [
        "दर्",
        "द"
      ],
      [
        "समझ",
        "ा"
      ],
      [
        "लड़",
        "की"
      ],
      [
        "कंप",
        "नी"
      ],
      [
        "परे",
        "शान"
      ],
      [
        "पिछ",
        "ले"
      ],
      [
        "स्वास्थ",
        "्य"
      ],
      [
        "अ",
        "त्य"
      ],
      [
        "आ",
        "ग"
      ],
      [
        "आ",
        "त्म"
      ],
      [
        "इ",
        "क"
      ],
      [
        "इ",
        "ंड"
      ],
      [
        "त",
        "भी"
      ],
      [
        "न",
        "ज़"
      ],
      [
        "न",
        "ारा"
      ],
      [
        "प",
        "ड़ी"
      ],
      [
        "ब",
        "ई"
      ],
      [
        "य",
        "हीं"
      ],
      [
        "स",
        "मु"
      ],
      [
        "स",
        "च्"
      ],
      [
        "ह",
        "वा"
      ],
      [
        "ो",
        "ह"
      ],
      [
        "स्",
        "तक"
      ],
      [
        "स्",
        "त्री"
      ],
      [
        "भी",
        "ड़"
      ],
      [
        "ला",
        "इन"
      ],
      [
        "वि",
        "वाह"
      ],
      [
        "ड़",
        "क"
      ],
      [
        "दि",
        "यों"
      ],
      [
        "त्र",
        "ि"
      ],
      [
        "जि",
        "म्"
      ],
      [
        "सि",
        "र"
      ],
      [
        "पू",
        "र"
      ],
      [
        "मिल",
        "ता"
      ],
      [
        "मिल",
        "ती"
      ],
      [
        "पे",
        "श"
      ],
      [
        "पत्",
        "थ"
      ],
      [
        "करे",
        "गा"
      ],
      [
        "दिखा",
        "ई"
      ],
      [
        "थो",
        "ड़ी"
      ],
      [
        "अने",
        "क"
      ],
      [
        "परिणा",
        "म"
      ],
      [
        "ँ",
        "व"
      ],
      [
        "अ",
        "लावा"
      ],
      [
        "क",
        "ेंद्र"
      ],
      [
        "ग",
        "्री"
      ],
      [
        "च",
        "ंद"
      ],
      [
        "ज",
        "मा"
      ],
      [
        "ट",
        "ों"
      ],
      [
        "त",
        "ः"
      ],
      [
        "त",
        "ृ"
      ],
      [
        "ध",
        "्"
      ],
      [
        "ब",
        "ल्"
      ],
      [
        "म",
        "न्"
      ],
      [
        "स्",
        "ती"
      ],
      [
        "पर",
        "ं"
      ],
      [
        "ला",
        "ई"
      ],
      [
        "सा",
        "य"
      ],
      [
        "ले",
        "ने"
      ],
      [
        "वा",
        "स्त"
      ],
      [
        "वि",
        "ज्ञान"
      ],
      [
        "न्",
        "तु"
      ],
      [
        "बा",
        "की"
      ],
      [
        "ति",
        "क"
      ],
      [
        "सी",
        "मा"
      ],
      [
        "सं",
        "घ"
      ],
      [
        "जि",
        "क"
      ],
      [
        "सि",
        "द्ध"
      ],
      [
        "वे",
        "द"
      ],
      [
        "शि",
        "त"
      ],
      [
        "इन",
        "के"
      ],
      [
        "चु",
        "प"
      ],
      [
        "लग",
        "भग"
      ],
      [
        "खु",
        "शी"
      ],
      [
        "सू",
        "र"
      ],
      [
        "चल",
        "ता"
      ],
      [
        "जान",
        "ते"
      ],
      [
        "बै",
        "ंक"
      ],
      [
        "वर",
        "ण"
      ],
      [
        "इसी",
        "लिए"
      ],
      [
        "धार",
        "ण"
      ],
      [
        "पै",
        "दा"
      ],
      [
        "त्म",
        "क"
      ],
      [
        "बैठ",
        "क"
      ],
      [
        "करी",
        "ब"
      ],
      [
        "सल",
        "मान"
      ],
      [
        "अमेरि",
        "का"
      ],
      [
        "इन्ह",
        "ें"
      ],
      [
        "गं",
        "भीर"
      ],
      [
        "ं",
        "ता"
      ],
      [
        "ं",
        "दा"
      ],
      [
        "अ",
        "चान"
      ],
      [
        "ए",
        "न"
      ],
      [
        "ख",
        "ड़ा"
      ],
      [
        "ट",
        "न"
      ],
      [
        "न",
        "व"
      ],
      [
        "ब",
        "र्"
      ],
      [
        "ब",
        "जे"
      ],
      [
        "म",
        "जब"
      ],
      [
        "र",
        "ोग"
      ],
      [
        "ल",
        "क्ष"
      ],
      [
        "श",
        "्रे"
      ],
      [
        "स",
        "त्य"
      ],
      [
        "कि",
        "तने"
      ],
      [
        "ान",
        "ि"
      ],
      [
        "ला",
        "या"
      ],
      [
        "प्र",
        "दान"
      ],
      [
        "वि",
        "धि"
      ],
      [
        "वि",
        "देश"
      ],
      [
        "मा",
        "ध्यम"
      ],
      [
        "्य",
        "ता"
      ],
      [
        "पा",
        "ठ"
      ],
      [
        "सं",
        "ख्या"
      ],
      [
        "जी",
        "त"
      ],
      [
        "मै",
        "ने"
      ],
      [
        "जि",
        "से"
      ],
      [
        "शि",
        "क्ष"
      ],
      [
        "मान",
        "व"
      ],
      [
        "वी",
        "र"
      ],
      [
        "देख",
        "कर"
      ],
      [
        "पे",
        "ट"
      ],
      [
        "अनु",
        "सार"
      ],
      [
        "पढ़",
        "ा"
      ],
      [
        "आं",
        "दोलन"
      ],
      [
        "आस",
        "ान"
      ],
      [
        "भो",
        "जन"
      ],
      [
        "आन",
        "ंद"
      ],
      [
        "राहु",
        "ल"
      ],
      [
        "जिम्",
        "मे"
      ],
      [
        "अचान",
        "क"
      ],
      [
        "मजब",
        "ू"
      ],
      [
        "उ",
        "पा"
      ],
      [
        "ख",
        "त्म"
      ],
      [
        "च",
        "र"
      ],
      [
        "ज",
        "ता"
      ],
      [
        "ड",
        "ू"
      ],
      [
        "न",
        "ज"
      ],
      [
        "प",
        "ण"
      ],
      [
        "भ",
        "ूल"
      ],
      [
        "म",
        "री"
      ],
      [
        "श",
        "व"
      ],
      [
        "ष",
        "ित"
      ],
      [
        "ौ",
        "ल"
      ],
      [
        "ना",
        "ग"
      ],
      [
        "र्",
        "ति"
      ],
      [
        "सा",
        "मा"
      ],
      [
        "प्र",
        "क्रिया"
      ],
      [
        "प्र",
        "काश"
      ],
      [
        "प्र",
        "स्तु"
      ],
      [
        "ते",
        "ज"
      ],
      [
        "दे",
        "ती"
      ],
      [
        "दि",
        "व"
      ],
      [
        "नि",
        "का"
      ],
      [
        "मि",
        "त्र"
      ],
      [
        "मु",
        "ं"
      ],
      [
        "मु",
        "ला"
      ],
      [
        "उस",
        "में"
      ],
      [
        "दा",
        "य"
      ],
      [
        "सि",
        "त"
      ],
      [
        "च्",
        "छा"
      ],
      [
        "टी",
        "वी"
      ],
      [
        "गु",
        "ज"
      ],
      [
        "ब्",
        "ला"
      ],
      [
        "सू",
        "स"
      ],
      [
        "मह",
        "सूस"
      ],
      [
        "अधि",
        "कारी"
      ],
      [
        "मौ",
        "के"
      ],
      [
        "खो",
        "ल"
      ],
      [
        "नौ",
        "करी"
      ],
      [
        "गल",
        "त"
      ],
      [
        "मूल",
        "्य"
      ],
      [
        "आरो",
        "पी"
      ],
      [
        "विष",
        "य"
      ],
      [
        "पहुँ",
        "च"
      ],
      [
        "अ",
        "क्"
      ],
      [
        "इ",
        "तनी"
      ],
      [
        "उ",
        "ल"
      ],
      [
        "उ",
        "तर"
      ],
      [
        "ए",
        "क्"
      ],
      [
        "ज",
        "हां"
      ],
      [
        "झ",
        "ू"
      ],
      [
        "थ",
        "म"
      ],
      [
        "ब",
        "त"
      ],
      [
        "ब",
        "धा"
      ],
      [
        "म",
        "ध्य"
      ],
      [
        "य",
        "दा"
      ],
      [
        "व",
        "जूद"
      ],
      [
        "श",
        "ू"
      ],
      [
        "स",
        "ारा"
      ],
      [
        "ह",
        "ॉ"
      ],
      [
        "ह",
        "त्या"
      ],
      [
        "ि",
        "ता"
      ],
      [
        "की",
        "मत"
      ],
      [
        "कर",
        "नी"
      ],
      [
        "ला",
        "ने"
      ],
      [
        "सा",
        "ं"
      ],
      [
        "वा",
        "पस"
      ],
      [
        "रा",
        "स्ता"
      ],
      [
        "तो",
        "ड़"
      ],
      [
        "पा",
        "या"
      ],
      [
        "त्",
        "ति"
      ],
      [
        "मे",
        "ल"
      ],
      [
        "चा",
        "य"
      ],
      [
        "खा",
        "ली"
      ],
      [
        "रो",
        "ज"
      ],
      [
        "बि",
        "ल"
      ],
      [
        "शु",
        "भ"
      ],
      [
        "बना",
        "ए"
      ],
      [
        "रख",
        "ने"
      ],
      [
        "कृ",
        "ष्ण"
      ],
      [
        "स्व",
        "रूप"
      ],
      [
        "अनु",
        "भव"
      ],
      [
        "हाथ",
        "ों"
      ],
      [
        "यं",
        "त्र"
      ],
      [
        "अं",
        "तर"
      ],
      [
        "कान",
        "ून"
      ],
      [
        "पत्",
        "नी"
      ],
      [
        "तुम्ह",
        "ारे"
      ],
      [
        "व्या",
        "पार"
      ],
      [
        "विद्या",
        "लय"
      ],
      [
        "पहुं",
        "चे"
      ],
      [
        "जल्",
        "दी"
      ],
      [
        "प्रि",
        "य"
      ],
      [
        "आवश्य",
        "कता"
      ],
      [
        "ष्टा",
        "चार"
      ],
      [
        "अ",
        "सर"
      ],
      [
        "आ",
        "इ"
      ],
      [
        "उ",
        "म्र"
      ],
      [
        "क",
        "म्"
      ],
      [
        "ख",
        "ें"
      ],
      [
        "ग",
        "ार"
      ],
      [
        "घ",
        "ू"
      ],
      [
        "ज",
        "हाँ"
      ],
      [
        "ध",
        "ो"
      ],
      [
        "ध",
        "ारा"
      ],
      [
        "ल",
        "ड"
      ],
      [
        "व",
        "ती"
      ],
      [
        "स",
        "दा"
      ],
      [
        "ह",
        "ं"
      ],
      [
        "से",
        "ना"
      ],
      [
        "कि",
        "ये"
      ],
      [
        "सा",
        "ंस"
      ],
      [
        "जा",
        "ओ"
      ],
      [
        "जा",
        "म"
      ],
      [
        "ले",
        "ज"
      ],
      [
        "ले",
        "ते"
      ],
      [
        "प्र",
        "का"
      ],
      [
        "प्र",
        "ार"
      ],
      [
        "ते",
        "रे"
      ],
      [
        "दे",
        "वी"
      ],
      [
        "गा",
        "ड़ी"
      ],
      [
        "ति",
        "म"
      ],
      [
        "नि",
        "यम"
      ],
      [
        "मु",
        "द्"
      ],
      [
        "मु",
        "ंह"
      ],
      [
        "मु",
        "सलमान"
      ],
      [
        "सम",
        "ी"
      ],
      [
        "बि",
        "क"
      ],
      [
        "ज़",
        "ी"
      ],
      [
        "क्र",
        "ी"
      ],
      [
        "क्र",
        "ो"
      ],
      [
        "चार",
        "ों"
      ],
      [
        "कह",
        "ना"
      ],
      [
        "खु",
        "ला"
      ],
      [
        "मन",
        "ो"
      ],
      [
        "रख",
        "ना"
      ],
      [
        "शी",
        "ल"
      ],
      [
        "चाहि",
        "ये"
      ],
      [
        "न्द",
        "गी"
      ],
      [
        "चाह",
        "े"
      ],
      [
        "अव",
        "सर"
      ],
      [
        "बैठ",
        "े"
      ],
      [
        "मिले",
        "गा"
      ],
      [
        "बेह",
        "तर"
      ],
      [
        "परी",
        "क्षा"
      ],
      [
        "अग",
        "ले"
      ],
      [
        "बच",
        "पन"
      ],
      [
        "ब्लॉ",
        "ग"
      ],
      [
        "प्रभा",
        "वित"
      ],
      [
        "इंत",
        "जार"
      ],
      [
        "घं",
        "टे"
      ],
      [
        "बधा",
        "ई"
      ],
      [
        "अ",
        "परा"
      ],
      [
        "ऊ",
        "ँ"
      ],
      [
        "ए",
        "फ"
      ],
      [
        "क",
        "दम"
      ],
      [
        "ग",
        "ें"
      ],
      [
        "झ",
        "ु"
      ],
      [
        "ठ",
        "न"
      ],
      [
        "ठ",
        "े"
      ],
      [
        "त",
        "ारी"
      ],
      [
        "द",
        "क्ष"
      ],
      [
        "द",
        "ेंगे"
      ],
      [
        "न",
        "दी"
      ],
      [
        "फ",
        "ूल"
      ],
      [
        "ब",
        "ढ"
      ],
      [
        "भ",
        "क्ति"
      ],
      [
        "म",
        "ंगल"
      ],
      [
        "र",
        "वि"
      ],
      [
        "ष",
        "ि"
      ],
      [
        "ू",
        "ं"
      ],
      [
        "का",
        "त"
      ],
      [
        "या",
        "लय"
      ],
      [
        "ता",
        "कत"
      ],
      [
        "कि",
        "यों"
      ],
      [
        "सा",
        "स"
      ],
      [
        "लि",
        "यों"
      ],
      [
        "प्र",
        "स्ता"
      ],
      [
        "रा",
        "ह"
      ],
      [
        "रा",
        "जा"
      ],
      [
        "न्",
        "यू"
      ],
      [
        "मा",
        "ता"
      ],
      [
        "बा",
        "ल"
      ],
      [
        "नि",
        "जी"
      ],
      [
        "पा",
        "ई"
      ],
      [
        "मु",
        "श्"
      ],
      [
        "क्ष",
        "मता"
      ],
      [
        "दी",
        "प"
      ],
      [
        "दा",
        "स"
      ],
      [
        "पू",
        "जा"
      ],
      [
        "हर",
        "ण"
      ],
      [
        "तु",
        "र"
      ],
      [
        "ज़",
        "ार"
      ],
      [
        "ज़",
        "रू"
      ],
      [
        "सर",
        "कारी"
      ],
      [
        "चि",
        "ंता"
      ],
      [
        "मह",
        "ान"
      ],
      [
        "जिस",
        "के"
      ],
      [
        "सह",
        "योग"
      ],
      [
        "इं",
        "टर"
      ],
      [
        "मार्",
        "ग"
      ],
      [
        "अधिकार",
        "ियों"
      ],
      [
        "जमी",
        "न"
      ],
      [
        "फिल",
        "हाल"
      ],
      [
        "सामा",
        "जिक"
      ],
      [
        "ं",
        "तर"
      ],
      [
        "अ",
        "ंग"
      ],
      [
        "अ",
        "द्"
      ],
      [
        "अ",
        "सल"
      ],
      [
        "आ",
        "शा"
      ],
      [
        "ई",
        "श्वर"
      ],
      [
        "क",
        "ठि"
      ],
      [
        "ख",
        "र"
      ],
      [
        "ख",
        "ड़े"
      ],
      [
        "ट",
        "्"
      ],
      [
        "ट",
        "ने"
      ],
      [
        "त",
        "ें"
      ],
      [
        "द",
        "वा"
      ],
      [
        "ध",
        "ानी"
      ],
      [
        "न",
        "ल"
      ],
      [
        "प",
        "ैसे"
      ],
      [
        "प",
        "र्य"
      ],
      [
        "प",
        "न्न"
      ],
      [
        "भ",
        "वि"
      ],
      [
        "ल",
        "र"
      ],
      [
        "व",
        "री"
      ],
      [
        "स",
        "्र"
      ],
      [
        "स",
        "ान"
      ],
      [
        "स",
        "त्ता"
      ],
      [
        "्",
        "त"
      ],
      [
        "को",
        "र्ट"
      ],
      [
        "कि",
        "त्"
      ],
      [
        "हो",
        "नी"
      ],
      [
        "सा",
        "ई"
      ],
      [
        "सा",
        "फ"
      ],
      [
        "प्र",
        "माण"
      ],
      [
        "रा",
        "शि"
      ],
      [
        "ते",
        "ल"
      ],
      [
        "न्",
        "त"
      ],
      [
        "गा",
        "ँव"
      ],
      [
        "रह",
        "ना"
      ],
      [
        "ल्",
        "ड"
      ],
      [
        "खा",
        "ना"
      ],
      [
        "पु",
        "स्तक"
      ],
      [
        "बि",
        "ज"
      ],
      [
        "बि",
        "त"
      ],
      [
        "इन",
        "की"
      ],
      [
        "देख",
        "ी"
      ],
      [
        "मं",
        "त्र"
      ],
      [
        "चि",
        "कित्"
      ],
      [
        "मो",
        "बा"
      ],
      [
        "मो",
        "हन"
      ],
      [
        "परि",
        "वर्"
      ],
      [
        "मौ",
        "सम"
      ],
      [
        "जे",
        "ल"
      ],
      [
        "बद",
        "ला"
      ],
      [
        "प्रा",
        "ण"
      ],
      [
        "अन्",
        "ना"
      ],
      [
        "श्र",
        "म"
      ],
      [
        "श्र",
        "द्धा"
      ],
      [
        "फै",
        "सला"
      ],
      [
        "किस",
        "ान"
      ],
      [
        "ब्र",
        "ह्"
      ],
      [
        "कृति",
        "क"
      ],
      [
        "ट्र",
        "ो"
      ],
      [
        "दृ",
        "श्य"
      ],
      [
        "गिर",
        "फ्"
      ],
      [
        "अदा",
        "लत"
      ],
      [
        "क्रि",
        "केट"
      ],
      [
        "ं",
        "ज"
      ],
      [
        "आ",
        "देश"
      ],
      [
        "आ",
        "त्मा"
      ],
      [
        "उ",
        "ड़"
      ],
      [
        "च",
        "रण"
      ],
      [
        "ज",
        "ंग"
      ],
      [
        "ट",
        "का"
      ],
      [
        "ढ",
        "े"
      ],
      [
        "द",
        "ों"
      ],
      [
        "फ",
        "्र"
      ],
      [
        "स",
        "वार"
      ],
      [
        "स",
        "न्न"
      ],
      [
        "ह",
        "ल्"
      ],
      [
        "सा",
        "ध"
      ],
      [
        "ले",
        "ना"
      ],
      [
        "लि",
        "ंग"
      ],
      [
        "लि",
        "खा"
      ],
      [
        "प्र",
        "बंधन"
      ],
      [
        "मा",
        "त्र"
      ],
      [
        "बा",
        "जी"
      ],
      [
        "बा",
        "वजूद"
      ],
      [
        "नि",
        "काल"
      ],
      [
        "त्",
        "कार"
      ],
      [
        "सु",
        "ख"
      ],
      [
        "सु",
        "ंदर"
      ],
      [
        "बी",
        "र"
      ],
      [
        "चार",
        "ण"
      ],
      [
        "ंड",
        "ा"
      ],
      [
        "ंड",
        "े"
      ],
      [
        "गई",
        "ं"
      ],
      [
        "लग",
        "ती"
      ],
      [
        "रु",
        "क"
      ],
      [
        "टा",
        "इ"
      ],
      [
        "वर्",
        "त"
      ],
      [
        "उत्",
        "पा"
      ],
      [
        "जिस",
        "का"
      ],
      [
        "जिस",
        "में"
      ],
      [
        "जिस",
        "से"
      ],
      [
        "करा",
        "या"
      ],
      [
        "मृ",
        "त्य"
      ],
      [
        "महिला",
        "ओं"
      ],
      [
        "युव",
        "क"
      ],
      [
        "भ्र",
        "ष्टाचार"
      ],
      [
        "अके",
        "ले"
      ],
      [
        "सहा",
        "यता"
      ],
      [
        "खरी",
        "द"
      ],
      [
        "पत्थ",
        "र"
      ],
      [
        "मुश्",
        "किल"
      ],
      [
        "भवि",
        "ष्य"
      ],
      [
        "अ",
        "स"
      ],
      [
        "अ",
        "नि"
      ],
      [
        "इ",
        "तने"
      ],
      [
        "इ",
        "च्छा"
      ],
      [
        "ऊ",
        "ं"
      ],
      [
        "ए",
        "गा"
      ],
      [
        "क",
        "ही"
      ],
      [
        "ख",
        "राब"
      ],
      [
        "न",
        "ती"
      ],
      [
        "प",
        "ौ"
      ],
      [
        "ब",
        "ज"
      ],
      [
        "ब",
        "यान"
      ],
      [
        "श",
        "नि"
      ],
      [
        "स",
        "ृ"
      ],
      [
        "स",
        "जा"
      ],
      [
        "ह",
        "क"
      ],
      [
        "ह",
        "ें"
      ],
      [
        "ि",
        "का"
      ],
      [
        "े",
        "श"
      ],
      [
        "ना",
        "क"
      ],
      [
        "स्",
        "प"
      ],
      [
        "क्",
        "का"
      ],
      [
        "क्",
        "शन"
      ],
      [
        "वा",
        "सी"
      ],
      [
        "प्र",
        "कृति"
      ],
      [
        "प्र",
        "थम"
      ],
      [
        "प्र",
        "सन्न"
      ],
      [
        "वि",
        "वे"
      ],
      [
        "सं",
        "चा"
      ],
      [
        "सं",
        "तु"
      ],
      [
        "हि",
        "र"
      ],
      [
        "सु",
        "विधा"
      ],
      [
        "उन",
        "में"
      ],
      [
        "श्",
        "न"
      ],
      [
        "सब",
        "के"
      ],
      [
        "बे",
        "टी"
      ],
      [
        "शु",
        "क्र"
      ],
      [
        "लगा",
        "या"
      ],
      [
        "काम",
        "ना"
      ],
      [
        "यु",
        "ग"
      ],
      [
        "फ़",
        "ा"
      ],
      [
        "बन",
        "ने"
      ],
      [
        "बो",
        "र्ड"
      ],
      [
        "चाह",
        "ती"
      ],
      [
        "छो",
        "टी"
      ],
      [
        "हाल",
        "त"
      ],
      [
        "हे",
        "तु"
      ],
      [
        "अं",
        "तिम"
      ],
      [
        "जै",
        "सी"
      ],
      [
        "पर्",
        "क"
      ],
      [
        "पत्",
        "ति"
      ],
      [
        "नेता",
        "ओं"
      ],
      [
        "्यू",
        "टर"
      ],
      [
        "स्ते",
        "माल"
      ],
      [
        "पुरा",
        "ने"
      ],
      [
        "पृ",
        "ष्ठ"
      ],
      [
        "तला",
        "श"
      ],
      [
        "गरी",
        "ब"
      ],
      [
        "उच्",
        "चारण"
      ],
      [
        "श्च",
        "र्य"
      ],
      [
        "नज़",
        "र"
      ],
      [
        "वर्त",
        "मान"
      ],
      [
        "मृत्य",
        "ु"
      ],
      [
        "अ",
        "ख"
      ],
      [
        "अ",
        "हम"
      ],
      [
        "आ",
        "श्चर्य"
      ],
      [
        "इ",
        "यों"
      ],
      [
        "इ",
        "स्तेमाल"
      ],
      [
        "ए",
        "का"
      ],
      [
        "ख",
        "ान"
      ],
      [
        "ग",
        "हरा"
      ],
      [
        "च",
        "क"
      ],
      [
        "च",
        "य"
      ],
      [
        "ज",
        "म"
      ],
      [
        "ड",
        "ो"
      ],
      [
        "ड",
        "्"
      ],
      [
        "त",
        "स्वी"
      ],
      [
        "भ",
        "रो"
      ],
      [
        "र",
        "स"
      ],
      [
        "श",
        "ल"
      ],
      [
        "ह",
        "ट"
      ],
      [
        "ह",
        "ृ"
      ],
      [
        "स्",
        "ना"
      ],
      [
        "कि",
        "तना"
      ],
      [
        "कि",
        "तनी"
      ],
      [
        "ला",
        "स"
      ],
      [
        "सा",
        "द"
      ],
      [
        "हा",
        "ई"
      ],
      [
        "प्र",
        "ी"
      ],
      [
        "रा",
        "स्ते"
      ],
      [
        "वि",
        "न"
      ],
      [
        "वि",
        "धान"
      ],
      [
        "गा",
        "य"
      ],
      [
        "नि",
        "यों"
      ],
      [
        "नि",
        "शा"
      ],
      [
        "नि",
        "श्"
      ],
      [
        "सं",
        "सार"
      ],
      [
        "सं",
        "गीत"
      ],
      [
        "मै",
        "च"
      ],
      [
        "ल्",
        "स"
      ],
      [
        "शा",
        "ल"
      ],
      [
        "दो",
        "ष"
      ],
      [
        "दो",
        "नो"
      ],
      [
        "पू",
        "छा"
      ],
      [
        "हर",
        "ि"
      ],
      [
        "शि",
        "कार"
      ],
      [
        "बि",
        "हार"
      ],
      [
        "बे",
        "टा"
      ],
      [
        "बात",
        "ची"
      ],
      [
        "िया",
        "न"
      ],
      [
        "बार",
        "िश"
      ],
      [
        "वी",
        "ं"
      ],
      [
        "खु",
        "ल"
      ],
      [
        "सो",
        "चा"
      ],
      [
        "यो",
        "गी"
      ],
      [
        "रख",
        "ें"
      ],
      [
        "निर्",
        "देश"
      ],
      [
        "पै",
        "सा"
      ],
      [
        "जग",
        "त"
      ],
      [
        "करे",
        "गी"
      ],
      [
        "तैया",
        "री"
      ],
      [
        "ब्र",
        "ि"
      ],
      [
        "घा",
        "यल"
      ],
      [
        "अध्य",
        "यन"
      ],
      [
        "आँ",
        "खों"
      ],
      [
        "स्वी",
        "कार"
      ],
      [
        "बं",
        "धित"
      ],
      [
        "उदा",
        "हरण"
      ],
      [
        "सामान",
        "्य"
      ],
      [
        "माह",
        "ौल"
      ],
      [
        "सफल",
        "ता"
      ],
      [
        "वार्",
        "ता"
      ],
      [
        "प्रत्य",
        "ेक"
      ],
      [
        "बिल्",
        "कुल"
      ],
      [
        "वास्त",
        "व"
      ],
      [
        "दिव",
        "स"
      ],
      [
        "मुं",
        "बई"
      ],
      [
        "दक्ष",
        "ि"
      ],
      [
        "परिवर्",
        "तन"
      ],
      [
        "बातची",
        "त"
      ],
      [
        "अ",
        "जी"
      ],
      [
        "उ",
        "ड़ा"
      ],
      [
        "छ",
        "ह"
      ],
      [
        "झ",
        "े"
      ],
      [
        "ध",
        "न्य"
      ],
      [
        "न",
        "ें"
      ],
      [
        "प",
        "ॉ"
      ],
      [
        "फ",
        "र्"
      ],
      [
        "फ",
        "्ट"
      ],
      [
        "ब",
        "ारी"
      ],
      [
        "भ",
        "री"
      ],
      [
        "म",
        "क"
      ],
      [
        "र",
        "ै"
      ],
      [
        "र",
        "ान"
      ],
      [
        "ल",
        "ना"
      ],
      [
        "ल",
        "म्"
      ],
      [
        "ह",
        "टा"
      ],
      [
        "ि",
        "ए"
      ],
      [
        "ृ",
        "ह"
      ],
      [
        "्र",
        "वाई"
      ],
      [
        "ता",
        "ल"
      ],
      [
        "सा",
        "गर"
      ],
      [
        "प्र",
        "दर्शन"
      ],
      [
        "प्र",
        "शासन"
      ],
      [
        "वि",
        "जय"
      ],
      [
        "मा",
        "या"
      ],
      [
        "दि",
        "ये"
      ],
      [
        "दि",
        "शा"
      ],
      [
        "नि",
        "र"
      ],
      [
        "सी",
        "बी"
      ],
      [
        "सं",
        "त"
      ],
      [
        "सं",
        "कट"
      ],
      [
        "रे",
        "ल"
      ],
      [
        "सम",
        "ार"
      ],
      [
        "कार",
        "्रवाई"
      ],
      [
        "क्ष",
        "ित"
      ],
      [
        "हम",
        "ले"
      ],
      [
        "जि",
        "ले"
      ],
      [
        "शा",
        "ह"
      ],
      [
        "शा",
        "ंति"
      ],
      [
        "उन",
        "को"
      ],
      [
        "पु",
        "त्र"
      ],
      [
        "मी",
        "ण"
      ],
      [
        "शि",
        "या"
      ],
      [
        "मान",
        "ी"
      ],
      [
        "तक",
        "नी"
      ],
      [
        "बात",
        "ों"
      ],
      [
        "क्र",
        "ा"
      ],
      [
        "स्थ",
        "ल"
      ],
      [
        "देख",
        "ें"
      ],
      [
        "कह",
        "े"
      ],
      [
        "मं",
        "जू"
      ],
      [
        "आज",
        "कल"
      ],
      [
        "चल",
        "ती"
      ],
      [
        "बढ़",
        "ती"
      ],
      [
        "जे",
        "पी"
      ],
      [
        "टि",
        "प्"
      ],
      [
        "पर्",
        "या"
      ],
      [
        "लिख",
        "ने"
      ],
      [
        "लेख",
        "क"
      ],
      [
        "लेख",
        "न"
      ],
      [
        "फो",
        "टो"
      ],
      [
        "उठा",
        "या"
      ],
      [
        "भे",
        "ज"
      ],
      [
        "भु",
        "त"
      ],
      [
        "वृ",
        "द्धि"
      ],
      [
        "शब्द",
        "ों"
      ],
      [
        "हाला",
        "त"
      ],
      [
        "पहुं",
        "चा"
      ],
      [
        "राजनीति",
        "क"
      ],
      [
        "इला",
        "ज"
      ],
      [
        "फ़ि",
        "र"
      ],
      [
        "निय",
        "मित"
      ],
      [
        "डॉ",
        "क्टर"
      ],
      [
        "अभ",
        "ियान"
      ],
      [
        "ज्य",
        "ो"
      ],
      [
        "सदस्",
        "य"
      ],
      [
        "प्रधान",
        "मंत्री"
      ],
      [
        "अक्",
        "सर"
      ],
      [
        "प्रका",
        "शित"
      ],
      [
        "प्रस्ता",
        "व"
      ],
      [
        "कठि",
        "न"
      ],
      [
        "मोबा",
        "इल"
      ],
      [
        "ँ",
        "च"
      ],
      [
        "अ",
        "र"
      ],
      [
        "अ",
        "ल"
      ],
      [
        "उ",
        "ल्"
      ],
      [
        "ख",
        "र्"
      ],
      [
        "ख",
        "तरा"
      ],
      [
        "ग",
        "ंगा"
      ],
      [
        "ट",
        "िक"
      ],
      [
        "ड",
        "्रा"
      ],
      [
        "ण",
        "य"
      ],
      [
        "न",
        "क"
      ],
      [
        "न",
        "ये"
      ],
      [
        "प",
        "ें"
      ],
      [
        "प",
        "ंच"
      ],
      [
        "फ",
        "ू"
      ],
      [
        "भ",
        "य"
      ],
      [
        "भ",
        "क्त"
      ],
      [
        "म",
        "ज"
      ],
      [
        "म",
        "धु"
      ],
      [
        "य",
        "ण"
      ],
      [
        "व",
        "ों"
      ],
      [
        "स",
        "मे"
      ],
      [
        "ु",
        "क"
      ],
      [
        "क्",
        "लिक"
      ],
      [
        "जा",
        "ग"
      ],
      [
        "प्र",
        "चार"
      ],
      [
        "प्र",
        "श्न"
      ],
      [
        "वि",
        "स्त"
      ],
      [
        "वि",
        "वाद"
      ],
      [
        "न्",
        "स"
      ],
      [
        "मा",
        "स्टर"
      ],
      [
        "बा",
        "बा"
      ],
      [
        "एक",
        "दम"
      ],
      [
        "रह",
        "ेंगे"
      ],
      [
        "नी",
        "ंद"
      ],
      [
        "सं",
        "स्था"
      ],
      [
        "सं",
        "बंधित"
      ],
      [
        "मे",
        "हन"
      ],
      [
        "चा",
        "प"
      ],
      [
        "सम",
        "र्"
      ],
      [
        "कार",
        "ो"
      ],
      [
        "ल्",
        "म"
      ],
      [
        "जि",
        "ए"
      ],
      [
        "जि",
        "द"
      ],
      [
        "सि",
        "यों"
      ],
      [
        "सु",
        "न्दर"
      ],
      [
        "वे",
        "दन"
      ],
      [
        "पू",
        "ं"
      ],
      [
        "शि",
        "क्षण"
      ],
      [
        "रि",
        "क"
      ],
      [
        "ढ़",
        "ी"
      ],
      [
        "बे",
        "च"
      ],
      [
        "गु",
        "स्"
      ],
      [
        "गु",
        "ला"
      ],
      [
        "स्ट",
        "्रे"
      ],
      [
        "देख",
        "े"
      ],
      [
        "देख",
        "ना"
      ],
      [
        "कह",
        "ने"
      ],
      [
        "दु",
        "ख"
      ],
      [
        "दु",
        "कान"
      ],
      [
        "मं",
        "च"
      ],
      [
        "परि",
        "ष"
      ],
      [
        "जाए",
        "ंगे"
      ],
      [
        "बै",
        "ठी"
      ],
      [
        "खि",
        "ल"
      ],
      [
        "बु",
        "रा"
      ],
      [
        "शी",
        "र्ष"
      ],
      [
        "यू",
        "ँ"
      ],
      [
        "छो",
        "टे"
      ],
      [
        "स्वा",
        "गत"
      ],
      [
        "भाग",
        "्य"
      ],
      [
        "निक",
        "ला"
      ],
      [
        "ज्ञान",
        "िक"
      ],
      [
        "वै",
        "ज्ञानिक"
      ],
      [
        "दर",
        "वा"
      ],
      [
        "पत्र",
        "कार"
      ],
      [
        "धु",
        "निक"
      ],
      [
        "मृ",
        "त"
      ],
      [
        "ग्रा",
        "मीण"
      ],
      [
        "आरो",
        "प"
      ],
      [
        "उठ",
        "े"
      ],
      [
        "रुप",
        "ये"
      ],
      [
        "हजार",
        "ों"
      ],
      [
        "आवा",
        "ज"
      ],
      [
        "आवा",
        "ज़"
      ],
      [
        "आयो",
        "जित"
      ],
      [
        "ज्ञा",
        "पन"
      ],
      [
        "शर्",
        "मा"
      ],
      [
        "सप",
        "ने"
      ],
      [
        "सिल",
        "सि"
      ],
      [
        "वेब",
        "साइट"
      ],
      [
        "मुला",
        "कात"
      ],
      [
        "हृ",
        "दय"
      ],
      [
        "दक्षि",
        "ण"
      ],
      [
        "मेहन",
        "त"
      ],
      [
        "ं",
        "तु"
      ],
      [
        "ं",
        "बर"
      ],
      [
        "अ",
        "थ"
      ],
      [
        "अ",
        "ग्र"
      ],
      [
        "आ",
        "योग"
      ],
      [
        "आ",
        "र्थ"
      ],
      [
        "इ",
        "धर"
      ],
      [
        "उ",
        "तार"
      ],
      [
        "ए",
        "च"
      ],
      [
        "क",
        "ं"
      ],
      [
        "ग",
        "ै"
      ],
      [
        "ग",
        "ौर"
      ],
      [
        "ज",
        "नों"
      ],
      [
        "झ",
        "ी"
      ],
      [
        "ट",
        "्रा"
      ],
      [
        "त",
        "माम"
      ],
      [
        "प",
        "हर"
      ],
      [
        "प",
        "श्"
      ],
      [
        "म",
        "ति"
      ],
      [
        "र",
        "ता"
      ],
      [
        "ल",
        "ेंगे"
      ],
      [
        "व",
        "स्तु"
      ],
      [
        "श",
        "र"
      ],
      [
        "श",
        "नी"
      ],
      [
        "स",
        "का"
      ],
      [
        "स",
        "ें"
      ],
      [
        "े",
        "क्षा"
      ],
      [
        "का",
        "ली"
      ],
      [
        "ें",
        "गी"
      ],
      [
        "्र",
        "ि"
      ],
      [
        "ता",
        "छ"
      ],
      [
        "र्",
        "जा"
      ],
      [
        "कि",
        "न्तु"
      ],
      [
        "क्",
        "कर"
      ],
      [
        "वा",
        "यु"
      ],
      [
        "वा",
        "णी"
      ],
      [
        "प्र",
        "साद"
      ],
      [
        "रा",
        "ग"
      ],
      [
        "ती",
        "नों"
      ],
      [
        "बा",
        "बू"
      ],
      [
        "मि",
        "ट्टी"
      ],
      [
        "त्",
        "न"
      ],
      [
        "मु",
        "ना"
      ],
      [
        "उस",
        "को"
      ],
      [
        "सम",
        "ू"
      ],
      [
        "दा",
        "ई"
      ],
      [
        "ल्",
        "या"
      ],
      [
        "सि",
        "या"
      ],
      [
        "शा",
        "ली"
      ],
      [
        "दो",
        "पहर"
      ],
      [
        "वह",
        "ार"
      ],
      [
        "म्",
        "स"
      ],
      [
        "क्र",
        "े"
      ],
      [
        "दू",
        "री"
      ],
      [
        "सर",
        "ल"
      ],
      [
        "बार",
        "ा"
      ],
      [
        "राज",
        "स्थान"
      ],
      [
        "कह",
        "ान"
      ],
      [
        "ची",
        "ज"
      ],
      [
        "यु",
        "द्ध"
      ],
      [
        "बु",
        "ध"
      ],
      [
        "बु",
        "द्धि"
      ],
      [
        "वो",
        "ट"
      ],
      [
        "बद",
        "ले"
      ],
      [
        "प्रा",
        "चीन"
      ],
      [
        "जु",
        "ड़े"
      ],
      [
        "निर्",
        "णय"
      ],
      [
        "कर्",
        "ता"
      ],
      [
        "बह",
        "न"
      ],
      [
        "सम्",
        "बन्"
      ],
      [
        "खो",
        "ज"
      ],
      [
        "लिख",
        "ी"
      ],
      [
        "शो",
        "र"
      ],
      [
        "तुम्ह",
        "ारी"
      ],
      [
        "आस",
        "ानी"
      ],
      [
        "पक",
        "ड़"
      ],
      [
        "कार्",
        "ड"
      ],
      [
        "कार्",
        "यालय"
      ],
      [
        "ग्रा",
        "म"
      ],
      [
        "जाये",
        "गा"
      ],
      [
        "सला",
        "ह"
      ],
      [
        "आवश्य",
        "क"
      ],
      [
        "स्टे",
        "शन"
      ],
      [
        "ग्रह",
        "ण"
      ],
      [
        "पृ",
        "थ"
      ],
      [
        "इंड",
        "िया"
      ],
      [
        "तृ",
        "त्व"
      ],
      [
        "बल्",
        "कि"
      ],
      [
        "परं",
        "परा"
      ],
      [
        "कम्",
        "प"
      ],
      [
        "ज़रू",
        "रत"
      ],
      [
        "अद्",
        "भुत"
      ],
      [
        "संचा",
        "लन"
      ],
      [
        "अख",
        "बार"
      ],
      [
        "समार",
        "ोह"
      ],
      [
        "ज्यो",
        "ति"
      ],
      [
        "ँ",
        "ग"
      ],
      [
        "ँ",
        "गा"
      ],
      [
        "आ",
        "ठ"
      ],
      [
        "आ",
        "कर्"
      ],
      [
        "आ",
        "काश"
      ],
      [
        "इ",
        "ंस"
      ],
      [
        "ए",
        "ंगे"
      ],
      [
        "क",
        "ने"
      ],
      [
        "ज",
        "रु"
      ],
      [
        "त",
        "ट"
      ],
      [
        "न",
        "ृ"
      ],
      [
        "न",
        "ारी"
      ],
      [
        "प",
        "थ"
      ],
      [
        "प",
        "हा"
      ],
      [
        "फ",
        "र्क"
      ],
      [
        "ब",
        "ौ"
      ],
      [
        "ब",
        "ला"
      ],
      [
        "म",
        "ॉ"
      ],
      [
        "म",
        "जा"
      ],
      [
        "ल",
        "ड़ा"
      ],
      [
        "व",
        "रि"
      ],
      [
        "श",
        "ै"
      ],
      [
        "स",
        "मि"
      ],
      [
        "स",
        "हम"
      ],
      [
        "ह",
        "सास"
      ],
      [
        "ना",
        "टक"
      ],
      [
        "कि",
        "ंतु"
      ],
      [
        "सा",
        "ब"
      ],
      [
        "सा",
        "थी"
      ],
      [
        "ले",
        "ता"
      ],
      [
        "प्र",
        "णा"
      ],
      [
        "प्र",
        "कट"
      ],
      [
        "बा",
        "ं"
      ],
      [
        "बा",
        "ग"
      ],
      [
        "ति",
        "यों"
      ],
      [
        "था",
        "ने"
      ],
      [
        "नि",
        "भा"
      ],
      [
        "नि",
        "वेश"
      ],
      [
        "पा",
        "ता"
      ],
      [
        "पा",
        "ती"
      ],
      [
        "पा",
        "ये"
      ],
      [
        "सं",
        "वाद"
      ],
      [
        "सं",
        "सद"
      ],
      [
        "अप",
        "ेक्षा"
      ],
      [
        "हि",
        "ंद"
      ],
      [
        "हम",
        "ला"
      ],
      [
        "सि",
        "खा"
      ],
      [
        "सु",
        "नी"
      ],
      [
        "रू",
        "म"
      ],
      [
        "मान",
        "ते"
      ],
      [
        "म्",
        "भ"
      ],
      [
        "बी",
        "त"
      ],
      [
        "बी",
        "जेपी"
      ],
      [
        "स्थ",
        "ानी"
      ],
      [
        "लग",
        "ते"
      ],
      [
        "वी",
        "डियो"
      ],
      [
        "राज",
        "धानी"
      ],
      [
        "टा",
        "ई"
      ],
      [
        "सो",
        "म"
      ],
      [
        "बना",
        "ई"
      ],
      [
        "सू",
        "र्य"
      ],
      [
        "छा",
        "त्र"
      ],
      [
        "लो",
        "ड"
      ],
      [
        "ंध",
        "े"
      ],
      [
        "पि",
        "क"
      ],
      [
        "कम",
        "जोर"
      ],
      [
        "अधि",
        "कां"
      ],
      [
        "बु",
        "ला"
      ],
      [
        "रख",
        "ते"
      ],
      [
        "जु",
        "न"
      ],
      [
        "यू",
        "नि"
      ],
      [
        "स्था",
        "पित"
      ],
      [
        "गो",
        "ली"
      ],
      [
        "पुर",
        "स्"
      ],
      [
        "नो",
        "ट"
      ],
      [
        "शो",
        "क"
      ],
      [
        "आं",
        "खों"
      ],
      [
        "लोक",
        "तंत्र"
      ],
      [
        "सुन",
        "कर"
      ],
      [
        "आस",
        "पास"
      ],
      [
        "पड़े",
        "गा"
      ],
      [
        "तरी",
        "के"
      ],
      [
        "चो",
        "ट"
      ],
      [
        "थो",
        "ड़ा"
      ],
      [
        "विश्व",
        "विद्यालय"
      ],
      [
        "दौ",
        "ड़"
      ],
      [
        "आयो",
        "जन"
      ],
      [
        "पूछ",
        "ताछ"
      ],
      [
        "प्रती",
        "क"
      ],
      [
        "सचि",
        "व"
      ],
      [
        "कल्प",
        "ना"
      ],
      [
        "मन्",
        "दिर"
      ],
      [
        "सूर",
        "ज"
      ],
      [
        "आर्थ",
        "िक"
      ],
      [
        "समि",
        "ति"
      ],
      [
        "अधिकां",
        "श"
      ],
      [
        "ँ",
        "स"
      ],
      [
        "आ",
        "उ"
      ],
      [
        "आ",
        "ना"
      ],
      [
        "आ",
        "धुनिक"
      ],
      [
        "इ",
        "स्"
      ],
      [
        "उ",
        "द्योग"
      ],
      [
        "ए",
        "ंड"
      ],
      [
        "क",
        "मा"
      ],
      [
        "ज",
        "त"
      ],
      [
        "ज",
        "ला"
      ],
      [
        "द",
        "्रा"
      ],
      [
        "ध",
        "क"
      ],
      [
        "प",
        "त"
      ],
      [
        "प",
        "ान"
      ]
    ]
  }
}