{
  "version": "1.0",
  "truncation": null,
  "padding": null,
  "added_tokens": [
    {
      "id": 0,
      "content": "[PAD]",
      "single_word": false,
      "lstrip": false,
      "rstrip": false,
      "normalized": false,
      "special": true
    },
    {
      "id": 1,
      "content": "[UNK]",
      "single_word": false,
      "lstrip": false,
      "rstrip": false,
      "normalized": false,
      "special": true
    },
    {
      "id": 2,
      "content": "[BOS]",
      "single_word": false,
      "lstrip": false,
      "rstrip": false,
      "normalized": false,
      "special": true
    },
    {
      "id": 3,
      "content": "[EOS]",
      "single_word": false,
      "lstrip": false,
      "rstrip": false,
      "normalized": false,
      "special": true
    }
  ],
  "normalizer": null,
  "pre_tokenizer": {
    "type": "Whitespace"
  },
  "post_processor": null,
  "decoder": null,
  "model": {
    "type": "BPE",
    "dropout": null,
    "unk_token": "[UNK]",
    "continuing_subword_prefix": null,
    "end_of_word_suffix": null,
    "fuse_unk": false,
    "byte_fallback": false,
    "ignore_merges": false,
    "vocab": {
      "[PAD]": 0,
      "[UNK]": 1,
      "[BOS]": 2,
      "[EOS]": 3,
      "!": 4,
      "\"": 5,
      "'": 6,
      "(": 7,
      ")": 8,
      "+": 9,
      "-": 10,
      ".": 11,
      "/": 12,
      "0": 13,
      "1": 14,
      "2": 15,
      "3": 16,
      "4": 17,
      "5": 18,
      "7": 19,
      "8": 20,
      "9": 21,
      ":": 22,
      ";": 23,
      "<": 24,
      "=": 25,
      ">": 26,
      "?": 27,
      "\\": 28,
      "]": 29,
      "{": 30,
      "}": 31,
      "ª": 32,
      "´": 33,
      "·": 34,
      "Б": 35,
      "Г": 36,
      "а": 37,
      "в": 38,
      "е": 39,
      "з": 40,
      "и": 41,
      "к": 42,
      "р": 43,
      "у": 44,
      "ш": 45,
      "я": 46,
      "ا": 47,
      "س": 48,
      "ن": 49,
      "ک": 50,
      "ی": 51,
      "ँ": 52,
      "ं": 53,
      "ः": 54,
      "अ": 55,
      "आ": 56,
      "इ": 57,
      "ई": 58,
      "उ": 59,
      "ऊ": 60,
      "ऋ": 61,
      "ए": 62,
      "ऐ": 63,
      "ऑ": 64,
      "ओ": 65,
      "औ": 66,
      "क": 67,
      "ख": 68,
      "ग": 69,
      "घ": 70,
      "ङ": 71,
      "च": 72,
      "छ": 73,
      "ज": 74,
      "झ": 75,
      "ञ": 76,
      "ट": 77,
      "ठ": 78,
      "ड": 79,
      "ढ": 80,
      "ण": 81,
      "त": 82,
      "थ": 83,
      "द": 84,
      "ध": 85,
      "न": 86,
      "प": 87,
      "फ": 88,
      "ब": 89,
      "भ": 90,
      "म": 91,
      "य": 92,
      "र": 93,
      "ऱ": 94,
      "ल": 95,
      "ळ": 96,
      "व": 97,
      "श": 98,
      "ष": 99,
      "स": 100,
      "ह": 101,
      "ऺ": 102,
      "़": 103,
      "ऽ": 104,
      "ा": 105,
      "ि": 106,
      "ी": 107,
      "ु": 108,
      "ू": 109,
      "ृ": 110,
      "ॅ": 111,
      "े": 112,
      "ै": 113,
      "ॉ": 114,
      "ॊ": 115,
      "ो": 116,
      "ौ": 117,
      "्": 118,
      "ॐ": 119,
      "क़": 120,
      "ख़": 121,
      "ग़": 122,
      "ज़": 123,
      "ड़": 124,
      "ढ़": 125,
      "फ़": 126,
      "।": 127,
      "॥": 128,
      "‌": 129,
      "‍": 130,
      "‘": 131,
      "’": 132,
      "ना": 133,
      "रे": 134,
      "का": 135,
      "को": 136,
      "ता": 137,
      "ते": 138,
      "रा": 139,
      "के": 140,
      "ने": 141,
      "जा": 142,
      "बा": 143,
      "ड़": 144,
      "दा": 145,
      "मे": 146,
      "ंग": 147,
      "नि": 148,
      "हो": 149,
      "ले": 150,
      "मा": 151,
      "गे": 152,
      "ला": 153,
      "या": 154,
      "सा": 155,
      "गा": 156,
      "रि": 157,
      "ति": 158,
      "दो": 159,
      "मि": 160,
      "आः": 161,
      "से": 162,
      "चि": 163,
      "सि": 164,
      "ोः": 165,
      "अः": 166,
      "बे": 167,
      "कु": 168,
      "्र": 169,
      "ताइ": 170,
      "पा": 171,
      "नेआ": 172,
      "सो": 173,
      "इनि": 174,
      "केना": 175,
      "मेना": 176,
      "वा": 177,
      "कि": 178,
      "जि": 179,
      "सु": 180,
      "र्": 181,
      "जाना": 182,
      "स्": 183,
      "हा": 184,
      "एः": 185,
      "मो": 186,
      "यो": 187,
      "दु": 188,
      "केदा": 189,
      "इन": 190,
      "दि": 191,
      "मेन": 192,
      "चा": 193,
      "पु": 194,
      "राः": 195,
      "टा": 196,
      "होबा": 197,
      "ताइकेना": 198,
      "लि": 199,
      "ड़ा": 200,
      "गो": 201,
      "लो": 202,
      "बु": 203,
      "हि": 204,
      "नो": 205,
      "ड़ो": 206,
      "तु": 207,
      "तान": 208,
      "रो": 209,
      "ताना": 210,
      "लेका": 211,
      "द्": 212,
      "आञ": 213,
      "क्": 214,
      "वि": 215,
      "रिका": 216,
      "नु": 217,
      "पे": 218,
      "रआः": 219,
      "जु": 220,
      "जो": 221,
      "सोबे": 222,
      "ड़ा": 223,
      "ड़ि": 224,
      "जी": 225,
      "इनिः": 226,
      "रेआ": 227,
      "एन": 228,
      "बि": 229,
      "टे": 230,
      "ओः": 231,
      "सोबेन": 232,
      "गि": 233,
      "रेन": 234,
      "आते": 235,
      "री": 236,
      "मु": 237,
      "ड़ि": 238,
      "हु": 239,
      "जना": 240,
      "मेनाः": 241,
      "इंग": 242,
      "तना": 243,
      "बो": 244,
      "रू": 245,
      "प्र": 246,
      "कान": 247,
      "तन": 248,
      "एना": 249,
      "कोआ": 250,
      "दे": 251,
      "न्": 252,
      "भा": 253,
      "डि": 254,
      "गु": 255,
      "कन": 256,
      "हिजु": 257,
      "ंगा": 258,
      "ओड़": 259,
      "गर": 260,
      "काना": 261,
      "बाइ": 262,
      "मेनते": 263,
      ":।": 264,
      "रेअः": 265,
      "ड़ु": 266,
      "लेल": 267,
      "डा": 268,
      "ओड़ो": 269,
      "आद": 270,
      "नी": 271,
      "केआते": 272,
      "जे": 273,
      "तइ": 274,
      "त्": 275,
      "ली": 276,
      "आर": 277,
      "नेया": 278,
      "डो": 279,
      "सेन": 280,
      "मेनदो": 281,
      "होड़ो": 282,
      "कार": 283,
      "टि": 284,
      "मिआद": 285,
      "ती": 286,
      "यु": 287,
      "ओड़ोः": 288,
      "कजि": 289,
      "ल्": 290,
      "टो": 291,
      "गार": 292,
      "ड़ो": 293,
      "पि": 294,
      "मी": 295,
      "योम": 296,
      "रु": 297,
      "सं": 298,
      "किन": 299,
      "ताः": 300,
      "सी": 301,
      "त्र": 302,
      "सिदा": 303,
      "ओआ": 304,
      "जान": 305,
      "कामि": 306,
      "्य": 307,
      "होड़ो": 308,
      "टी": 309,
      "ओको": 310,
      "नाति": 311,
      "क्ष": 312,
      "म्": 313,
      "ब्": 314,
      "काजि": 315,
      "लोः": 316,
      "तो": 317,
      "होन": 318,
      "बेसे": 319,
      "जन": 320,
      "नाः": 321,
      "पो": 322,
      "अर": 323,
      "नेका": 324,
      "सर": 325,
      "दी": 326,
      "गेन": 327,
      "धा": 328,
      "अम": 329,
      "इनकु": 330,
      "आम": 331,
      "आए": 332,
      "ंड": 333,
      "एटा": 334,
      "लेना": 335,
      "ताइना": 336,
      "निः": 337,
      "गी": 338,
      "कमि": 339,
      "चे": 340,
      "पान": 341,
      "लागा": 342,
      "ङा": 343,
      "उड़ु": 344,
      "कना": 345,
      "रेगे": 346,
      "होरा": 347,
      "शा": 348,
      "आपान": 349,
      "इसु": 350,
      "एटे": 351,
      "मं": 352,
      "ताइन": 353,
      "राङ": 354,
      "हे": 355,
      "मान": 356,
      "ओम": 357,
      "रेओ": 358,
      "कोआः": 359,
      "तइन": 360,
      "अइंग": 361,
      "जगर": 362,
      "वे": 363,
      "प्": 364,
      "रअ": 365,
      "जागार": 366,
      "तर": 367,
      "एआ": 368,
      "पी": 369,
      "केद": 370,
      "ंगि": 371,
      "नाम": 372,
      "सन": 373,
      "राज": 374,
      "हिजुः": 375,
      "आञा": 376,
      "टु": 377,
      "सम": 378,
      "ड़ु": 379,
      "शि": 380,
      "इतु": 381,
      "दाड़ि": 382,
      "बर": 383,
      "ष्": 384,
      "तइकेना": 385,
      "टर": 386,
      "कोरे": 387,
      "इनिआः": 388,
      "आले": 389,
      "ओडो": 390,
      "बइ": 391,
      "तायोम": 392,
      "सुम": 393,
      "उदु": 394,
      "लका": 395,
      "दिसुम": 396,
      "आउ": 397,
      "भार": 398,
      "कर": 399,
      "ची": 400,
      "श्": 401,
      "तेगे": 402,
      "गेआ": 403,
      "ड़े": 404,
      "पुर": 405,
      "लागाति": 406,
      "माजा": 407,
      "चिलका": 408,
      "खा": 409,
      "बी": 410,
      "तार": 411,
      "सोमा": 412,
      "तइना": 413,
      "नातिन": 414,
      "सिङ": 415,
      "होड़ोको": 416,
      "सोमाए": 417,
      "पुरा": 418,
      "की": 419,
      "सुकु": 420,
      "था": 421,
      "यर": 422,
      "रंग": 423,
      "वी": 424,
      "ओड़ा": 425,
      "फि": 426,
      "मिय": 427,
      "बुगि": 428,
      "पुराः": 429,
      "फा": 430,
      "साना": 431,
      "्रे": 432,
      "बान": 433,
      "सिर": 434,
      "ओःआ": 435,
      "नम": 436,
      "ञा": 437,
      "इदि": 438,
      "नगा": 439,
      "ड़े": 440,
      "सिका": 441,
      "्री": 442,
      "आं": 443,
      "ज्": 444,
      "जोगा": 445,
      "आन": 446,
      "ओड़": 447,
      "नेता": 448,
      "आमा": 449,
      "केद्": 450,
      "जां": 451,
      "इं": 452,
      "हर": 453,
      "ंगे": 454,
      "गोनो": 455,
      "तानाः": 456,
      "धि": 457,
      "तुम": 458,
      "सेनोः": 459,
      "नगेन": 460,
      "भारत": 461,
      "आया": 462,
      "नअः": 463,
      "डु": 464,
      "ड़ी": 465,
      "काए": 466,
      "लागातिङा": 467,
      "ंद": 468,
      "गोटा": 469,
      "ओड़ोः": 470,
      "डी": 471,
      "रेदो": 472,
      "तादा": 473,
      "ओल": 474,
      "चु": 475,
      "सार": 476,
      "काएः": 477,
      "रोम": 478,
      "सिरमा": 479,
      "स्ट": 480,
      "मोयो": 481,
      "बिनगा": 482,
      "दाड़ि": 483,
      "केदाए": 484,
      "हुड़ि": 485,
      "शन": 486,
      "पुलि": 487,
      "आकाना": 488,
      "आञाः": 489,
      "चेतान": 490,
      "लगा": 491,
      "उनु": 492,
      "डे": 493,
      "चिम": 494,
      "पू": 495,
      "बार": 496,
      "कोम": 497,
      "लु": 498,
      "नागेन": 499,
      "सिंग": 500,
      "ओकोए": 501,
      "मिन": 502,
      "केदाएः": 503,
      "इम": 504,
      "सेनो": 505,
      "इनी": 506,
      "पुलिस": 507,
      "तिंग": 508,
      "नुतुम": 509,
      "खि": 510,
      "काको": 511,
      "त्री": 512,
      "एस": 513,
      "पर": 514,
      "खो": 515,
      "फो": 516,
      "रिया": 517,
      "सेसेन": 518,
      "तयोम": 519,
      "बै": 520,
      "यना": 521,
      "लाः": 522,
      "साः": 523,
      "युम": 524,
      "उड़ु": 525,
      "कोअः": 526,
      "एटेः": 527,
      "मेनअः": 528,
      "ही": 529,
      "लाए": 530,
      "चार": 531,
      "मला": 532,
      "किना": 533,
      "आएः": 534,
      "राम": 535,
      "तिसिङ": 536,
      "जादा": 537,
      "निया": 538,
      "चानाः": 539,
      "एटाः": 540,
      "माराङ": 541,
      "हारा": 542,
      "दड़ि": 543,
      "ट्": 544,
      "जाकेद": 545,
      "आइंग": 546,
      "कुड़ि": 547,
      "अप": 548,
      "आकान": 549,
      "चो": 550,
      "समा": 551,
      "तेबा": 552,
      "होबाओआ": 553,
      "लेकाते": 554,
      "उदुब": 555,
      "ओकोआ": 556,
      "बानोः": 557,
      "यू": 558,
      "वर": 559,
      "सें": 560,
      "इनु": 561,
      "डिया": 562,
      "मोयोद": 563,
      "बोरो": 564,
      "देश": 565,
      "शु": 566,
      "नेताः": 567,
      "जोम": 568,
      "नवा": 569,
      "इआ": 570,
      "कारी": 571,
      "नेल": 572,
      "बारा": 573,
      "कम": 574,
      "बुगिन": 575,
      "अबु": 576,
      "वार": 577,
      "देंगा": 578,
      "आमाः": 579,
      "आना": 580,
      "कू": 581,
      "मोने": 582,
      "ओनो": 583,
      "थि": 584,
      "परि": 585,
      "बल": 586,
      "हातु": 587,
      "बद": 588,
      "्या": 589,
      "बारि": 590,
      "लाङ": 591,
      "होनको": 592,
      "समय": 593,
      "ंदा": 594,
      "ठा": 595,
      "सरा": 596,
      "ङगि": 597,
      "नावा": 598,
      "तअः": 599,
      "मू": 600,
      "सिं": 601,
      "ओमा": 602,
      "किः": 603,
      "दिन": 604,
      "हुड़ि": 605,
      "सानाङ": 606,
      "अले": 607,
      "जपा": 608,
      "मजा": 609,
      "गाड़ा": 610,
      "मोय": 611,
      "मेद": 612,
      "ंग्रे": 613,
      "कुल": 614,
      "लेकान": 615,
      "ंक": 616,
      "होड़ोको": 617,
      "मंत्री": 618,
      "चना": 619,
      "बं": 620,
      "लाई": 621,
      "कृ": 622,
      "वर्": 623,
      "काम": 624,
      "स्था": 625,
      "तायोमते": 626,
      "होडो": 627,
      "तानको": 628,
      "शी": 629,
      "जानाएः": 630,
      "नाआः": 631,
      "टोओ": 632,
      "तोबे": 633,
      "मियद": 634,
      "उड़ुः": 635,
      "कला": 636,
      "कार्": 637,
      "दान": 638,
      "साइ": 639,
      "कुलि": 640,
      "ड़ाओ": 641,
      "हुल": 642,
      "सरकार": 643,
      "आको": 644,
      "दड़ि": 645,
      "दाः": 646,
      "दुब": 647,
      "हुड़िङ": 648,
      "ठो": 649,
      "णा": 650,
      "पं": 651,
      "मामला": 652,
      "योग": 653,
      "ओड़ाः": 654,
      "ँग": 655,
      "मन": 656,
      "बाल": 657,
      "किरि": 658,
      "टाका": 659,
      "न्द": 660,
      "ओनोल": 661,
      "आयुम": 662,
      "मानाति": 663,
      "सेना": 664,
      "ोःआ": 665,
      "बेस": 666,
      "दुकु": 667,
      "एनका": 668,
      "बोंगा": 669,
      "ष्ट": 670,
      "अमा": 671,
      "आबु": 672,
      "आपि": 673,
      "कदा": 674,
      "बू": 675,
      "सू": 676,
      "लाओ": 677,
      "र्ट": 678,
      "ताइकेनाएः": 679,
      "ताला": 680,
      "जापा": 681,
      "मिसा": 682,
      "चिमिन": 683,
      "तनअः": 684,
      "एम": 685,
      "बाद": 686,
      "पेड़े": 687,
      "क्र": 688,
      "ढ़": 689,
      "दन": 690,
      "भो": 691,
      "होनो": 692,
      "याते": 693,
      "जिनि": 694,
      "दुला": 695,
      "भाव": 696,
      "क्षा": 697,
      "कामी": 698,
      "रासिका": 699,
      "ड़ाः": 700,
      "ंट": 701,
      "पार": 702,
      "ओते": 703,
      "कल": 704,
      "ग्": 705,
      "बन": 706,
      "रसिका": 707,
      "व्य": 708,
      "केदाको": 709,
      "सोबेनको": 710,
      "ंस": 711,
      "आई": 712,
      "नेआते": 713,
      "दुराङ": 714,
      "बुजा": 715,
      "बरन": 716,
      "सिंह": 717,
      "ताङ": 718,
      "सोमोय": 719,
      "होबाओः": 720,
      "पेरे": 721,
      "उतर": 722,
      "बनो": 723,
      "सोबेना": 724,
      "एनता": 725,
      "मियद्": 726,
      "ज्ञा": 727,
      "एंगा": 728,
      "टका": 729,
      "काञ": 730,
      "लेकन": 731,
      "साङगि": 732,
      "रुड़ु": 733,
      "फिल्": 734,
      "लय": 735,
      "जाआं": 736,
      "लेलो": 737,
      "टेः": 738,
      "उप": 739,
      "पति": 740,
      "रेको": 741,
      "तानिः": 742,
      "होबाव": 743,
      "मत": 744,
      "मर": 745,
      "कादा": 746,
      "होबाजाना": 747,
      "हुलाङ": 748,
      "जोगाओ": 749,
      "समाज": 750,
      "फिल्म": 751,
      "आलो": 752,
      "उतार": 753,
      "याद": 754,
      "सांगि": 755,
      "जोनो": 756,
      "सारते": 757,
      "जरू": 758,
      "ठी": 759,
      "दू": 760,
      "तारा": 761,
      "चाना": 762,
      "लोओः": 763,
      "जोर": 764,
      "तिंगु": 765,
      "ङगा": 766,
      "जय": 767,
      "धी": 768,
      "महा": 769,
      "जार": 770,
      "बानो": 771,
      "लाइ": 772,
      "नीति": 773,
      "ंडु": 774,
      "पुरअः": 775,
      "गोनोङ": 776,
      "हुड़िङ": 777,
      "कं": 778,
      "फ्": 779,
      "यद्": 780,
      "श्री": 781,
      "बालाए": 782,
      "सिंगि": 783,
      "मेनाइ": 784,
      "किआ": 785,
      "ड़ां": 786,
      "ल्ली": 787,
      "आयार": 788,
      "एने": 789,
      "संग": 790,
      "कारेदो": 791,
      "कोते": 792,
      "मोचा": 793,
      "दुनिया": 794,
      "होबाओ": 795,
      "एनताः": 796,
      "बोर": 797,
      "टोओर": 798,
      "कै": 799,
      "लू": 800,
      "शे": 801,
      "सला": 802,
      "राइ": 803,
      "नेन": 804,
      "बारान": 805,
      "अए": 806,
      "अया": 807,
      "आगु": 808,
      "इति": 809,
      "नामो": 810,
      "तेआ": 811,
      "किःआ": 812,
      "आइ": 813,
      "ओड़ाः": 814,
      "गल": 815,
      "घा": 816,
      "डू": 817,
      "तं": 818,
      "यन": 819,
      "नाङ": 820,
      "केयाते": 821,
      "नेकान": 822,
      "लेन": 823,
      "दिर": 824,
      "क्स": 825,
      "जोगाव": 826,
      "जांए": 827,
      "ओमे": 828,
      "जकेद्": 829,
      "वन": 830,
      "बारे": 831,
      "पाति": 832,
      "दिल्ली": 833,
      "ड़ाव": 834,
      "उड़ुः": 835,
      "उत्": 836,
      "तरा": 837,
      "धो": 838,
      "नमा": 839,
      "कोड़ा": 840,
      "जिला": 841,
      "र्म": 842,
      "केदाञ": 843,
      "मुख": 844,
      "षा": 845,
      "तेओ": 846,
      "ड़ी": 847,
      "गिड़ि": 848,
      "इनुङ": 849,
      "अइ": 850,
      "अट": 851,
      "कद": 852,
      "छा": 853,
      "जारुड़ु": 854,
      "मार": 855,
      "स्वा": 856,
      "स्तान": 857,
      "गोए": 858,
      "खु": 859,
      "जमा": 860,
      "भि": 861,
      "मै": 862,
      "मरंग": 863,
      "केते": 864,
      "याको": 865,
      "पाल": 866,
      "किर": 867,
      "लोक": 868,
      "विश्": 869,
      "डिंग": 870,
      "अपि": 871,
      "कजी": 872,
      "तकिना": 873,
      "काआ": 874,
      "जाः": 875,
      "निर": 876,
      "होका": 877,
      "तिसिंग": 878,
      "गोआ": 879,
      "जनाए": 880,
      "रूआ": 881,
      "टिंग": 882,
      "अधि": 883,
      "बागे": 884,
      "बादि": 885,
      "निकु": 886,
      "चिना": 887,
      "र्ड": 888,
      "स्व": 889,
      "हार": 890,
      "गोम": 891,
      "गोपो": 892,
      "रिकाएआ": 893,
      "चेतन": 894,
      "अन": 895,
      "उपु": 896,
      "जू": 897,
      "टयद्": 898,
      "ण्": 899,
      "पै": 900,
      "ताल": 901,
      "कुड़ि": 902,
      "डियो": 903,
      "आएआः": 904,
      "दाड़िआ": 905,
      "उकु": 906,
      "नमो": 907,
      "कांग्रे": 908,
      "राष्ट": 909,
      "सां": 910,
      "चिनअः": 911,
      "पाड़ाओ": 912,
      "नेआरे": 913,
      "मोन": 914,
      "रेनको": 915,
      "तेबाः": 916,
      "तंग": 917,
      "हरा": 918,
      "सोंगे": 919,
      "वाद": 920,
      "र्थ": 921,
      "दुनु": 922,
      "पेड़े": 923,
      "एनाते": 924,
      "काआनि": 925,
      "बादिलि": 926,
      "टना": 927,
      "तू": 928,
      "धन": 929,
      "वो": 930,
      "निक": 931,
      "गेल": 932,
      "गोएः": 933,
      "फोटो": 934,
      "ंडि": 935,
      "अनु": 936,
      "एपे": 937,
      "गं": 938,
      "ध्य": 939,
      "नू": 940,
      "बई": 941,
      "मह": 942,
      "लन": 943,
      "जाए": 944,
      "लाव": 945,
      "मिद": 946,
      "चाबा": 947,
      "इनिःअ": 948,
      "धान": 949,
      "किरिङ": 950,
      "मानातिङ": 951,
      "होनोर": 952,
      "अं": 953,
      "एते": 954,
      "कको": 955,
      "भग": 956,
      "यम": 957,
      "होयो": 958,
      "दोहो": 959,
      "पार्": 960,
      "जानाए": 961,
      "हिन्": 962,
      "तानाएः": 963,
      "क्टर": 964,
      "मंदिर": 965,
      "राज्य": 966,
      "चुना": 967,
      "नंग": 968,
      "ताको": 969,
      "जाद": 970,
      "जामा": 971,
      "साम": 972,
      "बेगार": 973,
      "सुर": 974,
      "सुगाड़ा": 975,
      "तानताइकेना": 976,
      "दर्": 977,
      "मौ": 978,
      "मनाति": 979,
      "रअः": 980,
      "रानु": 981,
      "साब": 982,
      "तुङ": 983,
      "क्ति": 984,
      "गिन": 985,
      "जेतान": 986,
      "कांग्रेस": 987,
      "अस्": 988,
      "अयर": 989,
      "वै": 990,
      "निदा": 991,
      "साल": 992,
      "साला": 993,
      "बेगर": 994,
      "धार": 995,
      "डुः": 996,
      "जोनोम": 997,
      "उयु": 998,
      "एद": 999,
      "कोआते": 1000,
      "दां": 1001,
      "दार": 1002,
      "कुमु": 1003,
      "वान": 1004,
      "रूप": 1005,
      "रूम": 1006,
      "देव": 1007,
      "प्रे": 1008,
      "सनंग": 1009,
      "राजनीति": 1010,
      "लगाति": 1011,
      "बारिआ": 1012,
      "ंडा": 1013,
      "तला": 1014,
      "सद": 1015,
      "निर्": 1016,
      "याय": 1017,
      "रिंग": 1018,
      "्रो": 1019,
      "रूड़ु": 1020,
      "एनामेनते": 1021,
      "ओड़ो": 1022,
      "त्य": 1023,
      "इतुआना": 1024,
      "होडोको": 1025,
      "गोमके": 1026,
      "चुनाव": 1027,
      "अदि": 1028,
      "ओला": 1029,
      "टोः": 1030,
      "सान": 1031,
      "सुन": 1032,
      "रोग": 1033,
      "ओःताना": 1034,
      "क्षे": 1035,
      "पेड़ेः": 1036,
      "बुजाओ": 1037,
      "सब": 1038,
      "काटा": 1039,
      "लेआ": 1040,
      "बेड़ा": 1041,
      "बितार": 1042,
      "मेनाःइ": 1043,
      "एट": 1044,
      "रेआः": 1045,
      "रेयो": 1046,
      "कोवा": 1047,
      "तेको": 1048,
      "ोःताना": 1049,
      "हाना": 1050,
      "प्रति": 1051,
      "बानचा": 1052,
      "अपन": 1053,
      "अदिका": 1054,
      "तदा": 1055,
      "शहर": 1056,
      "सम्": 1057,
      "हन": 1058,
      "हम": 1059,
      "जाति": 1060,
      "माइन": 1061,
      "सायो": 1062,
      "सेता": 1063,
      "दिशु": 1064,
      "तनाए": 1065,
      "मीडिया": 1066,
      "कार्य": 1067,
      "राइज": 1068,
      "अभि": 1069,
      "आपु": 1070,
      "आपे": 1071,
      "इया": 1072,
      "ऐना": 1073,
      "जदा": 1074,
      "झा": 1075,
      "फे": 1076,
      "फै": 1077,
      "भी": 1078,
      "काब": 1079,
      "दिरि": 1080,
      "बुरू": 1081,
      "जोआर": 1082,
      "बोन": 1083,
      "जेता": 1084,
      "उड़ुङ": 1085,
      "हुलंग": 1086,
      "कंप": 1087,
      "दिशुम": 1088,
      "पड़": 1089,
      "राय": 1090,
      "राव": 1091,
      "केट": 1092,
      "पाम": 1093,
      "हापे": 1094,
      "नुङ": 1095,
      "भाग": 1096,
      "त्व": 1097,
      "तोम": 1098,
      "ष्ण": 1099,
      "बैसे": 1100,
      "ठोर": 1101,
      "व्यव": 1102,
      "दुनुब": 1103,
      "ग्र": 1104,
      "तको": 1105,
      "मगर": 1106,
      "कानि": 1107,
      "कागे": 1108,
      "मेद्": 1109,
      "लान": 1110,
      "सेवा": 1111,
      "चान": 1112,
      "रोआ": 1113,
      "रोकोम": 1114,
      "द्ध": 1115,
      "विरो": 1116,
      "ओड़अः": 1117,
      "इपा": 1118,
      "कर्": 1119,
      "कड़ा": 1120,
      "ध्या": 1121,
      "लग": 1122,
      "लब": 1123,
      "लगिन": 1124,
      "सल": 1125,
      "केटेः": 1126,
      "मेआ": 1127,
      "होसो": 1128,
      "याए": 1129,
      "पाकि": 1130,
      "पारोम": 1131,
      "किता": 1132,
      "स्टे": 1133,
      "जेतन": 1134,
      "रुड़ा": 1135,
      "क्षण": 1136,
      "ताइनोः": 1137,
      "प्रा": 1138,
      "ज्ञान": 1139,
      "आरि": 1140,
      "कॉ": 1141,
      "जर": 1142,
      "जै": 1143,
      "नगर": 1144,
      "बस": 1145,
      "बरा": 1146,
      "भू": 1147,
      "लव": 1148,
      "शो": 1149,
      "ाव": 1150,
      "काय": 1151,
      "कारे": 1152,
      "काजी": 1153,
      "कोः": 1154,
      "केन": 1155,
      "नेतअः": 1156,
      "जारूड़ु": 1157,
      "लेम": 1158,
      "माङ": 1159,
      "माना": 1160,
      "यार": 1161,
      "तिङ": 1162,
      "मिर": 1163,
      "वाल": 1164,
      "र्य": 1165,
      "दुबा": 1166,
      "बितर": 1167,
      "बोलो": 1168,
      "भाषा": 1169,
      "तीय": 1170,
      "्रीय": 1171,
      "खोबोर": 1172,
      "फोन": 1173,
      "हिन्दी": 1174,
      "चै": 1175,
      "जग": 1176,
      "तम": 1177,
      "थी": 1178,
      "ौर": 1179,
      "लेरे": 1180,
      "गाते": 1181,
      "सेके": 1182,
      "सुनु": 1183,
      "सुसुन": 1184,
      "टायाद": 1185,
      "ओःगे": 1186,
      "हुडिंग": 1187,
      "भाजपा": 1188,
      "हिजुगा": 1189,
      "्यू": 1190,
      "ब्ला": 1191,
      "पोर्ट": 1192,
      "चिलकाते": 1193,
      "खिला": 1194,
      "पार्टी": 1195,
      "पाकिस्तान": 1196,
      "टन": 1197,
      "ड्": 1198,
      "धु": 1199,
      "पताल": 1200,
      "ब्र": 1201,
      "लै": 1202,
      "काल": 1203,
      "जानाव": 1204,
      "स्टर": 1205,
      "लिङ": 1206,
      "हिं": 1207,
      "क्त": 1208,
      "क्रि": 1209,
      "विष": 1210,
      "बिल": 1211,
      "बिरि": 1212,
      "होड़ोमो": 1213,
      "सनते": 1214,
      "मुख्य": 1215,
      "ंटा": 1216,
      "अमे": 1217,
      "अन्": 1218,
      "एल": 1219,
      "एसे": 1220,
      "ओडा": 1221,
      "करी": 1222,
      "दल": 1223,
      "दंग": 1224,
      "पत्र": 1225,
      "राबाल": 1226,
      "यालय": 1227,
      "गां": 1228,
      "इनितु": 1229,
      "स्ता": 1230,
      "योजना": 1231,
      "विद्": 1232,
      "जीदन": 1233,
      "मेनाःकोआ": 1234,
      "प्रदेश": 1235,
      "गुन": 1236,
      "गुरु": 1237,
      "शिव": 1238,
      "चिमताङ": 1239,
      "सेंड़ा": 1240,
      "सोबेनाते": 1241,
      "तंत्र": 1242,
      "क्षेत्र": 1243,
      "एमे": 1244,
      "णी": 1245,
      "नौ": 1246,
      "यदा": 1247,
      "सर्": 1248,
      "काद": 1249,
      "नेलेका": 1250,
      "बाग": 1251,
      "लेले": 1252,
      "सामा": 1253,
      "सेसेना": 1254,
      "नेआको": 1255,
      "हाल": 1256,
      "मोद": 1257,
      "दुरंग": 1258,
      "लिम": 1259,
      "जुल": 1260,
      "इनकुआ": 1261,
      "इतुन": 1262,
      "तादाएः": 1263,
      "दाड़िआः": 1264,
      "दाड़िओःआ": 1265,
      "इमतंग": 1266,
      "लोओःते": 1267,
      "धोरोम": 1268,
      "गोपोएः": 1269,
      "अंग्रे": 1270,
      "आरो": 1271,
      "ज़": 1272,
      "द्र": 1273,
      "धे": 1274,
      "बत": 1275,
      "बना": 1276,
      "श्र": 1277,
      "षि": 1278,
      "सरि": 1279,
      "कोओ": 1280,
      "माइ": 1281,
      "यान": 1282,
      "चिमी": 1283,
      "केनाए": 1284,
      "र्चा": 1285,
      "स्थ": 1286,
      "मोदी": 1287,
      "पुल": 1288,
      "गिति": 1289,
      "मुनु": 1290,
      "त्रा": 1291,
      "टीम": 1292,
      "अमके": 1293,
      "हिजुःजाना": 1294,
      "करण": 1295,
      "ंद्र": 1296,
      "पूरा": 1297,
      "दड़िया": 1298,
      "अबुआ": 1299,
      "न्द्र": 1300,
      "पेरेः": 1301,
      "मनातिंग": 1302,
      "ंङ": 1303,
      "अना": 1304,
      "आयु": 1305,
      "चर": 1306,
      "पड़ाव": 1307,
      "यद": 1308,
      "रेंगे": 1309,
      "राकाब": 1310,
      "लेनेका": 1311,
      "साकाम": 1312,
      "र्क": 1313,
      "न्य": 1314,
      "आएआ": 1315,
      "वेब": 1316,
      "टुङ": 1317,
      "गोनोंग": 1318,
      "जापागार": 1319,
      "क्रम": 1320,
      "अस्पताल": 1321,
      "सायोब": 1322,
      "कोःआते": 1323,
      "ंव": 1324,
      "अइं": 1325,
      "इला": 1326,
      "कहा": 1327,
      "गड़": 1328,
      "चौ": 1329,
      "जगार": 1330,
      "तकिन": 1331,
      "दर": 1332,
      "नअ": 1333,
      "फर": 1334,
      "फी": 1335,
      "बरिया": 1336,
      "मबा": 1337,
      "यक": 1338,
      "राओ": 1339,
      "राजा": 1340,
      "नेट": 1341,
      "रिक": 1342,
      "तिन": 1343,
      "कुनु": 1344,
      "हागा": 1345,
      "बुल": 1346,
      "बिर": 1347,
      "होड़ोमो": 1348,
      "टिङ": 1349,
      "सरते": 1350,
      "अमअः": 1351,
      "दाड़िओःआ": 1352,
      "आलेआः": 1353,
      "पुरना": 1354,
      "एसकर": 1355,
      "दड़िओः": 1356,
      "विश्व": 1357,
      "इपाएः": 1358,
      "ंत": 1359,
      "अव": 1360,
      "खी": 1361,
      "घटना": 1362,
      "तनि": 1363,
      "नर": 1364,
      "संगि": 1365,
      "तेआः": 1366,
      "गाड़ा": 1367,
      "रिआ": 1368,
      "सेकड़ा": 1369,
      "चिका": 1370,
      "सिया": 1371,
      "स्त": 1372,
      "हास": 1373,
      "इन्": 1374,
      "होबालेना": 1375,
      "तानाञ": 1376,
      "जोमे": 1377,
      "जेताना": 1378,
      "कारण": 1379,
      "रुम": 1380,
      "पोस्ट": 1381,
      "लागाओ": 1382,
      "बइया": 1383,
      "सानामाङ": 1384,
      "जांच": 1385,
      "लाःए": 1386,
      "ठीक": 1387,
      "कुनुलि": 1388,
      "ंका": 1389,
      "ंति": 1390,
      "च्": 1391,
      "टक": 1392,
      "मरा": 1393,
      "मंग": 1394,
      "यअः": 1395,
      "रेः": 1396,
      "काले": 1397,
      "जागा": 1398,
      "लेदा": 1399,
      "गेया": 1400,
      "लातार": 1401,
      "वास": 1402,
      "हासु": 1403,
      "म्प": 1404,
      "जापाः": 1405,
      "रूआड़ा": 1406,
      "राष्ट्रीय": 1407,
      "विरोध": 1408,
      "अयुम": 1409,
      "गअः": 1410,
      "जल": 1411,
      "धर": 1412,
      "पढ़": 1413,
      "व्या": 1414,
      "सै": 1415,
      "सभा": 1416,
      "हू": 1417,
      "ह्": 1418,
      "हजार": 1419,
      "नामा": 1420,
      "कोड़ा": 1421,
      "ताई": 1422,
      "जागर": 1423,
      "निआ": 1424,
      "निमिर": 1425,
      "लाइन": 1426,
      "रिय": 1427,
      "मोसा": 1428,
      "दिल": 1429,
      "लिंग": 1430,
      "लोम": 1431,
      "लोलो": 1432,
      "भारतीय": 1433,
      "बदली": 1434,
      "आलोम": 1435,
      "इतिहास": 1436,
      "ण्ड": 1437,
      "लगातिंगा": 1438,
      "एटअः": 1439,
      "मुख्यमंत्री": 1440,
      "अक": 1441,
      "अड़": 1442,
      "अद्": 1443,
      "अगु": 1444,
      "सचि": 1445,
      "नाला": 1446,
      "होनाङ": 1447,
      "गेको": 1448,
      "कुर": 1449,
      "केदाय": 1450,
      "रोका": 1451,
      "नुबा": 1452,
      "ओड़ोःगे": 1453,
      "जानरे": 1454,
      "वेन": 1455,
      "उनुदुब": 1456,
      "साइट": 1457,
      "तालारे": 1458,
      "अधिकारी": 1459,
      "अच": 1460,
      "आट": 1461,
      "आड़ा": 1462,
      "इः": 1463,
      "ओवा": 1464,
      "कअ": 1465,
      "करो": 1466,
      "कद्": 1467,
      "कवि": 1468,
      "पन": 1469,
      "परी": 1470,
      "सौ": 1471,
      "है": 1472,
      "नाइ": 1473,
      "नापाम": 1474,
      "कोरा": 1475,
      "कोरआः": 1476,
      "दाङ": 1477,
      "लेनेल": 1478,
      "बेड़ा": 1479,
      "टाइ": 1480,
      "लिया": 1481,
      "विका": 1482,
      "विचार": 1483,
      "विज्ञान": 1484,
      "गुरू": 1485,
      "संस्": 1486,
      "ओकोना": 1487,
      "ब्रा": 1488,
      "होराते": 1489,
      "उदुबे": 1490,
      "फिलिम": 1491,
      "इनुंग": 1492,
      "नामोगा": 1493,
      "स्वामी": 1494,
      "भगवान": 1495,
      "मानाराङ": 1496,
      "अमेरिका": 1497,
      "अंग्रेजी": 1498,
      "आकादा": 1499,
      "उद्": 1500,
      "कमी": 1501,
      "तकन": 1502,
      "नडु": 1503,
      "नतिन": 1504,
      "लअः": 1505,
      "सह": 1506,
      "कोए": 1507,
      "कोता": 1508,
      "तानि": 1509,
      "केटे": 1510,
      "माल": 1511,
      "साहि": 1512,
      "दोलन": 1513,
      "चिआः": 1514,
      "सिनमा": 1515,
      "पाए": 1516,
      "नेआरा": 1517,
      "किल": 1518,
      "किया": 1519,
      "र्स": 1520,
      "स्थि": 1521,
      "दुर": 1522,
      "दुल": 1523,
      "लोन": 1524,
      "बाइआकाना": 1525,
      "लेलरिका": 1526,
      "टिक": 1527,
      "काजिकामि": 1528,
      "ंडी": 1529,
      "ंडे": 1530,
      "उड़ुङ": 1531,
      "जिनिद": 1532,
      "जिनिस": 1533,
      "दुलाड़ा": 1534,
      "पैसा": 1535,
      "ध्यक्ष": 1536,
      "व्यवस्था": 1537,
      "अदा": 1538,
      "आधा": 1539,
      "इस्": 1540,
      "एम्": 1541,
      "कटा": 1542,
      "तई": 1543,
      "तोः": 1544,
      "मना": 1545,
      "रआ": 1546,
      "शर्": 1547,
      "नाआ": 1548,
      "रेया": 1549,
      "कोएः": 1550,
      "रासि": 1551,
      "बाबा": 1552,
      "दासा": 1553,
      "में": 1554,
      "तिक": 1555,
      "मिद्": 1556,
      "बेडा": 1557,
      "कुम": 1558,
      "कुडि": 1559,
      "कुमार": 1560,
      "मेनागा": 1561,
      "जानाञ": 1562,
      "स्य": 1563,
      "हाला": 1564,
      "टान": 1565,
      "हिसि": 1566,
      "क्ट": 1567,
      "विभाग": 1568,
      "मुं": 1569,
      "हुला": 1570,
      "तनको": 1571,
      "बाइजाना": 1572,
      "अइंगा": 1573,
      "अइंगअः": 1574,
      "उदुबा": 1575,
      "चिमतुङ": 1576,
      "बदलि": 1577,
      "आपिआ": 1578,
      "दुलाड़ा": 1579,
      "जरूड़ु": 1580,
      "एनेटेः": 1581,
      "कंपनी": 1582,
      "गांधी": 1583,
      "चिमीन": 1584,
      "आटकार": 1585,
      "अख": 1586,
      "आकोआ": 1587,
      "आसरा": 1588,
      "इकिर": 1589,
      "उर": 1590,
      "कल्": 1591,
      "छु": 1592,
      "पढ": 1593,
      "परे": 1594,
      "पहम": 1595,
      "बग": 1596,
      "हमला": 1597,
      "रेल": 1598,
      "कोशि": 1599,
      "बाहर": 1600,
      "लेला": 1601,
      "लाल": 1602,
      "सेटे": 1603,
      "पाः": 1604,
      "वाला": 1605,
      "दुआर": 1606,
      "जुगु": 1607,
      "जानकारी": 1608,
      "शासन": 1609,
      "हेन": 1610,
      "तइनोः": 1611,
      "वेद": 1612,
      "फायदा": 1613,
      "दड़िआ": 1614,
      "किताब": 1615,
      "थीमबा": 1616,
      "अल": 1617,
      "गोः": 1618,
      "जरा": 1619,
      "दड़ां": 1620,
      "पद": 1621,
      "पर्": 1622,
      "भ्र": 1623,
      "सकम": 1624,
      "रेनिः": 1625,
      "कोटो": 1626,
      "दास": 1627,
      "दाडिया": 1628,
      "मेंट": 1629,
      "होड़": 1630,
      "माने": 1631,
      "याञ": 1632,
      "तिर": 1633,
      "किनाः": 1634,
      "चाही": 1635,
      "चालाओ": 1636,
      "चांडु": 1637,
      "बिज": 1638,
      "न्डुः": 1639,
      "होड़ोकोआः": 1640,
      "नाःदो": 1641,
      "नेकागे": 1642,
      "शाह": 1643,
      "आंदोलन": 1644,
      "बैंक": 1645,
      "ठांव": 1646,
      "हुड़िंग": 1647,
      "स्थान": 1648,
      "बरनकिन": 1649,
      "जरूड़ी": 1650,
      "अटकर": 1651,
      "उपुन": 1652,
      "सेकेड़ा": 1653,
      "विकास": 1654,
      "अफ": 1655,
      "आड़ा": 1656,
      "इदु": 1657,
      "एरा": 1658,
      "ओअ": 1659,
      "ओन": 1660,
      "खबर": 1661,
      "चव": 1662,
      "छबा": 1663,
      "तनिः": 1664,
      "बगे": 1665,
      "हपे": 1666,
      "नान": 1667,
      "काश": 1668,
      "कोके": 1669,
      "कोताः": 1670,
      "कोतो": 1671,
      "राचा": 1672,
      "बाइन": 1673,
      "मास्टर": 1674,
      "यास": 1675,
      "रिपोर्ट": 1676,
      "नेआगे": 1677,
      "वादी": 1678,
      "जिबोन": 1679,
      "स्कू": 1680,
      "पुथि": 1681,
      "ताइकेनाञ": 1682,
      "गोमान": 1683,
      "विधा": 1684,
      "पेल": 1685,
      "गिया": 1686,
      "मुद": 1687,
      "रूड़ा": 1688,
      "जेल": 1689,
      "त्ता": 1690,
      "युर": 1691,
      "पिल": 1692,
      "जनय": 1693,
      "जनव": 1694,
      "ङाकाना": 1695,
      "टुंग": 1696,
      "खास": 1697,
      "मोयोद्": 1698,
      "चेतानरे": 1699,
      "पूर्": 1700,
      "चोलोन": 1701,
      "जाआंए": 1702,
      "अएअः": 1703,
      "राष्ट्र": 1704,
      "दर्शन": 1705,
      "ध्यान": 1706,
      "विषय": 1707,
      "ंडो": 1708,
      "इदी": 1709,
      "इमिन": 1710,
      "उमि": 1711,
      "उडू": 1712,
      "जकेद": 1713,
      "नोः": 1714,
      "नदि": 1715,
      "फल": 1716,
      "भे": 1717,
      "लॉ": 1718,
      "लक्ष": 1719,
      "षण": 1720,
      "सन्": 1721,
      "नाटक": 1722,
      "कोलो": 1723,
      "ताम": 1724,
      "राना": 1725,
      "नेः": 1726,
      "जाआन": 1727,
      "बाङ": 1728,
      "दाडियो": 1729,
      "मार्": 1730,
      "सेताः": 1731,
      "सेंगे": 1732,
      "सिक": 1733,
      "कुपुल": 1734,
      "जिद": 1735,
      "लिक": 1736,
      "तानकेना": 1737,
      "द्धा": 1738,
      "ड़ाई": 1739,
      "जीवन": 1740,
      "प्रो": 1741,
      "प्रधान": 1742,
      "लेलोः": 1743,
      "जेटे": 1744,
      "टीवी": 1745,
      "इनकुआः": 1746,
      "ष्टा": 1747,
      "उदुब्": 1748,
      "चीन": 1749,
      "सेनोःजाना": 1750,
      "अपनअः": 1751,
      "ठाउ": 1752,
      "संगी": 1753,
      "अइङ": 1754,
      "बनाई": 1755,
      "सेंगेल": 1756,
      "..": 1757,
      "उद": 1758,
      "ङगे": 1759,
      "पअः": 1760,
      "बंग": 1761,
      "बड़ा": 1762,
      "बरी": 1763,
      "भर": 1764,
      "मनो": 1765,
      "यं": 1766,
      "यत": 1767,
      "वती": 1768,
      "हरि": 1769,
      "नाथ": 1770,
      "काकला": 1771,
      "तांगि": 1772,
      "तेया": 1773,
      "रान": 1774,
      "राहुल": 1775,
      "राँग": 1776,
      "जाय": 1777,
      "मेसा": 1778,
      "लांदा": 1779,
      "साँ": 1780,
      "मिसि": 1781,
      "पाना": 1782,
      "सोम": 1783,
      "स्सा": 1784,
      "मोड़े": 1785,
      "ताइकेनाए": 1786,
      "ओकोएः": 1787,
      "लोःते": 1788,
      "शान": 1789,
      "पीटि": 1790,
      "गोनोएः": 1791,
      "इमतुङ": 1792,
      "बंध": 1793,
      "बंधन": 1794,
      "शेष": 1795,
      "दांड़ा": 1796,
      "फैसला": 1797,
      "क्रिकेट": 1798,
      "अकरिंग": 1799,
      "रासिकान": 1800,
      "आसे": 1801,
      "एफ": 1802,
      "खंड": 1803,
      "चलाव": 1804,
      "टल": 1805,
      "डॉ": 1806,
      "धर्म": 1807,
      "नल": 1808,
      "पल": 1809,
      "पढ़": 1810,
      "फु": 1811,
      "लतर": 1812,
      "लड़ाई": 1813,
      "कोयो": 1814,
      "जाइ": 1815,
      "बाआरि": 1816,
      "निआः": 1817,
      "माया": 1818,
      "मारी": 1819,
      "सामान": 1820,
      "कुं": 1821,
      "कुम्": 1822,
      "जिदान": 1823,
      "दुब्": 1824,
      "चाव": 1825,
      "टाव": 1826,
      "हिर": 1827,
      "हिनि": 1828,
      "तुर": 1829,
      "तानाको": 1830,
      "इनिःआ": 1831,
      "इनिःके": 1832,
      "एनारे": 1833,
      "देङगा": 1834,
      "त्म": 1835,
      "काजिआ": 1836,
      "सरकारी": 1837,
      "दीप": 1838,
      "एआएः": 1839,
      "टुंडु": 1840,
      "लागातिंगा": 1841,
      "नमोः": 1842,
      "हुड़िंग": 1843,
      "लगातिंग": 1844,
      "लुतुम": 1845,
      "इमताङ": 1846,
      "सेनोगा": 1847,
      "सेसेनताना": 1848,
      "सेंड़ां": 1849,
      "मूल": 1850,
      "कृष्ण": 1851,
      "मतलब": 1852,
      "सदस्य": 1853,
      "सुनुम": 1854,
      "हिंदी": 1855,
      "आइन": 1856,
      "इङ": 1857,
      "उम्": 1858,
      "गंगा": 1859,
      "चबा": 1860,
      "जन्": 1861,
      "टू": 1862,
      "दड़ी": 1863,
      "बजे": 1864,
      "रंगा": 1865,
      "सअ": 1866,
      "नाता": 1867,
      "काइंग": 1868,
      "नेरे": 1869,
      "बाई": 1870,
      "ड़म": 1871,
      "ंगड़ा": 1872,
      "लेज": 1873,
      "माण": 1874,
      "लास": 1875,
      "साय": 1876,
      "गामु": 1877,
      "गाकान": 1878,
      "हान": 1879,
      "हाड़ा": 1880,
      "होबाओःआ": 1881,
      "जुः": 1882,
      "प्रभा": 1883,
      "प्रभाव": 1884,
      "देआ": 1885,
      "डाव": 1886,
      "ताइनजाना": 1887,
      "टुनडु": 1888,
      "खाने": 1889,
      "थाना": 1890,
      "वीर": 1891,
      "इंटर": 1892,
      "लगाव": 1893,
      "कृत": 1894,
      "उत्तर": 1895,
      "पेड़ेः": 1896,
      "वोट": 1897,
      "एदका": 1898,
      "ओड़ोंग": 1899,
      "धेआन": 1900,
      "साहित्य": 1901,
      "बिजली": 1902,
      "दाडियोआ": 1903,
      "ष्टाचार": 1904,
      "ठाउका": 1905,
      "अपे": 1906,
      "अकन": 1907,
      "अयु": 1908,
      "अल्": 1909,
      "असर": 1910,
      "अध्यक्ष": 1911,
      "इस": 1912,
      "उल": 1913,
      "उतारा": 1914,
      "कता": 1915,
      "खर": 1916,
      "गण": 1917,
      "चोः": 1918,
      "जवा": 1919,
      "ट्रे": 1920,
      "तरी": 1921,
      "बहा": 1922,
      "रम": 1923,
      "लर": 1924,
      "सत": 1925,
      "नाते": 1926,
      "काः": 1927,
      "कोगे": 1928,
      "बां": 1929,
      "ड़व": 1930,
      "दाडि": 1931,
      "निका": 1932,
      "होला": 1933,
      "साद": 1934,
      "तिकिन": 1935,
      "मित": 1936,
      "चिकि": 1937,
      "बेन": 1938,
      "कुरू": 1939,
      "इनिआ": 1940,
      "जानाको": 1941,
      "हां": 1942,
      "हासा": 1943,
      "मोहन": 1944,
      "लेकागे": 1945,
      "बिनि": 1946,
      "सोबेनअः": 1947,
      "मुटु": 1948,
      "देः": 1949,
      "बाइआ": 1950,
      "बाइओ": 1951,
      "होड़ोकोआः": 1952,
      "ओआकान": 1953,
      "ओआकाना": 1954,
      "क्षि": 1955,
      "लोःगे": 1956,
      "नामोः": 1957,
      "दाड़िओआ": 1958,
      "चीना": 1959,
      "एटेःजाना": 1960,
      "ट्टी": 1961,
      "अपना": 1962,
      "सेंड़ा": 1963,
      "बुजाव": 1964,
      "बारानकिन": 1965,
      "बागेकेआते": 1966,
      "प्रेम": 1967,
      "बिरिद": 1968,
      "अन्ना": 1969,
      "विद्यालय": 1970,
      "गितिः": 1971,
      "पाएसा": 1972,
      "स्थिति": 1973,
      "हुलांग": 1974,
      "कोशिश": 1975,
      "हिनिजुः": 1976,
      "ंबर": 1977,
      "अु": 1978,
      "अतोम": 1979,
      "आकिरिङ": 1980,
      "इर": 1981,
      "उडु": 1982,
      "ओले": 1983,
      "ओचो": 1984,
      "कम्प": 1985,
      "गपा": 1986,
      "घु": 1987,
      "घो": 1988,
      "जद्": 1989,
      "टै": 1990,
      "ट्र": 1991,
      "डर": 1992,
      "नै": 1993,
      "पत्": 1994,
      "बअः": 1995,
      "रण": 1996,
      "लत": 1997,
      "लंदा": 1998,
      "काउ": 1999,
      "काव": 2000,
      "कारो": 2001,
      "बानाइ": 2002,
      "निंग": 2003,
      "नियम": 2004,
      "गाड़ी": 2005,
      "रिड़ि": 2006,
      "मिल": 2007,
      "सेरेओ": 2008,
      "कुआ": 2009,
      "कुटु": 2010,
      "पाजि": 2011,
      "नेआमेनते": 2012,
      "सों": 2013,
      "सोआन": 2014,
      "सोतोः": 2015,
      "जिक": 2016,
      "जानाः": 2017,
      "स्या": 2018,
      "स्टा": 2019,
      "लिआ": 2020,
      "लित": 2021,
      "लिकिन": 2022,
      "क्रिया": 2023,
      "विक": 2024,
      "रिकाए": 2025,
      "जीव": 2026,
      "बिहार": 2027,
      "तनय": 2028,
      "गुजरा": 2029,
      "त्मा": 2030,
      "त्रि": 2031,
      "टोर": 2032,
      "रुआ": 2033,
      "ओकोन": 2034,
      "गीन": 2035,
      "उड़ुंग": 2036,
      "इसुपुराः": 2037,
      "खान": 2038,
      "बीर": 2039,
      "मूध": 2040,
      "कृति": 2041,
      "वर्ग": 2042,
      "आबुआः": 2043,
      "दुलाड़": 2044,
      "बानचाओ": 2045,
      "चानडुः": 2046,
      "आरोपी": 2047,
      "वेबसाइट": 2048,
      "कविता": 2049,
      "सेटेर": 2050,
      "स्कूल": 2051,
      "अएः": 2052,
      "अपु": 2053,
      "आक": 2054,
      "उपा": 2055,
      "ओमो": 2056,
      "ओटा": 2057,
      "कय": 2058,
      "गै": 2059,
      "घंटा": 2060,
      "नरे": 2061,
      "पक्ष": 2062,
      "बोः": 2063,
      "बंद": 2064,
      "भव": 2065,
      "मस": 2066,
      "मइन": 2067,
      "मन्": 2068,
      "रसा": 2069,
      "सवाल": 2070,
      "हल": 2071,
      "कां": 2072,
      "काओ": 2073,
      "काका": 2074,
      "कोन": 2075,
      "कोडा": 2076,
      "कोर्ट": 2077,
      "तेयअः": 2078,
      "राग": 2079,
      "नेते": 2080,
      "जाँ": 2081,
      "दारी": 2082,
      "निस": 2083,
      "निमत": 2084,
      "दोः": 2085,
      "चिउ": 2086,
      "कुला": 2087,
      "सोना": 2088,
      "सुल": 2089,
      "सुकू": 2090,
      "सुगाड़ा": 2091,
      "जानाओ": 2092,
      "मोबाइ": 2093,
      "पुद": 2094,
      "पुड़ि": 2095,
      "लिजाः": 2096,
      "हित": 2097,
      "विधान": 2098,
      "विशेष": 2099,
      "रिकाकेदा": 2100,
      "नुतु": 2101,
      "पेन": 2102,
      "रआःते": 2103,
      "जुदि": 2104,
      "मुटान": 2105,
      "हुडि": 2106,
      "बोर्ड": 2107,
      "प्रकाश": 2108,
      "देन": 2109,
      "गुसिया": 2110,
      "लेलकेआते": 2111,
      "कजिआ": 2112,
      "सीबी": 2113,
      "ओकोय": 2114,
      "पोसा": 2115,
      "धानी": 2116,
      "हेड़ा": 2117,
      "नामजाना": 2118,
      "तादाञ": 2119,
      "चिमनुङ": 2120,
      "खिल": 2121,
      "तिसिङो": 2122,
      "बाराबारि": 2123,
      "परिवार": 2124,
      "साइति": 2125,
      "जिनिसि": 2126,
      "पारका": 2127,
      "नामोआ": 2128,
      "आइञ": 2129,
      "गलती": 2130,
      "कदम": 2131,
      "विश्वास": 2132,
      "अपिया": 2133,
      "मौका": 2134,
      "होसोड़ो": 2135,
      "स्टेशन": 2136,
      "खिलाफ": 2137,
      "एसेकार": 2138,
      "सामाजिक": 2139,
      "अचका": 2140,
      "आड़ानदि": 2141,
      "कुरूमुटु": 2142,
      "मोबाइल": 2143,
      "ंआ": 2144,
      "ंदे": 2145,
      "आमे": 2146,
      "आदि": 2147,
      "आचु": 2148,
      "इग": 2149,
      "इपिल": 2150,
      "कौ": 2151,
      "ठन": 2152,
      "तक": 2153,
      "थो": 2154,
      "दअः": 2155,
      "बहु": 2156,
      "बंगा": 2157,
      "बधा": 2158,
      "भु": 2159,
      "रै": 2160,
      "शक": 2161,
      "शू": 2162,
      "षी": 2163,
      "सरे": 2164,
      "हना": 2165,
      "कारि": 2166,
      "ताकिना": 2167,
      "केआद": 2168,
      "जाम": 2169,
      "बालु": 2170,
      "दारू": 2171,
      "होना": 2172,
      "मायोम": 2173,
      "लाख": 2174,
      "साई": 2175,
      "साड़ि": 2176,
      "सागाते": 2177,
      "गाकाना": 2178,
      "चित्र": 2179,
      "सित": 2180,
      "सिने": 2181,
      "सुध": 2182,
      "स्तर": 2183,
      "हाम": 2184,
      "मों": 2185,
      "दुर्": 2186,
      "इनतु": 2187,
      "होबाकाना": 2188,
      "लिः": 2189,
      "रोमा": 2190,
      "तानाए": 2191,
      "आञे": 2192,
      "गिड़ि": 2193,
      "इंगअः": 2194,
      "प्रयोग": 2195,
      "गुण": 2196,
      "जेपी": 2197,
      "त्या": 2198,
      "नेयाते": 2199,
      "म्बा": 2200,
      "शिक्षा": 2201,
      "ज्ञ": 2202,
      "तादाको": 2203,
      "स्ट्रे": 2204,
      "जादाएः": 2205,
      "सानाङताना": 2206,
      "मोयद्": 2207,
      "णाम": 2208,
      "किरिंग": 2209,
      "होनोबा": 2210,
      "लोकतंत्र": 2211,
      "उकुता": 2212,
      "कार्यक्रम": 2213,
      "ग्रह": 2214,
      "दड़िओःअ": 2215,
      "परीक्षा": 2216,
      "शर्मा": 2217,
      "पढाव": 2218,
      "भ्रष्टाचार": 2219,
      "प्रधानमंत्री": 2220,
      "चिउलाओ": 2221,
      "बधाई": 2222,
      "ँडा": 2223,
      "ंड़ु": 2224,
      "अद": 2225,
      "अलोम": 2226,
      "आर्": 2227,
      "आइं": 2228,
      "उन": 2229,
      "कन्": 2230,
      "गू": 2231,
      "गढ़": 2232,
      "गति": 2233,
      "चन": 2234,
      "चन्डुः": 2235,
      "जदि": 2236,
      "तब": 2237,
      "पम": 2238,
      "पता": 2239,
      "बॉ": 2240,
      "बढ़": 2241,
      "यल": 2242,
      "रजि": 2243,
      "रवि": 2244,
      "रबल": 2245,
      "शनि": 2246,
      "सत्ता": 2247,
      "हला": 2248,
      "िक": 2249,
      "रेअ": 2250,
      "रेम": 2251,
      "रेगी": 2252,
      "कोठ": 2253,
      "केसे": 2254,
      "मेया": 2255,
      "निम": 2256,
      "लेद": 2257,
      "लाभ": 2258,
      "सारे": 2259,
      "मिआ": 2260,
      "चिर": 2261,
      "सोज": 2262,
      "जिलिङ": 2263,
      "हाटि": 2264,
      "हाटिङ": 2265,
      "मोड़े": 2266,
      "यों": 2267,
      "योगि": 2268,
      "बुरु": 2269,
      "हिला": 2270,
      "लेकानाः": 2271,
      "क्का": 2272,
      "विदेश": 2273,
      "पें": 2274,
      "जोड़े": 2275,
      "जीआः": 2276,
      "मुङ": 2277,
      "मुर": 2278,
      "बोओ": 2279,
      "प्रचार": 2280,
      "प्रसाद": 2281,
      "कानू": 2282,
      "तनी": 2283,
      "पिड़ि": 2284,
      "संत": 2285,
      "सिदारे": 2286,
      "सिदाउतार": 2287,
      "ब्रि": 2288,
      "अरजि": 2289,
      "सरती": 2290,
      "चें": 2291,
      "कनाए": 2292,
      "लागातिङ": 2293,
      "सुकुआ": 2294,
      "ंगेन": 2295,
      "नअःदो": 2296,
      "सारतेगे": 2297,
      "हुड़िग": 2298,
      "उनुरूम": 2299,
      "खोब्": 2300,
      "परिणाम": 2301,
      "बलय": 2302,
      "सराव": 2303,
      "कदाए": 2304,
      "भोगोमान": 2305,
      "ग्रा": 2306,
      "ज्ञानिक": 2307,
      "पुरअःगे": 2308,
      "फ्ट": 2309,
      "मेनाइया": 2310,
      "ओमेआ": 2311,
      "पातिआ": 2312,
      "छापा": 2313,
      "मैच": 2314,
      "तूम": 2315,
      "वैज्ञानिक": 2316,
      "उयुः": 2317,
      "जेताए": 2318,
      "होसोड़ो": 2319,
      "ब्लाग": 2320,
      "पढ़ाव": 2321,
      "तकनी": 2322,
      "आसराए": 2323,
      "जवाब": 2324,
      "सिनेमा": 2325,
      "ंपि": 2326,
      "अको": 2327,
      "अकना": 2328,
      "असरा": 2329,
      "अर्थ": 2330,
      "आऊ": 2331,
      "आत": 2332,
      "आय": 2333,
      "आकना": 2334,
      "आयोग": 2335,
      "इल": 2336,
      "एच": 2337,
      "ओव": 2338,
      "ओचोः": 2339,
      "कने": 2340,
      "कले": 2341,
      "कटी": 2342,
      "खन": 2343,
      "खे": 2344,
      "ख्या": 2345,
      "ग्रे": 2346,
      "गढ़": 2347,
      "तै": 2348,
      "बज": 2349,
      "बड़": 2350,
      "बलाए": 2351,
      "मण": 2352,
      "यी": 2353,
      "लगीन": 2354,
      "वस": 2355,
      "वड़": 2356,
      "षद": 2357,
      "हरी": 2358,
      "ृष्": 2359,
      "रेञ": 2360,
      "काॅ": 2361,
      "ताकिन": 2362,
      "तेद": 2363,
      "तेदो": 2364,
      "राते": 2365,
      "नेपेल": 2366,
      "बारी": 2367,
      "होड": 2368,
      "होरो": 2369,
      "होंका": 2370,
      "मांडि": 2371,
      "गेञ": 2372,
      "लापाः": 2373,
      "यात्रा": 2374,
      "साङ": 2375,
      "दोर": 2376,
      "मिक": 2377,
      "चिआ": 2378,
      "चिमि": 2379,
      "चिल्": 2380,
      "सिबिल": 2381,
      "वाय": 2382,
      "जिदन": 2383,
      "मोका": 2384,
      "दुड़ु": 2385,
      "लिजा": 2386,
      "बुटा": 2387,
      "बुड़ु": 2388,
      "तानताइकेनाएः": 2389,
      "द्दा": 2390,
      "विवे": 2391,
      "विजय": 2392,
      "जीनि": 2393,
      "मुसिङ": 2394,
      "बों": 2395,
      "बोङा": 2396,
      "देवी": 2397,
      "लेलकेदा": 2398,
      "तीस": 2399,
      "युक्त": 2400,
      "कजिको": 2401,
      "संड": 2402,
      "संसद": 2403,
      "ओकोता": 2404,
      "काजिकेदा": 2405,
      "लागाव": 2406,
      "शास्": 2407,
      "ओमकेदा": 2408,
      "इतुआन": 2409,
      "दाड़िजाना": 2410,
      "उनुड़ु": 2411,
      "पूर": 2412,
      "खोन": 2413,
      "सेसेनतान": 2414,
      "जादाको": 2415,
      "भोरसा": 2416,
      "मरङ": 2417,
      "जोरते": 2418,
      "सलाह": 2419,
      "घाटि": 2420,
      "अधिकार": 2421,
      "गोपोए": 2422,
      "नमोगा": 2423,
      "सुरक्षा": 2424,
      "लानदा": 2425,
      "बराबरी": 2426,
      "दुबाकान": 2427,
      "ब्रह्": 2428,
      "दंगड़ी": 2429,
      "सचिव": 2430,
      "जुगुतु": 2431,
      "चांडुः": 2432,
      "पूर्ण": 2433,
      "गुजरात": 2434,
      "ंच": 2435,
      "अउ": 2436,
      "असि": 2437,
      "अगर": 2438,
      "अपाना": 2439,
      "आग": 2440,
      "आयो": 2441,
      "आकन": 2442,
      "इत": 2443,
      "ग्री": 2444,
      "चलव": 2445,
      "ट्रो": 2446,
      "तय": 2447,
      "पड़ा": 2448,
      "परोम": 2449,
      "भक्ति": 2450,
      "रक": 2451,
      "वत": 2452,
      "वृ": 2453,
      "शर": 2454,
      "समु": 2455,
      "सब्": 2456,
      "सनाम": 2457,
      "सहर": 2458,
      "हगा": 2459,
      "ेआ": 2460,
      "ड़म": 2461,
      "।।": 2462,
      "नांगेन": 2463,
      "तेयो": 2464,
      "राशि": 2465,
      "केम": 2466,
      "नेलेकन": 2467,
      "दारु": 2468,
      "मेल": 2469,
      "लेपे": 2470,
      "माः": 2471,
      "माराँग": 2472,
      "लाञ": 2473,
      "लाम": 2474,
      "रिश्": 2475,
      "ताइनो": 2476,
      "नेआओ": 2477,
      "इनिअ": 2478,
      "इनिलोः": 2479,
      "वारी": 2480,
      "वाकाना": 2481,
      "स्कार": 2482,
      "हाका": 2483,
      "मोए": 2484,
      "योआ": 2485,
      "दुकान": 2486,
      "इनकिन": 2487,
      "चाओ": 2488,
      "पुलाइ": 2489,
      "लिका": 2490,
      "हिसाब": 2491,
      "हिसब": 2492,
      "हिस्सा": 2493,
      "तानकोआः": 2494,
      "रोब": 2495,
      "तानाम": 2496,
      "आञो": 2497,
      "विस": 2498,
      "जोका": 2499,
      "जीद": 2500,
      "बियुर": 2501,
      "ओःतान": 2502,
      "सोबेनते": 2503,
      "गियु": 2504,
      "मुन": 2505,
      "बोओः": 2506,
      "बोतो": 2507,
      "प्री": 2508,
      "प्रयास": 2509,
      "प्रबंधन": 2510,
      "कोआएः": 2511,
      "न्त": 2512,
      "न्दि": 2513,
      "गुना": 2514,
      "बाइआकान": 2515,
      "मीर": 2516,
      "रुप": 2517,
      "संघ": 2518,
      "सीमा": 2519,
      "ब्लॉ": 2520,
      "काजिकेदाएः": 2521,
      "जनता": 2522,
      "लेनाएः": 2523,
      "मंजू": 2524,
      "राजस्थान": 2525,
      "राजधानी": 2526,
      "शिया": 2527,
      "चीज": 2528,
      "खाना": 2529,
      "बीजेपी": 2530,
      "ड़ेः": 2531,
      "इंडिया": 2532,
      "धिया": 2533,
      "ट्स": 2534,
      "परिषद": 2535,
      "पंजा": 2536,
      "आबुआ": 2537,
      "सूर": 2538,
      "बनोः": 2539,
      "सोबेनकोआते": 2540,
      "होबाओःताना": 2541,
      "पतिया": 2542,
      "आलोपे": 2543,
      "जारगि": 2544,
      "अइञ": 2545,
      "धारण": 2546,
      "लगव": 2547,
      "भूमि": 2548,
      "तिङगु": 2549,
      "्यूटर": 2550,
      "रेंगेः": 2551,
      "अइंआ": 2552,
      "इलाका": 2553,
      "सचिन": 2554,
      "मुंबई": 2555,
      "लक्ष्": 2556,
      "बाइओगा": 2557,
      "दुड़ुम": 2558,
      "ंदि": 2559,
      "अय": 2560,
      "आबा": 2561,
      "आसि": 2562,
      "आपा": 2563,
      "आतोम": 2564,
      "उदा": 2565,
      "उरू": 2566,
      "उल्": 2567,
      "एक्": 2568,
      "ओज": 2569,
      "ओता": 2570,
      "ओताना": 2571,
      "खै": 2572,
      "चू": 2573,
      "जमान": 2574,
      "दै": 2575,
      "नई": 2576,
      "पह": 2577,
      "मशी": 2578,
      "वं": 2579,
      "शब्": 2580,
      "शक्ति": 2581,
      "समि": 2582,
      "हक": 2583,
      "हनु": 2584,
      "हरिया": 2585,
      "नाग": 2586,
      "नामेआ": 2587,
      "रेट": 2588,
      "काग": 2589,
      "तेला": 2590,
      "तेबअः": 2591,
      "राकाना": 2592,
      "नेसा": 2593,
      "नेआः": 2594,
      "नेसाः": 2595,
      "जाला": 2596,
      "जारी": 2597,
      "बाबू": 2598,
      "निवे": 2599,
      "साफा": 2600,
      "सासाङ": 2601,
      "चिऊ": 2602,
      "ताइजाना": 2603,
      "पाटी": 2604,
      "नेआराः": 2605,
      "सोनो": 2606,
      "सोबन": 2607,
      "इनिगा": 2608,
      "वाकान": 2609,
      "जिन": 2610,
      "जिनी": 2611,
      "स्तु": 2612,
      "हाइ": 2613,
      "मोटो": 2614,
      "योवा": 2615,
      "दुड़ु": 2616,
      "लिंगि": 2617,
      "बुध": 2618,
      "विन": 2619,
      "विधि": 2620,
      "रिकाया": 2621,
      "जीत": 2622,
      "टेन": 2623,
      "टेल": 2624,
      "ओःअ": 2625,
      "ओःका": 2626,
      "रूद": 2627,
      "प्रस्ता": 2628,
      "प्रशासन": 2629,
      "प्रकृति": 2630,
      "हिजुआ": 2631,
      "बाइरि": 2632,
      "लेलजाना": 2633,
      "डाक्टर": 2634,
      "सेनकेना": 2635,
      "संबंध": 2636,
      "कामिको": 2637,
      "काजिओःआ": 2638,
      "तोवा": 2639,
      "सरति": 2640,
      "इनकुको": 2641,
      "ंडर": 2642,
      "ताइनाएः": 2643,
      "हेए": 2644,
      "प्रिय": 2645,
      "सनमंग": 2646,
      "हिजुःयना": 2647,
      "समस्या": 2648,
      "आउकेआते": 2649,
      "श्वर": 2650,
      "आंव": 2651,
      "ज्यो": 2652,
      "उनुबार": 2653,
      "उनुदुब्": 2654,
      "इमनुङ": 2655,
      "उदुबकेदा": 2656,
      "वरण": 2657,
      "पंचा": 2658,
      "मानातिंग": 2659,
      "सूचना": 2660,
      "भावना": 2661,
      "तिंगुन": 2662,
      "लाइः": 2663,
      "बोरसा": 2664,
      "खुरजि": 2665,
      "निकुआ": 2666,
      "अभियान": 2667,
      "सलमान": 2668,
      "पत्रकार": 2669,
      "आयुब": 2670,
      "कहानी": 2671,
      "विश्वविद्यालय": 2672,
      "कल्प": 2673,
      "ओनमान": 2674,
      "जन्म": 2675,
      "इंटरनेट": 2676,
      "रिड़िङ": 2677,
      "निमतंग": 2678,
      "कानून": 2679,
      "ंजी": 2680,
      "अनि": 2681,
      "आस": 2682,
      "आका": 2683,
      "आधार": 2684,
      "उस": 2685,
      "उदू": 2686,
      "एं": 2687,
      "एजे": 2688,
      "एङगा": 2689,
      "एकदम": 2690,
      "ओका": 2691,
      "करा": 2692,
      "चपा": 2693,
      "ठे": 2694,
      "थे": 2695,
      "दस": 2696,
      "नव": 2697,
      "नपम": 2698,
      "पौ": 2699,
      "पन्": 2700,
      "बल्": 2701,
      "भक्त": 2702,
      "मंड": 2703,
      "मध्य": 2704,
      "रति": 2705,
      "रचना": 2706,
      "लअ": 2707,
      "वरी": 2708,
      "शं": 2709,
      "सहा": 2710,
      "सफा": 2711,
      "हमि": 2712,
      "हपा": 2713,
      "नामे": 2714,
      "नायक": 2715,
      "रेपे": 2716,
      "काइ": 2717,
      "ताद": 2718,
      "तेञ": 2719,
      "रानी": 2720,
      "राबाङ": 2721,
      "केन्द्र": 2722,
      "जाआना": 2723,
      "बाब": 2724,
      "बाला": 2725,
      "बाजार": 2726,
      "बाहिर": 2727,
      "दाना": 2728,
      "मेला": 2729,
      "निजी": 2730,
      "नितिर": 2731,
      "मालि": 2732,
      "साध": 2733,
      "साव": 2734,
      "साड़ा": 2735,
      "गाल": 2736,
      "गाड़ि": 2737,
      "रिज": 2738,
      "दोकान": 2739,
      "चित": 2740,
      "बेदा": 2741,
      "कुन": 2742,
      "पासरा": 2743,
      "सोबोन": 2744,
      "सोङगे": 2745,
      "सोमोए": 2746,
      "सोओज": 2747,
      "मेनाञा": 2748,
      "वार्ड": 2749,
      "कितब": 2750,
      "सुपर": 2751,
      "सुगड़": 2752,
      "हाबि": 2753,
      "हासुर": 2754,
      "दुकू": 2755,
      "चासा": 2756,
      "टाओ": 2757,
      "होबाआकाना": 2758,
      "होबायना": 2759,
      "गोवा": 2760,
      "गोजो": 2761,
      "हिसा": 2762,
      "तुका": 2763,
      "रोह": 2764,
      "ड़ाम": 2765,
      "एनरेओ": 2766,
      "बिङ": 2767,
      "मुल": 2768,
      "मुना": 2769,
      "हुकुम": 2770,
      "जनाव": 2771,
      "न्हा": 2772,
      "डित": 2773,
      "कानाजि": 2774,
      "होड़ोकोआ": 2775,
      "टोगो": 2776,
      "संसार": 2777,
      "संजय": 2778,
      "कामिरे": 2779,
      "इनकुः": 2780,
      "ङान": 2781,
      "मंच": 2782,
      "हेड़े": 2783,
      "प्ले": 2784,
      "एआको": 2785,
      "हिजुःताना": 2786,
      "शिकाय": 2787,
      "चीनी": 2788,
      "वीडियो": 2789,
      "पुराःगे": 2790,
      "नेताको": 2791,
      "दाड़िजाना": 2792,
      "सिंगी": 2793,
      "एसकार": 2794,
      "कुड़िको": 2795,
      "बादली": 2796,
      "भोग": 2797,
      "ग्राम": 2798,
      "बनोःआ": 2799,
      "लेलोगा": 2800,
      "उपुनिआ": 2801,
      "सामपो": 2802,
      "हानाटिङ": 2803,
      "बानचाव": 2804,
      "तदाए": 2805,
      "आपुते": 2806,
      "ष्णु": 2807,
      "जैन": 2808,
      "दंगड़ा": 2809,
      "नौकरी": 2810,
      "लेलेमे": 2811,
      "माइनान": 2812,
      "संस्कृत": 2813,
      "चिआःचि": 2814,
      "अदालत": 2815,
      "राचाः": 2816,
      "यंत्र": 2817,
      "साँगि": 2818,
      "त्मक": 2819,
      "लगातिंगअः": 2820,
      "रमल": 2821,
      "कुटुरि": 2822,
      "सीबीआई": 2823,
      "स्ट्रेलिया": 2824,
      "आतंक": 2825,
      "होडमो": 2826,
      "चिआचि": 2827,
      "मशीन": 2828,
      "हनुमान": 2829,
      "जिनीद": 2830,
      "ज्योति": 2831,
      "हाबिः": 2832,
      "ंबु": 2833,
      "ंसी": 2834,
      "ःको": 2835,
      "अएआ": 2836,
      "अकाद": 2837,
      "आगा": 2838,
      "उड़": 2839,
      "एया": 2840,
      "कते": 2841,
      "कम्": 2842,
      "कपाजि": 2843,
      "खतरा": 2844,
      "खर्चा": 2845,
      "गत": 2846,
      "गम": 2847,
      "गमा": 2848,
      "घड़ी": 2849,
      "चर्चा": 2850,
      "छे": 2851,
      "छत्": 2852,
      "जंग": 2853,
      "जोः": 2854,
      "जपअः": 2855,
      "नंबर": 2856,
      "पसराव": 2857,
      "बर्": 2858,
      "मृ": 2859,
      "मता": 2860,
      "मही": 2861,
      "यते": 2862,
      "रङ": 2863,
      "लम": 2864,
      "सक": 2865,
      "हजा": 2866,
      "हसा": 2867,
      "रेंग": 2868,
      "काबु": 2869,
      "कोएते": 2870,
      "केओ": 2871,
      "केश": 2872,
      "नेला": 2873,
      "नेकन": 2874,
      "जाआ": 2875,
      "बाज": 2876,
      "दाल": 2877,
      "दांगड़ा": 2878,
      "होड़": 2879,
      "होटोः": 2880,
      "लेकेआते": 2881,
      "लेनाः": 2882,
      "मारंग": 2883,
      "लाएः": 2884,
      "लाड़ा": 2885,
      "यां": 2886,
      "याम": 2887,
      "याकन": 2888,
      "सात": 2889,
      "साह": 2890,
      "गान": 2891,
      "रिङ": 2892,
      "रिड़ि": 2893,
      "तिहा": 2894,
      "सिद्धा": 2895,
      "कुली": 2896,
      "कुड़ी": 2897,
      "पाइ": 2898,
      "पाठ": 2899,
      "इनिया": 2900,
      "वाणी": 2901,
      "किनो": 2902,
      "र्व": 2903,
      "र्ष": 2904,
      "र्जी": 2905,
      "स्ति": 2906,
      "हारिआ": 2907,
      "योन": 2908,
      "दुसि": 2909,
      "इनई": 2910,
      "दिवस": 2911,
      "टाआं": 2912,
      "बुआ": 2913,
      "तुला": 2914,
      "तुसिंग": 2915,
      "आञके": 2916,
      "क्रा": 2917,
      "क्शन": 2918,
      "वित": 2919,
      "विष्णु": 2920,
      "रिकाकेदाए": 2921,
      "जोला": 2922,
      "सोबेनाः": 2923,
      "एनतअः": 2924,
      "बिपि": 2925,
      "सोबेनकोआः": 2926,
      "मुसिंग": 2927,
      "जनाको": 2928,
      "एनाद": 2929,
      "देर": 2930,
      "केआतेगे": 2931,
      "जेतना": 2932,
      "पिटि": 2933,
      "संस्था": 2934,
      "सीआई": 2935,
      "तोल": 2936,
      "एटेगोआ": 2937,
      "मानडि": 2938,
      "अइंगके": 2939,
      "प्त": 2940,
      "जागारको": 2941,
      "सनरति": 2942,
      "तइकेनाय": 2943,
      "तइनाय": 2944,
      "सिङबोंगा": 2945,
      "गोनोङान": 2946,
      "सेनोःतान": 2947,
      "आयागा": 2948,
      "तादाए": 2949,
      "उनुड़ु": 2950,
      "लुतूम": 2951,
      "इनीजा": 2952,
      "खिर": 2953,
      "तयोमते": 2954,
      "हारातिङ": 2955,
      "अपरा": 2956,
      "यूपी": 2957,
      "ंदान": 2958,
      "होबाओःअ": 2959,
      "फ्ता": 2960,
      "एनेटे": 2961,
      "संगठन": 2962,
      "गलति": 2963,
      "उत्तरा": 2964,
      "छात्र": 2965,
      "मारसाल": 2966,
      "स्वास्थ": 2967,
      "गोआरि": 2968,
      "अंतर": 2969,
      "एदकान": 2970,
      "झार": 2971,
      "ब्लाॅ": 2972,
      "बिरिद्": 2973,
      "फरका": 2974,
      "दाङगाड़ा": 2975,
      "तईकेना": 2976,
      "रेलवे": 2977,
      "जाँच": 2978,
      "हुडिङ": 2979,
      "मुरतु": 2980,
      "चिल्का": 2981,
      "संडका": 2982,
      "शब्द": 2983,
      "समिति": 2984,
      "कागज": 2985,
      "जालाकार": 2986,
      "सासाङकिर": 2987,
      "प्रस्ताव": 2988,
      "शिकायत": 2989,
      "छत्तीस": 2990,
      "बिपिनगा": 2991,
      ":?": 2992,
      "ंज": 2993,
      "अइन": 2994,
      "अड़ा": 2995,
      "अबू": 2996,
      "अहम": 2997,
      "अशो": 2998,
      "आसा": 2999,
      "आयर": 3000,
      "आखिर": 3001,
      "उब": 3002,
      "एक": 3003,
      "एकला": 3004,
      "एक्स": 3005,
      "ओट": 3006,
      "ककला": 3007,
      "गन": 3008,
      "गव": 3009,
      "गरी": 3010,
      "गमु": 3011,
      "चल": 3012,
      "चक्र": 3013,
      "जम": 3014,
      "जहा": 3015,
      "झी": 3016,
      "ञमे": 3017,
      "डल": 3018,
      "ढा": 3019,
      "तअ": 3020,
      "तद्": 3021,
      "तत्व": 3022,
      "नपाम": 3023,
      "पट": 3024,
      "फ्रे": 3025,
      "मज": 3026,
      "मद": 3027,
      "मस्": 3028,
      "मड़ि": 3029,
      "महे": 3030,
      "मखिल": 3031,
      "रस": 3032,
      "रसि": 3033,
      "व्": 3034,
      "सव": 3035,
      "सजा": 3036,
      "सपा": 3037,
      "हम्": 3038,
      "ृत": 3039,
      "रेबु": 3040,
      "कोट": 3041,
      "कोनो": 3042,
      "कोलोः": 3043,
      "तानेः": 3044,
      "तेगी": 3045,
      "राकान": 3046,
      "राजे": 3047,
      "केंद्र": 3048,
      "नेस": 3049,
      "बागाड़ा": 3050,
      "बाबत": 3051,
      "दाइ": 3052,
      "दाय": 3053,
      "निमिन": 3054,
      "मां": 3055,
      "माकाना": 3056,
      "लाकान": 3057,
      "लालू": 3058,
      "साजा": 3059,
      "गाड़ी": 3060,
      "रिं": 3061,
      "तिः": 3062,
      "दोम": 3063,
      "दोष": 3064,
      "सेड़ा": 3065,
      "सेपेड़े": 3066,
      "चिद": 3067,
      "चिल": 3068,
      "चिमुङ": 3069,
      "ोःका": 3070,
      "कुड़म": 3071,
      "पारि": 3072,
      "वारा": 3073,
      "वासी": 3074,
      "वाही": 3075,
      "किंग": 3076,
      "किला": 3077,
      "किसां": 3078,
      "किसान": 3079,
      "जिम्": 3080,
      "जिलिंग": 3081,
      "मोत": 3082,
      "मोद्": 3083,
      "मोर्चा": 3084,
      "केदाम": 3085,
      "चाय": 3086,
      "चाल": 3087,
      "चापा": 3088,
      "चाहे": 3089,
      "गोट": 3090,
      "गोल": 3091,
      "लोअ": 3092,
      "लोड": 3093,
      "लोब": 3094,
      "द्धि": 3095,
      "जुड़ा": 3096,
      "जोतो": 3097,
      "इनिःअः": 3098,
      "एन्": 3099,
      "एनते": 3100,
      "बिचार": 3101,
      "आतेआ": 3102,
      "मुद्दा": 3103,
      "हुपुड़ि": 3104,
      "बोङगा": 3105,
      "रूअड़": 3106,
      "प्रक्रिया": 3107,
      "एनाको": 3108,
      "कोआको": 3109,
      "न्स": 3110,
      "बाइकेआते": 3111,
      "डान": 3112,
      "जेतय": 3113,
      "त्त": 3114,
      "त्कार": 3115,
      "कजिया": 3116,
      "ल्स": 3117,
      "टोला": 3118,
      "पिति": 3119,
      "मीद": 3120,
      "संस": 3121,
      "ताःरे": 3122,
      "सिदाते": 3123,
      "जानते": 3124,
      "म्ब": 3125,
      "पोकोतो": 3126,
      "सरका": 3127,
      "कमिया": 3128,
      "मंदिल": 3129,
      "हेंदे": 3130,
      "समर्थ": 3131,
      "दाड़िआम": 3132,
      "बइरि": 3133,
      "कीन": 3134,
      "सुकुआन": 3135,
      "आनंद": 3136,
      "धिकार": 3137,
      "सेनोःजानाएः": 3138,
      "ंदन": 3139,
      "उनुस": 3140,
      "उनुरुम": 3141,
      "बारसा": 3142,
      "ओकोएआः": 3143,
      "एसपी": 3144,
      "साःते": 3145,
      "आइंगा": 3146,
      "यूनि": 3147,
      "सेंडा": 3148,
      "देशक": 3149,
      "परियोजना": 3150,
      "जपागर": 3151,
      "वर्ण": 3152,
      "टोओरेआ": 3153,
      "कार्यालय": 3154,
      "दड़िओ": 3155,
      "मनमोहन": 3156,
      "बादलि": 3157,
      "ज्ञापन": 3158,
      "उपयोग": 3159,
      "होबाओताना": 3160,
      "अटकार": 3161,
      "अटकरो": 3162,
      "रूआड़": 3163,
      "महल": 3164,
      "हिन्दु": 3165,
      "चैनल": 3166,
      "जगत": 3167,
      "सेकेड़ा": 3168,
      "लैंड": 3169,
      "विद्या": 3170,
      "संगिन": 3171,
      "मंगल": 3172,
      "जागारा": 3173,
      "कअको": 3174,
      "दुलडा": 3175,
      "छुट्टी": 3176,
      "बगड़व": 3177,
      "कोटोंग": 3178,
      "राष्ट्रपति": 3179,
      "उदम": 3180,
      "चिकिसा": 3181,
      "उडुंग": 3182,
      "पत्रिका": 3183,
      "मसकल": 3184,
      "काकाला": 3185,
      "बहुत": 3186,
      "बजट": 3187,
      "पंजाब": 3188,
      "उल्टा": 3189,
      "चिऊलाओ": 3190,
      "महीना": 3191,
      "लाड़ाइ": 3192,
      "टाआंओ": 3193,
      "अशोक": 3194,
      "ँगा": 3195,
      "अस": 3196,
      "अंग": 3197,
      "अंक": 3198,
      "आख": 3199,
      "आव": 3200,
      "आॅ": 3201,
      "आराः": 3202,
      "आटका": 3203,
      "इले": 3204,
      "उपि": 3205,
      "उरुम": 3206,
      "एप": 3207,
      "एमा": 3208,
      "एद्": 3209,
      "ओं": 3210,
      "ओगे": 3211,
      "ओरो": 3212,
      "ओड़ा": 3213,
      "कट": 3214,
      "कप": 3215,
      "करे": 3216,
      "कबु": 3217,
      "कटि": 3218,
      "कथा": 3219,
      "कर्म": 3220,
      "गौ": 3221,
      "चरि": 3222,
      "चंद्र": 3223,
      "चन्द्र": 3224,
      "छपा": 3225,
      "जअः": 3226,
      "झव": 3227,
      "तर्": 3228,
      "दरू": 3229,
      "द्रो": 3230,
      "दक्षि": 3231,
      "नः": 3232,
      "नङ": 3233,
      "नक्स": 3234,
      "पसे": 3235,
      "फ़": 3236,
      "बन्": 3237,
      "बकल": 3238,
      "बकं": 3239,
      "भजन": 3240,
      "मॉ": 3241,
      "वु": 3242,
      "सस": 3243,
      "सना": 3244,
      "सबु": 3245,
      "सत्र": 3246,
      "सही": 3247,
      "हौ": 3248,
      "हड़": 3249,
      "हड़म": 3250,
      "ित": 3251,
      "ूना": 3252,
      "ृह": 3253,
      "ढ़ी": 3254,
      "नापा": 3255,
      "नाराय": 3256,
      "नाड़ेः": 3257,
      "रेलगा": 3258,
      "कोनेआ": 3259,
      "कोरेआ": 3260,
      "तां": 3261,
      "तेम": 3262,
      "तेमाल": 3263,
      "नेद": 3264,
      "बाउ": 3265,
      "बाव": 3266,
      "बाजी": 3267,
      "निमन": 3268,
      "हों": 3269,
      "होब": 3270,
      "होनाः": 3271,
      "माँ": 3272,
      "मास": 3273,
      "माकन": 3274,
      "लाचो": 3275,
      "याइंग": 3276,
      "सांस": 3277,
      "साधारण": 3278,
      "मिता": 3279,
      "चिलिका": 3280,
      "सिटी": 3281,
      "पाड़ा": 3282,
      "वाई": 3283,
      "सुधार": 3284,
      "सुविधा": 3285,
      "र्जा": 3286,
      "र्ति": 3287,
      "स्टो": 3288,
      "स्टी": 3289,
      "हाई": 3290,
      "हाद": 3291,
      "हालि": 3292,
      "मोती": 3293,
      "चाः": 3294,
      "चाला": 3295,
      "चासि": 3296,
      "चारी": 3297,
      "चार्य": 3298,
      "होबालेन": 3299,
      "लिपि": 3300,
      "लिस्ट": 3301,
      "लिंक": 3302,
      "लोआ": 3303,
      "बुड़ु": 3304,
      "द्रा": 3305,
      "रिकाएमे": 3306,
      "नुकु": 3307,
      "इनिःको": 3308,
      "बिल्": 3309,
      "बिरूद": 3310,
      "टेका": 3311,
      "टेक्": 3312,
      "रेन्": 3313,
      "मुड़ा": 3314,
      "मुसलमान": 3315,
      "हुंडि": 3316,
      "प्रमाण": 3317,
      "कान्": 3318,
      "देपे": 3319,
      "देड़े": 3320,
      "न्याय": 3321,
      "हिजुजाना": 3322,
      "बाइरिका": 3323,
      "डाय": 3324,
      "डाॅ": 3325,
      "डाटा": 3326,
      "डाउन": 3327,
      "त्सा": 3328,
      "त्वा": 3329,
      "टिया": 3330,
      "ल्ड": 3331,
      "सींग": 3332,
      "जानवर": 3333,
      "होड़ोआः": 3334,
      "होड़ोकोअः": 3335,
      "ओकोआते": 3336,
      "क्षक": 3337,
      "म्स": 3338,
      "म्बर": 3339,
      "तोर": 3340,
      "जनचि": 3341,
      "पोरोब": 3342,
      "लेनाए": 3343,
      "निःआ": 3344,
      "मंत्रा": 3345,
      "मानव": 3346,
      "वेज": 3347,
      "प्या": 3348,
      "हिजुःतान": 3349,
      "शिका": 3350,
      "दिसुमरे": 3351,
      "ड़ें": 3352,
      "पुरस्कार": 3353,
      "सिङगि": 3354,
      "वीं": 3355,
      "फाइल": 3356,
      "इदिओः": 3357,
      "ंगे्र": 3358,
      "धिकारी": 3359,
      "पूंजी": 3360,
      "खिंस": 3361,
      "खोब": 3362,
      "जादाञ": 3363,
      "ट्रा": 3364,
      "बोरोआन": 3365,
      "ओमाकाना": 3366,
      "शील": 3367,
      "कार्ड": 3368,
      "ठोरो": 3369,
      "ठोरोआ": 3370,
      "पंच": 3371,
      "आपिर": 3372,
      "क्रो": 3373,
      "भोपाल": 3374,
      "लेलोआ": 3375,
      "आलोका": 3376,
      "दूर": 3377,
      "कैं": 3378,
      "जांएओ": 3379,
      "धोन": 3380,
      "अपिर": 3381,
      "स्वस्थ": 3382,
      "सोंगेको": 3383,
      "अनुभव": 3384,
      "मौसम": 3385,
      "दांड़ा": 3386,
      "ओलाकन": 3387,
      "भीर": 3388,
      "कर्ता": 3389,
      "श्रम": 3390,
      "सरिन": 3391,
      "टुङको": 3392,
      "अवसर": 3393,
      "जोमेआः": 3394,
      "पढ़व": 3395,
      "करोड़": 3396,
      "उद्योग": 3397,
      "टिकट": 3398,
      "अखबार": 3399,
      "परेशान": 3400,
      "होड़मो": 3401,
      "आड़ान्दि": 3402,
      "मोड़ेआ": 3403,
      "इसकुल": 3404,
      "उताराकाना": 3405,
      "तरीका": 3406,
      "आकरिङ": 3407,
      "ओटाङ": 3408,
      "हामबाल": 3409,
      "सनामंग": 3410,
      "रिश्ता": 3411,
      "निवेश": 3412,
      "दुड़ुम": 3413,
      "सामपोड़ो": 3414,
      "स्वास्थ्य": 3415,
      "झील": 3416,
      "उनुसकुर": 3417,
      "सांसद": 3418,
      "मंत्रालय": 3419,
      "ंड़": 3420,
      "अरे": 3421,
      "अते": 3422,
      "अर्": 3423,
      "अलो": 3424,
      "अक्ष": 3425,
      "अकोअः": 3426,
      "अयू": 3427,
      "अयअः": 3428,
      "अमित": 3429,
      "आङ": 3430,
      "आठ": 3431,
      "आरा": 3432,
      "आला": 3433,
      "आतं": 3434,
      "आत्मा": 3435,
      "इञ": 3436,
      "इना": 3437,
      "इजा": 3438,
      "इरि": 3439,
      "इमि": 3440,
      "उता": 3441,
      "एय": 3442,
      "एतकन": 3443,
      "ओएः": 3444,
      "कमा": 3445,
      "कब्": 3446,
      "कपूर": 3447,
      "खू": 3448,
      "खरा": 3449,
      "खण्ड": 3450,
      "गड़ा": 3451,
      "गौर": 3452,
      "चम": 3453,
      "चंद": 3454,
      "चलन": 3455,
      "चंड़ु": 3456,
      "जब": 3457,
      "जव": 3458,
      "जर्": 3459,
      "ट्यू": 3460,
      "तद": 3461,
      "दया": 3462,
      "दडि": 3463,
      "दशा": 3464,
      "ध्र": 3465,
      "धंटा": 3466,
      "नमे": 3467,
      "नहला": 3468,
      "पदा": 3469,
      "पहिला": 3470,
      "फसे": 3471,
      "फर्": 3472,
      "बम": 3473,
      "बनि": 3474,
      "बगी": 3475,
      "भै": 3476,
      "भइर": 3477,
      "मई": 3478,
      "महारा": 3479,
      "मधु": 3480,
      "रल": 3481,
      "रव": 3482,
      "रमे": 3483,
      "रचा": 3484,
      "रबंग": 3485,
      "लं": 3486,
      "षे": 3487,
      "सरी": 3488,
      "सफल": 3489,
      "हं": 3490,
      "हॉ": 3491,
      "हटिंग": 3492,
      "ोआ": 3493,
      "्स": 3494,
      "नाओ": 3495,
      "नामि": 3496,
      "नाड़े": 3497,
      "नाँग": 3498,
      "कोअ": 3499
    },
    "merges": [
      [
        "न",
        "ा"
      ],
      [
        "र",
        "े"
      ],
      [
        "क",
        "ा"
      ],
      [
        "क",
        "ो"
      ],
      [
        "त",
        "ा"
      ],
      [
        "त",
        "े"
      ],
      [
        "र",
        "ा"
      ],
      [
        "क",
        "े"
      ],
      [
        "न",
        "े"
      ],
      [
        "ज",
        "ा"
      ],
      [
        "ब",
        "ा"
      ],
      [
        "ड",
        "़"
      ],
      [
        "द",
        "ा"
      ],
      [
        "म",
        "े"
      ],
      [
        "ं",
        "ग"
      ],
      [
        "न",
        "ि"
      ],
      [
        "ह",
        "ो"
      ],
      [
        "ल",
        "े"
      ],
      [
        "म",
        "ा"
      ],
      [
        "ग",
        "े"
      ],
      [
        "ल",
        "ा"
      ],
      [
        "य",
        "ा"
      ],
      [
        "स",
        "ा"
      ],
      [
        "ग",
        "ा"
      ],
      [
        "र",
        "ि"
      ],
      [
        "त",
        "ि"
      ],
      [
        "द",
        "ो"
      ],
      [
        "म",
        "ि"
      ],
      [
        "आ",
        "ः"
      ],
      [
        "स",
        "े"
      ],
      [
        "च",
        "ि"
      ],
      [
        "स",
        "ि"
      ],
      [
        "ो",
        "ः"
      ],
      [
        "अ",
        "ः"
      ],
      [
        "ब",
        "े"
      ],
      [
        "क",
        "ु"
      ],
      [
        "्",
        "र"
      ],
      [
        "ता",
        "इ"
      ],
      [
        "प",
        "ा"
      ],
      [
        "ने",
        "आ"
      ],
      [
        "स",
        "ो"
      ],
      [
        "इ",
        "नि"
      ],
      [
        "के",
        "ना"
      ],
      [
        "मे",
        "ना"
      ],
      [
        "व",
        "ा"
      ],
      [
        "क",
        "ि"
      ],
      [
        "ज",
        "ि"
      ],
      [
        "स",
        "ु"
      ],
      [
        "र",
        "्"
      ],
      [
        "जा",
        "ना"
      ],
      [
        "स",
        "्"
      ],
      [
        "ह",
        "ा"
      ],
      [
        "ए",
        "ः"
      ],
      [
        "म",
        "ो"
      ],
      [
        "य",
        "ो"
      ],
      [
        "द",
        "ु"
      ],
      [
        "के",
        "दा"
      ],
      [
        "इ",
        "न"
      ],
      [
        "द",
        "ि"
      ],
      [
        "मे",
        "न"
      ],
      [
        "च",
        "ा"
      ],
      [
        "प",
        "ु"
      ],
      [
        "रा",
        "ः"
      ],
      [
        "ट",
        "ा"
      ],
      [
        "हो",
        "बा"
      ],
      [
        "ताइ",
        "केना"
      ],
      [
        "ल",
        "ि"
      ],
      [
        "ड़",
        "ा"
      ],
      [
        "ग",
        "ो"
      ],
      [
        "ल",
        "ो"
      ],
      [
        "ब",
        "ु"
      ],
      [
        "ह",
        "ि"
      ],
      [
        "न",
        "ो"
      ],
      [
        "ड़",
        "ो"
      ],
      [
        "त",
        "ु"
      ],
      [
        "ता",
        "न"
      ],
      [
        "र",
        "ो"
      ],
      [
        "ता",
        "ना"
      ],
      [
        "ले",
        "का"
      ],
      [
        "द",
        "्"
      ],
      [
        "आ",
        "ञ"
      ],
      [
        "क",
        "्"
      ],
      [
        "व",
        "ि"
      ],
      [
        "रि",
        "का"
      ],
      [
        "न",
        "ु"
      ],
      [
        "प",
        "े"
      ],
      [
        "र",
        "आः"
      ],
      [
        "ज",
        "ु"
      ],
      [
        "ज",
        "ो"
      ],
      [
        "सो",
        "बे"
      ],
      [
        "ड़",
        "ा"
      ],
      [
        "ड़",
        "ि"
      ],
      [
        "ज",
        "ी"
      ],
      [
        "इनि",
        "ः"
      ],
      [
        "रे",
        "आ"
      ],
      [
        "ए",
        "न"
      ],
      [
        "ब",
        "ि"
      ],
      [
        "ट",
        "े"
      ],
      [
        "ओ",
        "ः"
      ],
      [
        "सोबे",
        "न"
      ],
      [
        "ग",
        "ि"
      ],
      [
        "रे",
        "न"
      ],
      [
        "आ",
        "ते"
      ],
      [
        "र",
        "ी"
      ],
      [
        "म",
        "ु"
      ],
      [
        "ड़",
        "ि"
      ],
      [
        "ह",
        "ु"
      ],
      [
        "ज",
        "ना"
      ],
      [
        "मेना",
        "ः"
      ],
      [
        "इ",
        "ंग"
      ],
      [
        "त",
        "ना"
      ],
      [
        "ब",
        "ो"
      ],
      [
        "र",
        "ू"
      ],
      [
        "प",
        "्र"
      ],
      [
        "का",
        "न"
      ],
      [
        "त",
        "न"
      ],
      [
        "ए",
        "ना"
      ],
      [
        "को",
        "आ"
      ],
      [
        "द",
        "े"
      ],
      [
        "न",
        "्"
      ],
      [
        "भ",
        "ा"
      ],
      [
        "ड",
        "ि"
      ],
      [
        "ग",
        "ु"
      ],
      [
        "क",
        "न"
      ],
      [
        "हि",
        "जु"
      ],
      [
        "ंग",
        "ा"
      ],
      [
        "ओ",
        "ड़"
      ],
      [
        "ग",
        "र"
      ],
      [
        "का",
        "ना"
      ],
      [
        "बा",
        "इ"
      ],
      [
        "मेन",
        "ते"
      ],
      [
        ":",
        "।"
      ],
      [
        "रे",
        "अः"
      ],
      [
        "ड़",
        "ु"
      ],
      [
        "ले",
        "ल"
      ],
      [
        "ड",
        "ा"
      ],
      [
        "ओ",
        "ड़ो"
      ],
      [
        "आ",
        "द"
      ],
      [
        "न",
        "ी"
      ],
      [
        "के",
        "आते"
      ],
      [
        "ज",
        "े"
      ],
      [
        "त",
        "इ"
      ],
      [
        "त",
        "्"
      ],
      [
        "ल",
        "ी"
      ],
      [
        "आ",
        "र"
      ],
      [
        "ने",
        "या"
      ],
      [
        "ड",
        "ो"
      ],
      [
        "से",
        "न"
      ],
      [
        "मेन",
        "दो"
      ],
      [
        "हो",
        "ड़ो"
      ],
      [
        "का",
        "र"
      ],
      [
        "ट",
        "ि"
      ],
      [
        "मि",
        "आद"
      ],
      [
        "त",
        "ी"
      ],
      [
        "य",
        "ु"
      ],
      [
        "ओड़",
        "ोः"
      ],
      [
        "क",
        "जि"
      ],
      [
        "ल",
        "्"
      ],
      [
        "ट",
        "ो"
      ],
      [
        "गा",
        "र"
      ],
      [
        "ड़",
        "ो"
      ],
      [
        "प",
        "ि"
      ],
      [
        "म",
        "ी"
      ],
      [
        "यो",
        "म"
      ],
      [
        "र",
        "ु"
      ],
      [
        "स",
        "ं"
      ],
      [
        "कि",
        "न"
      ],
      [
        "ता",
        "ः"
      ],
      [
        "स",
        "ी"
      ],
      [
        "त",
        "्र"
      ],
      [
        "सि",
        "दा"
      ],
      [
        "ओ",
        "आ"
      ],
      [
        "जा",
        "न"
      ],
      [
        "का",
        "मि"
      ],
      [
        "्",
        "य"
      ],
      [
        "हो",
        "ड़ो"
      ],
      [
        "ट",
        "ी"
      ],
      [
        "ओ",
        "को"
      ],
      [
        "ना",
        "ति"
      ],
      [
        "क्",
        "ष"
      ],
      [
        "म",
        "्"
      ],
      [
        "ब",
        "्"
      ],
      [
        "का",
        "जि"
      ],
      [
        "ल",
        "ोः"
      ],
      [
        "त",
        "ो"
      ],
      [
        "हो",
        "न"
      ],
      [
        "बे",
        "से"
      ],
      [
        "ज",
        "न"
      ],
      [
        "ना",
        "ः"
      ],
      [
        "प",
        "ो"
      ],
      [
        "अ",
        "र"
      ],
      [
        "ने",
        "का"
      ],
      [
        "स",
        "र"
      ],
      [
        "द",
        "ी"
      ],
      [
        "गे",
        "न"
      ],
      [
        "ध",
        "ा"
      ],
      [
        "अ",
        "म"
      ],
      [
        "इन",
        "कु"
      ],
      [
        "आ",
        "म"
      ],
      [
        "आ",
        "ए"
      ],
      [
        "ं",
        "ड"
      ],
      [
        "ए",
        "टा"
      ],
      [
        "ले",
        "ना"
      ],
      [
        "ताइ",
        "ना"
      ],
      [
        "नि",
        "ः"
      ],
      [
        "ग",
        "ी"
      ],
      [
        "क",
        "मि"
      ],
      [
        "च",
        "े"
      ],
      [
        "पा",
        "न"
      ],
      [
        "ला",
        "गा"
      ],
      [
        "ङ",
        "ा"
      ],
      [
        "उ",
        "ड़ु"
      ],
      [
        "क",
        "ना"
      ],
      [
        "रे",
        "गे"
      ],
      [
        "हो",
        "रा"
      ],
      [
        "श",
        "ा"
      ],
      [
        "आ",
        "पान"
      ],
      [
        "इ",
        "सु"
      ],
      [
        "ए",
        "टे"
      ],
      [
        "म",
        "ं"
      ],
      [
        "ताइ",
        "न"
      ],
      [
        "रा",
        "ङ"
      ],
      [
        "ह",
        "े"
      ],
      [
        "मा",
        "न"
      ],
      [
        "ओ",
        "म"
      ],
      [
        "रे",
        "ओ"
      ],
      [
        "को",
        "आः"
      ],
      [
        "त",
        "इन"
      ],
      [
        "अ",
        "इंग"
      ],
      [
        "ज",
        "गर"
      ],
      [
        "व",
        "े"
      ],
      [
        "प",
        "्"
      ],
      [
        "र",
        "अ"
      ],
      [
        "जा",
        "गार"
      ],
      [
        "त",
        "र"
      ],
      [
        "ए",
        "आ"
      ],
      [
        "प",
        "ी"
      ],
      [
        "के",
        "द"
      ],
      [
        "ंग",
        "ि"
      ],
      [
        "ना",
        "म"
      ],
      [
        "स",
        "न"
      ],
      [
        "रा",
        "ज"
      ],
      [
        "हिजु",
        "ः"
      ],
      [
        "आञ",
        "ा"
      ],
      [
        "ट",
        "ु"
      ],
      [
        "स",
        "म"
      ],
      [
        "ड़",
        "ु"
      ],
      [
        "श",
        "ि"
      ],
      [
        "इ",
        "तु"
      ],
      [
        "दा",
        "ड़ि"
      ],
      [
        "ब",
        "र"
      ],
      [
        "ष",
        "्"
      ],
      [
        "तइ",
        "केना"
      ],
      [
        "ट",
        "र"
      ],
      [
        "को",
        "रे"
      ],
      [
        "इनि",
        "आः"
      ],
      [
        "आ",
        "ले"
      ],
      [
        "ओ",
        "डो"
      ],
      [
        "ब",
        "इ"
      ],
      [
        "ता",
        "योम"
      ],
      [
        "सु",
        "म"
      ],
      [
        "उ",
        "दु"
      ],
      [
        "ल",
        "का"
      ],
      [
        "दि",
        "सुम"
      ],
      [
        "आ",
        "उ"
      ],
      [
        "भा",
        "र"
      ],
      [
        "क",
        "र"
      ],
      [
        "च",
        "ी"
      ],
      [
        "श",
        "्"
      ],
      [
        "ते",
        "गे"
      ],
      [
        "गे",
        "आ"
      ],
      [
        "ड़",
        "े"
      ],
      [
        "पु",
        "र"
      ],
      [
        "लागा",
        "ति"
      ],
      [
        "मा",
        "जा"
      ],
      [
        "चि",
        "लका"
      ],
      [
        "ख",
        "ा"
      ],
      [
        "ब",
        "ी"
      ],
      [
        "ता",
        "र"
      ],
      [
        "सो",
        "मा"
      ],
      [
        "तइ",
        "ना"
      ],
      [
        "नाति",
        "न"
      ],
      [
        "सि",
        "ङ"
      ],
      [
        "होड़ो",
        "को"
      ],
      [
        "सोमा",
        "ए"
      ],
      [
        "पु",
        "रा"
      ],
      [
        "क",
        "ी"
      ],
      [
        "सु",
        "कु"
      ],
      [
        "थ",
        "ा"
      ],
      [
        "य",
        "र"
      ],
      [
        "र",
        "ंग"
      ],
      [
        "व",
        "ी"
      ],
      [
        "ओ",
        "ड़ा"
      ],
      [
        "फ",
        "ि"
      ],
      [
        "मि",
        "य"
      ],
      [
        "बु",
        "गि"
      ],
      [
        "पु",
        "राः"
      ],
      [
        "फ",
        "ा"
      ],
      [
        "सा",
        "ना"
      ],
      [
        "्",
        "रे"
      ],
      [
        "बा",
        "न"
      ],
      [
        "सि",
        "र"
      ],
      [
        "ओः",
        "आ"
      ],
      [
        "न",
        "म"
      ],
      [
        "ञ",
        "ा"
      ],
      [
        "इ",
        "दि"
      ],
      [
        "न",
        "गा"
      ],
      [
        "ड़",
        "े"
      ],
      [
        "सि",
        "का"
      ],
      [
        "्र",
        "ी"
      ],
      [
        "आ",
        "ं"
      ],
      [
        "ज",
        "्"
      ],
      [
        "जो",
        "गा"
      ],
      [
        "आ",
        "न"
      ],
      [
        "ओ",
        "ड़"
      ],
      [
        "ने",
        "ता"
      ],
      [
        "आ",
        "मा"
      ],
      [
        "के",
        "द्"
      ],
      [
        "जा",
        "ं"
      ],
      [
        "इ",
        "ं"
      ],
      [
        "ह",
        "र"
      ],
      [
        "ंग",
        "े"
      ],
      [
        "गो",
        "नो"
      ],
      [
        "ताना",
        "ः"
      ],
      [
        "ध",
        "ि"
      ],
      [
        "तु",
        "म"
      ],
      [
        "सेन",
        "ोः"
      ],
      [
        "न",
        "गेन"
      ],
      [
        "भार",
        "त"
      ],
      [
        "आ",
        "या"
      ],
      [
        "न",
        "अः"
      ],
      [
        "ड",
        "ु"
      ],
      [
        "ड़",
        "ी"
      ],
      [
        "का",
        "ए"
      ],
      [
        "लागाति",
        "ङा"
      ],
      [
        "ं",
        "द"
      ],
      [
        "गो",
        "टा"
      ],
      [
        "ओड़",
        "ोः"
      ],
      [
        "ड",
        "ी"
      ],
      [
        "रे",
        "दो"
      ],
      [
        "ता",
        "दा"
      ],
      [
        "ओ",
        "ल"
      ],
      [
        "च",
        "ु"
      ],
      [
        "सा",
        "र"
      ],
      [
        "का",
        "एः"
      ],
      [
        "रो",
        "म"
      ],
      [
        "सिर",
        "मा"
      ],
      [
        "स्",
        "ट"
      ],
      [
        "मो",
        "यो"
      ],
      [
        "बि",
        "नगा"
      ],
      [
        "दा",
        "ड़ि"
      ],
      [
        "केदा",
        "ए"
      ],
      [
        "हु",
        "ड़ि"
      ],
      [
        "श",
        "न"
      ],
      [
        "पु",
        "लि"
      ],
      [
        "आ",
        "काना"
      ],
      [
        "आञा",
        "ः"
      ],
      [
        "चे",
        "तान"
      ],
      [
        "ल",
        "गा"
      ],
      [
        "उ",
        "नु"
      ],
      [
        "ड",
        "े"
      ],
      [
        "चि",
        "म"
      ],
      [
        "प",
        "ू"
      ],
      [
        "बा",
        "र"
      ],
      [
        "को",
        "म"
      ],
      [
        "ल",
        "ु"
      ],
      [
        "ना",
        "गेन"
      ],
      [
        "सि",
        "ंग"
      ],
      [
        "ओको",
        "ए"
      ],
      [
        "मि",
        "न"
      ],
      [
        "केदा",
        "एः"
      ],
      [
        "इ",
        "म"
      ],
      [
        "से",
        "नो"
      ],
      [
        "इन",
        "ी"
      ],
      [
        "पुलि",
        "स"
      ],
      [
        "ति",
        "ंग"
      ],
      [
        "नु",
        "तुम"
      ],
      [
        "ख",
        "ि"
      ],
      [
        "का",
        "को"
      ],
      [
        "त्र",
        "ी"
      ],
      [
        "ए",
        "स"
      ],
      [
        "प",
        "र"
      ],
      [
        "ख",
        "ो"
      ],
      [
        "फ",
        "ो"
      ],
      [
        "रि",
        "या"
      ],
      [
        "से",
        "सेन"
      ],
      [
        "त",
        "योम"
      ],
      [
        "ब",
        "ै"
      ],
      [
        "य",
        "ना"
      ],
      [
        "ला",
        "ः"
      ],
      [
        "सा",
        "ः"
      ],
      [
        "यु",
        "म"
      ],
      [
        "उ",
        "ड़ु"
      ],
      [
        "को",
        "अः"
      ],
      [
        "एटे",
        "ः"
      ],
      [
        "मेन",
        "अः"
      ],
      [
        "ह",
        "ी"
      ],
      [
        "ला",
        "ए"
      ],
      [
        "चा",
        "र"
      ],
      [
        "म",
        "ला"
      ],
      [
        "कि",
        "ना"
      ],
      [
        "आ",
        "एः"
      ],
      [
        "रा",
        "म"
      ],
      [
        "ति",
        "सिङ"
      ],
      [
        "जा",
        "दा"
      ],
      [
        "नि",
        "या"
      ],
      [
        "चा",
        "नाः"
      ],
      [
        "एटा",
        "ः"
      ],
      [
        "मा",
        "राङ"
      ],
      [
        "हा",
        "रा"
      ],
      [
        "द",
        "ड़ि"
      ],
      [
        "ट",
        "्"
      ],
      [
        "जा",
        "केद"
      ],
      [
        "आ",
        "इंग"
      ],
      [
        "कु",
        "ड़ि"
      ],
      [
        "अ",
        "प"
      ],
      [
        "आ",
        "कान"
      ],
      [
        "च",
        "ो"
      ],
      [
        "स",
        "मा"
      ],
      [
        "ते",
        "बा"
      ],
      [
        "होबा",
        "ओआ"
      ],
      [
        "लेका",
        "ते"
      ],
      [
        "उदु",
        "ब"
      ],
      [
        "ओ",
        "कोआ"
      ],
      [
        "बान",
        "ोः"
      ],
      [
        "य",
        "ू"
      ],
      [
        "व",
        "र"
      ],
      [
        "से",
        "ं"
      ],
      [
        "इन",
        "ु"
      ],
      [
        "डि",
        "या"
      ],
      [
        "मोयो",
        "द"
      ],
      [
        "बो",
        "रो"
      ],
      [
        "दे",
        "श"
      ],
      [
        "श",
        "ु"
      ],
      [
        "ने",
        "ताः"
      ],
      [
        "जो",
        "म"
      ],
      [
        "न",
        "वा"
      ],
      [
        "इ",
        "आ"
      ],
      [
        "का",
        "री"
      ],
      [
        "ने",
        "ल"
      ],
      [
        "बा",
        "रा"
      ],
      [
        "क",
        "म"
      ],
      [
        "बुगि",
        "न"
      ],
      [
        "अ",
        "बु"
      ],
      [
        "वा",
        "र"
      ],
      [
        "दे",
        "ंगा"
      ],
      [
        "आमा",
        "ः"
      ],
      [
        "आ",
        "ना"
      ],
      [
        "क",
        "ू"
      ],
      [
        "मो",
        "ने"
      ],
      [
        "ओ",
        "नो"
      ],
      [
        "थ",
        "ि"
      ],
      [
        "प",
        "रि"
      ],
      [
        "ब",
        "ल"
      ],
      [
        "हा",
        "तु"
      ],
      [
        "ब",
        "द"
      ],
      [
        "्",
        "या"
      ],
      [
        "बा",
        "रि"
      ],
      [
        "ला",
        "ङ"
      ],
      [
        "होन",
        "को"
      ],
      [
        "सम",
        "य"
      ],
      [
        "ं",
        "दा"
      ],
      [
        "ठ",
        "ा"
      ],
      [
        "स",
        "रा"
      ],
      [
        "ङ",
        "गि"
      ],
      [
        "ना",
        "वा"
      ],
      [
        "त",
        "अः"
      ],
      [
        "म",
        "ू"
      ],
      [
        "सि",
        "ं"
      ],
      [
        "ओ",
        "मा"
      ],
      [
        "कि",
        "ः"
      ],
      [
        "दि",
        "न"
      ],
      [
        "हु",
        "ड़ि"
      ],
      [
        "साना",
        "ङ"
      ],
      [
        "अ",
        "ले"
      ],
      [
        "ज",
        "पा"
      ],
      [
        "म",
        "जा"
      ],
      [
        "गा",
        "ड़ा"
      ],
      [
        "मो",
        "य"
      ],
      [
        "मे",
        "द"
      ],
      [
        "ंग",
        "्रे"
      ],
      [
        "कु",
        "ल"
      ],
      [
        "लेका",
        "न"
      ],
      [
        "ं",
        "क"
      ],
      [
        "होड़ो",
        "को"
      ],
      [
        "मं",
        "त्री"
      ],
      [
        "च",
        "ना"
      ],
      [
        "ब",
        "ं"
      ],
      [
        "ला",
        "ई"
      ],
      [
        "क",
        "ृ"
      ],
      [
        "व",
        "र्"
      ],
      [
        "का",
        "म"
      ],
      [
        "स्",
        "था"
      ],
      [
        "तायोम",
        "ते"
      ],
      [
        "हो",
        "डो"
      ],
      [
        "तान",
        "को"
      ],
      [
        "श",
        "ी"
      ],
      [
        "जाना",
        "एः"
      ],
      [
        "ना",
        "आः"
      ],
      [
        "टो",
        "ओ"
      ],
      [
        "तो",
        "बे"
      ],
      [
        "मिय",
        "द"
      ],
      [
        "उड़ु",
        "ः"
      ],
      [
        "क",
        "ला"
      ],
      [
        "का",
        "र्"
      ],
      [
        "दा",
        "न"
      ],
      [
        "सा",
        "इ"
      ],
      [
        "कु",
        "लि"
      ],
      [
        "ड़ा",
        "ओ"
      ],
      [
        "हु",
        "ल"
      ],
      [
        "सर",
        "कार"
      ],
      [
        "आ",
        "को"
      ],
      [
        "द",
        "ड़ि"
      ],
      [
        "दा",
        "ः"
      ],
      [
        "दु",
        "ब"
      ],
      [
        "हुड़ि",
        "ङ"
      ],
      [
        "ठ",
        "ो"
      ],
      [
        "ण",
        "ा"
      ],
      [
        "प",
        "ं"
      ],
      [
        "मा",
        "मला"
      ],
      [
        "यो",
        "ग"
      ],
      [
        "ओड़ा",
        "ः"
      ],
      [
        "ँ",
        "ग"
      ],
      [
        "म",
        "न"
      ],
      [
        "बा",
        "ल"
      ],
      [
        "कि",
        "रि"
      ],
      [
        "टा",
        "का"
      ],
      [
        "न्",
        "द"
      ],
      [
        "ओनो",
        "ल"
      ],
      [
        "आ",
        "युम"
      ],
      [
        "मा",
        "नाति"
      ],
      [
        "से",
        "ना"
      ],
      [
        "ोः",
        "आ"
      ],
      [
        "बे",
        "स"
      ],
      [
        "दु",
        "कु"
      ],
      [
        "एन",
        "का"
      ],
      [
        "बो",
        "ंगा"
      ],
      [
        "ष्",
        "ट"
      ],
      [
        "अ",
        "मा"
      ],
      [
        "आ",
        "बु"
      ],
      [
        "आ",
        "पि"
      ],
      [
        "क",
        "दा"
      ],
      [
        "ब",
        "ू"
      ],
      [
        "स",
        "ू"
      ],
      [
        "ला",
        "ओ"
      ],
      [
        "र्",
        "ट"
      ],
      [
        "ताइकेना",
        "एः"
      ],
      [
        "ता",
        "ला"
      ],
      [
        "जा",
        "पा"
      ],
      [
        "मि",
        "सा"
      ],
      [
        "चि",
        "मिन"
      ],
      [
        "तन",
        "अः"
      ],
      [
        "ए",
        "म"
      ],
      [
        "बा",
        "द"
      ],
      [
        "पे",
        "ड़े"
      ],
      [
        "क",
        "्र"
      ],
      [
        "ढ",
        "़"
      ],
      [
        "द",
        "न"
      ],
      [
        "भ",
        "ो"
      ],
      [
        "हो",
        "नो"
      ],
      [
        "या",
        "ते"
      ],
      [
        "जि",
        "नि"
      ],
      [
        "दु",
        "ला"
      ],
      [
        "भा",
        "व"
      ],
      [
        "क्ष",
        "ा"
      ],
      [
        "का",
        "मी"
      ],
      [
        "रा",
        "सिका"
      ],
      [
        "ड़ा",
        "ः"
      ],
      [
        "ं",
        "ट"
      ],
      [
        "पा",
        "र"
      ],
      [
        "ओ",
        "ते"
      ],
      [
        "क",
        "ल"
      ],
      [
        "ग",
        "्"
      ],
      [
        "ब",
        "न"
      ],
      [
        "र",
        "सिका"
      ],
      [
        "व",
        "्य"
      ],
      [
        "केदा",
        "को"
      ],
      [
        "सोबेन",
        "को"
      ],
      [
        "ं",
        "स"
      ],
      [
        "आ",
        "ई"
      ],
      [
        "नेआ",
        "ते"
      ],
      [
        "दु",
        "राङ"
      ],
      [
        "बु",
        "जा"
      ],
      [
        "बर",
        "न"
      ],
      [
        "सिं",
        "ह"
      ],
      [
        "ता",
        "ङ"
      ],
      [
        "सो",
        "मोय"
      ],
      [
        "होबा",
        "ओः"
      ],
      [
        "पे",
        "रे"
      ],
      [
        "उ",
        "तर"
      ],
      [
        "ब",
        "नो"
      ],
      [
        "सोबे",
        "ना"
      ],
      [
        "एन",
        "ता"
      ],
      [
        "मिय",
        "द्"
      ],
      [
        "ज्",
        "ञा"
      ],
      [
        "ए",
        "ंगा"
      ],
      [
        "ट",
        "का"
      ],
      [
        "का",
        "ञ"
      ],
      [
        "ले",
        "कन"
      ],
      [
        "सा",
        "ङगि"
      ],
      [
        "रु",
        "ड़ु"
      ],
      [
        "फि",
        "ल्"
      ],
      [
        "ल",
        "य"
      ],
      [
        "जा",
        "आं"
      ],
      [
        "ले",
        "लो"
      ],
      [
        "टे",
        "ः"
      ],
      [
        "उ",
        "प"
      ],
      [
        "प",
        "ति"
      ],
      [
        "रे",
        "को"
      ],
      [
        "ता",
        "निः"
      ],
      [
        "होबा",
        "व"
      ],
      [
        "म",
        "त"
      ],
      [
        "म",
        "र"
      ],
      [
        "का",
        "दा"
      ],
      [
        "होबा",
        "जाना"
      ],
      [
        "हु",
        "लाङ"
      ],
      [
        "जोगा",
        "ओ"
      ],
      [
        "समा",
        "ज"
      ],
      [
        "फिल्",
        "म"
      ],
      [
        "आ",
        "लो"
      ],
      [
        "उ",
        "तार"
      ],
      [
        "या",
        "द"
      ],
      [
        "सा",
        "ंगि"
      ],
      [
        "जो",
        "नो"
      ],
      [
        "सार",
        "ते"
      ],
      [
        "ज",
        "रू"
      ],
      [
        "ठ",
        "ी"
      ],
      [
        "द",
        "ू"
      ],
      [
        "ता",
        "रा"
      ],
      [
        "चा",
        "ना"
      ],
      [
        "लो",
        "ओः"
      ],
      [
        "जो",
        "र"
      ],
      [
        "तिंग",
        "ु"
      ],
      [
        "ङ",
        "गा"
      ],
      [
        "ज",
        "य"
      ],
      [
        "ध",
        "ी"
      ],
      [
        "म",
        "हा"
      ],
      [
        "जा",
        "र"
      ],
      [
        "बा",
        "नो"
      ],
      [
        "ला",
        "इ"
      ],
      [
        "नी",
        "ति"
      ],
      [
        "ंड",
        "ु"
      ],
      [
        "पुर",
        "अः"
      ],
      [
        "गोनो",
        "ङ"
      ],
      [
        "हुड़ि",
        "ङ"
      ],
      [
        "क",
        "ं"
      ],
      [
        "फ",
        "्"
      ],
      [
        "य",
        "द्"
      ],
      [
        "श",
        "्री"
      ],
      [
        "बा",
        "लाए"
      ],
      [
        "सि",
        "ंगि"
      ],
      [
        "मेना",
        "इ"
      ],
      [
        "कि",
        "आ"
      ],
      [
        "ड़ा",
        "ं"
      ],
      [
        "ल्",
        "ली"
      ],
      [
        "आया",
        "र"
      ],
      [
        "ए",
        "ने"
      ],
      [
        "स",
        "ंग"
      ],
      [
        "का",
        "रेदो"
      ],
      [
        "को",
        "ते"
      ],
      [
        "मो",
        "चा"
      ],
      [
        "दु",
        "निया"
      ],
      [
        "होबा",
        "ओ"
      ],
      [
        "एन",
        "ताः"
      ],
      [
        "बो",
        "र"
      ],
      [
        "टोओ",
        "र"
      ],
      [
        "क",
        "ै"
      ],
      [
        "ल",
        "ू"
      ],
      [
        "श",
        "े"
      ],
      [
        "स",
        "ला"
      ],
      [
        "रा",
        "इ"
      ],
      [
        "ने",
        "न"
      ],
      [
        "बारा",
        "न"
      ],
      [
        "अ",
        "ए"
      ],
      [
        "अ",
        "या"
      ],
      [
        "आ",
        "गु"
      ],
      [
        "इ",
        "ति"
      ],
      [
        "ना",
        "मो"
      ],
      [
        "ते",
        "आ"
      ],
      [
        "किः",
        "आ"
      ],
      [
        "आ",
        "इ"
      ],
      [
        "ओ",
        "ड़ाः"
      ],
      [
        "ग",
        "ल"
      ],
      [
        "घ",
        "ा"
      ],
      [
        "ड",
        "ू"
      ],
      [
        "त",
        "ं"
      ],
      [
        "य",
        "न"
      ],
      [
        "ना",
        "ङ"
      ],
      [
        "के",
        "याते"
      ],
      [
        "ने",
        "कान"
      ],
      [
        "ले",
        "न"
      ],
      [
        "दि",
        "र"
      ],
      [
        "क्",
        "स"
      ],
      [
        "जोगा",
        "व"
      ],
      [
        "जां",
        "ए"
      ],
      [
        "ओ",
        "मे"
      ],
      [
        "ज",
        "केद्"
      ],
      [
        "व",
        "न"
      ],
      [
        "बा",
        "रे"
      ],
      [
        "पा",
        "ति"
      ],
      [
        "दि",
        "ल्ली"
      ],
      [
        "ड़ा",
        "व"
      ],
      [
        "उड़ु",
        "ः"
      ],
      [
        "उ",
        "त्"
      ],
      [
        "त",
        "रा"
      ],
      [
        "ध",
        "ो"
      ],
      [
        "न",
        "मा"
      ],
      [
        "को",
        "ड़ा"
      ],
      [
        "जि",
        "ला"
      ],
      [
        "र्",
        "म"
      ],
      [
        "केदा",
        "ञ"
      ],
      [
        "मु",
        "ख"
      ],
      [
        "ष",
        "ा"
      ],
      [
        "ते",
        "ओ"
      ],
      [
        "ड़",
        "ी"
      ],
      [
        "गि",
        "ड़ि"
      ],
      [
        "इनु",
        "ङ"
      ],
      [
        "अ",
        "इ"
      ],
      [
        "अ",
        "ट"
      ],
      [
        "क",
        "द"
      ],
      [
        "छ",
        "ा"
      ],
      [
        "जा",
        "रुड़ु"
      ],
      [
        "मा",
        "र"
      ],
      [
        "स्",
        "वा"
      ],
      [
        "स्",
        "तान"
      ],
      [
        "गो",
        "ए"
      ],
      [
        "ख",
        "ु"
      ],
      [
        "ज",
        "मा"
      ],
      [
        "भ",
        "ि"
      ],
      [
        "म",
        "ै"
      ],
      [
        "म",
        "रंग"
      ],
      [
        "के",
        "ते"
      ],
      [
        "या",
        "को"
      ],
      [
        "पा",
        "ल"
      ],
      [
        "कि",
        "र"
      ],
      [
        "लो",
        "क"
      ],
      [
        "वि",
        "श्"
      ],
      [
        "डि",
        "ंग"
      ],
      [
        "अ",
        "पि"
      ],
      [
        "क",
        "जी"
      ],
      [
        "त",
        "किना"
      ],
      [
        "का",
        "आ"
      ],
      [
        "जा",
        "ः"
      ],
      [
        "नि",
        "र"
      ],
      [
        "हो",
        "का"
      ],
      [
        "ति",
        "सिंग"
      ],
      [
        "गो",
        "आ"
      ],
      [
        "जना",
        "ए"
      ],
      [
        "रू",
        "आ"
      ],
      [
        "टि",
        "ंग"
      ],
      [
        "अ",
        "धि"
      ],
      [
        "बा",
        "गे"
      ],
      [
        "बा",
        "दि"
      ],
      [
        "नि",
        "कु"
      ],
      [
        "चि",
        "ना"
      ],
      [
        "र्",
        "ड"
      ],
      [
        "स्",
        "व"
      ],
      [
        "हा",
        "र"
      ],
      [
        "गो",
        "म"
      ],
      [
        "गो",
        "पो"
      ],
      [
        "रिका",
        "एआ"
      ],
      [
        "चे",
        "तन"
      ],
      [
        "अ",
        "न"
      ],
      [
        "उ",
        "पु"
      ],
      [
        "ज",
        "ू"
      ],
      [
        "ट",
        "यद्"
      ],
      [
        "ण",
        "्"
      ],
      [
        "प",
        "ै"
      ],
      [
        "ता",
        "ल"
      ],
      [
        "कु",
        "ड़ि"
      ],
      [
        "डि",
        "यो"
      ],
      [
        "आए",
        "आः"
      ],
      [
        "दाड़ि",
        "आ"
      ],
      [
        "उ",
        "कु"
      ],
      [
        "न",
        "मो"
      ],
      [
        "का",
        "ंग्रे"
      ],
      [
        "रा",
        "ष्ट"
      ],
      [
        "सा",
        "ं"
      ],
      [
        "चि",
        "नअः"
      ],
      [
        "पा",
        "ड़ाओ"
      ],
      [
        "नेआ",
        "रे"
      ],
      [
        "मो",
        "न"
      ],
      [
        "रेन",
        "को"
      ],
      [
        "तेबा",
        "ः"
      ],
      [
        "त",
        "ंग"
      ],
      [
        "ह",
        "रा"
      ],
      [
        "सो",
        "ंगे"
      ],
      [
        "वा",
        "द"
      ],
      [
        "र्",
        "थ"
      ],
      [
        "दु",
        "नु"
      ],
      [
        "पे",
        "ड़े"
      ],
      [
        "एना",
        "ते"
      ],
      [
        "काआ",
        "नि"
      ],
      [
        "बादि",
        "लि"
      ],
      [
        "ट",
        "ना"
      ],
      [
        "त",
        "ू"
      ],
      [
        "ध",
        "न"
      ],
      [
        "व",
        "ो"
      ],
      [
        "नि",
        "क"
      ],
      [
        "गे",
        "ल"
      ],
      [
        "गो",
        "एः"
      ],
      [
        "फो",
        "टो"
      ],
      [
        "ं",
        "डि"
      ],
      [
        "अ",
        "नु"
      ],
      [
        "ए",
        "पे"
      ],
      [
        "ग",
        "ं"
      ],
      [
        "ध",
        "्य"
      ],
      [
        "न",
        "ू"
      ],
      [
        "ब",
        "ई"
      ],
      [
        "म",
        "ह"
      ],
      [
        "ल",
        "न"
      ],
      [
        "जा",
        "ए"
      ],
      [
        "ला",
        "व"
      ],
      [
        "मि",
        "द"
      ],
      [
        "चा",
        "बा"
      ],
      [
        "इनिः",
        "अ"
      ],
      [
        "धा",
        "न"
      ],
      [
        "किरि",
        "ङ"
      ],
      [
        "मानाति",
        "ङ"
      ],
      [
        "होनो",
        "र"
      ],
      [
        "अ",
        "ं"
      ],
      [
        "ए",
        "ते"
      ],
      [
        "क",
        "को"
      ],
      [
        "भ",
        "ग"
      ],
      [
        "य",
        "म"
      ],
      [
        "हो",
        "यो"
      ],
      [
        "दो",
        "हो"
      ],
      [
        "पा",
        "र्"
      ],
      [
        "जाना",
        "ए"
      ],
      [
        "हि",
        "न्"
      ],
      [
        "ताना",
        "एः"
      ],
      [
        "क्",
        "टर"
      ],
      [
        "मं",
        "दिर"
      ],
      [
        "राज",
        "्य"
      ],
      [
        "चु",
        "ना"
      ],
      [
        "न",
        "ंग"
      ],
      [
        "ता",
        "को"
      ],
      [
        "जा",
        "द"
      ],
      [
        "जा",
        "मा"
      ],
      [
        "सा",
        "म"
      ],
      [
        "बे",
        "गार"
      ],
      [
        "सु",
        "र"
      ],
      [
        "सु",
        "गाड़ा"
      ],
      [
        "तान",
        "ताइकेना"
      ],
      [
        "द",
        "र्"
      ],
      [
        "म",
        "ौ"
      ],
      [
        "म",
        "नाति"
      ],
      [
        "र",
        "अः"
      ],
      [
        "रा",
        "नु"
      ],
      [
        "सा",
        "ब"
      ],
      [
        "तु",
        "ङ"
      ],
      [
        "क्",
        "ति"
      ],
      [
        "गि",
        "न"
      ],
      [
        "जे",
        "तान"
      ],
      [
        "कांग्रे",
        "स"
      ],
      [
        "अ",
        "स्"
      ],
      [
        "अ",
        "यर"
      ],
      [
        "व",
        "ै"
      ],
      [
        "नि",
        "दा"
      ],
      [
        "सा",
        "ल"
      ],
      [
        "सा",
        "ला"
      ],
      [
        "बे",
        "गर"
      ],
      [
        "धा",
        "र"
      ],
      [
        "डु",
        "ः"
      ],
      [
        "जोनो",
        "म"
      ],
      [
        "उ",
        "यु"
      ],
      [
        "ए",
        "द"
      ],
      [
        "को",
        "आते"
      ],
      [
        "दा",
        "ं"
      ],
      [
        "दा",
        "र"
      ],
      [
        "कु",
        "मु"
      ],
      [
        "वा",
        "न"
      ],
      [
        "रू",
        "प"
      ],
      [
        "रू",
        "म"
      ],
      [
        "दे",
        "व"
      ],
      [
        "प्",
        "रे"
      ],
      [
        "सन",
        "ंग"
      ],
      [
        "राज",
        "नीति"
      ],
      [
        "लगा",
        "ति"
      ],
      [
        "बारि",
        "आ"
      ],
      [
        "ं",
        "डा"
      ],
      [
        "त",
        "ला"
      ],
      [
        "स",
        "द"
      ],
      [
        "नि",
        "र्"
      ],
      [
        "या",
        "य"
      ],
      [
        "रि",
        "ंग"
      ],
      [
        "्र",
        "ो"
      ],
      [
        "रू",
        "ड़ु"
      ],
      [
        "एना",
        "मेनते"
      ],
      [
        "ओड़",
        "ो"
      ],
      [
        "त्",
        "य"
      ],
      [
        "इतु",
        "आना"
      ],
      [
        "होडो",
        "को"
      ],
      [
        "गोम",
        "के"
      ],
      [
        "चुना",
        "व"
      ],
      [
        "अ",
        "दि"
      ],
      [
        "ओ",
        "ला"
      ],
      [
        "ट",
        "ोः"
      ],
      [
        "सा",
        "न"
      ],
      [
        "सु",
        "न"
      ],
      [
        "रो",
        "ग"
      ],
      [
        "ओः",
        "ताना"
      ],
      [
        "क्ष",
        "े"
      ],
      [
        "पेड़े",
        "ः"
      ],
      [
        "बुजा",
        "ओ"
      ],
      [
        "स",
        "ब"
      ],
      [
        "का",
        "टा"
      ],
      [
        "ले",
        "आ"
      ],
      [
        "बे",
        "ड़ा"
      ],
      [
        "बि",
        "तार"
      ],
      [
        "मेनाः",
        "इ"
      ],
      [
        "ए",
        "ट"
      ],
      [
        "रे",
        "आः"
      ],
      [
        "रे",
        "यो"
      ],
      [
        "को",
        "वा"
      ],
      [
        "ते",
        "को"
      ],
      [
        "ोः",
        "ताना"
      ],
      [
        "हा",
        "ना"
      ],
      [
        "प्र",
        "ति"
      ],
      [
        "बान",
        "चा"
      ],
      [
        "अप",
        "न"
      ],
      [
        "अदि",
        "का"
      ],
      [
        "त",
        "दा"
      ],
      [
        "श",
        "हर"
      ],
      [
        "स",
        "म्"
      ],
      [
        "ह",
        "न"
      ],
      [
        "ह",
        "म"
      ],
      [
        "जा",
        "ति"
      ],
      [
        "मा",
        "इन"
      ],
      [
        "सा",
        "यो"
      ],
      [
        "से",
        "ता"
      ],
      [
        "दि",
        "शु"
      ],
      [
        "तना",
        "ए"
      ],
      [
        "मी",
        "डिया"
      ],
      [
        "कार्",
        "य"
      ],
      [
        "राइ",
        "ज"
      ],
      [
        "अ",
        "भि"
      ],
      [
        "आ",
        "पु"
      ],
      [
        "आ",
        "पे"
      ],
      [
        "इ",
        "या"
      ],
      [
        "ऐ",
        "ना"
      ],
      [
        "ज",
        "दा"
      ],
      [
        "झ",
        "ा"
      ],
      [
        "फ",
        "े"
      ],
      [
        "फ",
        "ै"
      ],
      [
        "भ",
        "ी"
      ],
      [
        "का",
        "ब"
      ],
      [
        "दि",
        "रि"
      ],
      [
        "बु",
        "रू"
      ],
      [
        "जो",
        "आर"
      ],
      [
        "बो",
        "न"
      ],
      [
        "जे",
        "ता"
      ],
      [
        "उड़ु",
        "ङ"
      ],
      [
        "हुल",
        "ंग"
      ],
      [
        "कं",
        "प"
      ],
      [
        "दिशु",
        "म"
      ],
      [
        "प",
        "ड़"
      ],
      [
        "रा",
        "य"
      ],
      [
        "रा",
        "व"
      ],
      [
        "के",
        "ट"
      ],
      [
        "पा",
        "म"
      ],
      [
        "हा",
        "पे"
      ],
      [
        "नु",
        "ङ"
      ],
      [
        "भा",
        "ग"
      ],
      [
        "त्",
        "व"
      ],
      [
        "तो",
        "म"
      ],
      [
        "ष्",
        "ण"
      ],
      [
        "बै",
        "से"
      ],
      [
        "ठो",
        "र"
      ],
      [
        "व्य",
        "व"
      ],
      [
        "दुनु",
        "ब"
      ],
      [
        "ग",
        "्र"
      ],
      [
        "त",
        "को"
      ],
      [
        "म",
        "गर"
      ],
      [
        "का",
        "नि"
      ],
      [
        "का",
        "गे"
      ],
      [
        "मे",
        "द्"
      ],
      [
        "ला",
        "न"
      ],
      [
        "से",
        "वा"
      ],
      [
        "चा",
        "न"
      ],
      [
        "रो",
        "आ"
      ],
      [
        "रो",
        "कोम"
      ],
      [
        "द्",
        "ध"
      ],
      [
        "वि",
        "रो"
      ],
      [
        "ओड़",
        "अः"
      ],
      [
        "इ",
        "पा"
      ],
      [
        "क",
        "र्"
      ],
      [
        "क",
        "ड़ा"
      ],
      [
        "ध",
        "्या"
      ],
      [
        "ल",
        "ग"
      ],
      [
        "ल",
        "ब"
      ],
      [
        "ल",
        "गिन"
      ],
      [
        "स",
        "ल"
      ],
      [
        "के",
        "टेः"
      ],
      [
        "मे",
        "आ"
      ],
      [
        "हो",
        "सो"
      ],
      [
        "या",
        "ए"
      ],
      [
        "पा",
        "कि"
      ],
      [
        "पा",
        "रोम"
      ],
      [
        "कि",
        "ता"
      ],
      [
        "स्",
        "टे"
      ],
      [
        "जे",
        "तन"
      ],
      [
        "रु",
        "ड़ा"
      ],
      [
        "क्ष",
        "ण"
      ],
      [
        "ताइन",
        "ोः"
      ],
      [
        "प्",
        "रा"
      ],
      [
        "ज्ञा",
        "न"
      ],
      [
        "आ",
        "रि"
      ],
      [
        "क",
        "ॉ"
      ],
      [
        "ज",
        "र"
      ],
      [
        "ज",
        "ै"
      ],
      [
        "न",
        "गर"
      ],
      [
        "ब",
        "स"
      ],
      [
        "ब",
        "रा"
      ],
      [
        "भ",
        "ू"
      ],
      [
        "ल",
        "व"
      ],
      [
        "श",
        "ो"
      ],
      [
        "ा",
        "व"
      ],
      [
        "का",
        "य"
      ],
      [
        "का",
        "रे"
      ],
      [
        "का",
        "जी"
      ],
      [
        "को",
        "ः"
      ],
      [
        "के",
        "न"
      ],
      [
        "ने",
        "तअः"
      ],
      [
        "जा",
        "रूड़ु"
      ],
      [
        "ले",
        "म"
      ],
      [
        "मा",
        "ङ"
      ],
      [
        "मा",
        "ना"
      ],
      [
        "या",
        "र"
      ],
      [
        "ति",
        "ङ"
      ],
      [
        "मि",
        "र"
      ],
      [
        "वा",
        "ल"
      ],
      [
        "र्",
        "य"
      ],
      [
        "दु",
        "बा"
      ],
      [
        "बि",
        "तर"
      ],
      [
        "बो",
        "लो"
      ],
      [
        "भा",
        "षा"
      ],
      [
        "ती",
        "य"
      ],
      [
        "्री",
        "य"
      ],
      [
        "खो",
        "बोर"
      ],
      [
        "फो",
        "न"
      ],
      [
        "हिन्",
        "दी"
      ],
      [
        "च",
        "ै"
      ],
      [
        "ज",
        "ग"
      ],
      [
        "त",
        "म"
      ],
      [
        "थ",
        "ी"
      ],
      [
        "ौ",
        "र"
      ],
      [
        "ले",
        "रे"
      ],
      [
        "गा",
        "ते"
      ],
      [
        "से",
        "के"
      ],
      [
        "सु",
        "नु"
      ],
      [
        "सु",
        "सुन"
      ],
      [
        "टा",
        "याद"
      ],
      [
        "ओः",
        "गे"
      ],
      [
        "हु",
        "डिंग"
      ],
      [
        "भा",
        "जपा"
      ],
      [
        "हिजु",
        "गा"
      ],
      [
        "्य",
        "ू"
      ],
      [
        "ब्",
        "ला"
      ],
      [
        "पो",
        "र्ट"
      ],
      [
        "चिलका",
        "ते"
      ],
      [
        "खि",
        "ला"
      ],
      [
        "पार्",
        "टी"
      ],
      [
        "पाकि",
        "स्तान"
      ],
      [
        "ट",
        "न"
      ],
      [
        "ड",
        "्"
      ],
      [
        "ध",
        "ु"
      ],
      [
        "प",
        "ताल"
      ],
      [
        "ब",
        "्र"
      ],
      [
        "ल",
        "ै"
      ],
      [
        "का",
        "ल"
      ],
      [
        "जाना",
        "व"
      ],
      [
        "स्",
        "टर"
      ],
      [
        "लि",
        "ङ"
      ],
      [
        "हि",
        "ं"
      ],
      [
        "क्",
        "त"
      ],
      [
        "क्",
        "रि"
      ],
      [
        "वि",
        "ष"
      ],
      [
        "बि",
        "ल"
      ],
      [
        "बि",
        "रि"
      ],
      [
        "होड़ो",
        "मो"
      ],
      [
        "सन",
        "ते"
      ],
      [
        "मुख",
        "्य"
      ],
      [
        "ं",
        "टा"
      ],
      [
        "अ",
        "मे"
      ],
      [
        "अ",
        "न्"
      ],
      [
        "ए",
        "ल"
      ],
      [
        "ए",
        "से"
      ],
      [
        "ओ",
        "डा"
      ],
      [
        "क",
        "री"
      ],
      [
        "द",
        "ल"
      ],
      [
        "द",
        "ंग"
      ],
      [
        "प",
        "त्र"
      ],
      [
        "रा",
        "बाल"
      ],
      [
        "या",
        "लय"
      ],
      [
        "गा",
        "ं"
      ],
      [
        "इनि",
        "तु"
      ],
      [
        "स्",
        "ता"
      ],
      [
        "यो",
        "जना"
      ],
      [
        "वि",
        "द्"
      ],
      [
        "जी",
        "दन"
      ],
      [
        "मेनाः",
        "कोआ"
      ],
      [
        "प्र",
        "देश"
      ],
      [
        "गु",
        "न"
      ],
      [
        "गु",
        "रु"
      ],
      [
        "शि",
        "व"
      ],
      [
        "चिम",
        "ताङ"
      ],
      [
        "सें",
        "ड़ा"
      ],
      [
        "सोबेना",
        "ते"
      ],
      [
        "तं",
        "त्र"
      ],
      [
        "क्षे",
        "त्र"
      ],
      [
        "ए",
        "मे"
      ],
      [
        "ण",
        "ी"
      ],
      [
        "न",
        "ौ"
      ],
      [
        "य",
        "दा"
      ],
      [
        "स",
        "र्"
      ],
      [
        "का",
        "द"
      ],
      [
        "ने",
        "लेका"
      ],
      [
        "बा",
        "ग"
      ],
      [
        "ले",
        "ले"
      ],
      [
        "सा",
        "मा"
      ],
      [
        "से",
        "सेना"
      ],
      [
        "नेआ",
        "को"
      ],
      [
        "हा",
        "ल"
      ],
      [
        "मो",
        "द"
      ],
      [
        "दु",
        "रंग"
      ],
      [
        "लि",
        "म"
      ],
      [
        "जु",
        "ल"
      ],
      [
        "इनकु",
        "आ"
      ],
      [
        "इतु",
        "न"
      ],
      [
        "तादा",
        "एः"
      ],
      [
        "दाड़ि",
        "आः"
      ],
      [
        "दाड़ि",
        "ओःआ"
      ],
      [
        "इम",
        "तंग"
      ],
      [
        "लोओः",
        "ते"
      ],
      [
        "धो",
        "रोम"
      ],
      [
        "गोपो",
        "एः"
      ],
      [
        "अ",
        "ंग्रे"
      ],
      [
        "आ",
        "रो"
      ],
      [
        "ज",
        "़"
      ],
      [
        "द",
        "्र"
      ],
      [
        "ध",
        "े"
      ],
      [
        "ब",
        "त"
      ],
      [
        "ब",
        "ना"
      ],
      [
        "श",
        "्र"
      ],
      [
        "ष",
        "ि"
      ],
      [
        "स",
        "रि"
      ],
      [
        "को",
        "ओ"
      ],
      [
        "मा",
        "इ"
      ],
      [
        "या",
        "न"
      ],
      [
        "चि",
        "मी"
      ],
      [
        "केना",
        "ए"
      ],
      [
        "र्",
        "चा"
      ],
      [
        "स्",
        "थ"
      ],
      [
        "मो",
        "दी"
      ],
      [
        "पु",
        "ल"
      ],
      [
        "गि",
        "ति"
      ],
      [
        "मु",
        "नु"
      ],
      [
        "त्",
        "रा"
      ],
      [
        "टी",
        "म"
      ],
      [
        "अम",
        "के"
      ],
      [
        "हिजुः",
        "जाना"
      ],
      [
        "कर",
        "ण"
      ],
      [
        "ंद",
        "्र"
      ],
      [
        "पू",
        "रा"
      ],
      [
        "दड़ि",
        "या"
      ],
      [
        "अबु",
        "आ"
      ],
      [
        "न्द",
        "्र"
      ],
      [
        "पेरे",
        "ः"
      ],
      [
        "मनाति",
        "ंग"
      ],
      [
        "ं",
        "ङ"
      ],
      [
        "अ",
        "ना"
      ],
      [
        "आ",
        "यु"
      ],
      [
        "च",
        "र"
      ],
      [
        "प",
        "ड़ाव"
      ],
      [
        "य",
        "द"
      ],
      [
        "रे",
        "ंगे"
      ],
      [
        "रा",
        "काब"
      ],
      [
        "ले",
        "नेका"
      ],
      [
        "सा",
        "काम"
      ],
      [
        "र्",
        "क"
      ],
      [
        "न्",
        "य"
      ],
      [
        "आए",
        "आ"
      ],
      [
        "वे",
        "ब"
      ],
      [
        "टु",
        "ङ"
      ],
      [
        "गोनो",
        "ंग"
      ],
      [
        "जापा",
        "गार"
      ],
      [
        "क्र",
        "म"
      ],
      [
        "अस्",
        "पताल"
      ],
      [
        "सायो",
        "ब"
      ],
      [
        "कोः",
        "आते"
      ],
      [
        "ं",
        "व"
      ],
      [
        "अ",
        "इं"
      ],
      [
        "इ",
        "ला"
      ],
      [
        "क",
        "हा"
      ],
      [
        "ग",
        "ड़"
      ],
      [
        "च",
        "ौ"
      ],
      [
        "ज",
        "गार"
      ],
      [
        "त",
        "किन"
      ],
      [
        "द",
        "र"
      ],
      [
        "न",
        "अ"
      ],
      [
        "फ",
        "र"
      ],
      [
        "फ",
        "ी"
      ],
      [
        "ब",
        "रिया"
      ],
      [
        "म",
        "बा"
      ],
      [
        "य",
        "क"
      ],
      [
        "रा",
        "ओ"
      ],
      [
        "रा",
        "जा"
      ],
      [
        "ने",
        "ट"
      ],
      [
        "रि",
        "क"
      ],
      [
        "ति",
        "न"
      ],
      [
        "कु",
        "नु"
      ],
      [
        "हा",
        "गा"
      ],
      [
        "बु",
        "ल"
      ],
      [
        "बि",
        "र"
      ],
      [
        "होड़ो",
        "मो"
      ],
      [
        "टि",
        "ङ"
      ],
      [
        "सर",
        "ते"
      ],
      [
        "अम",
        "अः"
      ],
      [
        "दाड़ि",
        "ओःआ"
      ],
      [
        "आले",
        "आः"
      ],
      [
        "पुर",
        "ना"
      ],
      [
        "एस",
        "कर"
      ],
      [
        "दड़ि",
        "ओः"
      ],
      [
        "विश्",
        "व"
      ],
      [
        "इपा",
        "एः"
      ],
      [
        "ं",
        "त"
      ],
      [
        "अ",
        "व"
      ],
      [
        "ख",
        "ी"
      ],
      [
        "घ",
        "टना"
      ],
      [
        "त",
        "नि"
      ],
      [
        "न",
        "र"
      ],
      [
        "स",
        "ंगि"
      ],
      [
        "ते",
        "आः"
      ],
      [
        "गा",
        "ड़ा"
      ],
      [
        "रि",
        "आ"
      ],
      [
        "से",
        "कड़ा"
      ],
      [
        "चि",
        "का"
      ],
      [
        "सि",
        "या"
      ],
      [
        "स्",
        "त"
      ],
      [
        "हा",
        "स"
      ],
      [
        "इन",
        "्"
      ],
      [
        "होबा",
        "लेना"
      ],
      [
        "ताना",
        "ञ"
      ],
      [
        "जो",
        "मे"
      ],
      [
        "जे",
        "ताना"
      ],
      [
        "कार",
        "ण"
      ],
      [
        "रु",
        "म"
      ],
      [
        "पो",
        "स्ट"
      ],
      [
        "लागा",
        "ओ"
      ],
      [
        "बइ",
        "या"
      ],
      [
        "साना",
        "माङ"
      ],
      [
        "जां",
        "च"
      ],
      [
        "लाः",
        "ए"
      ],
      [
        "ठी",
        "क"
      ],
      [
        "कुनु",
        "लि"
      ],
      [
        "ं",
        "का"
      ],
      [
        "ं",
        "ति"
      ],
      [
        "च",
        "्"
      ],
      [
        "ट",
        "क"
      ],
      [
        "म",
        "रा"
      ],
      [
        "म",
        "ंग"
      ],
      [
        "य",
        "अः"
      ],
      [
        "रे",
        "ः"
      ],
      [
        "का",
        "ले"
      ],
      [
        "जा",
        "गा"
      ],
      [
        "ले",
        "दा"
      ],
      [
        "गे",
        "या"
      ],
      [
        "ला",
        "तार"
      ],
      [
        "वा",
        "स"
      ],
      [
        "हा",
        "सु"
      ],
      [
        "म्",
        "प"
      ],
      [
        "जापा",
        "ः"
      ],
      [
        "रूआ",
        "ड़ा"
      ],
      [
        "राष्ट",
        "्रीय"
      ],
      [
        "विरो",
        "ध"
      ],
      [
        "अ",
        "युम"
      ],
      [
        "ग",
        "अः"
      ],
      [
        "ज",
        "ल"
      ],
      [
        "ध",
        "र"
      ],
      [
        "प",
        "ढ़"
      ],
      [
        "व",
        "्या"
      ],
      [
        "स",
        "ै"
      ],
      [
        "स",
        "भा"
      ],
      [
        "ह",
        "ू"
      ],
      [
        "ह",
        "्"
      ],
      [
        "ह",
        "जार"
      ],
      [
        "ना",
        "मा"
      ],
      [
        "को",
        "ड़ा"
      ],
      [
        "ता",
        "ई"
      ],
      [
        "जा",
        "गर"
      ],
      [
        "नि",
        "आ"
      ],
      [
        "नि",
        "मिर"
      ],
      [
        "ला",
        "इन"
      ],
      [
        "रि",
        "य"
      ],
      [
        "मो",
        "सा"
      ],
      [
        "दि",
        "ल"
      ],
      [
        "लि",
        "ंग"
      ],
      [
        "लो",
        "म"
      ],
      [
        "लो",
        "लो"
      ],
      [
        "भार",
        "तीय"
      ],
      [
        "बद",
        "ली"
      ],
      [
        "आलो",
        "म"
      ],
      [
        "इति",
        "हास"
      ],
      [
        "ण्",
        "ड"
      ],
      [
        "लगाति",
        "ंगा"
      ],
      [
        "एट",
        "अः"
      ],
      [
        "मुख्य",
        "मंत्री"
      ],
      [
        "अ",
        "क"
      ],
      [
        "अ",
        "ड़"
      ],
      [
        "अ",
        "द्"
      ],
      [
        "अ",
        "गु"
      ],
      [
        "स",
        "चि"
      ],
      [
        "ना",
        "ला"
      ],
      [
        "हो",
        "नाङ"
      ],
      [
        "गे",
        "को"
      ],
      [
        "कु",
        "र"
      ],
      [
        "केदा",
        "य"
      ],
      [
        "रो",
        "का"
      ],
      [
        "नु",
        "बा"
      ],
      [
        "ओड़ोः",
        "गे"
      ],
      [
        "जान",
        "रे"
      ],
      [
        "वे",
        "न"
      ],
      [
        "उनु",
        "दुब"
      ],
      [
        "साइ",
        "ट"
      ],
      [
        "ताला",
        "रे"
      ],
      [
        "अधि",
        "कारी"
      ],
      [
        "अ",
        "च"
      ],
      [
        "आ",
        "ट"
      ],
      [
        "आ",
        "ड़ा"
      ],
      [
        "इ",
        "ः"
      ],
      [
        "ओ",
        "वा"
      ],
      [
        "क",
        "अ"
      ],
      [
        "क",
        "रो"
      ],
      [
        "क",
        "द्"
      ],
      [
        "क",
        "वि"
      ],
      [
        "प",
        "न"
      ],
      [
        "प",
        "री"
      ],
      [
        "स",
        "ौ"
      ],
      [
        "ह",
        "ै"
      ],
      [
        "ना",
        "इ"
      ],
      [
        "ना",
        "पाम"
      ],
      [
        "को",
        "रा"
      ],
      [
        "को",
        "रआः"
      ],
      [
        "दा",
        "ङ"
      ],
      [
        "ले",
        "नेल"
      ],
      [
        "बे",
        "ड़ा"
      ],
      [
        "टा",
        "इ"
      ],
      [
        "लि",
        "या"
      ],
      [
        "वि",
        "का"
      ],
      [
        "वि",
        "चार"
      ],
      [
        "वि",
        "ज्ञान"
      ],
      [
        "गु",
        "रू"
      ],
      [
        "सं",
        "स्"
      ],
      [
        "ओको",
        "ना"
      ],
      [
        "ब्",
        "रा"
      ],
      [
        "होरा",
        "ते"
      ],
      [
        "उदु",
        "बे"
      ],
      [
        "फि",
        "लिम"
      ],
      [
        "इनु",
        "ंग"
      ],
      [
        "नामो",
        "गा"
      ],
      [
        "स्वा",
        "मी"
      ],
      [
        "भग",
        "वान"
      ],
      [
        "माना",
        "राङ"
      ],
      [
        "अमे",
        "रिका"
      ],
      [
        "अंग्रे",
        "जी"
      ],
      [
        "आ",
        "कादा"
      ],
      [
        "उ",
        "द्"
      ],
      [
        "क",
        "मी"
      ],
      [
        "त",
        "कन"
      ],
      [
        "न",
        "डु"
      ],
      [
        "न",
        "तिन"
      ],
      [
        "ल",
        "अः"
      ],
      [
        "स",
        "ह"
      ],
      [
        "को",
        "ए"
      ],
      [
        "को",
        "ता"
      ],
      [
        "ता",
        "नि"
      ],
      [
        "के",
        "टे"
      ],
      [
        "मा",
        "ल"
      ],
      [
        "सा",
        "हि"
      ],
      [
        "दो",
        "लन"
      ],
      [
        "चि",
        "आः"
      ],
      [
        "सि",
        "नमा"
      ],
      [
        "पा",
        "ए"
      ],
      [
        "नेआ",
        "रा"
      ],
      [
        "कि",
        "ल"
      ],
      [
        "कि",
        "या"
      ],
      [
        "र्",
        "स"
      ],
      [
        "स्",
        "थि"
      ],
      [
        "दु",
        "र"
      ],
      [
        "दु",
        "ल"
      ],
      [
        "लो",
        "न"
      ],
      [
        "बाइ",
        "आकाना"
      ],
      [
        "लेल",
        "रिका"
      ],
      [
        "टि",
        "क"
      ],
      [
        "काजि",
        "कामि"
      ],
      [
        "ंड",
        "ी"
      ],
      [
        "ंड",
        "े"
      ],
      [
        "उड़ु",
        "ङ"
      ],
      [
        "जिनि",
        "द"
      ],
      [
        "जिनि",
        "स"
      ],
      [
        "दुला",
        "ड़ा"
      ],
      [
        "पै",
        "सा"
      ],
      [
        "ध्य",
        "क्ष"
      ],
      [
        "व्यव",
        "स्था"
      ],
      [
        "अ",
        "दा"
      ],
      [
        "आ",
        "धा"
      ],
      [
        "इ",
        "स्"
      ],
      [
        "ए",
        "म्"
      ],
      [
        "क",
        "टा"
      ],
      [
        "त",
        "ई"
      ],
      [
        "त",
        "ोः"
      ],
      [
        "म",
        "ना"
      ],
      [
        "र",
        "आ"
      ],
      [
        "श",
        "र्"
      ],
      [
        "ना",
        "आ"
      ],
      [
        "रे",
        "या"
      ],
      [
        "को",
        "एः"
      ],
      [
        "रा",
        "सि"
      ],
      [
        "बा",
        "बा"
      ],
      [
        "दा",
        "सा"
      ],
      [
        "मे",
        "ं"
      ],
      [
        "ति",
        "क"
      ],
      [
        "मि",
        "द्"
      ],
      [
        "बे",
        "डा"
      ],
      [
        "कु",
        "म"
      ],
      [
        "कु",
        "डि"
      ],
      [
        "कु",
        "मार"
      ],
      [
        "मेना",
        "गा"
      ],
      [
        "जाना",
        "ञ"
      ],
      [
        "स्",
        "य"
      ],
      [
        "हा",
        "ला"
      ],
      [
        "टा",
        "न"
      ],
      [
        "हि",
        "सि"
      ],
      [
        "क्",
        "ट"
      ],
      [
        "वि",
        "भाग"
      ],
      [
        "मु",
        "ं"
      ],
      [
        "हु",
        "ला"
      ],
      [
        "तन",
        "को"
      ],
      [
        "बाइ",
        "जाना"
      ],
      [
        "अइंग",
        "ा"
      ],
      [
        "अइंग",
        "अः"
      ],
      [
        "उदु",
        "बा"
      ],
      [
        "चिम",
        "तुङ"
      ],
      [
        "बद",
        "लि"
      ],
      [
        "आपि",
        "आ"
      ],
      [
        "दुला",
        "ड़ा"
      ],
      [
        "जरू",
        "ड़ु"
      ],
      [
        "एने",
        "टेः"
      ],
      [
        "कंप",
        "नी"
      ],
      [
        "गां",
        "धी"
      ],
      [
        "चिमी",
        "न"
      ],
      [
        "आट",
        "कार"
      ],
      [
        "अ",
        "ख"
      ],
      [
        "आ",
        "कोआ"
      ],
      [
        "आ",
        "सरा"
      ],
      [
        "इ",
        "किर"
      ],
      [
        "उ",
        "र"
      ],
      [
        "क",
        "ल्"
      ],
      [
        "छ",
        "ु"
      ],
      [
        "प",
        "ढ"
      ],
      [
        "प",
        "रे"
      ],
      [
        "प",
        "हम"
      ],
      [
        "ब",
        "ग"
      ],
      [
        "ह",
        "मला"
      ],
      [
        "रे",
        "ल"
      ],
      [
        "को",
        "शि"
      ],
      [
        "बा",
        "हर"
      ],
      [
        "ले",
        "ला"
      ],
      [
        "ला",
        "ल"
      ],
      [
        "से",
        "टे"
      ],
      [
        "पा",
        "ः"
      ],
      [
        "वा",
        "ला"
      ],
      [
        "दु",
        "आर"
      ],
      [
        "जु",
        "गु"
      ],
      [
        "जान",
        "कारी"
      ],
      [
        "शा",
        "सन"
      ],
      [
        "हे",
        "न"
      ],
      [
        "तइन",
        "ोः"
      ],
      [
        "वे",
        "द"
      ],
      [
        "फा",
        "यदा"
      ],
      [
        "दड़ि",
        "आ"
      ],
      [
        "किता",
        "ब"
      ],
      [
        "थी",
        "मबा"
      ],
      [
        "अ",
        "ल"
      ],
      [
        "ग",
        "ोः"
      ],
      [
        "ज",
        "रा"
      ],
      [
        "द",
        "ड़ां"
      ],
      [
        "प",
        "द"
      ],
      [
        "प",
        "र्"
      ],
      [
        "भ",
        "्र"
      ],
      [
        "स",
        "कम"
      ],
      [
        "रे",
        "निः"
      ],
      [
        "को",
        "टो"
      ],
      [
        "दा",
        "स"
      ],
      [
        "दा",
        "डिया"
      ],
      [
        "मे",
        "ंट"
      ],
      [
        "हो",
        "ड़"
      ],
      [
        "मा",
        "ने"
      ],
      [
        "या",
        "ञ"
      ],
      [
        "ति",
        "र"
      ],
      [
        "कि",
        "नाः"
      ],
      [
        "चा",
        "ही"
      ],
      [
        "चा",
        "लाओ"
      ],
      [
        "चा",
        "ंडु"
      ],
      [
        "बि",
        "ज"
      ],
      [
        "न्",
        "डुः"
      ],
      [
        "होड़ो",
        "कोआः"
      ],
      [
        "नाः",
        "दो"
      ],
      [
        "नेका",
        "गे"
      ],
      [
        "शा",
        "ह"
      ],
      [
        "आं",
        "दोलन"
      ],
      [
        "बै",
        "ंक"
      ],
      [
        "ठा",
        "ंव"
      ],
      [
        "हुड़ि",
        "ंग"
      ],
      [
        "स्था",
        "न"
      ],
      [
        "बरन",
        "किन"
      ],
      [
        "जरू",
        "ड़ी"
      ],
      [
        "अट",
        "कर"
      ],
      [
        "उपु",
        "न"
      ],
      [
        "सेके",
        "ड़ा"
      ],
      [
        "विका",
        "स"
      ],
      [
        "अ",
        "फ"
      ],
      [
        "आ",
        "ड़ा"
      ],
      [
        "इ",
        "दु"
      ],
      [
        "ए",
        "रा"
      ],
      [
        "ओ",
        "अ"
      ],
      [
        "ओ",
        "न"
      ],
      [
        "ख",
        "बर"
      ],
      [
        "च",
        "व"
      ],
      [
        "छ",
        "बा"
      ],
      [
        "त",
        "निः"
      ],
      [
        "ब",
        "गे"
      ],
      [
        "ह",
        "पे"
      ],
      [
        "ना",
        "न"
      ],
      [
        "का",
        "श"
      ],
      [
        "को",
        "के"
      ],
      [
        "को",
        "ताः"
      ],
      [
        "को",
        "तो"
      ],
      [
        "रा",
        "चा"
      ],
      [
        "बा",
        "इन"
      ],
      [
        "मा",
        "स्टर"
      ],
      [
        "या",
        "स"
      ],
      [
        "रि",
        "पोर्ट"
      ],
      [
        "नेआ",
        "गे"
      ],
      [
        "वा",
        "दी"
      ],
      [
        "जि",
        "बोन"
      ],
      [
        "स्",
        "कू"
      ],
      [
        "पु",
        "थि"
      ],
      [
        "ताइकेना",
        "ञ"
      ],
      [
        "गो",
        "मान"
      ],
      [
        "वि",
        "धा"
      ],
      [
        "पे",
        "ल"
      ],
      [
        "गि",
        "या"
      ],
      [
        "मु",
        "द"
      ],
      [
        "रू",
        "ड़ा"
      ],
      [
        "जे",
        "ल"
      ],
      [
        "त्",
        "ता"
      ],
      [
        "यु",
        "र"
      ],
      [
        "पि",
        "ल"
      ],
      [
        "जन",
        "य"
      ],
      [
        "जन",
        "व"
      ],
      [
        "ङा",
        "काना"
      ],
      [
        "टु",
        "ंग"
      ],
      [
        "खा",
        "स"
      ],
      [
        "मोयो",
        "द्"
      ],
      [
        "चेतान",
        "रे"
      ],
      [
        "पू",
        "र्"
      ],
      [
        "चो",
        "लोन"
      ],
      [
        "जाआं",
        "ए"
      ],
      [
        "अए",
        "अः"
      ],
      [
        "राष्ट",
        "्र"
      ],
      [
        "दर्",
        "शन"
      ],
      [
        "ध्या",
        "न"
      ],
      [
        "विष",
        "य"
      ],
      [
        "ं",
        "डो"
      ],
      [
        "इ",
        "दी"
      ],
      [
        "इ",
        "मिन"
      ],
      [
        "उ",
        "मि"
      ],
      [
        "उ",
        "डू"
      ],
      [
        "ज",
        "केद"
      ],
      [
        "न",
        "ोः"
      ],
      [
        "न",
        "दि"
      ],
      [
        "फ",
        "ल"
      ],
      [
        "भ",
        "े"
      ],
      [
        "ल",
        "ॉ"
      ],
      [
        "ल",
        "क्ष"
      ],
      [
        "ष",
        "ण"
      ],
      [
        "स",
        "न्"
      ],
      [
        "ना",
        "टक"
      ],
      [
        "को",
        "लो"
      ],
      [
        "ता",
        "म"
      ],
      [
        "रा",
        "ना"
      ],
      [
        "ने",
        "ः"
      ],
      [
        "जा",
        "आन"
      ],
      [
        "बा",
        "ङ"
      ],
      [
        "दा",
        "डियो"
      ],
      [
        "मा",
        "र्"
      ],
      [
        "से",
        "ताः"
      ],
      [
        "से",
        "ंगे"
      ],
      [
        "सि",
        "क"
      ],
      [
        "कु",
        "पुल"
      ],
      [
        "जि",
        "द"
      ],
      [
        "लि",
        "क"
      ],
      [
        "तान",
        "केना"
      ],
      [
        "द्",
        "धा"
      ],
      [
        "ड़ा",
        "ई"
      ],
      [
        "जी",
        "वन"
      ],
      [
        "प्र",
        "ो"
      ],
      [
        "प्र",
        "धान"
      ],
      [
        "लेल",
        "ोः"
      ],
      [
        "जे",
        "टे"
      ],
      [
        "टी",
        "वी"
      ],
      [
        "इनकु",
        "आः"
      ],
      [
        "ष्",
        "टा"
      ],
      [
        "उदु",
        "ब्"
      ],
      [
        "ची",
        "न"
      ],
      [
        "सेनोः",
        "जाना"
      ],
      [
        "अप",
        "नअः"
      ],
      [
        "ठा",
        "उ"
      ],
      [
        "संग",
        "ी"
      ],
      [
        "अइ",
        "ङ"
      ],
      [
        "बना",
        "ई"
      ],
      [
        "सेंगे",
        "ल"
      ],
      [
        ".",
        "."
      ],
      [
        "उ",
        "द"
      ],
      [
        "ङ",
        "गे"
      ],
      [
        "प",
        "अः"
      ],
      [
        "ब",
        "ंग"
      ],
      [
        "ब",
        "ड़ा"
      ],
      [
        "ब",
        "री"
      ],
      [
        "भ",
        "र"
      ],
      [
        "म",
        "नो"
      ],
      [
        "य",
        "ं"
      ],
      [
        "य",
        "त"
      ],
      [
        "व",
        "ती"
      ],
      [
        "ह",
        "रि"
      ],
      [
        "ना",
        "थ"
      ],
      [
        "का",
        "कला"
      ],
      [
        "ता",
        "ंगि"
      ],
      [
        "ते",
        "या"
      ],
      [
        "रा",
        "न"
      ],
      [
        "रा",
        "हुल"
      ],
      [
        "रा",
        "ँग"
      ],
      [
        "जा",
        "य"
      ],
      [
        "मे",
        "सा"
      ],
      [
        "ला",
        "ंदा"
      ],
      [
        "सा",
        "ँ"
      ],
      [
        "मि",
        "सि"
      ],
      [
        "पा",
        "ना"
      ],
      [
        "सो",
        "म"
      ],
      [
        "स्",
        "सा"
      ],
      [
        "मो",
        "ड़े"
      ],
      [
        "ताइकेना",
        "ए"
      ],
      [
        "ओको",
        "एः"
      ],
      [
        "लोः",
        "ते"
      ],
      [
        "शा",
        "न"
      ],
      [
        "पी",
        "टि"
      ],
      [
        "गोनो",
        "एः"
      ],
      [
        "इम",
        "तुङ"
      ],
      [
        "बं",
        "ध"
      ],
      [
        "बं",
        "धन"
      ],
      [
        "शे",
        "ष"
      ],
      [
        "दां",
        "ड़ा"
      ],
      [
        "फै",
        "सला"
      ],
      [
        "क्रि",
        "केट"
      ],
      [
        "अक",
        "रिंग"
      ],
      [
        "रासि",
        "कान"
      ],
      [
        "आ",
        "से"
      ],
      [
        "ए",
        "फ"
      ],
      [
        "ख",
        "ंड"
      ],
      [
        "च",
        "लाव"
      ],
      [
        "ट",
        "ल"
      ],
      [
        "ड",
        "ॉ"
      ],
      [
        "ध",
        "र्म"
      ],
      [
        "न",
        "ल"
      ],
      [
        "प",
        "ल"
      ],
      [
        "प",
        "ढ़"
      ],
      [
        "फ",
        "ु"
      ],
      [
        "ल",
        "तर"
      ],
      [
        "ल",
        "ड़ाई"
      ],
      [
        "को",
        "यो"
      ],
      [
        "जा",
        "इ"
      ],
      [
        "बा",
        "आरि"
      ],
      [
        "नि",
        "आः"
      ],
      [
        "मा",
        "या"
      ],
      [
        "मा",
        "री"
      ],
      [
        "सा",
        "मान"
      ],
      [
        "कु",
        "ं"
      ],
      [
        "कु",
        "म्"
      ],
      [
        "जि",
        "दान"
      ],
      [
        "दु",
        "ब्"
      ],
      [
        "चा",
        "व"
      ],
      [
        "टा",
        "व"
      ],
      [
        "हि",
        "र"
      ],
      [
        "हि",
        "नि"
      ],
      [
        "तु",
        "र"
      ],
      [
        "ताना",
        "को"
      ],
      [
        "इनिः",
        "आ"
      ],
      [
        "इनिः",
        "के"
      ],
      [
        "एना",
        "रे"
      ],
      [
        "दे",
        "ङगा"
      ],
      [
        "त्",
        "म"
      ],
      [
        "काजि",
        "आ"
      ],
      [
        "सर",
        "कारी"
      ],
      [
        "दी",
        "प"
      ],
      [
        "एआ",
        "एः"
      ],
      [
        "टु",
        "ंडु"
      ],
      [
        "लागाति",
        "ंगा"
      ],
      [
        "नम",
        "ोः"
      ],
      [
        "हुड़ि",
        "ंग"
      ],
      [
        "लगा",
        "तिंग"
      ],
      [
        "लु",
        "तुम"
      ],
      [
        "इम",
        "ताङ"
      ],
      [
        "सेनो",
        "गा"
      ],
      [
        "सेसेन",
        "ताना"
      ],
      [
        "सें",
        "ड़ां"
      ],
      [
        "मू",
        "ल"
      ],
      [
        "कृ",
        "ष्ण"
      ],
      [
        "मत",
        "लब"
      ],
      [
        "सद",
        "स्य"
      ],
      [
        "सुनु",
        "म"
      ],
      [
        "हिं",
        "दी"
      ],
      [
        "आ",
        "इन"
      ],
      [
        "इ",
        "ङ"
      ],
      [
        "उ",
        "म्"
      ],
      [
        "ग",
        "ंगा"
      ],
      [
        "च",
        "बा"
      ],
      [
        "ज",
        "न्"
      ],
      [
        "ट",
        "ू"
      ],
      [
        "द",
        "ड़ी"
      ],
      [
        "ब",
        "जे"
      ],
      [
        "र",
        "ंगा"
      ],
      [
        "स",
        "अ"
      ],
      [
        "ना",
        "ता"
      ],
      [
        "का",
        "इंग"
      ],
      [
        "ने",
        "रे"
      ],
      [
        "बा",
        "ई"
      ],
      [
        "ड़",
        "म"
      ],
      [
        "ंग",
        "ड़ा"
      ],
      [
        "ले",
        "ज"
      ],
      [
        "मा",
        "ण"
      ],
      [
        "ला",
        "स"
      ],
      [
        "सा",
        "य"
      ],
      [
        "गा",
        "मु"
      ],
      [
        "गा",
        "कान"
      ],
      [
        "हा",
        "न"
      ],
      [
        "हा",
        "ड़ा"
      ],
      [
        "होबा",
        "ओःआ"
      ],
      [
        "जु",
        "ः"
      ],
      [
        "प्र",
        "भा"
      ],
      [
        "प्र",
        "भाव"
      ],
      [
        "दे",
        "आ"
      ],
      [
        "डा",
        "व"
      ],
      [
        "ताइन",
        "जाना"
      ],
      [
        "टु",
        "नडु"
      ],
      [
        "खा",
        "ने"
      ],
      [
        "था",
        "ना"
      ],
      [
        "वी",
        "र"
      ],
      [
        "इं",
        "टर"
      ],
      [
        "लगा",
        "व"
      ],
      [
        "कृ",
        "त"
      ],
      [
        "उत्",
        "तर"
      ],
      [
        "पेड़े",
        "ः"
      ],
      [
        "वो",
        "ट"
      ],
      [
        "एद",
        "का"
      ],
      [
        "ओड़ो",
        "ंग"
      ],
      [
        "धे",
        "आन"
      ],
      [
        "साहि",
        "त्य"
      ],
      [
        "बिज",
        "ली"
      ],
      [
        "दाडियो",
        "आ"
      ],
      [
        "ष्टा",
        "चार"
      ],
      [
        "ठाउ",
        "का"
      ],
      [
        "अ",
        "पे"
      ],
      [
        "अ",
        "कन"
      ],
      [
        "अ",
        "यु"
      ],
      [
        "अ",
        "ल्"
      ],
      [
        "अ",
        "सर"
      ],
      [
        "अ",
        "ध्यक्ष"
      ],
      [
        "इ",
        "स"
      ],
      [
        "उ",
        "ल"
      ],
      [
        "उ",
        "तारा"
      ],
      [
        "क",
        "ता"
      ],
      [
        "ख",
        "र"
      ],
      [
        "ग",
        "ण"
      ],
      [
        "च",
        "ोः"
      ],
      [
        "ज",
        "वा"
      ],
      [
        "ट",
        "्रे"
      ],
      [
        "त",
        "री"
      ],
      [
        "ब",
        "हा"
      ],
      [
        "र",
        "म"
      ],
      [
        "ल",
        "र"
      ],
      [
        "स",
        "त"
      ],
      [
        "ना",
        "ते"
      ],
      [
        "का",
        "ः"
      ],
      [
        "को",
        "गे"
      ],
      [
        "बा",
        "ं"
      ],
      [
        "ड़",
        "व"
      ],
      [
        "दा",
        "डि"
      ],
      [
        "नि",
        "का"
      ],
      [
        "हो",
        "ला"
      ],
      [
        "सा",
        "द"
      ],
      [
        "ति",
        "किन"
      ],
      [
        "मि",
        "त"
      ],
      [
        "चि",
        "कि"
      ],
      [
        "बे",
        "न"
      ],
      [
        "कु",
        "रू"
      ],
      [
        "इनि",
        "आ"
      ],
      [
        "जाना",
        "को"
      ],
      [
        "हा",
        "ं"
      ],
      [
        "हा",
        "सा"
      ],
      [
        "मो",
        "हन"
      ],
      [
        "लेका",
        "गे"
      ],
      [
        "बि",
        "नि"
      ],
      [
        "सोबेन",
        "अः"
      ],
      [
        "मु",
        "टु"
      ],
      [
        "दे",
        "ः"
      ],
      [
        "बाइ",
        "आ"
      ],
      [
        "बाइ",
        "ओ"
      ],
      [
        "होड़ो",
        "कोआः"
      ],
      [
        "ओआ",
        "कान"
      ],
      [
        "ओआ",
        "काना"
      ],
      [
        "क्ष",
        "ि"
      ],
      [
        "लोः",
        "गे"
      ],
      [
        "नाम",
        "ोः"
      ],
      [
        "दाड़ि",
        "ओआ"
      ],
      [
        "ची",
        "ना"
      ],
      [
        "एटेः",
        "जाना"
      ],
      [
        "ट्",
        "टी"
      ],
      [
        "अप",
        "ना"
      ],
      [
        "सें",
        "ड़ा"
      ],
      [
        "बुजा",
        "व"
      ],
      [
        "बारान",
        "किन"
      ],
      [
        "बागे",
        "केआते"
      ],
      [
        "प्रे",
        "म"
      ],
      [
        "बिरि",
        "द"
      ],
      [
        "अन्",
        "ना"
      ],
      [
        "विद्",
        "यालय"
      ],
      [
        "गिति",
        "ः"
      ],
      [
        "पाए",
        "सा"
      ],
      [
        "स्थि",
        "ति"
      ],
      [
        "हुला",
        "ंग"
      ],
      [
        "कोशि",
        "श"
      ],
      [
        "हिनि",
        "जुः"
      ],
      [
        "ं",
        "बर"
      ],
      [
        "अ",
        "ु"
      ],
      [
        "अ",
        "तोम"
      ],
      [
        "आ",
        "किरिङ"
      ],
      [
        "इ",
        "र"
      ],
      [
        "उ",
        "डु"
      ],
      [
        "ओ",
        "ले"
      ],
      [
        "ओ",
        "चो"
      ],
      [
        "क",
        "म्प"
      ],
      [
        "ग",
        "पा"
      ],
      [
        "घ",
        "ु"
      ],
      [
        "घ",
        "ो"
      ],
      [
        "ज",
        "द्"
      ],
      [
        "ट",
        "ै"
      ],
      [
        "ट",
        "्र"
      ],
      [
        "ड",
        "र"
      ],
      [
        "न",
        "ै"
      ],
      [
        "प",
        "त्"
      ],
      [
        "ब",
        "अः"
      ],
      [
        "र",
        "ण"
      ],
      [
        "ल",
        "त"
      ],
      [
        "ल",
        "ंदा"
      ],
      [
        "का",
        "उ"
      ],
      [
        "का",
        "व"
      ],
      [
        "का",
        "रो"
      ],
      [
        "बा",
        "नाइ"
      ],
      [
        "नि",
        "ंग"
      ],
      [
        "नि",
        "यम"
      ],
      [
        "गा",
        "ड़ी"
      ],
      [
        "रि",
        "ड़ि"
      ],
      [
        "मि",
        "ल"
      ],
      [
        "से",
        "रेओ"
      ],
      [
        "कु",
        "आ"
      ],
      [
        "कु",
        "टु"
      ],
      [
        "पा",
        "जि"
      ],
      [
        "नेआ",
        "मेनते"
      ],
      [
        "सो",
        "ं"
      ],
      [
        "सो",
        "आन"
      ],
      [
        "सो",
        "तोः"
      ],
      [
        "जि",
        "क"
      ],
      [
        "जाना",
        "ः"
      ],
      [
        "स्",
        "या"
      ],
      [
        "स्",
        "टा"
      ],
      [
        "लि",
        "आ"
      ],
      [
        "लि",
        "त"
      ],
      [
        "लि",
        "किन"
      ],
      [
        "क्",
        "रिया"
      ],
      [
        "वि",
        "क"
      ],
      [
        "रिका",
        "ए"
      ],
      [
        "जी",
        "व"
      ],
      [
        "बि",
        "हार"
      ],
      [
        "तन",
        "य"
      ],
      [
        "गु",
        "जरा"
      ],
      [
        "त्",
        "मा"
      ],
      [
        "त्",
        "रि"
      ],
      [
        "टो",
        "र"
      ],
      [
        "रु",
        "आ"
      ],
      [
        "ओको",
        "न"
      ],
      [
        "गी",
        "न"
      ],
      [
        "उड़ु",
        "ंग"
      ],
      [
        "इसु",
        "पुराः"
      ],
      [
        "खा",
        "न"
      ],
      [
        "बी",
        "र"
      ],
      [
        "मू",
        "ध"
      ],
      [
        "कृ",
        "ति"
      ],
      [
        "वर्",
        "ग"
      ],
      [
        "आबु",
        "आः"
      ],
      [
        "दुला",
        "ड़"
      ],
      [
        "बानचा",
        "ओ"
      ],
      [
        "चान",
        "डुः"
      ],
      [
        "आरो",
        "पी"
      ],
      [
        "वेब",
        "साइट"
      ],
      [
        "कवि",
        "ता"
      ],
      [
        "सेटे",
        "र"
      ],
      [
        "स्कू",
        "ल"
      ],
      [
        "अ",
        "एः"
      ],
      [
        "अ",
        "पु"
      ],
      [
        "आ",
        "क"
      ],
      [
        "उ",
        "पा"
      ],
      [
        "ओ",
        "मो"
      ],
      [
        "ओ",
        "टा"
      ],
      [
        "क",
        "य"
      ],
      [
        "ग",
        "ै"
      ],
      [
        "घ",
        "ंटा"
      ],
      [
        "न",
        "रे"
      ],
      [
        "प",
        "क्ष"
      ],
      [
        "ब",
        "ोः"
      ],
      [
        "ब",
        "ंद"
      ],
      [
        "भ",
        "व"
      ],
      [
        "म",
        "स"
      ],
      [
        "म",
        "इन"
      ],
      [
        "म",
        "न्"
      ],
      [
        "र",
        "सा"
      ],
      [
        "स",
        "वाल"
      ],
      [
        "ह",
        "ल"
      ],
      [
        "का",
        "ं"
      ],
      [
        "का",
        "ओ"
      ],
      [
        "का",
        "का"
      ],
      [
        "को",
        "न"
      ],
      [
        "को",
        "डा"
      ],
      [
        "को",
        "र्ट"
      ],
      [
        "ते",
        "यअः"
      ],
      [
        "रा",
        "ग"
      ],
      [
        "ने",
        "ते"
      ],
      [
        "जा",
        "ँ"
      ],
      [
        "दा",
        "री"
      ],
      [
        "नि",
        "स"
      ],
      [
        "नि",
        "मत"
      ],
      [
        "दो",
        "ः"
      ],
      [
        "चि",
        "उ"
      ],
      [
        "कु",
        "ला"
      ],
      [
        "सो",
        "ना"
      ],
      [
        "सु",
        "ल"
      ],
      [
        "सु",
        "कू"
      ],
      [
        "सु",
        "गाड़ा"
      ],
      [
        "जाना",
        "ओ"
      ],
      [
        "मो",
        "बाइ"
      ],
      [
        "पु",
        "द"
      ],
      [
        "पु",
        "ड़ि"
      ],
      [
        "लि",
        "जाः"
      ],
      [
        "हि",
        "त"
      ],
      [
        "वि",
        "धान"
      ],
      [
        "वि",
        "शेष"
      ],
      [
        "रिका",
        "केदा"
      ],
      [
        "नु",
        "तु"
      ],
      [
        "पे",
        "न"
      ],
      [
        "रआः",
        "ते"
      ],
      [
        "जु",
        "दि"
      ],
      [
        "मु",
        "टान"
      ],
      [
        "हु",
        "डि"
      ],
      [
        "बो",
        "र्ड"
      ],
      [
        "प्र",
        "काश"
      ],
      [
        "दे",
        "न"
      ],
      [
        "गु",
        "सिया"
      ],
      [
        "लेल",
        "केआते"
      ],
      [
        "कजि",
        "आ"
      ],
      [
        "सी",
        "बी"
      ],
      [
        "ओको",
        "य"
      ],
      [
        "पो",
        "सा"
      ],
      [
        "धा",
        "नी"
      ],
      [
        "हे",
        "ड़ा"
      ],
      [
        "नाम",
        "जाना"
      ],
      [
        "तादा",
        "ञ"
      ],
      [
        "चिम",
        "नुङ"
      ],
      [
        "खि",
        "ल"
      ],
      [
        "तिसिङ",
        "ो"
      ],
      [
        "बारा",
        "बारि"
      ],
      [
        "परि",
        "वार"
      ],
      [
        "साइ",
        "ति"
      ],
      [
        "जिनि",
        "सि"
      ],
      [
        "पार",
        "का"
      ],
      [
        "नामो",
        "आ"
      ],
      [
        "आइ",
        "ञ"
      ],
      [
        "गल",
        "ती"
      ],
      [
        "कद",
        "म"
      ],
      [
        "विश्",
        "वास"
      ],
      [
        "अपि",
        "या"
      ],
      [
        "मौ",
        "का"
      ],
      [
        "होसो",
        "ड़ो"
      ],
      [
        "स्टे",
        "शन"
      ],
      [
        "खिला",
        "फ"
      ],
      [
        "एसे",
        "कार"
      ],
      [
        "सामा",
        "जिक"
      ],
      [
        "अच",
        "का"
      ],
      [
        "आड़ा",
        "नदि"
      ],
      [
        "कुरू",
        "मुटु"
      ],
      [
        "मोबाइ",
        "ल"
      ],
      [
        "ं",
        "आ"
      ],
      [
        "ं",
        "दे"
      ],
      [
        "आ",
        "मे"
      ],
      [
        "आ",
        "दि"
      ],
      [
        "आ",
        "चु"
      ],
      [
        "इ",
        "ग"
      ],
      [
        "इ",
        "पिल"
      ],
      [
        "क",
        "ौ"
      ],
      [
        "ठ",
        "न"
      ],
      [
        "त",
        "क"
      ],
      [
        "थ",
        "ो"
      ],
      [
        "द",
        "अः"
      ],
      [
        "ब",
        "हु"
      ],
      [
        "ब",
        "ंगा"
      ],
      [
        "ब",
        "धा"
      ],
      [
        "भ",
        "ु"
      ],
      [
        "र",
        "ै"
      ],
      [
        "श",
        "क"
      ],
      [
        "श",
        "ू"
      ],
      [
        "ष",
        "ी"
      ],
      [
        "स",
        "रे"
      ],
      [
        "ह",
        "ना"
      ],
      [
        "का",
        "रि"
      ],
      [
        "ता",
        "किना"
      ],
      [
        "के",
        "आद"
      ],
      [
        "जा",
        "म"
      ],
      [
        "बा",
        "लु"
      ],
      [
        "दा",
        "रू"
      ],
      [
        "हो",
        "ना"
      ],
      [
        "मा",
        "योम"
      ],
      [
        "ला",
        "ख"
      ],
      [
        "सा",
        "ई"
      ],
      [
        "सा",
        "ड़ि"
      ],
      [
        "सा",
        "गाते"
      ],
      [
        "गा",
        "काना"
      ],
      [
        "चि",
        "त्र"
      ],
      [
        "सि",
        "त"
      ],
      [
        "सि",
        "ने"
      ],
      [
        "सु",
        "ध"
      ],
      [
        "स्",
        "तर"
      ],
      [
        "हा",
        "म"
      ],
      [
        "मो",
        "ं"
      ],
      [
        "दु",
        "र्"
      ],
      [
        "इन",
        "तु"
      ],
      [
        "होबा",
        "काना"
      ],
      [
        "लि",
        "ः"
      ],
      [
        "रो",
        "मा"
      ],
      [
        "ताना",
        "ए"
      ],
      [
        "आञ",
        "े"
      ],
      [
        "गि",
        "ड़ि"
      ],
      [
        "इंग",
        "अः"
      ],
      [
        "प्र",
        "योग"
      ],
      [
        "गु",
        "ण"
      ],
      [
        "जे",
        "पी"
      ],
      [
        "त्",
        "या"
      ],
      [
        "नेया",
        "ते"
      ],
      [
        "म्",
        "बा"
      ],
      [
        "शि",
        "क्षा"
      ],
      [
        "ज्",
        "ञ"
      ],
      [
        "तादा",
        "को"
      ],
      [
        "स्ट",
        "्रे"
      ],
      [
        "जादा",
        "एः"
      ],
      [
        "सानाङ",
        "ताना"
      ],
      [
        "मोय",
        "द्"
      ],
      [
        "णा",
        "म"
      ],
      [
        "किरि",
        "ंग"
      ],
      [
        "होनो",
        "बा"
      ],
      [
        "लोक",
        "तंत्र"
      ],
      [
        "उकु",
        "ता"
      ],
      [
        "कार्य",
        "क्रम"
      ],
      [
        "ग्र",
        "ह"
      ],
      [
        "दड़िओः",
        "अ"
      ],
      [
        "परी",
        "क्षा"
      ],
      [
        "शर्",
        "मा"
      ],
      [
        "पढ",
        "ाव"
      ],
      [
        "भ्र",
        "ष्टाचार"
      ],
      [
        "प्रधान",
        "मंत्री"
      ],
      [
        "चिउ",
        "लाओ"
      ],
      [
        "बधा",
        "ई"
      ],
      [
        "ँ",
        "डा"
      ],
      [
        "ं",
        "ड़ु"
      ],
      [
        "अ",
        "द"
      ],
      [
        "अ",
        "लोम"
      ],
      [
        "आ",
        "र्"
      ],
      [
        "आ",
        "इं"
      ],
      [
        "उ",
        "न"
      ],
      [
        "क",
        "न्"
      ],
      [
        "ग",
        "ू"
      ],
      [
        "ग",
        "ढ़"
      ],
      [
        "ग",
        "ति"
      ],
      [
        "च",
        "न"
      ],
      [
        "च",
        "न्डुः"
      ],
      [
        "ज",
        "दि"
      ],
      [
        "त",
        "ब"
      ],
      [
        "प",
        "म"
      ],
      [
        "प",
        "ता"
      ],
      [
        "ब",
        "ॉ"
      ],
      [
        "ब",
        "ढ़"
      ],
      [
        "य",
        "ल"
      ],
      [
        "र",
        "जि"
      ],
      [
        "र",
        "वि"
      ],
      [
        "र",
        "बल"
      ],
      [
        "श",
        "नि"
      ],
      [
        "स",
        "त्ता"
      ],
      [
        "ह",
        "ला"
      ],
      [
        "ि",
        "क"
      ],
      [
        "रे",
        "अ"
      ],
      [
        "रे",
        "म"
      ],
      [
        "रे",
        "गी"
      ],
      [
        "को",
        "ठ"
      ],
      [
        "के",
        "से"
      ],
      [
        "मे",
        "या"
      ],
      [
        "नि",
        "म"
      ],
      [
        "ले",
        "द"
      ],
      [
        "ला",
        "भ"
      ],
      [
        "सा",
        "रे"
      ],
      [
        "मि",
        "आ"
      ],
      [
        "चि",
        "र"
      ],
      [
        "सो",
        "ज"
      ],
      [
        "जि",
        "लिङ"
      ],
      [
        "हा",
        "टि"
      ],
      [
        "हा",
        "टिङ"
      ],
      [
        "मो",
        "ड़े"
      ],
      [
        "यो",
        "ं"
      ],
      [
        "यो",
        "गि"
      ],
      [
        "बु",
        "रु"
      ],
      [
        "हि",
        "ला"
      ],
      [
        "लेका",
        "नाः"
      ],
      [
        "क्",
        "का"
      ],
      [
        "वि",
        "देश"
      ],
      [
        "पे",
        "ं"
      ],
      [
        "जो",
        "ड़े"
      ],
      [
        "जी",
        "आः"
      ],
      [
        "मु",
        "ङ"
      ],
      [
        "मु",
        "र"
      ],
      [
        "बो",
        "ओ"
      ],
      [
        "प्र",
        "चार"
      ],
      [
        "प्र",
        "साद"
      ],
      [
        "कान",
        "ू"
      ],
      [
        "तन",
        "ी"
      ],
      [
        "पि",
        "ड़ि"
      ],
      [
        "सं",
        "त"
      ],
      [
        "सिदा",
        "रे"
      ],
      [
        "सिदा",
        "उतार"
      ],
      [
        "ब्",
        "रि"
      ],
      [
        "अर",
        "जि"
      ],
      [
        "सर",
        "ती"
      ],
      [
        "चे",
        "ं"
      ],
      [
        "कना",
        "ए"
      ],
      [
        "लागाति",
        "ङ"
      ],
      [
        "सुकु",
        "आ"
      ],
      [
        "ंगे",
        "न"
      ],
      [
        "नअः",
        "दो"
      ],
      [
        "सार",
        "तेगे"
      ],
      [
        "हुड़ि",
        "ग"
      ],
      [
        "उनु",
        "रूम"
      ],
      [
        "खो",
        "ब्"
      ],
      [
        "परि",
        "णाम"
      ],
      [
        "बल",
        "य"
      ],
      [
        "सरा",
        "व"
      ],
      [
        "कदा",
        "ए"
      ],
      [
        "भो",
        "गोमान"
      ],
      [
        "ग्",
        "रा"
      ],
      [
        "ज्ञा",
        "निक"
      ],
      [
        "पुरअः",
        "गे"
      ],
      [
        "फ्",
        "ट"
      ],
      [
        "मेनाइ",
        "या"
      ],
      [
        "ओमे",
        "आ"
      ],
      [
        "पाति",
        "आ"
      ],
      [
        "छा",
        "पा"
      ],
      [
        "मै",
        "च"
      ],
      [
        "तू",
        "म"
      ],
      [
        "वै",
        "ज्ञानिक"
      ],
      [
        "उयु",
        "ः"
      ],
      [
        "जेता",
        "ए"
      ],
      [
        "होसो",
        "ड़ो"
      ],
      [
        "ब्ला",
        "ग"
      ],
      [
        "पढ़",
        "ाव"
      ],
      [
        "तकन",
        "ी"
      ],
      [
        "आसरा",
        "ए"
      ],
      [
        "जवा",
        "ब"
      ],
      [
        "सिने",
        "मा"
      ],
      [
        "ं",
        "पि"
      ],
      [
        "अ",
        "को"
      ],
      [
        "अ",
        "कना"
      ],
      [
        "अ",
        "सरा"
      ],
      [
        "अ",
        "र्थ"
      ],
      [
        "आ",
        "ऊ"
      ],
      [
        "आ",
        "त"
      ],
      [
        "आ",
        "य"
      ],
      [
        "आ",
        "कना"
      ],
      [
        "आ",
        "योग"
      ],
      [
        "इ",
        "ल"
      ],
      [
        "ए",
        "च"
      ],
      [
        "ओ",
        "व"
      ],
      [
        "ओ",
        "चोः"
      ],
      [
        "क",
        "ने"
      ],
      [
        "क",
        "ले"
      ],
      [
        "क",
        "टी"
      ],
      [
        "ख",
        "न"
      ],
      [
        "ख",
        "े"
      ],
      [
        "ख",
        "्या"
      ],
      [
        "ग",
        "्रे"
      ],
      [
        "ग",
        "ढ़"
      ],
      [
        "त",
        "ै"
      ],
      [
        "ब",
        "ज"
      ],
      [
        "ब",
        "ड़"
      ],
      [
        "ब",
        "लाए"
      ],
      [
        "म",
        "ण"
      ],
      [
        "य",
        "ी"
      ],
      [
        "ल",
        "गीन"
      ],
      [
        "व",
        "स"
      ],
      [
        "व",
        "ड़"
      ],
      [
        "ष",
        "द"
      ],
      [
        "ह",
        "री"
      ],
      [
        "ृ",
        "ष्"
      ],
      [
        "रे",
        "ञ"
      ],
      [
        "का",
        "ॅ"
      ],
      [
        "ता",
        "किन"
      ],
      [
        "ते",
        "द"
      ],
      [
        "ते",
        "दो"
      ],
      [
        "रा",
        "ते"
      ],
      [
        "ने",
        "पेल"
      ],
      [
        "बा",
        "री"
      ],
      [
        "हो",
        "ड"
      ],
      [
        "हो",
        "रो"
      ],
      [
        "हो",
        "ंका"
      ],
      [
        "मा",
        "ंडि"
      ],
      [
        "गे",
        "ञ"
      ],
      [
        "ला",
        "पाः"
      ],
      [
        "या",
        "त्रा"
      ],
      [
        "सा",
        "ङ"
      ],
      [
        "दो",
        "र"
      ],
      [
        "मि",
        "क"
      ],
      [
        "चि",
        "आ"
      ],
      [
        "चि",
        "मि"
      ],
      [
        "चि",
        "ल्"
      ],
      [
        "सि",
        "बिल"
      ],
      [
        "वा",
        "य"
      ],
      [
        "जि",
        "दन"
      ],
      [
        "मो",
        "का"
      ],
      [
        "दु",
        "ड़ु"
      ],
      [
        "लि",
        "जा"
      ],
      [
        "बु",
        "टा"
      ],
      [
        "बु",
        "ड़ु"
      ],
      [
        "तान",
        "ताइकेनाएः"
      ],
      [
        "द्",
        "दा"
      ],
      [
        "वि",
        "वे"
      ],
      [
        "वि",
        "जय"
      ],
      [
        "जी",
        "नि"
      ],
      [
        "मु",
        "सिङ"
      ],
      [
        "बो",
        "ं"
      ],
      [
        "बो",
        "ङा"
      ],
      [
        "दे",
        "वी"
      ],
      [
        "लेल",
        "केदा"
      ],
      [
        "ती",
        "स"
      ],
      [
        "यु",
        "क्त"
      ],
      [
        "कजि",
        "को"
      ],
      [
        "सं",
        "ड"
      ],
      [
        "सं",
        "सद"
      ],
      [
        "ओको",
        "ता"
      ],
      [
        "काजि",
        "केदा"
      ],
      [
        "लागा",
        "व"
      ],
      [
        "शा",
        "स्"
      ],
      [
        "ओम",
        "केदा"
      ],
      [
        "इतु",
        "आन"
      ],
      [
        "दाड़ि",
        "जाना"
      ],
      [
        "उनु",
        "ड़ु"
      ],
      [
        "पू",
        "र"
      ],
      [
        "खो",
        "न"
      ],
      [
        "सेसेन",
        "तान"
      ],
      [
        "जादा",
        "को"
      ],
      [
        "भो",
        "रसा"
      ],
      [
        "मर",
        "ङ"
      ],
      [
        "जोर",
        "ते"
      ],
      [
        "सला",
        "ह"
      ],
      [
        "घा",
        "टि"
      ],
      [
        "अधि",
        "कार"
      ],
      [
        "गोपो",
        "ए"
      ],
      [
        "नमो",
        "गा"
      ],
      [
        "सुर",
        "क्षा"
      ],
      [
        "लान",
        "दा"
      ],
      [
        "बरा",
        "बरी"
      ],
      [
        "दुबा",
        "कान"
      ],
      [
        "ब्र",
        "ह्"
      ],
      [
        "दंग",
        "ड़ी"
      ],
      [
        "सचि",
        "व"
      ],
      [
        "जुगु",
        "तु"
      ],
      [
        "चांडु",
        "ः"
      ],
      [
        "पूर्",
        "ण"
      ],
      [
        "गुजरा",
        "त"
      ],
      [
        "ं",
        "च"
      ],
      [
        "अ",
        "उ"
      ],
      [
        "अ",
        "सि"
      ],
      [
        "अ",
        "गर"
      ],
      [
        "अ",
        "पाना"
      ],
      [
        "आ",
        "ग"
      ],
      [
        "आ",
        "यो"
      ],
      [
        "आ",
        "कन"
      ],
      [
        "इ",
        "त"
      ],
      [
        "ग",
        "्री"
      ],
      [
        "च",
        "लव"
      ],
      [
        "ट",
        "्रो"
      ],
      [
        "त",
        "य"
      ],
      [
        "प",
        "ड़ा"
      ],
      [
        "प",
        "रोम"
      ],
      [
        "भ",
        "क्ति"
      ],
      [
        "र",
        "क"
      ],
      [
        "व",
        "त"
      ],
      [
        "व",
        "ृ"
      ],
      [
        "श",
        "र"
      ],
      [
        "स",
        "मु"
      ],
      [
        "स",
        "ब्"
      ],
      [
        "स",
        "नाम"
      ],
      [
        "स",
        "हर"
      ],
      [
        "ह",
        "गा"
      ],
      [
        "े",
        "आ"
      ],
      [
        "ड़",
        "म"
      ],
      [
        "।",
        "।"
      ],
      [
        "ना",
        "ंगेन"
      ],
      [
        "ते",
        "यो"
      ],
      [
        "रा",
        "शि"
      ],
      [
        "के",
        "म"
      ],
      [
        "ने",
        "लेकन"
      ],
      [
        "दा",
        "रु"
      ],
      [
        "मे",
        "ल"
      ],
      [
        "ले",
        "पे"
      ],
      [
        "मा",
        "ः"
      ],
      [
        "मा",
        "राँग"
      ],
      [
        "ला",
        "ञ"
      ],
      [
        "ला",
        "म"
      ],
      [
        "रि",
        "श्"
      ],
      [
        "ताइ",
        "नो"
      ],
      [
        "नेआ",
        "ओ"
      ],
      [
        "इनि",
        "अ"
      ],
      [
        "इनि",
        "लोः"
      ],
      [
        "वा",
        "री"
      ],
      [
        "वा",
        "काना"
      ],
      [
        "स्",
        "कार"
      ],
      [
        "हा",
        "का"
      ],
      [
        "मो",
        "ए"
      ],
      [
        "यो",
        "आ"
      ],
      [
        "दु",
        "कान"
      ],
      [
        "इन",
        "किन"
      ],
      [
        "चा",
        "ओ"
      ],
      [
        "पु",
        "लाइ"
      ],
      [
        "लि",
        "का"
      ],
      [
        "हि",
        "साब"
      ],
      [
        "हि",
        "सब"
      ],
      [
        "हि",
        "स्सा"
      ],
      [
        "तान",
        "कोआः"
      ],
      [
        "रो",
        "ब"
      ],
      [
        "ताना",
        "म"
      ],
      [
        "आञ",
        "ो"
      ],
      [
        "वि",
        "स"
      ],
      [
        "जो",
        "का"
      ],
      [
        "जी",
        "द"
      ],
      [
        "बि",
        "युर"
      ],
      [
        "ओः",
        "तान"
      ],
      [
        "सोबेन",
        "ते"
      ],
      [
        "गि",
        "यु"
      ],
      [
        "मु",
        "न"
      ],
      [
        "बो",
        "ओः"
      ],
      [
        "बो",
        "तो"
      ],
      [
        "प्र",
        "ी"
      ],
      [
        "प्र",
        "यास"
      ],
      [
        "प्र",
        "बंधन"
      ],
      [
        "कोआ",
        "एः"
      ],
      [
        "न्",
        "त"
      ],
      [
        "न्",
        "दि"
      ],
      [
        "गु",
        "ना"
      ],
      [
        "बाइ",
        "आकान"
      ],
      [
        "मी",
        "र"
      ],
      [
        "रु",
        "प"
      ],
      [
        "सं",
        "घ"
      ],
      [
        "सी",
        "मा"
      ],
      [
        "ब्",
        "लॉ"
      ],
      [
        "काजि",
        "केदाएः"
      ],
      [
        "जन",
        "ता"
      ],
      [
        "लेना",
        "एः"
      ],
      [
        "मं",
        "जू"
      ],
      [
        "राज",
        "स्थान"
      ],
      [
        "राज",
        "धानी"
      ],
      [
        "शि",
        "या"
      ],
      [
        "ची",
        "ज"
      ],
      [
        "खा",
        "ना"
      ],
      [
        "बी",
        "जेपी"
      ],
      [
        "ड़े",
        "ः"
      ],
      [
        "इं",
        "डिया"
      ],
      [
        "धि",
        "या"
      ],
      [
        "ट्",
        "स"
      ],
      [
        "परि",
        "षद"
      ],
      [
        "पं",
        "जा"
      ],
      [
        "आबु",
        "आ"
      ],
      [
        "सू",
        "र"
      ],
      [
        "बन",
        "ोः"
      ],
      [
        "सोबेनको",
        "आते"
      ],
      [
        "होबाओः",
        "ताना"
      ],
      [
        "पति",
        "या"
      ],
      [
        "आलो",
        "पे"
      ],
      [
        "जार",
        "गि"
      ],
      [
        "अइ",
        "ञ"
      ],
      [
        "धार",
        "ण"
      ],
      [
        "लग",
        "व"
      ],
      [
        "भू",
        "मि"
      ],
      [
        "तिङ",
        "गु"
      ],
      [
        "्यू",
        "टर"
      ],
      [
        "रेंगे",
        "ः"
      ],
      [
        "अइं",
        "आ"
      ],
      [
        "इला",
        "का"
      ],
      [
        "सचि",
        "न"
      ],
      [
        "मुं",
        "बई"
      ],
      [
        "लक्ष",
        "्"
      ],
      [
        "बाइओ",
        "गा"
      ],
      [
        "दुड़ु",
        "म"
      ],
      [
        "ं",
        "दि"
      ],
      [
        "अ",
        "य"
      ],
      [
        "आ",
        "बा"
      ],
      [
        "आ",
        "सि"
      ],
      [
        "आ",
        "पा"
      ],
      [
        "आ",
        "तोम"
      ],
      [
        "उ",
        "दा"
      ],
      [
        "उ",
        "रू"
      ],
      [
        "उ",
        "ल्"
      ],
      [
        "ए",
        "क्"
      ],
      [
        "ओ",
        "ज"
      ],
      [
        "ओ",
        "ता"
      ],
      [
        "ओ",
        "ताना"
      ],
      [
        "ख",
        "ै"
      ],
      [
        "च",
        "ू"
      ],
      [
        "ज",
        "मान"
      ],
      [
        "द",
        "ै"
      ],
      [
        "न",
        "ई"
      ],
      [
        "प",
        "ह"
      ],
      [
        "म",
        "शी"
      ],
      [
        "व",
        "ं"
      ],
      [
        "श",
        "ब्"
      ],
      [
        "श",
        "क्ति"
      ],
      [
        "स",
        "मि"
      ],
      [
        "ह",
        "क"
      ],
      [
        "ह",
        "नु"
      ],
      [
        "ह",
        "रिया"
      ],
      [
        "ना",
        "ग"
      ],
      [
        "ना",
        "मेआ"
      ],
      [
        "रे",
        "ट"
      ],
      [
        "का",
        "ग"
      ],
      [
        "ते",
        "ला"
      ],
      [
        "ते",
        "बअः"
      ],
      [
        "रा",
        "काना"
      ],
      [
        "ने",
        "सा"
      ],
      [
        "ने",
        "आः"
      ],
      [
        "ने",
        "साः"
      ],
      [
        "जा",
        "ला"
      ],
      [
        "जा",
        "री"
      ],
      [
        "बा",
        "बू"
      ],
      [
        "नि",
        "वे"
      ],
      [
        "सा",
        "फा"
      ],
      [
        "सा",
        "साङ"
      ],
      [
        "चि",
        "ऊ"
      ],
      [
        "ताइ",
        "जाना"
      ],
      [
        "पा",
        "टी"
      ],
      [
        "नेआ",
        "राः"
      ],
      [
        "सो",
        "नो"
      ],
      [
        "सो",
        "बन"
      ],
      [
        "इनि",
        "गा"
      ],
      [
        "वा",
        "कान"
      ],
      [
        "जि",
        "न"
      ],
      [
        "जि",
        "नी"
      ],
      [
        "स्",
        "तु"
      ],
      [
        "हा",
        "इ"
      ],
      [
        "मो",
        "टो"
      ],
      [
        "यो",
        "वा"
      ],
      [
        "दु",
        "ड़ु"
      ],
      [
        "लि",
        "ंगि"
      ],
      [
        "बु",
        "ध"
      ],
      [
        "वि",
        "न"
      ],
      [
        "वि",
        "धि"
      ],
      [
        "रिका",
        "या"
      ],
      [
        "जी",
        "त"
      ],
      [
        "टे",
        "न"
      ],
      [
        "टे",
        "ल"
      ],
      [
        "ओः",
        "अ"
      ],
      [
        "ओः",
        "का"
      ],
      [
        "रू",
        "द"
      ],
      [
        "प्र",
        "स्ता"
      ],
      [
        "प्र",
        "शासन"
      ],
      [
        "प्र",
        "कृति"
      ],
      [
        "हिजु",
        "आ"
      ],
      [
        "बाइ",
        "रि"
      ],
      [
        "लेल",
        "जाना"
      ],
      [
        "डा",
        "क्टर"
      ],
      [
        "सेन",
        "केना"
      ],
      [
        "सं",
        "बंध"
      ],
      [
        "कामि",
        "को"
      ],
      [
        "काजि",
        "ओःआ"
      ],
      [
        "तो",
        "वा"
      ],
      [
        "सर",
        "ति"
      ],
      [
        "इनकु",
        "को"
      ],
      [
        "ंड",
        "र"
      ],
      [
        "ताइना",
        "एः"
      ],
      [
        "हे",
        "ए"
      ],
      [
        "प्",
        "रिय"
      ],
      [
        "सन",
        "मंग"
      ],
      [
        "हिजुः",
        "यना"
      ],
      [
        "सम",
        "स्या"
      ],
      [
        "आउ",
        "केआते"
      ],
      [
        "श्",
        "वर"
      ],
      [
        "आं",
        "व"
      ],
      [
        "ज्",
        "यो"
      ],
      [
        "उनु",
        "बार"
      ],
      [
        "उनु",
        "दुब्"
      ],
      [
        "इम",
        "नुङ"
      ],
      [
        "उदुब",
        "केदा"
      ],
      [
        "वर",
        "ण"
      ],
      [
        "पं",
        "चा"
      ],
      [
        "मानाति",
        "ंग"
      ],
      [
        "सू",
        "चना"
      ],
      [
        "भाव",
        "ना"
      ],
      [
        "तिंगु",
        "न"
      ],
      [
        "लाइ",
        "ः"
      ],
      [
        "बोर",
        "सा"
      ],
      [
        "खु",
        "रजि"
      ],
      [
        "निकु",
        "आ"
      ],
      [
        "अभि",
        "यान"
      ],
      [
        "सल",
        "मान"
      ],
      [
        "पत्र",
        "कार"
      ],
      [
        "आयु",
        "ब"
      ],
      [
        "कहा",
        "नी"
      ],
      [
        "विश्व",
        "विद्यालय"
      ],
      [
        "कल्",
        "प"
      ],
      [
        "ओन",
        "मान"
      ],
      [
        "जन्",
        "म"
      ],
      [
        "इंटर",
        "नेट"
      ],
      [
        "रिड़ि",
        "ङ"
      ],
      [
        "निमत",
        "ंग"
      ],
      [
        "कानू",
        "न"
      ],
      [
        "ं",
        "जी"
      ],
      [
        "अ",
        "नि"
      ],
      [
        "आ",
        "स"
      ],
      [
        "आ",
        "का"
      ],
      [
        "आ",
        "धार"
      ],
      [
        "उ",
        "स"
      ],
      [
        "उ",
        "दू"
      ],
      [
        "ए",
        "ं"
      ],
      [
        "ए",
        "जे"
      ],
      [
        "ए",
        "ङगा"
      ],
      [
        "ए",
        "कदम"
      ],
      [
        "ओ",
        "का"
      ],
      [
        "क",
        "रा"
      ],
      [
        "च",
        "पा"
      ],
      [
        "ठ",
        "े"
      ],
      [
        "थ",
        "े"
      ],
      [
        "द",
        "स"
      ],
      [
        "न",
        "व"
      ],
      [
        "न",
        "पम"
      ],
      [
        "प",
        "ौ"
      ],
      [
        "प",
        "न्"
      ],
      [
        "ब",
        "ल्"
      ],
      [
        "भ",
        "क्त"
      ],
      [
        "म",
        "ंड"
      ],
      [
        "म",
        "ध्य"
      ],
      [
        "र",
        "ति"
      ],
      [
        "र",
        "चना"
      ],
      [
        "ल",
        "अ"
      ],
      [
        "व",
        "री"
      ],
      [
        "श",
        "ं"
      ],
      [
        "स",
        "हा"
      ],
      [
        "स",
        "फा"
      ],
      [
        "ह",
        "मि"
      ],
      [
        "ह",
        "पा"
      ],
      [
        "ना",
        "मे"
      ],
      [
        "ना",
        "यक"
      ],
      [
        "रे",
        "पे"
      ],
      [
        "का",
        "इ"
      ],
      [
        "ता",
        "द"
      ],
      [
        "ते",
        "ञ"
      ],
      [
        "रा",
        "नी"
      ],
      [
        "रा",
        "बाङ"
      ],
      [
        "के",
        "न्द्र"
      ],
      [
        "जा",
        "आना"
      ],
      [
        "बा",
        "ब"
      ],
      [
        "बा",
        "ला"
      ],
      [
        "बा",
        "जार"
      ],
      [
        "बा",
        "हिर"
      ],
      [
        "दा",
        "ना"
      ],
      [
        "मे",
        "ला"
      ],
      [
        "नि",
        "जी"
      ],
      [
        "नि",
        "तिर"
      ],
      [
        "मा",
        "लि"
      ],
      [
        "सा",
        "ध"
      ],
      [
        "सा",
        "व"
      ],
      [
        "सा",
        "ड़ा"
      ],
      [
        "गा",
        "ल"
      ],
      [
        "गा",
        "ड़ि"
      ],
      [
        "रि",
        "ज"
      ],
      [
        "दो",
        "कान"
      ],
      [
        "चि",
        "त"
      ],
      [
        "बे",
        "दा"
      ],
      [
        "कु",
        "न"
      ],
      [
        "पा",
        "सरा"
      ],
      [
        "सो",
        "बोन"
      ],
      [
        "सो",
        "ङगे"
      ],
      [
        "सो",
        "मोए"
      ],
      [
        "सो",
        "ओज"
      ],
      [
        "मेना",
        "ञा"
      ],
      [
        "वा",
        "र्ड"
      ],
      [
        "कि",
        "तब"
      ],
      [
        "सु",
        "पर"
      ],
      [
        "सु",
        "गड़"
      ],
      [
        "हा",
        "बि"
      ],
      [
        "हा",
        "सुर"
      ],
      [
        "दु",
        "कू"
      ],
      [
        "चा",
        "सा"
      ],
      [
        "टा",
        "ओ"
      ],
      [
        "होबा",
        "आकाना"
      ],
      [
        "होबा",
        "यना"
      ],
      [
        "गो",
        "वा"
      ],
      [
        "गो",
        "जो"
      ],
      [
        "हि",
        "सा"
      ],
      [
        "तु",
        "का"
      ],
      [
        "रो",
        "ह"
      ],
      [
        "ड़ा",
        "म"
      ],
      [
        "एन",
        "रेओ"
      ],
      [
        "बि",
        "ङ"
      ],
      [
        "मु",
        "ल"
      ],
      [
        "मु",
        "ना"
      ],
      [
        "हु",
        "कुम"
      ],
      [
        "जना",
        "व"
      ],
      [
        "न्",
        "हा"
      ],
      [
        "डि",
        "त"
      ],
      [
        "काना",
        "जि"
      ],
      [
        "होड़ो",
        "कोआ"
      ],
      [
        "टो",
        "गो"
      ],
      [
        "सं",
        "सार"
      ],
      [
        "सं",
        "जय"
      ],
      [
        "कामि",
        "रे"
      ],
      [
        "इनकु",
        "ः"
      ],
      [
        "ङा",
        "न"
      ],
      [
        "मं",
        "च"
      ],
      [
        "हे",
        "ड़े"
      ],
      [
        "प्",
        "ले"
      ],
      [
        "एआ",
        "को"
      ],
      [
        "हिजुः",
        "ताना"
      ],
      [
        "शि",
        "काय"
      ],
      [
        "ची",
        "नी"
      ],
      [
        "वी",
        "डियो"
      ],
      [
        "पुराः",
        "गे"
      ],
      [
        "नेता",
        "को"
      ],
      [
        "दाड़ि",
        "जाना"
      ],
      [
        "सिंग",
        "ी"
      ],
      [
        "एस",
        "कार"
      ],
      [
        "कुड़ि",
        "को"
      ],
      [
        "बाद",
        "ली"
      ],
      [
        "भो",
        "ग"
      ],
      [
        "ग्",
        "राम"
      ],
      [
        "बन",
        "ोःआ"
      ],
      [
        "लेलो",
        "गा"
      ],
      [
        "उपु",
        "निआ"
      ],
      [
        "साम",
        "पो"
      ],
      [
        "हाना",
        "टिङ"
      ],
      [
        "बानचा",
        "व"
      ],
      [
        "तदा",
        "ए"
      ],
      [
        "आपु",
        "ते"
      ],
      [
        "ष्ण",
        "ु"
      ],
      [
        "जै",
        "न"
      ],
      [
        "दंग",
        "ड़ा"
      ],
      [
        "नौ",
        "करी"
      ],
      [
        "लेले",
        "मे"
      ],
      [
        "माइ",
        "नान"
      ],
      [
        "संस्",
        "कृत"
      ],
      [
        "चिआः",
        "चि"
      ],
      [
        "अदा",
        "लत"
      ],
      [
        "राचा",
        "ः"
      ],
      [
        "यं",
        "त्र"
      ],
      [
        "साँ",
        "गि"
      ],
      [
        "त्म",
        "क"
      ],
      [
        "लगातिंग",
        "अः"
      ],
      [
        "रम",
        "ल"
      ],
      [
        "कुटु",
        "रि"
      ],
      [
        "सीबी",
        "आई"
      ],
      [
        "स्ट्रे",
        "लिया"
      ],
      [
        "आत",
        "ंक"
      ],
      [
        "होड",
        "मो"
      ],
      [
        "चिआ",
        "चि"
      ],
      [
        "मशी",
        "न"
      ],
      [
        "हनु",
        "मान"
      ],
      [
        "जिनी",
        "द"
      ],
      [
        "ज्यो",
        "ति"
      ],
      [
        "हाबि",
        "ः"
      ],
      [
        "ं",
        "बु"
      ],
      [
        "ं",
        "सी"
      ],
      [
        "ः",
        "को"
      ],
      [
        "अ",
        "एआ"
      ],
      [
        "अ",
        "काद"
      ],
      [
        "आ",
        "गा"
      ],
      [
        "उ",
        "ड़"
      ],
      [
        "ए",
        "या"
      ],
      [
        "क",
        "ते"
      ],
      [
        "क",
        "म्"
      ],
      [
        "क",
        "पाजि"
      ],
      [
        "ख",
        "तरा"
      ],
      [
        "ख",
        "र्चा"
      ],
      [
        "ग",
        "त"
      ],
      [
        "ग",
        "म"
      ],
      [
        "ग",
        "मा"
      ],
      [
        "घ",
        "ड़ी"
      ],
      [
        "च",
        "र्चा"
      ],
      [
        "छ",
        "े"
      ],
      [
        "छ",
        "त्"
      ],
      [
        "ज",
        "ंग"
      ],
      [
        "ज",
        "ोः"
      ],
      [
        "ज",
        "पअः"
      ],
      [
        "न",
        "ंबर"
      ],
      [
        "प",
        "सराव"
      ],
      [
        "ब",
        "र्"
      ],
      [
        "म",
        "ृ"
      ],
      [
        "म",
        "ता"
      ],
      [
        "म",
        "ही"
      ],
      [
        "य",
        "ते"
      ],
      [
        "र",
        "ङ"
      ],
      [
        "ल",
        "म"
      ],
      [
        "स",
        "क"
      ],
      [
        "ह",
        "जा"
      ],
      [
        "ह",
        "सा"
      ],
      [
        "रे",
        "ंग"
      ],
      [
        "का",
        "बु"
      ],
      [
        "को",
        "एते"
      ],
      [
        "के",
        "ओ"
      ],
      [
        "के",
        "श"
      ],
      [
        "ने",
        "ला"
      ],
      [
        "ने",
        "कन"
      ],
      [
        "जा",
        "आ"
      ],
      [
        "बा",
        "ज"
      ],
      [
        "दा",
        "ल"
      ],
      [
        "दा",
        "ंगड़ा"
      ],
      [
        "हो",
        "ड़"
      ],
      [
        "हो",
        "टोः"
      ],
      [
        "ले",
        "केआते"
      ],
      [
        "ले",
        "नाः"
      ],
      [
        "मा",
        "रंग"
      ],
      [
        "ला",
        "एः"
      ],
      [
        "ला",
        "ड़ा"
      ],
      [
        "या",
        "ं"
      ],
      [
        "या",
        "म"
      ],
      [
        "या",
        "कन"
      ],
      [
        "सा",
        "त"
      ],
      [
        "सा",
        "ह"
      ],
      [
        "गा",
        "न"
      ],
      [
        "रि",
        "ङ"
      ],
      [
        "रि",
        "ड़ि"
      ],
      [
        "ति",
        "हा"
      ],
      [
        "सि",
        "द्धा"
      ],
      [
        "कु",
        "ली"
      ],
      [
        "कु",
        "ड़ी"
      ],
      [
        "पा",
        "इ"
      ],
      [
        "पा",
        "ठ"
      ],
      [
        "इनि",
        "या"
      ],
      [
        "वा",
        "णी"
      ],
      [
        "कि",
        "नो"
      ],
      [
        "र्",
        "व"
      ],
      [
        "र्",
        "ष"
      ],
      [
        "र्",
        "जी"
      ],
      [
        "स्",
        "ति"
      ],
      [
        "हा",
        "रिआ"
      ],
      [
        "यो",
        "न"
      ],
      [
        "दु",
        "सि"
      ],
      [
        "इन",
        "ई"
      ],
      [
        "दि",
        "वस"
      ],
      [
        "टा",
        "आं"
      ],
      [
        "बु",
        "आ"
      ],
      [
        "तु",
        "ला"
      ],
      [
        "तु",
        "सिंग"
      ],
      [
        "आञ",
        "के"
      ],
      [
        "क्",
        "रा"
      ],
      [
        "क्",
        "शन"
      ],
      [
        "वि",
        "त"
      ],
      [
        "वि",
        "ष्णु"
      ],
      [
        "रिका",
        "केदाए"
      ],
      [
        "जो",
        "ला"
      ],
      [
        "सोबे",
        "नाः"
      ],
      [
        "एन",
        "तअः"
      ],
      [
        "बि",
        "पि"
      ],
      [
        "सोबेन",
        "कोआः"
      ],
      [
        "मु",
        "सिंग"
      ],
      [
        "जना",
        "को"
      ],
      [
        "एना",
        "द"
      ],
      [
        "दे",
        "र"
      ],
      [
        "केआते",
        "गे"
      ],
      [
        "जे",
        "तना"
      ],
      [
        "पि",
        "टि"
      ],
      [
        "सं",
        "स्था"
      ],
      [
        "सी",
        "आई"
      ],
      [
        "तो",
        "ल"
      ],
      [
        "एटे",
        "गोआ"
      ],
      [
        "मान",
        "डि"
      ],
      [
        "अइंग",
        "के"
      ],
      [
        "प्",
        "त"
      ],
      [
        "जागार",
        "को"
      ],
      [
        "सन",
        "रति"
      ],
      [
        "तइकेना",
        "य"
      ],
      [
        "तइना",
        "य"
      ],
      [
        "सिङ",
        "बोंगा"
      ],
      [
        "गोनो",
        "ङान"
      ],
      [
        "सेनोः",
        "तान"
      ],
      [
        "आया",
        "गा"
      ],
      [
        "तादा",
        "ए"
      ],
      [
        "उनु",
        "ड़ु"
      ],
      [
        "लु",
        "तूम"
      ],
      [
        "इनी",
        "जा"
      ],
      [
        "खि",
        "र"
      ],
      [
        "तयोम",
        "ते"
      ],
      [
        "हारा",
        "तिङ"
      ],
      [
        "अप",
        "रा"
      ],
      [
        "यू",
        "पी"
      ],
      [
        "ंदा",
        "न"
      ],
      [
        "होबाओः",
        "अ"
      ],
      [
        "फ्",
        "ता"
      ],
      [
        "एने",
        "टे"
      ],
      [
        "संग",
        "ठन"
      ],
      [
        "गल",
        "ति"
      ],
      [
        "उत्",
        "तरा"
      ],
      [
        "छा",
        "त्र"
      ],
      [
        "मार",
        "साल"
      ],
      [
        "स्वा",
        "स्थ"
      ],
      [
        "गोआ",
        "रि"
      ],
      [
        "अं",
        "तर"
      ],
      [
        "एद",
        "कान"
      ],
      [
        "झा",
        "र"
      ],
      [
        "ब्ला",
        "ॅ"
      ],
      [
        "बिरि",
        "द्"
      ],
      [
        "फर",
        "का"
      ],
      [
        "दाङ",
        "गाड़ा"
      ],
      [
        "तई",
        "केना"
      ],
      [
        "रेल",
        "वे"
      ],
      [
        "जाँ",
        "च"
      ],
      [
        "हुडि",
        "ङ"
      ],
      [
        "मुर",
        "तु"
      ],
      [
        "चिल्",
        "का"
      ],
      [
        "संड",
        "का"
      ],
      [
        "शब्",
        "द"
      ],
      [
        "समि",
        "ति"
      ],
      [
        "काग",
        "ज"
      ],
      [
        "जाला",
        "कार"
      ],
      [
        "सासाङ",
        "किर"
      ],
      [
        "प्रस्ता",
        "व"
      ],
      [
        "शिकाय",
        "त"
      ],
      [
        "छत्",
        "तीस"
      ],
      [
        "बिपि",
        "नगा"
      ],
      [
        ":",
        "?"
      ],
      [
        "ं",
        "ज"
      ],
      [
        "अ",
        "इन"
      ],
      [
        "अ",
        "ड़ा"
      ],
      [
        "अ",
        "बू"
      ],
      [
        "अ",
        "हम"
      ],
      [
        "अ",
        "शो"
      ],
      [
        "आ",
        "सा"
      ],
      [
        "आ",
        "यर"
      ],
      [
        "आ",
        "खिर"
      ],
      [
        "उ",
        "ब"
      ],
      [
        "ए",
        "क"
      ],
      [
        "ए",
        "कला"
      ],
      [
        "ए",
        "क्स"
      ],
      [
        "ओ",
        "ट"
      ],
      [
        "क",
        "कला"
      ],
      [
        "ग",
        "न"
      ],
      [
        "ग",
        "व"
      ],
      [
        "ग",
        "री"
      ],
      [
        "ग",
        "मु"
      ],
      [
        "च",
        "ल"
      ],
      [
        "च",
        "क्र"
      ],
      [
        "ज",
        "म"
      ],
      [
        "ज",
        "हा"
      ],
      [
        "झ",
        "ी"
      ],
      [
        "ञ",
        "मे"
      ],
      [
        "ड",
        "ल"
      ],
      [
        "ढ",
        "ा"
      ],
      [
        "त",
        "अ"
      ],
      [
        "त",
        "द्"
      ],
      [
        "त",
        "त्व"
      ],
      [
        "न",
        "पाम"
      ],
      [
        "प",
        "ट"
      ],
      [
        "फ",
        "्रे"
      ],
      [
        "म",
        "ज"
      ],
      [
        "म",
        "द"
      ],
      [
        "म",
        "स्"
      ],
      [
        "म",
        "ड़ि"
      ],
      [
        "म",
        "हे"
      ],
      [
        "म",
        "खिल"
      ],
      [
        "र",
        "स"
      ],
      [
        "र",
        "सि"
      ],
      [
        "व",
        "्"
      ],
      [
        "स",
        "व"
      ],
      [
        "स",
        "जा"
      ],
      [
        "स",
        "पा"
      ],
      [
        "ह",
        "म्"
      ],
      [
        "ृ",
        "त"
      ],
      [
        "रे",
        "बु"
      ],
      [
        "को",
        "ट"
      ],
      [
        "को",
        "नो"
      ],
      [
        "को",
        "लोः"
      ],
      [
        "ता",
        "नेः"
      ],
      [
        "ते",
        "गी"
      ],
      [
        "रा",
        "कान"
      ],
      [
        "रा",
        "जे"
      ],
      [
        "के",
        "ंद्र"
      ],
      [
        "ने",
        "स"
      ],
      [
        "बा",
        "गाड़ा"
      ],
      [
        "बा",
        "बत"
      ],
      [
        "दा",
        "इ"
      ],
      [
        "दा",
        "य"
      ],
      [
        "नि",
        "मिन"
      ],
      [
        "मा",
        "ं"
      ],
      [
        "मा",
        "काना"
      ],
      [
        "ला",
        "कान"
      ],
      [
        "ला",
        "लू"
      ],
      [
        "सा",
        "जा"
      ],
      [
        "गा",
        "ड़ी"
      ],
      [
        "रि",
        "ं"
      ],
      [
        "ति",
        "ः"
      ],
      [
        "दो",
        "म"
      ],
      [
        "दो",
        "ष"
      ],
      [
        "से",
        "ड़ा"
      ],
      [
        "से",
        "पेड़े"
      ],
      [
        "चि",
        "द"
      ],
      [
        "चि",
        "ल"
      ],
      [
        "चि",
        "मुङ"
      ],
      [
        "ोः",
        "का"
      ],
      [
        "कु",
        "ड़म"
      ],
      [
        "पा",
        "रि"
      ],
      [
        "वा",
        "रा"
      ],
      [
        "वा",
        "सी"
      ],
      [
        "वा",
        "ही"
      ],
      [
        "कि",
        "ंग"
      ],
      [
        "कि",
        "ला"
      ],
      [
        "कि",
        "सां"
      ],
      [
        "कि",
        "सान"
      ],
      [
        "जि",
        "म्"
      ],
      [
        "जि",
        "लिंग"
      ],
      [
        "मो",
        "त"
      ],
      [
        "मो",
        "द्"
      ],
      [
        "मो",
        "र्चा"
      ],
      [
        "केदा",
        "म"
      ],
      [
        "चा",
        "य"
      ],
      [
        "चा",
        "ल"
      ],
      [
        "चा",
        "पा"
      ],
      [
        "चा",
        "हे"
      ],
      [
        "गो",
        "ट"
      ],
      [
        "गो",
        "ल"
      ],
      [
        "लो",
        "अ"
      ],
      [
        "लो",
        "ड"
      ],
      [
        "लो",
        "ब"
      ],
      [
        "द्",
        "धि"
      ],
      [
        "जु",
        "ड़ा"
      ],
      [
        "जो",
        "तो"
      ],
      [
        "इनिः",
        "अः"
      ],
      [
        "एन",
        "्"
      ],
      [
        "एन",
        "ते"
      ],
      [
        "बि",
        "चार"
      ],
      [
        "आते",
        "आ"
      ],
      [
        "मु",
        "द्दा"
      ],
      [
        "हु",
        "पुड़ि"
      ],
      [
        "बो",
        "ङगा"
      ],
      [
        "रू",
        "अड़"
      ],
      [
        "प्र",
        "क्रिया"
      ],
      [
        "एना",
        "को"
      ],
      [
        "कोआ",
        "को"
      ],
      [
        "न्",
        "स"
[...]
