{
  "version": "1.0",
  "truncation": null,
  "padding": null,
  "added_tokens": [
    {
      "id": 0,
      "content": "[PAD]",
      "single_word": false,
      "lstrip": false,
      "rstrip": false,
      "normalized": false,
      "special": true
    },
    {
      "id": 1,
      "content": "[UNK]",
      "single_word": false,
      "lstrip": false,
      "rstrip": false,
      "normalized": false,
      "special": true
    },
    {
      "id": 2,
      "content": "[BOS]",
      "single_word": false,
      "lstrip": false,
      "rstrip": false,
      "normalized": false,
      "special": true
    },
    {
      "id": 3,
      "content": "[EOS]",
      "single_word": false,
      "lstrip": false,
      "rstrip": false,
      "normalized": false,
      "special": true
    }
  ],
  "normalizer": null,
  "pre_tokenizer": {
    "type": "Whitespace"
  },
  "post_processor": null,
  "decoder": null,
  "model": {
    "type": "BPE",
    "dropout": null,
    "unk_token": "[UNK]",
    "continuing_subword_prefix": null,
    "end_of_word_suffix": null,
    "fuse_unk": false,
    "byte_fallback": false,
    "ignore_merges": false,
    "vocab": {
      "[PAD]": 0,
      "[UNK]": 1,
      "[BOS]": 2,
      "[EOS]": 3,
      "#": 4,
      "&": 5,
      "+": 6,
      "3": 7,
      "<": 8,
      "=": 9,
      ">": 10,
      "?": 11,
      "`": 12,
      "{": 13,
      "}": 14,
      "~": 15,
      "": 16,
      "": 17,
      "¡": 18,
      "«": 19,
      "·": 20,
      "»": 21,
      "̈": 22,
      "А": 23,
      "Б": 24,
      "Г": 25,
      "Н": 26,
      "а": 27,
      "в": 28,
      "д": 29,
      "е": 30,
      "з": 31,
      "и": 32,
      "к": 33,
      "л": 34,
      "н": 35,
      "о": 36,
      "р": 37,
      "у": 38,
      "ш": 39,
      "я": 40,
      "ә": 41,
      "ח": 42,
      "פ": 43,
      "ר": 44,
      "ת": 45,
      "ا": 46,
      "س": 47,
      "ن": 48,
      "ک": 49,
      "ی": 50,
      "ँ": 51,
      "ं": 52,
      "ः": 53,
      "अ": 54,
      "आ": 55,
      "इ": 56,
      "ई": 57,
      "उ": 58,
      "ऊ": 59,
      "ऋ": 60,
      "ऍ": 61,
      "ऎ": 62,
      "ए": 63,
      "ऐ": 64,
      "ऑ": 65,
      "ओ": 66,
      "औ": 67,
      "क": 68,
      "ख": 69,
      "ग": 70,
      "घ": 71,
      "ङ": 72,
      "च": 73,
      "छ": 74,
      "ज": 75,
      "झ": 76,
      "ञ": 77,
      "ट": 78,
      "ठ": 79,
      "ड": 80,
      "ढ": 81,
      "ण": 82,
      "त": 83,
      "थ": 84,
      "द": 85,
      "ध": 86,
      "न": 87,
      "प": 88,
      "फ": 89,
      "ब": 90,
      "भ": 91,
      "म": 92,
      "य": 93,
      "र": 94,
      "ल": 95,
      "ळ": 96,
      "व": 97,
      "श": 98,
      "ष": 99,
      "स": 100,
      "ह": 101,
      "़": 102,
      "ऽ": 103,
      "ा": 104,
      "ि": 105,
      "ी": 106,
      "ु": 107,
      "ू": 108,
      "ृ": 109,
      "ॅ": 110,
      "ॆ": 111,
      "े": 112,
      "ै": 113,
      "ॉ": 114,
      "ॊ": 115,
      "ो": 116,
      "ौ": 117,
      "्": 118,
      "ॐ": 119,
      "॓": 120,
      "।": 121,
      "॥": 122,
      "॰": 123,
      "™": 124,
      "←": 125,
      "↑": 126,
      "→": 127,
      "►": 128,
      "●": 129,
      "☼": 130,
      "♠": 131,
      "♥": 132,
      "": 133,
      "": 134,
      "है": 135,
      "का": 136,
      "ें": 137,
      "के": 138,
      "या": 139,
      "्र": 140,
      "ने": 141,
      "में": 142,
      "की": 143,
      "से": 144,
      "ही": 145,
      "ार": 146,
      "ता": 147,
      "ों": 148,
      "कर": 149,
      "ना": 150,
      "को": 151,
      "स्": 152,
      "र्": 153,
      "भी": 154,
      "कि": 155,
      "हो": 156,
      "क्": 157,
      "पर": 158,
      "ान": 159,
      "ला": 160,
      "सा": 161,
      "हा": 162,
      "इस": 163,
      "लि": 164,
      "जा": 165,
      "ले": 166,
      "हैं": 167,
      "वा": 168,
      "प्र": 169,
      "हीं": 170,
      "रा": 171,
      "ती": 172,
      "वि": 173,
      "ते": 174,
      "न्": 175,
      "नहीं": 176,
      "ड़": 177,
      "और": 178,
      "मा": 179,
      "्य": 180,
      "दे": 181,
      "बा": 182,
      "हु": 183,
      "ति": 184,
      "गा": 185,
      "दि": 186,
      "था": 187,
      "नि": 188,
      "री": 189,
      "एक": 190,
      "रह": 191,
      "नी": 192,
      "तो": 193,
      "ली": 194,
      "मि": 195,
      "पा": 196,
      "त्": 197,
      "सी": 198,
      "सं": 199,
      "मु": 200,
      "ये": 201,
      "मे": 202,
      "लिए": 203,
      "त्र": 204,
      "मै": 205,
      "यह": 206,
      "उस": 207,
      "चा": 208,
      "जी": 209,
      "अप": 210,
      "सम": 211,
      "कु": 212,
      "ंग": 213,
      "रे": 214,
      "क्ष": 215,
      "भा": 216,
      "दी": 217,
      "हि": 218,
      "कार": 219,
      "दा": 220,
      "गी": 221,
      "यों": 222,
      "थी": 223,
      "हम": 224,
      "ल्": 225,
      "मैं": 226,
      "गया": 227,
      "जि": 228,
      "ोग": 229,
      "आप": 230,
      "सि": 231,
      "शा": 232,
      "उन": 233,
      "सु": 234,
      "्या": 235,
      "दो": 236,
      "खा": 237,
      "वे": 238,
      "रू": 239,
      "पू": 240,
      "पु": 241,
      "थे": 242,
      "वह": 243,
      "किया": 244,
      "द्": 245,
      "फि": 246,
      "गे": 247,
      "मी": 248,
      "्ट": 249,
      "न्ह": 250,
      "रि": 251,
      "तु": 252,
      "च्": 253,
      "कुछ": 254,
      "सक": 255,
      "धि": 256,
      "रहा": 257,
      "रहे": 258,
      "वार": 259,
      "ढ़": 260,
      "मान": 261,
      "शि": 262,
      "रो": 263,
      "श्": 264,
      "हर": 265,
      "उन्ह": 266,
      "तर": 267,
      "तक": 268,
      "ारी": 269,
      "क्या": 270,
      "कोई": 271,
      "बि": 272,
      "पी": 273,
      "नों": 274,
      "अब": 275,
      "ज़": 276,
      "बहु": 277,
      "सब": 278,
      "बे": 279,
      "साथ": 280,
      "पह": 281,
      "ंद": 282,
      "टी": 283,
      "म्": 284,
      "बहुत": 285,
      "इन": 286,
      "जो": 287,
      "बात": 288,
      "अपने": 289,
      "रही": 290,
      "क्र": 291,
      "ित": 292,
      "स्ट": 293,
      "सर": 294,
      "बाद": 295,
      "बी": 296,
      "गु": 297,
      "स्थ": 298,
      "दू": 299,
      "चु": 300,
      "चार": 301,
      "गई": 302,
      "हू": 303,
      "बार": 304,
      "लग": 305,
      "लोग": 306,
      "िया": 307,
      "देश": 308,
      "वी": 309,
      "ंड": 310,
      "दिया": 311,
      "देख": 312,
      "ओं": 313,
      "करने": 314,
      "होता": 315,
      "रु": 316,
      "ानी": 317,
      "राज": 318,
      "कह": 319,
      "ड़ा": 320,
      "ड़ी": 321,
      "दु": 322,
      "लगा": 323,
      "चे": 324,
      "किन": 325,
      "हां": 326,
      "शु": 327,
      "मिल": 328,
      "टा": 329,
      "खु": 330,
      "नु": 331,
      "मं": 332,
      "सो": 333,
      "हुआ": 334,
      "परि": 335,
      "ब्": 336,
      "चि": 337,
      "सू": 338,
      "फिर": 339,
      "जन": 340,
      "मुझ": 341,
      "ष्ट": 342,
      "आज": 343,
      "मो": 344,
      "छा": 345,
      "प्": 346,
      "ची": 347,
      "बना": 348,
      "लेकिन": 349,
      "ारे": 350,
      "लो": 351,
      "ज्": 352,
      "व्य": 353,
      "ैसे": 354,
      "ंध": 355,
      "भार": 356,
      "्रे": 357,
      "वर्": 358,
      "काम": 359,
      "इसके": 360,
      "र्य": 361,
      "ड़े": 362,
      "मन": 363,
      "पि": 364,
      "अपनी": 365,
      "ारा": 366,
      "चल": 367,
      "मुझे": 368,
      "ोंने": 369,
      "टे": 370,
      "किसी": 371,
      "जाए": 372,
      "उसे": 373,
      "जान": 374,
      "मह": 375,
      "यु": 376,
      "जाता": 377,
      "पे": 378,
      "ार्": 379,
      "कम": 380,
      "्री": 381,
      "स्त": 382,
      "अधि": 383,
      "खि": 384,
      "गर": 385,
      "वर": 386,
      "धा": 387,
      "हुई": 388,
      "त्य": 389,
      "िक": 390,
      "्रा": 391,
      "फ़": 392,
      "हाँ": 393,
      "उन्होंने": 394,
      "तरह": 395,
      "बै": 396,
      "यो": 397,
      "पहले": 398,
      "गए": 399,
      "शन": 400,
      "दिन": 401,
      "हुए": 402,
      "योग": 403,
      "करते": 404,
      "उन्हें": 405,
      "टर": 406,
      "बन": 407,
      "ष्": 408,
      "ंत": 409,
      "अच्": 410,
      "मौ": 411,
      "क्षा": 412,
      "ंच": 413,
      "वन": 414,
      "ूल": 415,
      "कारी": 416,
      "जब": 417,
      "नाम": 418,
      "खे": 419,
      "लिया": 420,
      "कई": 421,
      "चाहि": 422,
      "बु": 423,
      "सकता": 424,
      "घर": 425,
      "शी": 426,
      "बढ़": 427,
      "वो": 428,
      "ेंगे": 429,
      "समय": 430,
      "उप": 431,
      "होगा": 432,
      "दर्": 433,
      "ज्ञ": 434,
      "होती": 435,
      "न्द": 436,
      "दोनों": 437,
      "कृ": 438,
      "करना": 439,
      "क्ति": 440,
      "अनु": 441,
      "डा": 442,
      "ियों": 443,
      "होने": 444,
      "प्रा": 445,
      "उसके": 446,
      "बो": 447,
      "उनके": 448,
      "यी": 449,
      "बद": 450,
      "जु": 451,
      "जे": 452,
      "डि": 453,
      "रख": 454,
      "निक": 455,
      "स्व": 456,
      "बर": 457,
      "निर्": 458,
      "इसी": 459,
      "भाव": 460,
      "ठा": 461,
      "सभी": 462,
      "चाहिए": 463,
      "ौर": 464,
      "रूप": 465,
      "पहु": 466,
      "लों": 467,
      "मेरे": 468,
      "पो": 469,
      "इससे": 470,
      "आई": 471,
      "उत्": 472,
      "कहा": 473,
      "जिस": 474,
      "टि": 475,
      "लिस": 476,
      "समझ": 477,
      "पूर्": 478,
      "पुलिस": 479,
      "शे": 480,
      "गि": 481,
      "माम": 482,
      "मुख": 483,
      "त्री": 484,
      "हूँ": 485,
      "क्त": 486,
      "उनकी": 487,
      "यू": 488,
      "यहां": 489,
      "पार": 490,
      "भि": 491,
      "स्था": 492,
      "चाह": 493,
      "मैंने": 494,
      "हूं": 495,
      "बता": 496,
      "ऐसा": 497,
      "प्रति": 498,
      "पास": 499,
      "जाती": 500,
      "त्व": 501,
      "छो": 502,
      "फी": 503,
      "बह": 504,
      "कर्": 505,
      "डी": 506,
      "मत": 507,
      "कार्य": 508,
      "कों": 509,
      "करें": 510,
      "धार": 511,
      "ध्य": 512,
      "वाद": 513,
      "सम्": 514,
      "स्ता": 515,
      "गो": 516,
      "ठी": 517,
      "बच्": 518,
      "कभी": 519,
      "जार": 520,
      "भू": 521,
      "क्यों": 522,
      "साम": 523,
      "ंक": 524,
      "सबसे": 525,
      "ंस": 526,
      "उसकी": 527,
      "्यादा": 528,
      "फिल्": 529,
      "मार": 530,
      "समा": 531,
      "दूस": 532,
      "लोगों": 533,
      "यही": 534,
      "रत": 535,
      "अन्": 536,
      "एं": 537,
      "यर": 538,
      "इसे": 539,
      "जू": 540,
      "छे": 541,
      "लू": 542,
      "इसका": 543,
      "भारत": 544,
      "करता": 545,
      "स्वा": 546,
      "वाले": 547,
      "णा": 548,
      "पै": 549,
      "फा": 550,
      "र्थ": 551,
      "जीवन": 552,
      "ऐसे": 553,
      "पन": 554,
      "पता": 555,
      "होगी": 556,
      "अव": 557,
      "ग्र": 558,
      "ज्यादा": 559,
      "दान": 560,
      "सकते": 561,
      "निया": 562,
      "मेरी": 563,
      "डे": 564,
      "न्न": 565,
      "ंह": 566,
      "खो": 567,
      "तना": 568,
      "अपना": 569,
      "भाग": 570,
      "तुम": 571,
      "शुरू": 572,
      "बंध": 573,
      "होते": 574,
      "हाथ": 575,
      "उनका": 576,
      "जग": 577,
      "कारण": 578,
      "चना": 579,
      "हों": 580,
      "विश्": 581,
      "भर": 582,
      "ंग्रे": 583,
      "द्ध": 584,
      "सरकार": 585,
      "करा": 586,
      "राम": 587,
      "स्थि": 588,
      "फिल्म": 589,
      "द्र": 590,
      "पुर": 591,
      "कैसे": 592,
      "दार": 593,
      "पड़": 594,
      "जाने": 595,
      "उसका": 596,
      "हमारे": 597,
      "ंगा": 598,
      "आया": 599,
      "कै": 600,
      "भग": 601,
      "हे": 602,
      "कान": 603,
      "हाल": 604,
      "इसलिए": 605,
      "द्वार": 606,
      "सर्": 607,
      "प्रे": 608,
      "भाष": 609,
      "अच्छा": 610,
      "कता": 611,
      "तार": 612,
      "र्ट": 613,
      "अभी": 614,
      "द्य": 615,
      "मर": 616,
      "लन": 617,
      "्टी": 618,
      "प्त": 619,
      "ज्ञान": 620,
      "चला": 621,
      "जरू": 622,
      "क्स": 623,
      "लेकर": 624,
      "क्षण": 625,
      "क्षे": 626,
      "ंप": 627,
      "जै": 628,
      "पर्": 629,
      "रों": 630,
      "तब": 631,
      "वान": 632,
      "काफी": 633,
      "लिये": 634,
      "मेरा": 635,
      "उसने": 636,
      "बस": 637,
      "यं": 638,
      "सह": 639,
      "इसमें": 640,
      "रात": 641,
      "त्म": 642,
      "अधिक": 643,
      "गल": 644,
      "नौ": 645,
      "पढ़": 646,
      "श्य": 647,
      "लेख": 648,
      "स्थिति": 649,
      "आगे": 650,
      "फ्": 651,
      "वं": 652,
      "श्र": 653,
      "सार": 654,
      "वाला": 655,
      "आपको": 656,
      "पूर्ण": 657,
      "तै": 658,
      "धान": 659,
      "वै": 660,
      "वाली": 661,
      "माण": 662,
      "तुम्": 663,
      "जर": 664,
      "पानी": 665,
      "त्रा": 666,
      "मंत्री": 667,
      "अं": 668,
      "कल": 669,
      "यहाँ": 670,
      "लय": 671,
      "लगे": 672,
      "करे": 673,
      "ओर": 674,
      "पत्": 675,
      "शो": 676,
      "याद": 677,
      "साल": 678,
      "लिख": 679,
      "तीय": 680,
      "लगता": 681,
      "बैठ": 682,
      "कौ": 683,
      "घट": 684,
      "तों": 685,
      "नो": 686,
      "मू": 687,
      "यत": 688,
      "्ड": 689,
      "द्वारा": 690,
      "धी": 691,
      "फो": 692,
      "श्री": 693,
      "होना": 694,
      "तीन": 695,
      "राज्य": 696,
      "जानकारी": 697,
      "शेष": 698,
      "सामने": 699,
      "आं": 700,
      "क़": 701,
      "ख़": 702,
      "गयी": 703,
      "दर": 704,
      "धन": 705,
      "प्या": 706,
      "व्या": 707,
      "नेता": 708,
      "वास": 709,
      "बदल": 710,
      "अभि": 711,
      "ध्या": 712,
      "र्म": 713,
      "देखा": 714,
      "थीं": 715,
      "सकती": 716,
      "खुद": 717,
      "तुम्ह": 718,
      "भव": 719,
      "हरा": 720,
      "नीति": 721,
      "सिंह": 722,
      "गये": 723,
      "जल": 724,
      "्यू": 725,
      "स्थान": 726,
      "अलग": 727,
      "फै": 728,
      "यन": 729,
      "मिला": 730,
      "क्रम": 731,
      "दुनिया": 732,
      "तैया": 733,
      "उठा": 734,
      "धर": 735,
      "वल": 736,
      "सद": 737,
      "दिल": 738,
      "दिखा": 739,
      "हिला": 740,
      "जाएगा": 741,
      "क्षेत्र": 742,
      "णी": 743,
      "तन": 744,
      "दौर": 745,
      "पत्र": 746,
      "सन": 747,
      "हमें": 748,
      "करी": 749,
      "विचार": 750,
      "भाषा": 751,
      "जैसे": 752,
      "लगी": 753,
      "हार": 754,
      "जाते": 755,
      "ल्ली": 756,
      "दूर": 757,
      "धु": 758,
      "ब्र": 759,
      "किस": 760,
      "परा": 761,
      "वाल": 762,
      "पूरी": 763,
      "चुना": 764,
      "कृति": 765,
      "ंट": 766,
      "फल": 767,
      "बू": 768,
      "वहां": 769,
      "शान": 770,
      "जाना": 771,
      "राष्ट": 772,
      "मिले": 773,
      "लोक": 774,
      "खिला": 775,
      "खेल": 776,
      "मामले": 777,
      "आद": 778,
      "कॉ": 779,
      "कवि": 780,
      "वृ": 781,
      "हन": 782,
      "र्फ": 783,
      "साइ": 784,
      "आपके": 785,
      "सुन": 786,
      "पूरा": 787,
      "आर": 788,
      "कहीं": 789,
      "दम": 790,
      "पड़ा": 791,
      "पड़े": 792,
      "लड़": 793,
      "काल": 794,
      "विष": 795,
      "बारे": 796,
      "व्यक्ति": 797,
      "ंव": 798,
      "कट": 799,
      "चों": 800,
      "जन्": 801,
      "डिया": 802,
      "तं": 803,
      "बड़ी": 804,
      "मूल": 805,
      "सल": 806,
      "करण": 807,
      "बाहर": 808,
      "त्या": 809,
      "बेह": 810,
      "सोच": 811,
      "आस": 812,
      "एस": 813,
      "फे": 814,
      "मृ": 815,
      "यद": 816,
      "लौ": 817,
      "करती": 818,
      "कंप": 819,
      "गत": 820,
      "ग्": 821,
      "चो": 822,
      "चौ": 823,
      "छी": 824,
      "तनी": 825,
      "पं": 826,
      "पक": 827,
      "महा": 828,
      "शब्": 829,
      "सौ": 830,
      "कार्": 831,
      "दिल्ली": 832,
      "बीच": 833,
      "एवं": 834,
      "द्या": 835,
      "भो": 836,
      "महिला": 837,
      "लब": 838,
      "व्यव": 839,
      "भारतीय": 840,
      "जूद": 841,
      "घटना": 842,
      "खी": 843,
      "जय": 844,
      "थो": 845,
      "दृ": 846,
      "नही": 847,
      "भु": 848,
      "साहि": 849,
      "इसकी": 850,
      "दिर": 851,
      "हमारी": 852,
      "समाज": 853,
      "चान": 854,
      "जना": 855,
      "टो": 856,
      "देर": 857,
      "कुल": 858,
      "भाई": 859,
      "हिं": 860,
      "शायद": 861,
      "ठीक": 862,
      "इं": 863,
      "घा": 864,
      "घ्": 865,
      "डर": 866,
      "बल": 867,
      "रंग": 868,
      "लें": 869,
      "यां": 870,
      "विक": 871,
      "विशेष": 872,
      "विद्या": 873,
      "देव": 874,
      "क्रिया": 875,
      "गुरु": 876,
      "मुख्य": 877,
      "कौन": 878,
      "शब्द": 879,
      "अध्य": 880,
      "तने": 881,
      "तरी": 882,
      "यम": 883,
      "आपकी": 884,
      "सिर्फ": 885,
      "एम": 886,
      "ट्र": 887,
      "मार्": 888,
      "यक": 889,
      "रण": 890,
      "सत": 891,
      "जाये": 892,
      "पीछे": 893,
      "परिवार": 894,
      "ष्टि": 895,
      "छोड़": 896,
      "अन": 897,
      "चू": 898,
      "ण्ड": 899,
      "धे": 900,
      "बड़ा": 901,
      "भे": 902,
      "लं": 903,
      "कांग्रे": 904,
      "परे": 905,
      "साह": 906,
      "वाह": 907,
      "विका": 908,
      "मांग": 909,
      "ंदर": 910,
      "अन्य": 911,
      "विश्व": 912,
      "कूल": 913,
      "ग्रा": 914,
      "पद": 915,
      "लु": 916,
      "क्टर": 917,
      "प्रकार": 918,
      "न्या": 919,
      "संस्": 920,
      "हिन्": 921,
      "गिर": 922,
      "बच्चों": 923,
      "चुनाव": 924,
      "ख्या": 925,
      "चले": 926,
      "झा": 927,
      "नई": 928,
      "्स": 929,
      "केवल": 930,
      "रहने": 931,
      "रहता": 932,
      "सुर": 933,
      "अस्": 934,
      "आए": 935,
      "यता": 936,
      "संग": 937,
      "मीडिया": 938,
      "ष्ठ": 939,
      "निकल": 940,
      "पहुं": 941,
      "पहुंच": 942,
      "भगवान": 943,
      "जन्म": 944,
      "एँ": 945,
      "कला": 946,
      "लै": 947,
      "वज": 948,
      "शहर": 949,
      "सला": 950,
      "ह्": 951,
      "हाला": 952,
      "वाब": 953,
      "शामिल": 954,
      "बिना": 955,
      "चुका": 956,
      "प्रेम": 957,
      "आदमी": 958,
      "कांग्रेस": 959,
      "आने": 960,
      "बंद": 961,
      "हमे": 962,
      "स्या": 963,
      "विरो": 964,
      "तिहा": 965,
      "रहते": 966,
      "ंगे": 967,
      "हमने": 968,
      "सुबह": 969,
      "पहली": 970,
      "जगह": 971,
      "ध्यान": 972,
      "दौरान": 973,
      "आव": 974,
      "आखि": 975,
      "ऐसी": 976,
      "खू": 977,
      "तथा": 978,
      "काश": 979,
      "ेंद्र": 980,
      "माँ": 981,
      "देने": 982,
      "पाल": 983,
      "रिया": 984,
      "वर्ष": 985,
      "निर्माण": 986,
      "पोर्ट": 987,
      "भूमि": 988,
      "दूसरे": 989,
      "विकास": 990,
      "ऊपर": 991,
      "गर्": 992,
      "नर": 993,
      "बच": 994,
      "बड़े": 995,
      "लॉ": 996,
      "लित": 997,
      "बाजार": 998,
      "गीत": 999,
      "पूरे": 1000,
      "पुरा": 1001,
      "द्धि": 1002,
      "चुकी": 1003,
      "मंदिर": 1004,
      "जरूरत": 1005,
      "कविता": 1006,
      "ंकि": 1007,
      "आँ": 1008,
      "चर्": 1009,
      "मही": 1010,
      "लिक": 1011,
      "मिली": 1012,
      "शिक्षा": 1013,
      "राजनीति": 1014,
      "खुश": 1015,
      "अधिकार": 1016,
      "साहित्य": 1017,
      "हमेशा": 1018,
      "आन": 1019,
      "आती": 1020,
      "आरो": 1021,
      "उसी": 1022,
      "नया": 1023,
      "यल": 1024,
      "शक्ति": 1025,
      "हरे": 1026,
      "स्तु": 1027,
      "जाय": 1028,
      "वाई": 1029,
      "तीस": 1030,
      "श्च": 1031,
      "कहते": 1032,
      "कहानी": 1033,
      "पिछ": 1034,
      "युव": 1035,
      "बढ़ा": 1036,
      "बताया": 1037,
      "अगर": 1038,
      "दन": 1039,
      "पति": 1040,
      "बने": 1041,
      "रखा": 1042,
      "स्कूल": 1043,
      "परी": 1044,
      "हमारा": 1045,
      "न्द्र": 1046,
      "कर्म": 1047,
      "तैयार": 1048,
      "व्यवस्था": 1049,
      "आवश्य": 1050,
      "अंग्रे": 1051,
      "घु": 1052,
      "पट": 1053,
      "वहाँ": 1054,
      "सै": 1055,
      "सही": 1056,
      "सेवा": 1057,
      "करो": 1058,
      "करके": 1059,
      "प्रदेश": 1060,
      "गांव": 1061,
      "समस्या": 1062,
      "ल्प": 1063,
      "तरफ": 1064,
      "ार्थ": 1065,
      "्रीय": 1066,
      "अच्छी": 1067,
      "स्वयं": 1068,
      "चाहता": 1069,
      "बच्चे": 1070,
      "अर्थ": 1071,
      "उठ": 1072,
      "खों": 1073,
      "जारी": 1074,
      "टू": 1075,
      "नए": 1076,
      "बचा": 1077,
      "मना": 1078,
      "सारे": 1079,
      "सवाल": 1080,
      "स्ते": 1081,
      "र्ष": 1082,
      "वित": 1083,
      "त्ता": 1084,
      "टीम": 1085,
      "म्मी": 1086,
      "रुप": 1087,
      "दर्शन": 1088,
      "प्राप्त": 1089,
      "पार्टी": 1090,
      "अग": 1091,
      "अके": 1092,
      "कत": 1093,
      "कू": 1094,
      "कथा": 1095,
      "चली": 1096,
      "जों": 1097,
      "दें": 1098,
      "नजर": 1099,
      "पस": 1100,
      "पसं": 1101,
      "वही": 1102,
      "याँ": 1103,
      "किए": 1104,
      "न्य": 1105,
      "दिनों": 1106,
      "मित": 1107,
      "आपका": 1108,
      "ियां": 1109,
      "सूचना": 1110,
      "महत्व": 1111,
      "फ़ि": 1112,
      "योजना": 1113,
      "ष्ण": 1114,
      "बोल": 1115,
      "टिंग": 1116,
      "स्तान": 1117,
      "प्यार": 1118,
      "तंत्र": 1119,
      "आखिर": 1120,
      "आते": 1121,
      "इन्": 1122,
      "गू": 1123,
      "छु": 1124,
      "धर्म": 1125,
      "लक": 1126,
      "शरी": 1127,
      "षण": 1128,
      "हरी": 1129,
      "केट": 1130,
      "स्तर": 1131,
      "र्ड": 1132,
      "लाल": 1133,
      "जांच": 1134,
      "प्रि": 1135,
      "माना": 1136,
      "देते": 1137,
      "उससे": 1138,
      "द्धा": 1139,
      "बनाने": 1140,
      "पोस्ट": 1141,
      "ँच": 1142,
      "तू": 1143,
      "यात्रा": 1144,
      "माल": 1145,
      "नीचे": 1146,
      "आपने": 1147,
      "शिका": 1148,
      "पिता": 1149,
      "हिन्दी": 1150,
      "महीने": 1151,
      "आता": 1152,
      "आये": 1153,
      "इला": 1154,
      "इन्ह": 1155,
      "टक": 1156,
      "टल": 1157,
      "तम": 1158,
      "धू": 1159,
      "पल": 1160,
      "भ्र": 1161,
      "मगर": 1162,
      "यदि": 1163,
      "वहीं": 1164,
      "शं": 1165,
      "ष्य": 1166,
      "लाभ": 1167,
      "देता": 1168,
      "दिए": 1169,
      "रहती": 1170,
      "संबंध": 1171,
      "जिला": 1172,
      "ंदगी": 1173,
      "स्टे": 1174,
      "देखने": 1175,
      "ज्ञा": 1176,
      "पूर्व": 1177,
      "होंगे": 1178,
      "आम": 1179,
      "आयो": 1180,
      "कब": 1181,
      "चै": 1182,
      "जल्": 1183,
      "जवाब": 1184,
      "ब्रा": 1185,
      "सों": 1186,
      "हजार": 1187,
      "स्वी": 1188,
      "वालों": 1189,
      "देना": 1190,
      "मेरि": 1191,
      "जीव": 1192,
      "शाम": 1193,
      "वेश": 1194,
      "पूछ": 1195,
      "चुके": 1196,
      "मौजूद": 1197,
      "कार्यक्रम": 1198,
      "लौट": 1199,
      "चर्चा": 1200,
      "अंत": 1201,
      "आधार": 1202,
      "उन्": 1203,
      "खरी": 1204,
      "ट्ट": 1205,
      "दौ": 1206,
      "मनु": 1207,
      "लब्": 1208,
      "शर्": 1209,
      "सके": 1210,
      "सभा": 1211,
      "सफल": 1212,
      "ोर": 1213,
      "स्त्र": 1214,
      "सामान": 1215,
      "प्रयोग": 1216,
      "माह": 1217,
      "ज़ा": 1218,
      "इनमें": 1219,
      "चित्र": 1220,
      "मोदी": 1221,
      "ंधी": 1222,
      "अच्छे": 1223,
      "मौत": 1224,
      "भावना": 1225,
      "हिंदी": 1226,
      "ख्": 1227,
      "ग़": 1228,
      "गति": 1229,
      "गरी": 1230,
      "जपा": 1231,
      "तय": 1232,
      "तरा": 1233,
      "मता": 1234,
      "रचना": 1235,
      "वत": 1236,
      "मेंट": 1237,
      "ताब": 1238,
      "करेंगे": 1239,
      "प्रभा": 1240,
      "राब": 1241,
      "मां": 1242,
      "शासन": 1243,
      "रिश्": 1244,
      "युक्त": 1245,
      "न्दर": 1246,
      "भिन्न": 1247,
      "चाहते": 1248,
      "ग्रह": 1249,
      "पड़ता": 1250,
      "अंग्रेजी": 1251,
      "ंभ": 1252,
      "ंति": 1253,
      "अदा": 1254,
      "अमेरि": 1255,
      "आत": 1256,
      "आवा": 1257,
      "इतना": 1258,
      "उदा": 1259,
      "गं": 1260,
      "गण": 1261,
      "चम": 1262,
      "दारी": 1263,
      "फु": 1264,
      "वैसे": 1265,
      "सच": 1266,
      "सहा": 1267,
      "सारी": 1268,
      "स्सा": 1269,
      "किल": 1270,
      "ंगल": 1271,
      "भाजपा": 1272,
      "जित": 1273,
      "सिक": 1274,
      "शिव": 1275,
      "श्वर": 1276,
      "चीन": 1277,
      "उपलब्": 1278,
      "डाल": 1279,
      "उत्तर": 1280,
      "दूसरा": 1281,
      "दूसरी": 1282,
      "द्योग": 1283,
      "राष्ट्रीय": 1284,
      "शरीर": 1285,
      "अति": 1286,
      "उच्": 1287,
      "ज्य": 1288,
      "ट्रे": 1289,
      "तला": 1290,
      "पृ": 1291,
      "भारी": 1292,
      "ून": 1293,
      "।।": 1294,
      "सात": 1295,
      "प्रया": 1296,
      "विभाग": 1297,
      "गांधी": 1298,
      "पुरु": 1299,
      "रहेगी": 1300,
      "जोर": 1301,
      "बातें": 1302,
      "क्रि": 1303,
      "स्थित": 1304,
      "शुरु": 1305,
      "चलते": 1306,
      "कृत": 1307,
      "विश्वास": 1308,
      "खिलाफ": 1309,
      "अध्यक्ष": 1310,
      "पसंद": 1311,
      "अफ": 1312,
      "उद्": 1313,
      "उम्मी": 1314,
      "कहां": 1315,
      "घो": 1316,
      "छू": 1317,
      "थि": 1318,
      "पक्ष": 1319,
      "फर": 1320,
      "हत": 1321,
      "ूँ": 1322,
      "नेट": 1323,
      "ताओं": 1324,
      "भीतर": 1325,
      "किताब": 1326,
      "जाकर": 1327,
      "प्रभाव": 1328,
      "प्रमुख": 1329,
      "दिख": 1330,
      "पाकि": 1331,
      "दोलन": 1332,
      "धित": 1333,
      "वार्": 1334,
      "मिलने": 1335,
      "जनता": 1336,
      "वर्ण": 1337,
      "जाएगी": 1338,
      "ध्यम": 1339,
      "फोन": 1340,
      "अस्पता": 1341,
      "वजह": 1342,
      "भूमिका": 1343,
      "पुरुष": 1344,
      "अने": 1345,
      "आदि": 1346,
      "इतिहा": 1347,
      "उम": 1348,
      "एल": 1349,
      "खंड": 1350,
      "खबर": 1351,
      "चित": 1352,
      "छि": 1353,
      "जमी": 1354,
      "ट्टी": 1355,
      "ढा": 1356,
      "दस": 1357,
      "नै": 1358,
      "पित": 1359,
      "बं": 1360,
      "बॉ": 1361,
      "बहा": 1362,
      "बन्": 1363,
      "बनी": 1364,
      "मद": 1365,
      "मस्": 1366,
      "मर्": 1367,
      "मारी": 1368,
      "सप": 1369,
      "होकर": 1370,
      "विधा": 1371,
      "ड़ों": 1372,
      "संभव": 1373,
      "त्रों": 1374,
      "सिल": 1375,
      "खास": 1376,
      "वेब": 1377,
      "रिपोर्ट": 1378,
      "रहेगा": 1379,
      "शिश": 1380,
      "ज़ि": 1381,
      "लगातार": 1382,
      "डियो": 1383,
      "मामला": 1384,
      "क्योंकि": 1385,
      "स्वामी": 1386,
      "जैसा": 1387,
      "बेहद": 1388,
      "हालांकि": 1389,
      "अस्पताल": 1390,
      "इतिहास": 1391,
      "अर्": 1392,
      "इल": 1393,
      "इंत": 1394,
      "चढ़": 1395,
      "डॉ": 1396,
      "नगर": 1397,
      "वक्त": 1398,
      "शक": 1399,
      "ेंट": 1400,
      "तान": 1401,
      "कोशिश": 1402,
      "प्रो": 1403,
      "प्रती": 1404,
      "विभिन्न": 1405,
      "त्त": 1406,
      "मुस्": 1407,
      "त्रि": 1408,
      "हित": 1409,
      "कारों": 1410,
      "शादी": 1411,
      "सुना": 1412,
      "खाने": 1413,
      "ियाँ": 1414,
      "ब्लॉ": 1415,
      "बनाया": 1416,
      "मतलब": 1417,
      "स्वास्थ": 1418,
      "बंधन": 1419,
      "तुम्हें": 1420,
      "मुख्यमंत्री": 1421,
      "सुरक्षा": 1422,
      "विरोध": 1423,
      "पिछले": 1424,
      "कमी": 1425,
      "केंद्र": 1426,
      "घं": 1427,
      "टै": 1428,
      "दबा": 1429,
      "फर्": 1430,
      "यें": 1431,
      "लत": 1432,
      "वस": 1433,
      "सव": 1434,
      "हवा": 1435,
      "ैर": 1436,
      "कां": 1437,
      "यानी": 1438,
      "लाइ": 1439,
      "लाइन": 1440,
      "जाति": 1441,
      "वादी": 1442,
      "राव": 1443,
      "नीय": 1444,
      "पांच": 1445,
      "समान": 1446,
      "समर्थ": 1447,
      "जिंदगी": 1448,
      "उनसे": 1449,
      "पहचान": 1450,
      "म्मे": 1451,
      "सूर": 1452,
      "युवा": 1453,
      "सम्मान": 1454,
      "सदस्": 1455,
      "राष्ट्र": 1456,
      "साइट": 1457,
      "थोड़ी": 1458,
      "परेशान": 1459,
      "खूब": 1460,
      "मनुष्य": 1461,
      "उम्मीद": 1462,
      "अभ": 1463,
      "कने": 1464,
      "ग्री": 1465,
      "जें": 1466,
      "दय": 1467,
      "दल": 1468,
      "ध्": 1469,
      "यहीं": 1470,
      "ोह": 1471,
      "यान": 1472,
      "करवा": 1473,
      "नाथ": 1474,
      "भीर": 1475,
      "लाई": 1476,
      "लेट": 1477,
      "वास्त": 1478,
      "राय": 1479,
      "विधि": 1480,
      "माध्यम": 1481,
      "निय": 1482,
      "त्मा": 1483,
      "जिन": 1484,
      "सिर": 1485,
      "बिल्": 1486,
      "स्टर": 1487,
      "चेहरे": 1488,
      "जानते": 1489,
      "पेश": 1490,
      "अधिकारी": 1491,
      "जबकि": 1492,
      "दर्द": 1493,
      "इसीलिए": 1494,
      "गलत": 1495,
      "कंपनी": 1496,
      "महत्वपूर्ण": 1497,
      "इन्हें": 1498,
      "उपलब्ध": 1499,
      "प्रयास": 1500,
      "अनेक": 1501,
      "अंदर": 1502,
      "कठ": 1503,
      "कल्प": 1504,
      "गढ़": 1505,
      "तः": 1506,
      "तभी": 1507,
      "नज़": 1508,
      "नारा": 1509,
      "मण": 1510,
      "सचि": 1511,
      "िश": 1512,
      "स्तक": 1513,
      "र्स": 1514,
      "परं": 1515,
      "साय": 1516,
      "लेने": 1517,
      "प्रत्य": 1518,
      "विवाह": 1519,
      "ड़क": 1520,
      "सीमा": 1521,
      "मैने": 1522,
      "कुमार": 1523,
      "ल्ला": 1524,
      "जिम्मे": 1525,
      "इनका": 1526,
      "लगभग": 1527,
      "दुर्": 1528,
      "परिणा": 1529,
      "वर्ग": 1530,
      "मौके": 1531,
      "उपयोग": 1532,
      "दर्ज": 1533,
      "समझा": 1534,
      "सर्व": 1535,
      "पढ़ा": 1536,
      "करेगा": 1537,
      "पत्थ": 1538,
      "करीब": 1539,
      "सलमान": 1540,
      "दृष्टि": 1541,
      "स्वास्थ्य": 1542,
      "ंता": 1543,
      "अत्य": 1544,
      "आग": 1545,
      "आत्म": 1546,
      "कहाँ": 1547,
      "चंद": 1548,
      "जमा": 1549,
      "डू": 1550,
      "तृ": 1551,
      "बई": 1552,
      "मरी": 1553,
      "सच्": 1554,
      "हल": 1555,
      "ेक": 1556,
      "ौल": 1557,
      "स्ती": 1558,
      "स्त्री": 1559,
      "भीड़": 1560,
      "क्ट": 1561,
      "राहु": 1562,
      "न्तु": 1563,
      "तिक": 1564,
      "दियों": 1565,
      "संख्या": 1566,
      "मुं": 1567,
      "ंगी": 1568,
      "क्षक": 1569,
      "दोस्त": 1570,
      "पूर": 1571,
      "फिल": 1572,
      "च्छा": 1573,
      "गुण": 1574,
      "देखते": 1575,
      "सूस": 1576,
      "ष्टा": 1577,
      "चलता": 1578,
      "महसूस": 1579,
      "कमरे": 1580,
      "बैंक": 1581,
      "जरूरी": 1582,
      "त्मक": 1583,
      "व्यापार": 1584,
      "साहब": 1585,
      "बचपन": 1586,
      "आनंद": 1587,
      "अमेरिका": 1588,
      "गंभीर": 1589,
      "मदद": 1590,
      "परिणाम": 1591,
      "अला": 1592,
      "अचान": 1593,
      "आकर": 1594,
      "कम्": 1595,
      "घू": 1596,
      "झु": 1597,
      "टन": 1598,
      "टों": 1599,
      "नज": 1600,
      "बल्": 1601,
      "मल": 1602,
      "मजब": 1603,
      "शव": 1604,
      "सत्य": 1605,
      "्रो": 1606,
      "नाग": 1607,
      "र्ति": 1608,
      "किस्": 1609,
      "लाया": 1610,
      "जाओ": 1611,
      "प्रार": 1612,
      "प्रकाश": 1613,
      "विज्ञान": 1614,
      "तेज": 1615,
      "बाकी": 1616,
      "मिक": 1617,
      "संघ": 1618,
      "उसमें": 1619,
      "जीत": 1620,
      "जिक": 1621,
      "सुधार": 1622,
      "वेद": 1623,
      "मानव": 1624,
      "टीवी": 1625,
      "क्रो": 1626,
      "देखकर": 1627,
      "ब्ला": 1628,
      "वरण": 1629,
      "अनुभव": 1630,
      "पैदा": 1631,
      "दिखाई": 1632,
      "विषय": 1633,
      "आवश्यकता": 1634,
      "शिकायत": 1635,
      "पाकिस्तान": 1636,
      "अचानक": 1637,
      "मजबू": 1638,
      "ँव": 1639,
      "ंदा": 1640,
      "अक्": 1641,
      "इंड": 1642,
      "उल": 1643,
      "उतर": 1644,
      "एन": 1645,
      "खें": 1646,
      "गम": 1647,
      "पण": 1648,
      "पड़ी": 1649,
      "बढ": 1650,
      "बत": 1651,
      "बर्": 1652,
      "मन्": 1653,
      "मंड": 1654,
      "लक्ष": 1655,
      "श्रे": 1656,
      "समु": 1657,
      "सदा": 1658,
      "यालय": 1659,
      "कित्": 1660,
      "कितने": 1661,
      "सामा": 1662,
      "प्रदान": 1663,
      "प्रधान": 1664,
      "प्रक्रिया": 1665,
      "तेल": 1666,
      "्यता": 1667,
      "बाव": 1668,
      "निका": 1669,
      "त्ति": 1670,
      "चाय": 1671,
      "क्षि": 1672,
      "दीप": 1673,
      "दाय": 1674,
      "ल्ड": 1675,
      "सिद्ध": 1676,
      "शित": 1677,
      "बिल": 1678,
      "चुप": 1679,
      "चारों": 1680,
      "मिलती": 1681,
      "खुशी": 1682,
      "चिकित्": 1683,
      "शील": 1684,
      "स्वरूप": 1685,
      "खोल": 1686,
      "कानून": 1687,
      "नौकरी": 1688,
      "आंदोलन": 1689,
      "मूल्य": 1690,
      "पहुंचे": 1691,
      "आरोपी": 1692,
      "प्रभावित": 1693,
      "उम्र": 1694,
      "अलावा": 1695,
      "अंग": 1696,
      "अपरा": 1697,
      "आइ": 1698,
      "चर": 1699,
      "जहाँ": 1700,
      "ठन": 1701,
      "ठे": 1702,
      "धो": 1703,
      "नदी": 1704,
      "बजे": 1705,
      "यदा": 1706,
      "रोग": 1707,
      "शू": 1708,
      "िन": 1709,
      "िता": 1710,
      "करनी": 1711,
      "कोर्ट": 1712,
      "ानि": 1713,
      "लाने": 1714,
      "सां": 1715,
      "साई": 1716,
      "लियों": 1717,
      "प्रस्तु": 1718,
      "राजा": 1719,
      "रास्ता": 1720,
      "विदेश": 1721,
      "देवी": 1722,
      "गाड़ी": 1723,
      "तोड़": 1724,
      "मित्र": 1725,
      "पाया": 1726,
      "मुला": 1727,
      "मुश्": 1728,
      "मुसलमान": 1729,
      "सित": 1730,
      "खाली": 1731,
      "तुर": 1732,
      "ज़ी": 1733,
      "इनकी": 1734,
      "क्री": 1735,
      "गुज": 1736,
      "कहना": 1737,
      "शुभ": 1738,
      "मिलता": 1739,
      "प्राण": 1740,
      "अंतर": 1741,
      "बैठक": 1742,
      "लड़की": 1743,
      "भोजन": 1744,
      "विद्यालय": 1745,
      "इंतजार": 1746,
      "घंटे": 1747,
      "राहुल": 1748,
      "ंतर": 1749,
      "अद्": 1750,
      "इक": 1751,
      "उपा": 1752,
      "ऊँ": 1753,
      "खड़ा": 1754,
      "गार": 1755,
      "चरण": 1756,
      "टका": 1757,
      "तारी": 1758,
      "थम": 1759,
      "नव": 1760,
      "बधा": 1761,
      "मंगल": 1762,
      "वती": 1763,
      "सारा": 1764,
      "्त": 1765,
      "कीमत": 1766,
      "सेना": 1767,
      "किये": 1768,
      "कियों": 1769,
      "सांस": 1770,
      "जाम": 1771,
      "लेना": 1772,
      "वापस": 1773,
      "प्रका": 1774,
      "प्रमाण": 1775,
      "राशि": 1776,
      "तेरे": 1777,
      "न्त": 1778,
      "न्यू": 1779,
      "देती": 1780,
      "तिम": 1781,
      "पाई": 1782,
      "मुंह": 1783,
      "मेल": 1784,
      "समी": 1785,
      "क्षमता": 1786,
      "रोज": 1787,
      "वीर": 1788,
      "देखी": 1789,
      "परिवर्": 1790,
      "चिंता": 1791,
      "मोबा": 1792,
      "मनो": 1793,
      "पेट": 1794,
      "चाहिये": 1795,
      "पहुँच": 1796,
      "जिससे": 1797,
      "धारण": 1798,
      "अन्ना": 1799,
      "कराया": 1800,
      "श्रद्धा": 1801,
      "मिलेगा": 1802,
      "बेहतर": 1803,
      "आसान": 1804,
      "मृत्य": 1805,
      "अकेले": 1806,
      "प्रिय": 1807,
      "ंज": 1808,
      "इतनी": 1809,
      "ईश्वर": 1810,
      "ऊं": 1811,
      "एक्": 1812,
      "खत्म": 1813,
      "टने": 1814,
      "तें": 1815,
      "पर्य": 1816,
      "पन्न": 1817,
      "फ्र": 1818,
      "मध्य": 1819,
      "सान": 1820,
      "हॉ": 1821,
      "हत्या": 1822,
      "िका": 1823,
      "ूं": 1824,
      "कात": 1825,
      "साध": 1826,
      "लेते": 1827,
      "प्रकृति": 1828,
      "राह": 1829,
      "माता": 1830,
      "बाजी": 1831,
      "निजी": 1832,
      "निकाल": 1833,
      "निश्च": 1834,
      "पाठ": 1835,
      "दास": 1836,
      "जिसे": 1837,
      "उनमें": 1838,
      "सुख": 1839,
      "पूजा": 1840,
      "पुस्तक": 1841,
      "ज़रू": 1842,
      "बेटा": 1843,
      "सरकारी": 1844,
      "चारण": 1845,
      "कृष्ण": 1846,
      "अनुसार": 1847,
      "रखने": 1848,
      "जिसके": 1849,
      "हाथों": 1850,
      "बैठे": 1851,
      "किसान": 1852,
      "विष्य": 1853,
      "अध्ययन": 1854,
      "गिरफ्": 1855,
      "पुराने": 1856,
      "अधिकारियों": 1857,
      "पत्थर": 1858,
      "सामाजिक": 1859,
      "मुश्किल": 1860,
      "बधाई": 1861,
      "मृत्यु": 1862,
      "आशा": 1863,
      "इयों": 1864,
      "इच्छा": 1865,
      "उड़": 1866,
      "कही": 1867,
      "कदम": 1868,
      "गें": 1869,
      "जता": 1870,
      "जहां": 1871,
      "ढे": 1872,
      "दों": 1873,
      "दवा": 1874,
      "धारा": 1875,
      "नल": 1876,
      "बयान": 1877,
      "भक्ति": 1878,
      "भविष्य": 1879,
      "लड": 1880,
      "सन्": 1881,
      "हं": 1882,
      "हक": 1883,
      "ेश": 1884,
      "ताकत": 1885,
      "नाक": 1886,
      "साफ": 1887,
      "हाई": 1888,
      "वासी": 1889,
      "प्रस्ता": 1890,
      "प्रबंधन": 1891,
      "गाँव": 1892,
      "दिवस": 1893,
      "नियों": 1894,
      "नियम": 1895,
      "संचा": 1896,
      "संतु": 1897,
      "रोक": 1898,
      "श्न": 1899,
      "बिज": 1900,
      "बेटी": 1901,
      "इनके": 1902,
      "गईं": 1903,
      "लगती": 1904,
      "वीं": 1905,
      "लगाया": 1906,
      "टाइ": 1907,
      "खुल": 1908,
      "खुला": 1909,
      "मोहन": 1910,
      "बनाए": 1911,
      "महान": 1912,
      "युग": 1913,
      "फ़ा": 1914,
      "मौसम": 1915,
      "जेल": 1916,
      "रखें": 1917,
      "चाहे": 1918,
      "यंत्र": 1919,
      "सहयोग": 1920,
      "करेगी": 1921,
      "तुम्हारे": 1922,
      "्यूटर": 1923,
      "फैसला": 1924,
      "कृतिक": 1925,
      "इंटर": 1926,
      "मार्ग": 1927,
      "श्चर्य": 1928,
      "युवक": 1929,
      "परीक्षा": 1930,
      "खरीद": 1931,
      "सहायता": 1932,
      "उच्चारण": 1933,
      "ज्यो": 1934,
      "जमीन": 1935,
      "वास्तव": 1936,
      "नज़र": 1937,
      "फिलहाल": 1938,
      "ष्टाचार": 1939,
      "बावजूद": 1940,
      "अस": 1941,
      "असल": 1942,
      "आदेश": 1943,
      "आश्चर्य": 1944,
      "इतने": 1945,
      "खड़े": 1946,
      "चय": 1947,
      "जंग": 1948,
      "झू": 1949,
      "झे": 1950,
      "देंगे": 1951,
      "नती": 1952,
      "नये": 1953,
      "बज": 1954,
      "भै": 1955,
      "भरी": 1956,
      "भरो": 1957,
      "भूल": 1958,
      "रवि": 1959,
      "शल": 1960,
      "सजा": 1961,
      "सन्न": 1962,
      "हें": 1963,
      "हरि": 1964,
      "िए": 1965,
      "्रवाई": 1966,
      "कितना": 1967,
      "होनी": 1968,
      "लास": 1969,
      "सास": 1970,
      "प्री": 1971,
      "विवे": 1972,
      "मात्र": 1973,
      "निवार": 1974,
      "रहना": 1975,
      "रहेंगे": 1976,
      "त्कार": 1977,
      "संत": 1978,
      "संसार": 1979,
      "मुद्": 1980,
      "मैच": 1981,
      "कार्रवाई": 1982,
      "जिए": 1983,
      "पुत्र": 1984,
      "मानी": 1985,
      "शिकार": 1986,
      "हरण": 1987,
      "बिक": 1988,
      "बित": 1989,
      "बिहार": 1990,
      "ज़ार": 1991,
      "सबके": 1992,
      "बातची": 1993,
      "ंडे": 1994,
      "दुख": 1995,
      "शुक्र": 1996,
      "मंच": 1997,
      "मंत्र": 1998,
      "बनने": 1999,
      "बदला": 2000,
      "उत्पा": 2001,
      "जिसमें": 2002,
      "चाहती": 2003,
      "अवसर": 2004,
      "हेतु": 2005,
      "हालत": 2006,
      "पर्क": 2007,
      "श्रम": 2008,
      "पत्नी": 2009,
      "फोटो": 2010,
      "नेताओं": 2011,
      "ब्रह्": 2012,
      "वृद्धि": 2013,
      "दृश्य": 2014,
      "भुत": 2015,
      "अगले": 2016,
      "ज्ञापन": 2017,
      "शर्मा": 2018,
      "सफलता": 2019,
      "माहौल": 2020,
      "गरीब": 2021,
      "अदालत": 2022,
      "क्रिकेट": 2023,
      "ब्लॉग": 2024,
      "परिवर्तन": 2025,
      "बातचीत": 2026,
      "अजी": 2027,
      "अंक": 2028,
      "खर": 2029,
      "खर्": 2030,
      "खराब": 2031,
      "जम": 2032,
      "ट्": 2033,
      "ड्": 2034,
      "णय": 2035,
      "तस्वी": 2036,
      "दक्षि": 2037,
      "धानी": 2038,
      "धन्य": 2039,
      "पें": 2040,
      "पैसे": 2041,
      "फ्ट": 2042,
      "फूल": 2043,
      "बारी": 2044,
      "वरी": 2045,
      "षि": 2046,
      "षित": 2047,
      "सृ": 2048,
      "सवार": 2049,
      "हल्": 2050,
      "्रि": 2051,
      "ारोह": 2052,
      "स्से": 2053,
      "कितनी": 2054,
      "क्का": 2055,
      "क्लिक": 2056,
      "साद": 2057,
      "सागर": 2058,
      "लिखा": 2059,
      "प्रचार": 2060,
      "प्रदर्शन": 2061,
      "प्रशासन": 2062,
      "प्रथम": 2063,
      "प्रश्न": 2064,
      "प्रसन्न": 2065,
      "विस्त": 2066,
      "बाल": 2067,
      "बाबा": 2068,
      "तियों": 2069,
      "नींद": 2070,
      "रेल": 2071,
      "हिर": 2072,
      "ल्स": 2073,
      "शाल": 2074,
      "उनको": 2075,
      "सुन्दर": 2076,
      "दोनो": 2077,
      "खाना": 2078,
      "मीण": 2079,
      "शिया": 2080,
      "सरल": 2081,
      "बीर": 2082,
      "बारिश": 2083,
      "ंडा": 2084,
      "देखें": 2085,
      "देखना": 2086,
      "कामना": 2087,
      "चलती": 2088,
      "रखना": 2089,
      "निर्णय": 2090,
      "पैसा": 2091,
      "जगत": 2092,
      "जैसी": 2093,
      "लेखक": 2094,
      "लेखन": 2095,
      "अंतिम": 2096,
      "तैयारी": 2097,
      "उठाया": 2098,
      "महिलाओं": 2099,
      "शब्दों": 2100,
      "ग्राम": 2101,
      "पहुंचा": 2102,
      "फ़िर": 2103,
      "वार्ता": 2104,
      "वेबसाइट": 2105,
      "मुंबई": 2106,
      "मोबाइल": 2107,
      "ज्योति": 2108,
      "ंबर": 2109,
      "आयोग": 2110,
      "आत्मा": 2111,
      "उतार": 2112,
      "खान": 2113,
      "गौर": 2114,
      "गंगा": 2115,
      "चक": 2116,
      "चारी": 2117,
      "छह": 2118,
      "टिक": 2119,
      "तमाम": 2120,
      "पश्": 2121,
      "पंच": 2122,
      "मधु": 2123,
      "रान": 2124,
      "सत्ता": 2125,
      "ृह": 2126,
      "ेक्षा": 2127,
      "ैली": 2128,
      "ेंगी": 2129,
      "ताछ": 2130,
      "नान": 2131,
      "स्प": 2132,
      "क्शन": 2133,
      "लिंग": 2134,
      "वाणी": 2135,
      "रास्ते": 2136,
      "तीनों": 2137,
      "विन": 2138,
      "विवाद": 2139,
      "विधान": 2140,
      "बाबू": 2141,
      "दिये": 2142,
      "निशा": 2143,
      "एकदम": 2144,
      "पाए": 2145,
      "सीबी": 2146,
      "संस्था": 2147,
      "संसद": 2148,
      "संगीत": 2149,
      "क्षित": 2150,
      "हमला": 2151,
      "ल्म": 2152,
      "जिले": 2153,
      "वहार": 2154,
      "तुल": 2155,
      "ढ़ी": 2156,
      "मानते": 2157,
      "क्रे": 2158,
      "गुला": 2159,
      "स्थानी": 2160,
      "दूरी": 2161,
      "वीडियो": 2162,
      "देखे": 2163,
      "रुक": 2164,
      "दुकान": 2165,
      "सोचा": 2166,
      "परिष": 2167,
      "योगी": 2168,
      "बुध": 2169,
      "न्दगी": 2170,
      "प्राचीन": 2171,
      "बोर्ड": 2172,
      "जुड़े": 2173,
      "निर्देश": 2174,
      "पहुँ": 2175,
      "जिसका": 2176,
      "यूँ": 2177,
      "छोटी": 2178,
      "सम्बन्": 2179,
      "स्वागत": 2180,
      "पर्व": 2181,
      "लिखने": 2182,
      "दरवा": 2183,
      "धुनिक": 2184,
      "ब्रि": 2185,
      "कार्यालय": 2186,
      "भेज": 2187,
      "ग्रामीण": 2188,
      "राजनीतिक": 2189,
      "आवश्यक": 2190,
      "भ्रष्टाचार": 2191,
      "आयोजित": 2192,
      "बंधित": 2193,
      "सिलसि": 2194,
      "डॉक्टर": 2195,
      "बिल्कुल": 2196,
      "कम्प": 2197,
      "अक्सर": 2198,
      "अद्भुत": 2199,
      "दक्षिण": 2200,
      "ँस": 2201,
      "अख": 2202,
      "अल": 2203,
      "असर": 2204,
      "उड़ा": 2205,
      "एका": 2206,
      "गहरा": 2207,
      "जनों": 2208,
      "झी": 2209,
      "ड्रा": 2210,
      "द्रा": 2211,
      "पौ": 2212,
      "पहर": 2213,
      "फू": 2214,
      "भक्त": 2215,
      "यण": 2216,
      "रस": 2217,
      "लर": 2218,
      "लेंगे": 2219,
      "वरि": 2220,
      "वस्तु": 2221,
      "शर": 2222,
      "शनी": 2223,
      "सका": 2224,
      "सें": 2225,
      "हट": 2226,
      "हटा": 2227,
      "िकी": 2228,
      "काली": 2229,
      "ताल": 2230,
      "नायक": 2231,
      "र्क": 2232,
      "र्जा": 2233,
      "जाग": 2234,
      "विजय": 2235,
      "न्स": 2236,
      "दिशा": 2237,
      "निर": 2238,
      "निभा": 2239,
      "त्न": 2240,
      "उसको": 2241,
      "चाप": 2242,
      "अपेक्षा": 2243,
      "समारोह": 2244,
      "जिद": 2245,
      "सियों": 2246,
      "शांति": 2247,
      "सुनी": 2248,
      "सुंदर": 2249,
      "दोपहर": 2250,
      "पूं": 2251,
      "पूछा": 2252,
      "रिक": 2253,
      "तकनी": 2254,
      "म्भ": 2255,
      "क्रा": 2256,
      "स्ट्रे": 2257,
      "बारा": 2258,
      "लगते": 2259,
      "राजस्थान": 2260,
      "मंजू": 2261,
      "आजकल": 2262,
      "जाएंगे": 2263,
      "खिल": 2264,
      "बैठी": 2265,
      "योग्य": 2266,
      "बुरा": 2267,
      "उत्साह": 2268,
      "टिल": 2269,
      "छोटे": 2270,
      "बहन": 2271,
      "पैर": 2272,
      "भाग्य": 2273,
      "ज्ञानिक": 2274,
      "जरूर": 2275,
      "पर्या": 2276,
      "वैज्ञानिक": 2277,
      "शोक": 2278,
      "शोर": 2279,
      "पत्रकार": 2280,
      "आसपास": 2281,
      "मृत": 2282,
      "पकड़": 2283,
      "हालात": 2284,
      "रुपये": 2285,
      "जल्द": 2286,
      "जल्दी": 2287,
      "हजारों": 2288,
      "पूछताछ": 2289,
      "सामान्य": 2290,
      "आवाज": 2291,
      "उदाहरण": 2292,
      "तलाश": 2293,
      "सूरज": 2294,
      "सदस्य": 2295,
      "कठिन": 2296,
      "परंपरा": 2297,
      "प्रत्येक": 2298,
      "मुलाकात": 2299,
      "प्रकाशित": 2300,
      "प्रस्ताव": 2301,
      "संचालन": 2302,
      "स्थानीय": 2303,
      "ँग": 2304,
      "ंसी": 2305,
      "ंतु": 2306,
      "अथ": 2307,
      "अर": 2308,
      "आर्थ": 2309,
      "इंस": 2310,
      "इधर": 2311,
      "उल्": 2312,
      "एच": 2313,
      "एफ": 2314,
      "एंड": 2315,
      "गहरी": 2316,
      "जत": 2317,
      "जरु": 2318,
      "ट्रा": 2319,
      "डो": 2320,
      "धक": 2321,
      "नृ": 2322,
      "पथ": 2323,
      "पॉ": 2324,
      "पहा": 2325,
      "बौ": 2326,
      "बला": 2327,
      "भय": 2328,
      "मक": 2329,
      "रता": 2330,
      "लम्": 2331,
      "लड़ा": 2332,
      "हद": 2333,
      "हृ": 2334,
      "हरिया": 2335,
      "इसको": 2336,
      "लेज": 2337,
      "वायु": 2338,
      "प्रणा": 2339,
      "प्रशं": 2340,
      "प्रसाद": 2341,
      "विध": 2342,
      "माया": 2343,
      "मास्टर": 2344,
      "बाग": 2345,
      "निंग": 2346,
      "निवेश": 2347,
      "मियों": 2348,
      "पाप": 2349,
      "पाता": 2350,
      "पाती": 2351,
      "संकट": 2352,
      "संबंधित": 2353,
      "मुना": 2354,
      "मेहन": 2355,
      "समू": 2356,
      "समर्": 2357,
      "रेट": 2358,
      "कारो": 2359,
      "हमले": 2360,
      "सिया": 2361,
      "सिखा": 2362,
      "शाह": 2363,
      "शाली": 2364,
      "सुविधा": 2365,
      "वेदन": 2366,
      "रूम": 2367,
      "शिक्षण": 2368,
      "शिक्षक": 2369,
      "बीत": 2370,
      "स्थल": 2371,
      "ियान": 2372,
      "कहे": 2373,
      "कहने": 2374,
      "खुले": 2375,
      "सोम": 2376,
      "प्ति": 2377,
      "चीज": 2378,
      "लोड": 2379,
      "वर्त": 2380,
      "पिक": 2381,
      "बुला": 2382,
      "शीर्ष": 2383,
      "बढ़ती": 2384,
      "वोट": 2385,
      "उपचार": 2386,
      "बदले": 2387,
      "टिप्": 2388,
      "स्थापित": 2389,
      "खोज": 2390,
      "तनाव": 2391,
      "फिल्मों": 2392,
      "लिखी": 2393,
      "मूर्ति": 2394,
      "तुम्हारी": 2395,
      "धरती": 2396,
      "वृत्ति": 2397,
      "चोट": 2398,
      "पंजा": 2399,
      "घायल": 2400,
      "जायेगा": 2401,
      "संगठन": 2402,
      "सलाह": 2403,
      "पुराना": 2404,
      "आँखों": 2405,
      "आयोजन": 2406,
      "स्वीकार": 2407,
      "आतंक": 2408,
      "आवाज़": 2409,
      "पृथ": 2410,
      "पृष्ठ": 2411,
      "सपने": 2412,
      "कल्पना": 2413,
      "सचिव": 2414,
      "जिम्मेदार": 2415,
      "तृत्व": 2416,
      "प्रारंभ": 2417,
      "संघर्ष": 2418,
      "तुरंत": 2419,
      "साधना": 2420,
      "ज़रूरत": 2421,
      "मेहनत": 2422,
      "ँगा": 2423,
      "अनि": 2424,
      "अहम": 2425,
      "आठ": 2426,
      "आना": 2427,
      "आभार": 2428,
      "आकाश": 2429,
      "आधुनिक": 2430,
      "इंग": 2431,
      "उद्योग": 2432,
      "एह": 2433,
      "कपड़े": 2434,
      "खण्ड": 2435,
      "गन": 2436,
      "गै": 2437,
      "चक्र": 2438,
      "चलित": 2439,
      "जला": 2440,
      "तट": 2441,
      "पान": 2442,
      "फार्": 2443,
      "बरा": 2444,
      "भला": 2445,
      "मज": 2446,
      "मॉ": 2447,
      "मजा": 2448,
      "मती": 2449,
      "मति": 2450,
      "रक्षा": 2451,
      "वली": 2452,
      "षा": 2453,
      "समि": 2454,
      "समे": 2455,
      "सहम": 2456,
      "सार्": 2457,
      "सड़क": 2458,
      "हड़": 2459,
      "ुक": 2460,
      "हीन": 2461,
      "किन्तु": 2462,
      "किंतु": 2463,
      "होली": 2464,
      "साधारण": 2465,
      "प्रसार": 2466,
      "प्रकट": 2467,
      "राग": 2468,
      "विद्य": 2469,
      "तेजी": 2470,
      "माश": 2471,
      "गाय": 2472,
      "दिक": 2473,
      "थाने": 2474,
      "मिट्टी": 2475,
      "पाये": 2476,
      "त्सव": 2477,
      "संवाद": 2478,
      "मुँ": 2479,
      "हिंद": 2480,
      "दाई": 2481,
      "ल्या": 2482,
      "सुपर": 2483,
      "दोष": 2484,
      "धियों": 2485,
      "बिता": 2486,
      "बेच": 2487,
      "ंदन": 2488,
      "जोड़": 2489,
      "बीस": 2490,
      "परिस्थिति": 2491,
      "परिचय": 2492,
      "सूची": 2493,
      "जनक": 2494,
      "छात्र": 2495,
      "बनाई": 2496,
      "बनाना": 2497,
      "व्यस्त": 2498,
      "व्यवहार": 2499
    },
    "merges": [
      [
        "ह",
        "ै"
      ],
      [
        "क",
        "ा"
      ],
      [
        "े",
        "ं"
      ],
      [
        "क",
        "े"
      ],
      [
        "य",
        "ा"
      ],
      [
        "्",
        "र"
      ],
      [
        "न",
        "े"
      ],
      [
        "म",
        "ें"
      ],
      [
        "क",
        "ी"
      ],
      [
        "स",
        "े"
      ],
      [
        "ह",
        "ी"
      ],
      [
        "ा",
        "र"
      ],
      [
        "त",
        "ा"
      ],
      [
        "ो",
        "ं"
      ],
      [
        "क",
        "र"
      ],
      [
        "न",
        "ा"
      ],
      [
        "क",
        "ो"
      ],
      [
        "स",
        "्"
      ],
      [
        "र",
        "्"
      ],
      [
        "भ",
        "ी"
      ],
      [
        "क",
        "ि"
      ],
      [
        "ह",
        "ो"
      ],
      [
        "क",
        "्"
      ],
      [
        "प",
        "र"
      ],
      [
        "ा",
        "न"
      ],
      [
        "ल",
        "ा"
      ],
      [
        "स",
        "ा"
      ],
      [
        "ह",
        "ा"
      ],
      [
        "इ",
        "स"
      ],
      [
        "ल",
        "ि"
      ],
      [
        "ज",
        "ा"
      ],
      [
        "ल",
        "े"
      ],
      [
        "है",
        "ं"
      ],
      [
        "व",
        "ा"
      ],
      [
        "प",
        "्र"
      ],
      [
        "ही",
        "ं"
      ],
      [
        "र",
        "ा"
      ],
      [
        "त",
        "ी"
      ],
      [
        "व",
        "ि"
      ],
      [
        "त",
        "े"
      ],
      [
        "न",
        "्"
      ],
      [
        "न",
        "हीं"
      ],
      [
        "ड",
        "़"
      ],
      [
        "औ",
        "र"
      ],
      [
        "म",
        "ा"
      ],
      [
        "्",
        "य"
      ],
      [
        "द",
        "े"
      ],
      [
        "ब",
        "ा"
      ],
      [
        "ह",
        "ु"
      ],
      [
        "त",
        "ि"
      ],
      [
        "ग",
        "ा"
      ],
      [
        "द",
        "ि"
      ],
      [
        "थ",
        "ा"
      ],
      [
        "न",
        "ि"
      ],
      [
        "र",
        "ी"
      ],
      [
        "ए",
        "क"
      ],
      [
        "र",
        "ह"
      ],
      [
        "न",
        "ी"
      ],
      [
        "त",
        "ो"
      ],
      [
        "ल",
        "ी"
      ],
      [
        "म",
        "ि"
      ],
      [
        "प",
        "ा"
      ],
      [
        "त",
        "्"
      ],
      [
        "स",
        "ी"
      ],
      [
        "स",
        "ं"
      ],
      [
        "म",
        "ु"
      ],
      [
        "य",
        "े"
      ],
      [
        "म",
        "े"
      ],
      [
        "लि",
        "ए"
      ],
      [
        "त",
        "्र"
      ],
      [
        "म",
        "ै"
      ],
      [
        "य",
        "ह"
      ],
      [
        "उ",
        "स"
      ],
      [
        "च",
        "ा"
      ],
      [
        "ज",
        "ी"
      ],
      [
        "अ",
        "प"
      ],
      [
        "स",
        "म"
      ],
      [
        "क",
        "ु"
      ],
      [
        "ं",
        "ग"
      ],
      [
        "र",
        "े"
      ],
      [
        "क्",
        "ष"
      ],
      [
        "भ",
        "ा"
      ],
      [
        "द",
        "ी"
      ],
      [
        "ह",
        "ि"
      ],
      [
        "का",
        "र"
      ],
      [
        "द",
        "ा"
      ],
      [
        "ग",
        "ी"
      ],
      [
        "य",
        "ों"
      ],
      [
        "थ",
        "ी"
      ],
      [
        "ह",
        "म"
      ],
      [
        "ल",
        "्"
      ],
      [
        "मै",
        "ं"
      ],
      [
        "ग",
        "या"
      ],
      [
        "ज",
        "ि"
      ],
      [
        "ो",
        "ग"
      ],
      [
        "आ",
        "प"
      ],
      [
        "स",
        "ि"
      ],
      [
        "श",
        "ा"
      ],
      [
        "उ",
        "न"
      ],
      [
        "स",
        "ु"
      ],
      [
        "्",
        "या"
      ],
      [
        "द",
        "ो"
      ],
      [
        "ख",
        "ा"
      ],
      [
        "व",
        "े"
      ],
      [
        "र",
        "ू"
      ],
      [
        "प",
        "ू"
      ],
      [
        "प",
        "ु"
      ],
      [
        "थ",
        "े"
      ],
      [
        "व",
        "ह"
      ],
      [
        "कि",
        "या"
      ],
      [
        "द",
        "्"
      ],
      [
        "फ",
        "ि"
      ],
      [
        "ग",
        "े"
      ],
      [
        "म",
        "ी"
      ],
      [
        "्",
        "ट"
      ],
      [
        "न्",
        "ह"
      ],
      [
        "र",
        "ि"
      ],
      [
        "त",
        "ु"
      ],
      [
        "च",
        "्"
      ],
      [
        "कु",
        "छ"
      ],
      [
        "स",
        "क"
      ],
      [
        "ध",
        "ि"
      ],
      [
        "र",
        "हा"
      ],
      [
        "रह",
        "े"
      ],
      [
        "व",
        "ार"
      ],
      [
        "ढ",
        "़"
      ],
      [
        "म",
        "ान"
      ],
      [
        "श",
        "ि"
      ],
      [
        "र",
        "ो"
      ],
      [
        "श",
        "्"
      ],
      [
        "ह",
        "र"
      ],
      [
        "उ",
        "न्ह"
      ],
      [
        "त",
        "र"
      ],
      [
        "त",
        "क"
      ],
      [
        "ार",
        "ी"
      ],
      [
        "क्",
        "या"
      ],
      [
        "को",
        "ई"
      ],
      [
        "ब",
        "ि"
      ],
      [
        "प",
        "ी"
      ],
      [
        "न",
        "ों"
      ],
      [
        "अ",
        "ब"
      ],
      [
        "ज",
        "़"
      ],
      [
        "ब",
        "हु"
      ],
      [
        "स",
        "ब"
      ],
      [
        "ब",
        "े"
      ],
      [
        "सा",
        "थ"
      ],
      [
        "प",
        "ह"
      ],
      [
        "ं",
        "द"
      ],
      [
        "ट",
        "ी"
      ],
      [
        "म",
        "्"
      ],
      [
        "बहु",
        "त"
      ],
      [
        "इ",
        "न"
      ],
      [
        "ज",
        "ो"
      ],
      [
        "बा",
        "त"
      ],
      [
        "अप",
        "ने"
      ],
      [
        "र",
        "ही"
      ],
      [
        "क",
        "्र"
      ],
      [
        "ि",
        "त"
      ],
      [
        "स्",
        "ट"
      ],
      [
        "स",
        "र"
      ],
      [
        "बा",
        "द"
      ],
      [
        "ब",
        "ी"
      ],
      [
        "ग",
        "ु"
      ],
      [
        "स्",
        "थ"
      ],
      [
        "द",
        "ू"
      ],
      [
        "च",
        "ु"
      ],
      [
        "च",
        "ार"
      ],
      [
        "ग",
        "ई"
      ],
      [
        "ह",
        "ू"
      ],
      [
        "ब",
        "ार"
      ],
      [
        "ल",
        "ग"
      ],
      [
        "ल",
        "ोग"
      ],
      [
        "ि",
        "या"
      ],
      [
        "दे",
        "श"
      ],
      [
        "व",
        "ी"
      ],
      [
        "ं",
        "ड"
      ],
      [
        "दि",
        "या"
      ],
      [
        "दे",
        "ख"
      ],
      [
        "ओ",
        "ं"
      ],
      [
        "कर",
        "ने"
      ],
      [
        "हो",
        "ता"
      ],
      [
        "र",
        "ु"
      ],
      [
        "ान",
        "ी"
      ],
      [
        "रा",
        "ज"
      ],
      [
        "क",
        "ह"
      ],
      [
        "ड़",
        "ा"
      ],
      [
        "ड़",
        "ी"
      ],
      [
        "द",
        "ु"
      ],
      [
        "ल",
        "गा"
      ],
      [
        "च",
        "े"
      ],
      [
        "कि",
        "न"
      ],
      [
        "हा",
        "ं"
      ],
      [
        "श",
        "ु"
      ],
      [
        "मि",
        "ल"
      ],
      [
        "ट",
        "ा"
      ],
      [
        "ख",
        "ु"
      ],
      [
        "न",
        "ु"
      ],
      [
        "म",
        "ं"
      ],
      [
        "स",
        "ो"
      ],
      [
        "हु",
        "आ"
      ],
      [
        "पर",
        "ि"
      ],
      [
        "ब",
        "्"
      ],
      [
        "च",
        "ि"
      ],
      [
        "स",
        "ू"
      ],
      [
        "फि",
        "र"
      ],
      [
        "ज",
        "न"
      ],
      [
        "मु",
        "झ"
      ],
      [
        "ष",
        "्ट"
      ],
      [
        "आ",
        "ज"
      ],
      [
        "म",
        "ो"
      ],
      [
        "छ",
        "ा"
      ],
      [
        "प",
        "्"
      ],
      [
        "च",
        "ी"
      ],
      [
        "ब",
        "ना"
      ],
      [
        "ले",
        "किन"
      ],
      [
        "ार",
        "े"
      ],
      [
        "ल",
        "ो"
      ],
      [
        "ज",
        "्"
      ],
      [
        "व",
        "्य"
      ],
      [
        "ै",
        "से"
      ],
      [
        "ं",
        "ध"
      ],
      [
        "भ",
        "ार"
      ],
      [
        "्र",
        "े"
      ],
      [
        "व",
        "र्"
      ],
      [
        "का",
        "म"
      ],
      [
        "इस",
        "के"
      ],
      [
        "र्",
        "य"
      ],
      [
        "ड़",
        "े"
      ],
      [
        "म",
        "न"
      ],
      [
        "प",
        "ि"
      ],
      [
        "अप",
        "नी"
      ],
      [
        "ार",
        "ा"
      ],
      [
        "च",
        "ल"
      ],
      [
        "मुझ",
        "े"
      ],
      [
        "ों",
        "ने"
      ],
      [
        "ट",
        "े"
      ],
      [
        "कि",
        "सी"
      ],
      [
        "जा",
        "ए"
      ],
      [
        "उ",
        "से"
      ],
      [
        "ज",
        "ान"
      ],
      [
        "म",
        "ह"
      ],
      [
        "य",
        "ु"
      ],
      [
        "जा",
        "ता"
      ],
      [
        "प",
        "े"
      ],
      [
        "ार",
        "्"
      ],
      [
        "क",
        "म"
      ],
      [
        "्र",
        "ी"
      ],
      [
        "स्",
        "त"
      ],
      [
        "अ",
        "धि"
      ],
      [
        "ख",
        "ि"
      ],
      [
        "ग",
        "र"
      ],
      [
        "व",
        "र"
      ],
      [
        "ध",
        "ा"
      ],
      [
        "हु",
        "ई"
      ],
      [
        "त",
        "्य"
      ],
      [
        "ि",
        "क"
      ],
      [
        "्र",
        "ा"
      ],
      [
        "फ",
        "़"
      ],
      [
        "हा",
        "ँ"
      ],
      [
        "उन्ह",
        "ोंने"
      ],
      [
        "त",
        "रह"
      ],
      [
        "ब",
        "ै"
      ],
      [
        "य",
        "ो"
      ],
      [
        "पह",
        "ले"
      ],
      [
        "ग",
        "ए"
      ],
      [
        "श",
        "न"
      ],
      [
        "दि",
        "न"
      ],
      [
        "हु",
        "ए"
      ],
      [
        "य",
        "ोग"
      ],
      [
        "कर",
        "ते"
      ],
      [
        "उन्ह",
        "ें"
      ],
      [
        "ट",
        "र"
      ],
      [
        "ब",
        "न"
      ],
      [
        "ष",
        "्"
      ],
      [
        "ं",
        "त"
      ],
      [
        "अ",
        "च्"
      ],
      [
        "म",
        "ौ"
      ],
      [
        "क्ष",
        "ा"
      ],
      [
        "ं",
        "च"
      ],
      [
        "व",
        "न"
      ],
      [
        "ू",
        "ल"
      ],
      [
        "का",
        "री"
      ],
      [
        "ज",
        "ब"
      ],
      [
        "ना",
        "म"
      ],
      [
        "ख",
        "े"
      ],
      [
        "लि",
        "या"
      ],
      [
        "क",
        "ई"
      ],
      [
        "चा",
        "हि"
      ],
      [
        "ब",
        "ु"
      ],
      [
        "सक",
        "ता"
      ],
      [
        "घ",
        "र"
      ],
      [
        "श",
        "ी"
      ],
      [
        "ब",
        "ढ़"
      ],
      [
        "व",
        "ो"
      ],
      [
        "ें",
        "गे"
      ],
      [
        "सम",
        "य"
      ],
      [
        "उ",
        "प"
      ],
      [
        "हो",
        "गा"
      ],
      [
        "द",
        "र्"
      ],
      [
        "ज्",
        "ञ"
      ],
      [
        "हो",
        "ती"
      ],
      [
        "न्",
        "द"
      ],
      [
        "दो",
        "नों"
      ],
      [
        "क",
        "ृ"
      ],
      [
        "कर",
        "ना"
      ],
      [
        "क्",
        "ति"
      ],
      [
        "अ",
        "नु"
      ],
      [
        "ड",
        "ा"
      ],
      [
        "ि",
        "यों"
      ],
      [
        "हो",
        "ने"
      ],
      [
        "प्र",
        "ा"
      ],
      [
        "उस",
        "के"
      ],
      [
        "ब",
        "ो"
      ],
      [
        "उन",
        "के"
      ],
      [
        "य",
        "ी"
      ],
      [
        "ब",
        "द"
      ],
      [
        "ज",
        "ु"
      ],
      [
        "ज",
        "े"
      ],
      [
        "ड",
        "ि"
      ],
      [
        "र",
        "ख"
      ],
      [
        "नि",
        "क"
      ],
      [
        "स्",
        "व"
      ],
      [
        "ब",
        "र"
      ],
      [
        "नि",
        "र्"
      ],
      [
        "इस",
        "ी"
      ],
      [
        "भा",
        "व"
      ],
      [
        "ठ",
        "ा"
      ],
      [
        "स",
        "भी"
      ],
      [
        "चाहि",
        "ए"
      ],
      [
        "ौ",
        "र"
      ],
      [
        "रू",
        "प"
      ],
      [
        "प",
        "हु"
      ],
      [
        "ल",
        "ों"
      ],
      [
        "मे",
        "रे"
      ],
      [
        "प",
        "ो"
      ],
      [
        "इस",
        "से"
      ],
      [
        "आ",
        "ई"
      ],
      [
        "उ",
        "त्"
      ],
      [
        "क",
        "हा"
      ],
      [
        "जि",
        "स"
      ],
      [
        "ट",
        "ि"
      ],
      [
        "लि",
        "स"
      ],
      [
        "सम",
        "झ"
      ],
      [
        "पू",
        "र्"
      ],
      [
        "पु",
        "लिस"
      ],
      [
        "श",
        "े"
      ],
      [
        "ग",
        "ि"
      ],
      [
        "मा",
        "म"
      ],
      [
        "मु",
        "ख"
      ],
      [
        "त्र",
        "ी"
      ],
      [
        "हू",
        "ँ"
      ],
      [
        "क्",
        "त"
      ],
      [
        "उन",
        "की"
      ],
      [
        "य",
        "ू"
      ],
      [
        "य",
        "हां"
      ],
      [
        "प",
        "ार"
      ],
      [
        "भ",
        "ि"
      ],
      [
        "स्",
        "था"
      ],
      [
        "चा",
        "ह"
      ],
      [
        "मैं",
        "ने"
      ],
      [
        "हू",
        "ं"
      ],
      [
        "ब",
        "ता"
      ],
      [
        "ऐ",
        "सा"
      ],
      [
        "प्र",
        "ति"
      ],
      [
        "पा",
        "स"
      ],
      [
        "जा",
        "ती"
      ],
      [
        "त्",
        "व"
      ],
      [
        "छ",
        "ो"
      ],
      [
        "फ",
        "ी"
      ],
      [
        "ब",
        "ह"
      ],
      [
        "कर",
        "्"
      ],
      [
        "ड",
        "ी"
      ],
      [
        "म",
        "त"
      ],
      [
        "का",
        "र्य"
      ],
      [
        "क",
        "ों"
      ],
      [
        "कर",
        "ें"
      ],
      [
        "ध",
        "ार"
      ],
      [
        "ध",
        "्य"
      ],
      [
        "वा",
        "द"
      ],
      [
        "सम",
        "्"
      ],
      [
        "स्",
        "ता"
      ],
      [
        "ग",
        "ो"
      ],
      [
        "ठ",
        "ी"
      ],
      [
        "ब",
        "च्"
      ],
      [
        "क",
        "भी"
      ],
      [
        "ज",
        "ार"
      ],
      [
        "भ",
        "ू"
      ],
      [
        "क्",
        "यों"
      ],
      [
        "सा",
        "म"
      ],
      [
        "ं",
        "क"
      ],
      [
        "सब",
        "से"
      ],
      [
        "ं",
        "स"
      ],
      [
        "उस",
        "की"
      ],
      [
        "्या",
        "दा"
      ],
      [
        "फि",
        "ल्"
      ],
      [
        "म",
        "ार"
      ],
      [
        "स",
        "मा"
      ],
      [
        "दू",
        "स"
      ],
      [
        "लोग",
        "ों"
      ],
      [
        "य",
        "ही"
      ],
      [
        "र",
        "त"
      ],
      [
        "अ",
        "न्"
      ],
      [
        "ए",
        "ं"
      ],
      [
        "य",
        "र"
      ],
      [
        "इ",
        "से"
      ],
      [
        "ज",
        "ू"
      ],
      [
        "छ",
        "े"
      ],
      [
        "ल",
        "ू"
      ],
      [
        "इस",
        "का"
      ],
      [
        "भार",
        "त"
      ],
      [
        "कर",
        "ता"
      ],
      [
        "स्",
        "वा"
      ],
      [
        "वा",
        "ले"
      ],
      [
        "ण",
        "ा"
      ],
      [
        "प",
        "ै"
      ],
      [
        "फ",
        "ा"
      ],
      [
        "र्",
        "थ"
      ],
      [
        "जी",
        "वन"
      ],
      [
        "ऐ",
        "से"
      ],
      [
        "प",
        "न"
      ],
      [
        "प",
        "ता"
      ],
      [
        "हो",
        "गी"
      ],
      [
        "अ",
        "व"
      ],
      [
        "ग",
        "्र"
      ],
      [
        "ज",
        "्यादा"
      ],
      [
        "द",
        "ान"
      ],
      [
        "सक",
        "ते"
      ],
      [
        "नि",
        "या"
      ],
      [
        "मे",
        "री"
      ],
      [
        "ड",
        "े"
      ],
      [
        "न्",
        "न"
      ],
      [
        "ं",
        "ह"
      ],
      [
        "ख",
        "ो"
      ],
      [
        "त",
        "ना"
      ],
      [
        "अप",
        "ना"
      ],
      [
        "भा",
        "ग"
      ],
      [
        "तु",
        "म"
      ],
      [
        "शु",
        "रू"
      ],
      [
        "ब",
        "ंध"
      ],
      [
        "हो",
        "ते"
      ],
      [
        "हा",
        "थ"
      ],
      [
        "उन",
        "का"
      ],
      [
        "ज",
        "ग"
      ],
      [
        "कार",
        "ण"
      ],
      [
        "च",
        "ना"
      ],
      [
        "ह",
        "ों"
      ],
      [
        "वि",
        "श्"
      ],
      [
        "भ",
        "र"
      ],
      [
        "ंग",
        "्रे"
      ],
      [
        "द्",
        "ध"
      ],
      [
        "सर",
        "कार"
      ],
      [
        "कर",
        "ा"
      ],
      [
        "रा",
        "म"
      ],
      [
        "स्थ",
        "ि"
      ],
      [
        "फिल्",
        "म"
      ],
      [
        "द",
        "्र"
      ],
      [
        "पु",
        "र"
      ],
      [
        "क",
        "ैसे"
      ],
      [
        "द",
        "ार"
      ],
      [
        "प",
        "ड़"
      ],
      [
        "जा",
        "ने"
      ],
      [
        "उस",
        "का"
      ],
      [
        "हम",
        "ारे"
      ],
      [
        "ं",
        "गा"
      ],
      [
        "आ",
        "या"
      ],
      [
        "क",
        "ै"
      ],
      [
        "भ",
        "ग"
      ],
      [
        "ह",
        "े"
      ],
      [
        "का",
        "न"
      ],
      [
        "हा",
        "ल"
      ],
      [
        "इस",
        "लिए"
      ],
      [
        "द्",
        "वार"
      ],
      [
        "स",
        "र्"
      ],
      [
        "प्र",
        "े"
      ],
      [
        "भा",
        "ष"
      ],
      [
        "अच्",
        "छा"
      ],
      [
        "क",
        "ता"
      ],
      [
        "त",
        "ार"
      ],
      [
        "र्",
        "ट"
      ],
      [
        "अ",
        "भी"
      ],
      [
        "द",
        "्य"
      ],
      [
        "म",
        "र"
      ],
      [
        "ल",
        "न"
      ],
      [
        "्ट",
        "ी"
      ],
      [
        "प्",
        "त"
      ],
      [
        "ज्ञ",
        "ान"
      ],
      [
        "च",
        "ला"
      ],
      [
        "ज",
        "रू"
      ],
      [
        "क्",
        "स"
      ],
      [
        "ले",
        "कर"
      ],
      [
        "क्ष",
        "ण"
      ],
      [
        "क्ष",
        "े"
      ],
      [
        "ं",
        "प"
      ],
      [
        "ज",
        "ै"
      ],
      [
        "प",
        "र्"
      ],
      [
        "र",
        "ों"
      ],
      [
        "त",
        "ब"
      ],
      [
        "व",
        "ान"
      ],
      [
        "का",
        "फी"
      ],
      [
        "लि",
        "ये"
      ],
      [
        "मे",
        "रा"
      ],
      [
        "उस",
        "ने"
      ],
      [
        "ब",
        "स"
      ],
      [
        "य",
        "ं"
      ],
      [
        "स",
        "ह"
      ],
      [
        "इस",
        "में"
      ],
      [
        "रा",
        "त"
      ],
      [
        "त्",
        "म"
      ],
      [
        "अधि",
        "क"
      ],
      [
        "ग",
        "ल"
      ],
      [
        "न",
        "ौ"
      ],
      [
        "प",
        "ढ़"
      ],
      [
        "श",
        "्य"
      ],
      [
        "ले",
        "ख"
      ],
      [
        "स्थि",
        "ति"
      ],
      [
        "आ",
        "गे"
      ],
      [
        "फ",
        "्"
      ],
      [
        "व",
        "ं"
      ],
      [
        "श",
        "्र"
      ],
      [
        "स",
        "ार"
      ],
      [
        "वा",
        "ला"
      ],
      [
        "आप",
        "को"
      ],
      [
        "पूर्",
        "ण"
      ],
      [
        "त",
        "ै"
      ],
      [
        "ध",
        "ान"
      ],
      [
        "व",
        "ै"
      ],
      [
        "वा",
        "ली"
      ],
      [
        "मा",
        "ण"
      ],
      [
        "तु",
        "म्"
      ],
      [
        "ज",
        "र"
      ],
      [
        "प",
        "ानी"
      ],
      [
        "त्र",
        "ा"
      ],
      [
        "मं",
        "त्री"
      ],
      [
        "अ",
        "ं"
      ],
      [
        "क",
        "ल"
      ],
      [
        "य",
        "हाँ"
      ],
      [
        "ल",
        "य"
      ],
      [
        "ल",
        "गे"
      ],
      [
        "कर",
        "े"
      ],
      [
        "ओ",
        "र"
      ],
      [
        "प",
        "त्"
      ],
      [
        "श",
        "ो"
      ],
      [
        "या",
        "द"
      ],
      [
        "सा",
        "ल"
      ],
      [
        "लि",
        "ख"
      ],
      [
        "ती",
        "य"
      ],
      [
        "लग",
        "ता"
      ],
      [
        "बै",
        "ठ"
      ],
      [
        "क",
        "ौ"
      ],
      [
        "घ",
        "ट"
      ],
      [
        "त",
        "ों"
      ],
      [
        "न",
        "ो"
      ],
      [
        "म",
        "ू"
      ],
      [
        "य",
        "त"
      ],
      [
        "्",
        "ड"
      ],
      [
        "द्वार",
        "ा"
      ],
      [
        "ध",
        "ी"
      ],
      [
        "फ",
        "ो"
      ],
      [
        "श",
        "्री"
      ],
      [
        "हो",
        "ना"
      ],
      [
        "ती",
        "न"
      ],
      [
        "राज",
        "्य"
      ],
      [
        "जान",
        "कारी"
      ],
      [
        "शे",
        "ष"
      ],
      [
        "साम",
        "ने"
      ],
      [
        "आ",
        "ं"
      ],
      [
        "क",
        "़"
      ],
      [
        "ख",
        "़"
      ],
      [
        "ग",
        "यी"
      ],
      [
        "द",
        "र"
      ],
      [
        "ध",
        "न"
      ],
      [
        "प",
        "्या"
      ],
      [
        "व",
        "्या"
      ],
      [
        "ने",
        "ता"
      ],
      [
        "वा",
        "स"
      ],
      [
        "बद",
        "ल"
      ],
      [
        "अ",
        "भि"
      ],
      [
        "ध",
        "्या"
      ],
      [
        "र्",
        "म"
      ],
      [
        "दे",
        "खा"
      ],
      [
        "थी",
        "ं"
      ],
      [
        "सक",
        "ती"
      ],
      [
        "खु",
        "द"
      ],
      [
        "तुम्",
        "ह"
      ],
      [
        "भ",
        "व"
      ],
      [
        "ह",
        "रा"
      ],
      [
        "नी",
        "ति"
      ],
      [
        "सि",
        "ंह"
      ],
      [
        "ग",
        "ये"
      ],
      [
        "ज",
        "ल"
      ],
      [
        "्य",
        "ू"
      ],
      [
        "स्थ",
        "ान"
      ],
      [
        "अ",
        "लग"
      ],
      [
        "फ",
        "ै"
      ],
      [
        "य",
        "न"
      ],
      [
        "मि",
        "ला"
      ],
      [
        "क्र",
        "म"
      ],
      [
        "दु",
        "निया"
      ],
      [
        "तै",
        "या"
      ],
      [
        "उ",
        "ठा"
      ],
      [
        "ध",
        "र"
      ],
      [
        "व",
        "ल"
      ],
      [
        "स",
        "द"
      ],
      [
        "दि",
        "ल"
      ],
      [
        "दि",
        "खा"
      ],
      [
        "हि",
        "ला"
      ],
      [
        "जाए",
        "गा"
      ],
      [
        "क्षे",
        "त्र"
      ],
      [
        "ण",
        "ी"
      ],
      [
        "त",
        "न"
      ],
      [
        "द",
        "ौर"
      ],
      [
        "प",
        "त्र"
      ],
      [
        "स",
        "न"
      ],
      [
        "ह",
        "में"
      ],
      [
        "कर",
        "ी"
      ],
      [
        "वि",
        "चार"
      ],
      [
        "भाष",
        "ा"
      ],
      [
        "ज",
        "ैसे"
      ],
      [
        "ल",
        "गी"
      ],
      [
        "ह",
        "ार"
      ],
      [
        "जा",
        "ते"
      ],
      [
        "ल्",
        "ली"
      ],
      [
        "दू",
        "र"
      ],
      [
        "ध",
        "ु"
      ],
      [
        "ब",
        "्र"
      ],
      [
        "कि",
        "स"
      ],
      [
        "पर",
        "ा"
      ],
      [
        "वा",
        "ल"
      ],
      [
        "पू",
        "री"
      ],
      [
        "चु",
        "ना"
      ],
      [
        "कृ",
        "ति"
      ],
      [
        "ं",
        "ट"
      ],
      [
        "फ",
        "ल"
      ],
      [
        "ब",
        "ू"
      ],
      [
        "व",
        "हां"
      ],
      [
        "श",
        "ान"
      ],
      [
        "जा",
        "ना"
      ],
      [
        "रा",
        "ष्ट"
      ],
      [
        "मि",
        "ले"
      ],
      [
        "लो",
        "क"
      ],
      [
        "खि",
        "ला"
      ],
      [
        "खे",
        "ल"
      ],
      [
        "माम",
        "ले"
      ],
      [
        "आ",
        "द"
      ],
      [
        "क",
        "ॉ"
      ],
      [
        "क",
        "वि"
      ],
      [
        "व",
        "ृ"
      ],
      [
        "ह",
        "न"
      ],
      [
        "र्",
        "फ"
      ],
      [
        "सा",
        "इ"
      ],
      [
        "आप",
        "के"
      ],
      [
        "सु",
        "न"
      ],
      [
        "पू",
        "रा"
      ],
      [
        "आ",
        "र"
      ],
      [
        "क",
        "हीं"
      ],
      [
        "द",
        "म"
      ],
      [
        "प",
        "ड़ा"
      ],
      [
        "प",
        "ड़े"
      ],
      [
        "ल",
        "ड़"
      ],
      [
        "का",
        "ल"
      ],
      [
        "वि",
        "ष"
      ],
      [
        "बार",
        "े"
      ],
      [
        "व्य",
        "क्ति"
      ],
      [
        "ं",
        "व"
      ],
      [
        "क",
        "ट"
      ],
      [
        "च",
        "ों"
      ],
      [
        "ज",
        "न्"
      ],
      [
        "ड",
        "िया"
      ],
      [
        "त",
        "ं"
      ],
      [
        "ब",
        "ड़ी"
      ],
      [
        "म",
        "ूल"
      ],
      [
        "स",
        "ल"
      ],
      [
        "कर",
        "ण"
      ],
      [
        "बा",
        "हर"
      ],
      [
        "त्",
        "या"
      ],
      [
        "बे",
        "ह"
      ],
      [
        "सो",
        "च"
      ],
      [
        "आ",
        "स"
      ],
      [
        "ए",
        "स"
      ],
      [
        "फ",
        "े"
      ],
      [
        "म",
        "ृ"
      ],
      [
        "य",
        "द"
      ],
      [
        "ल",
        "ौ"
      ],
      [
        "कर",
        "ती"
      ],
      [
        "क",
        "ंप"
      ],
      [
        "ग",
        "त"
      ],
      [
        "ग",
        "्"
      ],
      [
        "च",
        "ो"
      ],
      [
        "च",
        "ौ"
      ],
      [
        "छ",
        "ी"
      ],
      [
        "त",
        "नी"
      ],
      [
        "प",
        "ं"
      ],
      [
        "प",
        "क"
      ],
      [
        "म",
        "हा"
      ],
      [
        "श",
        "ब्"
      ],
      [
        "स",
        "ौ"
      ],
      [
        "का",
        "र्"
      ],
      [
        "दि",
        "ल्ली"
      ],
      [
        "बी",
        "च"
      ],
      [
        "ए",
        "वं"
      ],
      [
        "द",
        "्या"
      ],
      [
        "भ",
        "ो"
      ],
      [
        "म",
        "हिला"
      ],
      [
        "ल",
        "ब"
      ],
      [
        "व्य",
        "व"
      ],
      [
        "भार",
        "तीय"
      ],
      [
        "जू",
        "द"
      ],
      [
        "घट",
        "ना"
      ],
      [
        "ख",
        "ी"
      ],
      [
        "ज",
        "य"
      ],
      [
        "थ",
        "ो"
      ],
      [
        "द",
        "ृ"
      ],
      [
        "न",
        "ही"
      ],
      [
        "भ",
        "ु"
      ],
      [
        "सा",
        "हि"
      ],
      [
        "इस",
        "की"
      ],
      [
        "दि",
        "र"
      ],
      [
        "हम",
        "ारी"
      ],
      [
        "समा",
        "ज"
      ],
      [
        "च",
        "ान"
      ],
      [
        "ज",
        "ना"
      ],
      [
        "ट",
        "ो"
      ],
      [
        "दे",
        "र"
      ],
      [
        "कु",
        "ल"
      ],
      [
        "भा",
        "ई"
      ],
      [
        "हि",
        "ं"
      ],
      [
        "शा",
        "यद"
      ],
      [
        "ठी",
        "क"
      ],
      [
        "इ",
        "ं"
      ],
      [
        "घ",
        "ा"
      ],
      [
        "घ",
        "्"
      ],
      [
        "ड",
        "र"
      ],
      [
        "ब",
        "ल"
      ],
      [
        "र",
        "ंग"
      ],
      [
        "ल",
        "ें"
      ],
      [
        "या",
        "ं"
      ],
      [
        "वि",
        "क"
      ],
      [
        "वि",
        "शेष"
      ],
      [
        "वि",
        "द्या"
      ],
      [
        "दे",
        "व"
      ],
      [
        "क्र",
        "िया"
      ],
      [
        "गु",
        "रु"
      ],
      [
        "मुख",
        "्य"
      ],
      [
        "कौ",
        "न"
      ],
      [
        "शब्",
        "द"
      ],
      [
        "अ",
        "ध्य"
      ],
      [
        "त",
        "ने"
      ],
      [
        "त",
        "री"
      ],
      [
        "य",
        "म"
      ],
      [
        "आप",
        "की"
      ],
      [
        "सि",
        "र्फ"
      ],
      [
        "ए",
        "म"
      ],
      [
        "ट",
        "्र"
      ],
      [
        "म",
        "ार्"
      ],
      [
        "य",
        "क"
      ],
      [
        "र",
        "ण"
      ],
      [
        "स",
        "त"
      ],
      [
        "जा",
        "ये"
      ],
      [
        "पी",
        "छे"
      ],
      [
        "परि",
        "वार"
      ],
      [
        "ष्ट",
        "ि"
      ],
      [
        "छो",
        "ड़"
      ],
      [
        "अ",
        "न"
      ],
      [
        "च",
        "ू"
      ],
      [
        "ण",
        "्ड"
      ],
      [
        "ध",
        "े"
      ],
      [
        "ब",
        "ड़ा"
      ],
      [
        "भ",
        "े"
      ],
      [
        "ल",
        "ं"
      ],
      [
        "का",
        "ंग्रे"
      ],
      [
        "पर",
        "े"
      ],
      [
        "सा",
        "ह"
      ],
      [
        "वा",
        "ह"
      ],
      [
        "वि",
        "का"
      ],
      [
        "मा",
        "ंग"
      ],
      [
        "ंद",
        "र"
      ],
      [
        "अन्",
        "य"
      ],
      [
        "विश्",
        "व"
      ],
      [
        "क",
        "ूल"
      ],
      [
        "ग",
        "्रा"
      ],
      [
        "प",
        "द"
      ],
      [
        "ल",
        "ु"
      ],
      [
        "क्",
        "टर"
      ],
      [
        "प्र",
        "कार"
      ],
      [
        "न्",
        "या"
      ],
      [
        "सं",
        "स्"
      ],
      [
        "हि",
        "न्"
      ],
      [
        "गि",
        "र"
      ],
      [
        "बच्",
        "चों"
      ],
      [
        "चुना",
        "व"
      ],
      [
        "ख",
        "्या"
      ],
      [
        "च",
        "ले"
      ],
      [
        "झ",
        "ा"
      ],
      [
        "न",
        "ई"
      ],
      [
        "्",
        "स"
      ],
      [
        "के",
        "वल"
      ],
      [
        "रह",
        "ने"
      ],
      [
        "रह",
        "ता"
      ],
      [
        "सु",
        "र"
      ],
      [
        "अ",
        "स्"
      ],
      [
        "आ",
        "ए"
      ],
      [
        "य",
        "ता"
      ],
      [
        "सं",
        "ग"
      ],
      [
        "मी",
        "डिया"
      ],
      [
        "ष्",
        "ठ"
      ],
      [
        "निक",
        "ल"
      ],
      [
        "पहु",
        "ं"
      ],
      [
        "पहु",
        "ंच"
      ],
      [
        "भग",
        "वान"
      ],
      [
        "जन्",
        "म"
      ],
      [
        "ए",
        "ँ"
      ],
      [
        "क",
        "ला"
      ],
      [
        "ल",
        "ै"
      ],
      [
        "व",
        "ज"
      ],
      [
        "श",
        "हर"
      ],
      [
        "स",
        "ला"
      ],
      [
        "ह",
        "्"
      ],
      [
        "हा",
        "ला"
      ],
      [
        "वा",
        "ब"
      ],
      [
        "शा",
        "मिल"
      ],
      [
        "बि",
        "ना"
      ],
      [
        "चु",
        "का"
      ],
      [
        "प्रे",
        "म"
      ],
      [
        "आद",
        "मी"
      ],
      [
        "कांग्रे",
        "स"
      ],
      [
        "आ",
        "ने"
      ],
      [
        "ब",
        "ंद"
      ],
      [
        "ह",
        "मे"
      ],
      [
        "स्",
        "या"
      ],
      [
        "वि",
        "रो"
      ],
      [
        "ति",
        "हा"
      ],
      [
        "रह",
        "ते"
      ],
      [
        "ंग",
        "े"
      ],
      [
        "हम",
        "ने"
      ],
      [
        "सु",
        "बह"
      ],
      [
        "पह",
        "ली"
      ],
      [
        "जग",
        "ह"
      ],
      [
        "ध्या",
        "न"
      ],
      [
        "दौर",
        "ान"
      ],
      [
        "आ",
        "व"
      ],
      [
        "आ",
        "खि"
      ],
      [
        "ऐ",
        "सी"
      ],
      [
        "ख",
        "ू"
      ],
      [
        "त",
        "था"
      ],
      [
        "का",
        "श"
      ],
      [
        "ें",
        "द्र"
      ],
      [
        "मा",
        "ँ"
      ],
      [
        "दे",
        "ने"
      ],
      [
        "पा",
        "ल"
      ],
      [
        "रि",
        "या"
      ],
      [
        "वर्",
        "ष"
      ],
      [
        "निर्",
        "माण"
      ],
      [
        "पो",
        "र्ट"
      ],
      [
        "भू",
        "मि"
      ],
      [
        "दूस",
        "रे"
      ],
      [
        "विका",
        "स"
      ],
      [
        "ऊ",
        "पर"
      ],
      [
        "ग",
        "र्"
      ],
      [
        "न",
        "र"
      ],
      [
        "ब",
        "च"
      ],
      [
        "ब",
        "ड़े"
      ],
      [
        "ल",
        "ॉ"
      ],
      [
        "लि",
        "त"
      ],
      [
        "बा",
        "जार"
      ],
      [
        "गी",
        "त"
      ],
      [
        "पू",
        "रे"
      ],
      [
        "पु",
        "रा"
      ],
      [
        "द्",
        "धि"
      ],
      [
        "चु",
        "की"
      ],
      [
        "मं",
        "दिर"
      ],
      [
        "जरू",
        "रत"
      ],
      [
        "कवि",
        "ता"
      ],
      [
        "ं",
        "कि"
      ],
      [
        "आ",
        "ँ"
      ],
      [
        "च",
        "र्"
      ],
      [
        "म",
        "ही"
      ],
      [
        "लि",
        "क"
      ],
      [
        "मि",
        "ली"
      ],
      [
        "शि",
        "क्षा"
      ],
      [
        "राज",
        "नीति"
      ],
      [
        "खु",
        "श"
      ],
      [
        "अधि",
        "कार"
      ],
      [
        "साहि",
        "त्य"
      ],
      [
        "हमे",
        "शा"
      ],
      [
        "आ",
        "न"
      ],
      [
        "आ",
        "ती"
      ],
      [
        "आ",
        "रो"
      ],
      [
        "उ",
        "सी"
      ],
      [
        "न",
        "या"
      ],
      [
        "य",
        "ल"
      ],
      [
        "श",
        "क्ति"
      ],
      [
        "ह",
        "रे"
      ],
      [
        "स्",
        "तु"
      ],
      [
        "जा",
        "य"
      ],
      [
        "वा",
        "ई"
      ],
      [
        "ती",
        "स"
      ],
      [
        "श्",
        "च"
      ],
      [
        "कह",
        "ते"
      ],
      [
        "कह",
        "ानी"
      ],
      [
        "पि",
        "छ"
      ],
      [
        "यु",
        "व"
      ],
      [
        "बढ़",
        "ा"
      ],
      [
        "बता",
        "या"
      ],
      [
        "अ",
        "गर"
      ],
      [
        "द",
        "न"
      ],
      [
        "प",
        "ति"
      ],
      [
        "ब",
        "ने"
      ],
      [
        "र",
        "खा"
      ],
      [
        "स्",
        "कूल"
      ],
      [
        "पर",
        "ी"
      ],
      [
        "हम",
        "ारा"
      ],
      [
        "न्द",
        "्र"
      ],
      [
        "कर्",
        "म"
      ],
      [
        "तैया",
        "र"
      ],
      [
        "व्यव",
        "स्था"
      ],
      [
        "आव",
        "श्य"
      ],
      [
        "अ",
        "ंग्रे"
      ],
      [
        "घ",
        "ु"
      ],
      [
        "प",
        "ट"
      ],
      [
        "व",
        "हाँ"
      ],
      [
        "स",
        "ै"
      ],
      [
        "स",
        "ही"
      ],
      [
        "से",
        "वा"
      ],
      [
        "कर",
        "ो"
      ],
      [
        "कर",
        "के"
      ],
      [
        "प्र",
        "देश"
      ],
      [
        "गा",
        "ंव"
      ],
      [
        "सम",
        "स्या"
      ],
      [
        "ल्",
        "प"
      ],
      [
        "तर",
        "फ"
      ],
      [
        "ार्",
        "थ"
      ],
      [
        "्री",
        "य"
      ],
      [
        "अच्",
        "छी"
      ],
      [
        "स्व",
        "यं"
      ],
      [
        "चाह",
        "ता"
      ],
      [
        "बच्",
        "चे"
      ],
      [
        "अ",
        "र्थ"
      ],
      [
        "उ",
        "ठ"
      ],
      [
        "ख",
        "ों"
      ],
      [
        "ज",
        "ारी"
      ],
      [
        "ट",
        "ू"
      ],
      [
        "न",
        "ए"
      ],
      [
        "ब",
        "चा"
      ],
      [
        "म",
        "ना"
      ],
      [
        "स",
        "ारे"
      ],
      [
        "स",
        "वाल"
      ],
      [
        "स्",
        "ते"
      ],
      [
        "र्",
        "ष"
      ],
      [
        "वि",
        "त"
      ],
      [
        "त्",
        "ता"
      ],
      [
        "टी",
        "म"
      ],
      [
        "म्",
        "मी"
      ],
      [
        "रु",
        "प"
      ],
      [
        "दर्",
        "शन"
      ],
      [
        "प्रा",
        "प्त"
      ],
      [
        "पार",
        "्टी"
      ],
      [
        "अ",
        "ग"
      ],
      [
        "अ",
        "के"
      ],
      [
        "क",
        "त"
      ],
      [
        "क",
        "ू"
      ],
      [
        "क",
        "था"
      ],
      [
        "च",
        "ली"
      ],
      [
        "ज",
        "ों"
      ],
      [
        "द",
        "ें"
      ],
      [
        "न",
        "जर"
      ],
      [
        "प",
        "स"
      ],
      [
        "प",
        "सं"
      ],
      [
        "व",
        "ही"
      ],
      [
        "या",
        "ँ"
      ],
      [
        "कि",
        "ए"
      ],
      [
        "न्",
        "य"
      ],
      [
        "दि",
        "नों"
      ],
      [
        "मि",
        "त"
      ],
      [
        "आप",
        "का"
      ],
      [
        "िया",
        "ं"
      ],
      [
        "सू",
        "चना"
      ],
      [
        "मह",
        "त्व"
      ],
      [
        "फ़",
        "ि"
      ],
      [
        "यो",
        "जना"
      ],
      [
        "ष्",
        "ण"
      ],
      [
        "बो",
        "ल"
      ],
      [
        "टि",
        "ंग"
      ],
      [
        "स्ता",
        "न"
      ],
      [
        "प्या",
        "र"
      ],
      [
        "तं",
        "त्र"
      ],
      [
        "आखि",
        "र"
      ],
      [
        "आ",
        "ते"
      ],
      [
        "इ",
        "न्"
      ],
      [
        "ग",
        "ू"
      ],
      [
        "छ",
        "ु"
      ],
      [
        "ध",
        "र्म"
      ],
      [
        "ल",
        "क"
      ],
      [
        "श",
        "री"
      ],
      [
        "ष",
        "ण"
      ],
      [
        "ह",
        "री"
      ],
      [
        "के",
        "ट"
      ],
      [
        "स्",
        "तर"
      ],
      [
        "र्",
        "ड"
      ],
      [
        "ला",
        "ल"
      ],
      [
        "जा",
        "ंच"
      ],
      [
        "प्र",
        "ि"
      ],
      [
        "मा",
        "ना"
      ],
      [
        "दे",
        "ते"
      ],
      [
        "उस",
        "से"
      ],
      [
        "द्",
        "धा"
      ],
      [
        "बना",
        "ने"
      ],
      [
        "पो",
        "स्ट"
      ],
      [
        "ँ",
        "च"
      ],
      [
        "त",
        "ू"
      ],
      [
        "या",
        "त्रा"
      ],
      [
        "मा",
        "ल"
      ],
      [
        "नी",
        "चे"
      ],
      [
        "आप",
        "ने"
      ],
      [
        "शि",
        "का"
      ],
      [
        "पि",
        "ता"
      ],
      [
        "हिन्",
        "दी"
      ],
      [
        "मही",
        "ने"
      ],
      [
        "आ",
        "ता"
      ],
      [
        "आ",
        "ये"
      ],
      [
        "इ",
        "ला"
      ],
      [
        "इ",
        "न्ह"
      ],
      [
        "ट",
        "क"
      ],
      [
        "ट",
        "ल"
      ],
      [
        "त",
        "म"
      ],
      [
        "ध",
        "ू"
      ],
      [
        "प",
        "ल"
      ],
      [
        "भ",
        "्र"
      ],
      [
        "म",
        "गर"
      ],
      [
        "य",
        "दि"
      ],
      [
        "व",
        "हीं"
      ],
      [
        "श",
        "ं"
      ],
      [
        "ष",
        "्य"
      ],
      [
        "ला",
        "भ"
      ],
      [
        "दे",
        "ता"
      ],
      [
        "दि",
        "ए"
      ],
      [
        "रह",
        "ती"
      ],
      [
        "सं",
        "बंध"
      ],
      [
        "जि",
        "ला"
      ],
      [
        "ंद",
        "गी"
      ],
      [
        "स्ट",
        "े"
      ],
      [
        "देख",
        "ने"
      ],
      [
        "ज्ञ",
        "ा"
      ],
      [
        "पूर्",
        "व"
      ],
      [
        "हों",
        "गे"
      ],
      [
        "आ",
        "म"
      ],
      [
        "आ",
        "यो"
      ],
      [
        "क",
        "ब"
      ],
      [
        "च",
        "ै"
      ],
      [
        "ज",
        "ल्"
      ],
      [
        "ज",
        "वाब"
      ],
      [
        "ब",
        "्रा"
      ],
      [
        "स",
        "ों"
      ],
      [
        "ह",
        "जार"
      ],
      [
        "स्",
        "वी"
      ],
      [
        "वा",
        "लों"
      ],
      [
        "दे",
        "ना"
      ],
      [
        "मे",
        "रि"
      ],
      [
        "जी",
        "व"
      ],
      [
        "शा",
        "म"
      ],
      [
        "वे",
        "श"
      ],
      [
        "पू",
        "छ"
      ],
      [
        "चु",
        "के"
      ],
      [
        "मौ",
        "जूद"
      ],
      [
        "कार्य",
        "क्रम"
      ],
      [
        "लौ",
        "ट"
      ],
      [
        "चर्",
        "चा"
      ],
      [
        "अ",
        "ंत"
      ],
      [
        "आ",
        "धार"
      ],
      [
        "उ",
        "न्"
      ],
      [
        "ख",
        "री"
      ],
      [
        "ट",
        "्ट"
      ],
      [
        "द",
        "ौ"
      ],
      [
        "म",
        "नु"
      ],
      [
        "ल",
        "ब्"
      ],
      [
        "श",
        "र्"
      ],
      [
        "स",
        "के"
      ],
      [
        "स",
        "भा"
      ],
      [
        "स",
        "फल"
      ],
      [
        "ो",
        "र"
      ],
      [
        "स्",
        "त्र"
      ],
      [
        "सा",
        "मान"
      ],
      [
        "प्र",
        "योग"
      ],
      [
        "मा",
        "ह"
      ],
      [
        "ज़",
        "ा"
      ],
      [
        "इन",
        "में"
      ],
      [
        "चि",
        "त्र"
      ],
      [
        "मो",
        "दी"
      ],
      [
        "ंध",
        "ी"
      ],
      [
        "अच्",
        "छे"
      ],
      [
        "मौ",
        "त"
      ],
      [
        "भाव",
        "ना"
      ],
      [
        "हिं",
        "दी"
      ],
      [
        "ख",
        "्"
      ],
      [
        "ग",
        "़"
      ],
      [
        "ग",
        "ति"
      ],
      [
        "ग",
        "री"
      ],
      [
        "ज",
        "पा"
      ],
      [
        "त",
        "य"
      ],
      [
        "त",
        "रा"
      ],
      [
        "म",
        "ता"
      ],
      [
        "र",
        "चना"
      ],
      [
        "व",
        "त"
      ],
      [
        "में",
        "ट"
      ],
      [
        "ता",
        "ब"
      ],
      [
        "कर",
        "ेंगे"
      ],
      [
        "प्र",
        "भा"
      ],
      [
        "रा",
        "ब"
      ],
      [
        "मा",
        "ं"
      ],
      [
        "शा",
        "सन"
      ],
      [
        "रि",
        "श्"
      ],
      [
        "यु",
        "क्त"
      ],
      [
        "न्द",
        "र"
      ],
      [
        "भि",
        "न्न"
      ],
      [
        "चाह",
        "ते"
      ],
      [
        "ग्र",
        "ह"
      ],
      [
        "पड़",
        "ता"
      ],
      [
        "अंग्रे",
        "जी"
      ],
      [
        "ं",
        "भ"
      ],
      [
        "ं",
        "ति"
      ],
      [
        "अ",
        "दा"
      ],
      [
        "अ",
        "मेरि"
      ],
      [
        "आ",
        "त"
      ],
      [
        "आ",
        "वा"
      ],
      [
        "इ",
        "तना"
      ],
      [
        "उ",
        "दा"
      ],
      [
        "ग",
        "ं"
      ],
      [
        "ग",
        "ण"
      ],
      [
        "च",
        "म"
      ],
      [
        "द",
        "ारी"
      ],
      [
        "फ",
        "ु"
      ],
      [
        "व",
        "ैसे"
      ],
      [
        "स",
        "च"
      ],
      [
        "स",
        "हा"
      ],
      [
        "स",
        "ारी"
      ],
      [
        "स्",
        "सा"
      ],
      [
        "कि",
        "ल"
      ],
      [
        "ंग",
        "ल"
      ],
      [
        "भा",
        "जपा"
      ],
      [
        "जि",
        "त"
      ],
      [
        "सि",
        "क"
      ],
      [
        "शि",
        "व"
      ],
      [
        "श्",
        "वर"
      ],
      [
        "ची",
        "न"
      ],
      [
        "उप",
        "लब्"
      ],
      [
        "डा",
        "ल"
      ],
      [
        "उत्",
        "तर"
      ],
      [
        "दूस",
        "रा"
      ],
      [
        "दूस",
        "री"
      ],
      [
        "द्य",
        "ोग"
      ],
      [
        "राष्ट",
        "्रीय"
      ],
      [
        "शरी",
        "र"
      ],
      [
        "अ",
        "ति"
      ],
      [
        "उ",
        "च्"
      ],
      [
        "ज",
        "्य"
      ],
      [
        "ट",
        "्रे"
      ],
      [
        "त",
        "ला"
      ],
      [
        "प",
        "ृ"
      ],
      [
        "भ",
        "ारी"
      ],
      [
        "ू",
        "न"
      ],
      [
        "।",
        "।"
      ],
      [
        "सा",
        "त"
      ],
      [
        "प्र",
        "या"
      ],
      [
        "वि",
        "भाग"
      ],
      [
        "गा",
        "ंधी"
      ],
      [
        "पु",
        "रु"
      ],
      [
        "रहे",
        "गी"
      ],
      [
        "जो",
        "र"
      ],
      [
        "बात",
        "ें"
      ],
      [
        "क्र",
        "ि"
      ],
      [
        "स्थ",
        "ित"
      ],
      [
        "शु",
        "रु"
      ],
      [
        "चल",
        "ते"
      ],
      [
        "कृ",
        "त"
      ],
      [
        "विश्",
        "वास"
      ],
      [
        "खिला",
        "फ"
      ],
      [
        "अध्य",
        "क्ष"
      ],
      [
        "पसं",
        "द"
      ],
      [
        "अ",
        "फ"
      ],
      [
        "उ",
        "द्"
      ],
      [
        "उ",
        "म्मी"
      ],
      [
        "क",
        "हां"
      ],
      [
        "घ",
        "ो"
      ],
      [
        "छ",
        "ू"
      ],
      [
        "थ",
        "ि"
      ],
      [
        "प",
        "क्ष"
      ],
      [
        "फ",
        "र"
      ],
      [
        "ह",
        "त"
      ],
      [
        "ू",
        "ँ"
      ],
      [
        "ने",
        "ट"
      ],
      [
        "ता",
        "ओं"
      ],
      [
        "भी",
        "तर"
      ],
      [
        "कि",
        "ताब"
      ],
      [
        "जा",
        "कर"
      ],
      [
        "प्र",
        "भाव"
      ],
      [
        "प्र",
        "मुख"
      ],
      [
        "दि",
        "ख"
      ],
      [
        "पा",
        "कि"
      ],
      [
        "दो",
        "लन"
      ],
      [
        "धि",
        "त"
      ],
      [
        "वार",
        "्"
      ],
      [
        "मिल",
        "ने"
      ],
      [
        "जन",
        "ता"
      ],
      [
        "वर्",
        "ण"
      ],
      [
        "जाए",
        "गी"
      ],
      [
        "ध्य",
        "म"
      ],
      [
        "फो",
        "न"
      ],
      [
        "अस्",
        "पता"
      ],
      [
        "वज",
        "ह"
      ],
      [
        "भूमि",
        "का"
      ],
      [
        "पुरु",
        "ष"
      ],
      [
        "अ",
        "ने"
      ],
      [
        "आ",
        "दि"
      ],
      [
        "इ",
        "तिहा"
      ],
      [
        "उ",
        "म"
      ],
      [
        "ए",
        "ल"
      ],
      [
        "ख",
        "ंड"
      ],
      [
        "ख",
        "बर"
      ],
      [
        "च",
        "ित"
      ],
      [
        "छ",
        "ि"
      ],
      [
        "ज",
        "मी"
      ],
      [
        "ट",
        "्टी"
      ],
      [
        "ढ",
        "ा"
      ],
      [
        "द",
        "स"
      ],
      [
        "न",
        "ै"
      ],
      [
        "प",
        "ित"
      ],
      [
        "ब",
        "ं"
      ],
      [
        "ब",
        "ॉ"
      ],
      [
        "ब",
        "हा"
      ],
      [
        "ब",
        "न्"
      ],
      [
        "ब",
        "नी"
      ],
      [
        "म",
        "द"
      ],
      [
        "म",
        "स्"
      ],
      [
        "म",
        "र्"
      ],
      [
        "म",
        "ारी"
      ],
      [
        "स",
        "प"
      ],
      [
        "हो",
        "कर"
      ],
      [
        "वि",
        "धा"
      ],
      [
        "ड़",
        "ों"
      ],
      [
        "सं",
        "भव"
      ],
      [
        "त्र",
        "ों"
      ],
      [
        "सि",
        "ल"
      ],
      [
        "खा",
        "स"
      ],
      [
        "वे",
        "ब"
      ],
      [
        "रि",
        "पोर्ट"
      ],
      [
        "रहे",
        "गा"
      ],
      [
        "शि",
        "श"
      ],
      [
        "ज़",
        "ि"
      ],
      [
        "लगा",
        "तार"
      ],
      [
        "डि",
        "यो"
      ],
      [
        "माम",
        "ला"
      ],
      [
        "क्यों",
        "कि"
      ],
      [
        "स्वा",
        "मी"
      ],
      [
        "जै",
        "सा"
      ],
      [
        "बेह",
        "द"
      ],
      [
        "हाला",
        "ंकि"
      ],
      [
        "अस्पता",
        "ल"
      ],
      [
        "इतिहा",
        "स"
      ],
      [
        "अ",
        "र्"
      ],
      [
        "इ",
        "ल"
      ],
      [
        "इ",
        "ंत"
      ],
      [
        "च",
        "ढ़"
      ],
      [
        "ड",
        "ॉ"
      ],
      [
        "न",
        "गर"
      ],
      [
        "व",
        "क्त"
      ],
      [
        "श",
        "क"
      ],
      [
        "ें",
        "ट"
      ],
      [
        "ता",
        "न"
      ],
      [
        "को",
        "शिश"
      ],
      [
        "प्र",
        "ो"
      ],
      [
        "प्र",
        "ती"
      ],
      [
        "वि",
        "भिन्न"
      ],
      [
        "त्",
        "त"
      ],
      [
        "मु",
        "स्"
      ],
      [
        "त्र",
        "ि"
      ],
      [
        "हि",
        "त"
      ],
      [
        "कार",
        "ों"
      ],
      [
        "शा",
        "दी"
      ],
      [
        "सु",
        "ना"
      ],
      [
        "खा",
        "ने"
      ],
      [
        "िया",
        "ँ"
      ],
      [
        "ब्",
        "लॉ"
      ],
      [
        "बना",
        "या"
      ],
      [
        "मत",
        "लब"
      ],
      [
        "स्वा",
        "स्थ"
      ],
      [
        "बंध",
        "न"
      ],
      [
        "तुम्ह",
        "ें"
      ],
      [
        "मुख्य",
        "मंत्री"
      ],
      [
        "सुर",
        "क्षा"
      ],
      [
        "विरो",
        "ध"
      ],
      [
        "पिछ",
        "ले"
      ],
      [
        "क",
        "मी"
      ],
      [
        "क",
        "ेंद्र"
      ],
      [
        "घ",
        "ं"
      ],
      [
        "ट",
        "ै"
      ],
      [
        "द",
        "बा"
      ],
      [
        "फ",
        "र्"
      ],
      [
        "य",
        "ें"
      ],
      [
        "ल",
        "त"
      ],
      [
        "व",
        "स"
      ],
      [
        "स",
        "व"
      ],
      [
        "ह",
        "वा"
      ],
      [
        "ै",
        "र"
      ],
      [
        "का",
        "ं"
      ],
      [
        "या",
        "नी"
      ],
      [
        "ला",
        "इ"
      ],
      [
        "ला",
        "इन"
      ],
      [
        "जा",
        "ति"
      ],
      [
        "वा",
        "दी"
      ],
      [
        "रा",
        "व"
      ],
      [
        "नी",
        "य"
      ],
      [
        "पा",
        "ंच"
      ],
      [
        "सम",
        "ान"
      ],
      [
        "सम",
        "र्थ"
      ],
      [
        "जि",
        "ंदगी"
      ],
      [
        "उन",
        "से"
      ],
      [
        "पह",
        "चान"
      ],
      [
        "म्",
        "मे"
      ],
      [
        "सू",
        "र"
      ],
      [
        "यु",
        "वा"
      ],
      [
        "सम्",
        "मान"
      ],
      [
        "सद",
        "स्"
      ],
      [
        "राष्ट",
        "्र"
      ],
      [
        "साइ",
        "ट"
      ],
      [
        "थो",
        "ड़ी"
      ],
      [
        "परे",
        "शान"
      ],
      [
        "खू",
        "ब"
      ],
      [
        "मनु",
        "ष्य"
      ],
      [
        "उम्मी",
        "द"
      ],
      [
        "अ",
        "भ"
      ],
      [
        "क",
        "ने"
      ],
      [
        "ग",
        "्री"
      ],
      [
        "ज",
        "ें"
      ],
      [
        "द",
        "य"
      ],
      [
        "द",
        "ल"
      ],
      [
        "ध",
        "्"
      ],
      [
        "य",
        "हीं"
      ],
      [
        "ो",
        "ह"
      ],
      [
        "या",
        "न"
      ],
      [
        "कर",
        "वा"
      ],
      [
        "ना",
        "थ"
      ],
      [
        "भी",
        "र"
      ],
      [
        "ला",
        "ई"
      ],
      [
        "ले",
        "ट"
      ],
      [
        "वा",
        "स्त"
      ],
      [
        "रा",
        "य"
      ],
      [
        "वि",
        "धि"
      ],
      [
        "मा",
        "ध्यम"
      ],
      [
        "नि",
        "य"
      ],
      [
        "त्",
        "मा"
      ],
      [
        "जि",
        "न"
      ],
      [
        "सि",
        "र"
      ],
      [
        "बि",
        "ल्"
      ],
      [
        "स्ट",
        "र"
      ],
      [
        "चे",
        "हरे"
      ],
      [
        "जान",
        "ते"
      ],
      [
        "पे",
        "श"
      ],
      [
        "अधि",
        "कारी"
      ],
      [
        "जब",
        "कि"
      ],
      [
        "दर्",
        "द"
      ],
      [
        "इसी",
        "लिए"
      ],
      [
        "गल",
        "त"
      ],
      [
        "कंप",
        "नी"
      ],
      [
        "महत्व",
        "पूर्ण"
      ],
      [
        "इन्ह",
        "ें"
      ],
      [
        "उपलब्",
        "ध"
      ],
      [
        "प्रया",
        "स"
      ],
      [
        "अने",
        "क"
      ],
      [
        "अ",
        "ंदर"
      ],
      [
        "क",
        "ठ"
      ],
      [
        "क",
        "ल्प"
      ],
      [
        "ग",
        "ढ़"
      ],
      [
        "त",
        "ः"
      ],
      [
        "त",
        "भी"
      ],
      [
        "न",
        "ज़"
      ],
      [
        "न",
        "ारा"
      ],
      [
        "म",
        "ण"
      ],
      [
        "स",
        "चि"
      ],
      [
        "ि",
        "श"
      ],
      [
        "स्",
        "तक"
      ],
      [
        "र्",
        "स"
      ],
      [
        "पर",
        "ं"
      ],
      [
        "सा",
        "य"
      ],
      [
        "ले",
        "ने"
      ],
      [
        "प्र",
        "त्य"
      ],
      [
        "वि",
        "वाह"
      ],
      [
        "ड़",
        "क"
      ],
      [
        "सी",
        "मा"
      ],
      [
        "मै",
        "ने"
      ],
      [
        "कु",
        "मार"
      ],
      [
        "ल्",
        "ला"
      ],
      [
        "जि",
        "म्मे"
      ],
      [
        "इन",
        "का"
      ],
      [
        "लग",
        "भग"
      ],
      [
        "दु",
        "र्"
      ],
      [
        "परि",
        "णा"
      ],
      [
        "वर्",
        "ग"
      ],
      [
        "मौ",
        "के"
      ],
      [
        "उप",
        "योग"
      ],
      [
        "दर्",
        "ज"
      ],
      [
        "समझ",
        "ा"
      ],
      [
        "सर्",
        "व"
      ],
      [
        "पढ़",
        "ा"
      ],
      [
        "करे",
        "गा"
      ],
      [
        "पत्",
        "थ"
      ],
      [
        "करी",
        "ब"
      ],
      [
        "सल",
        "मान"
      ],
      [
        "दृ",
        "ष्टि"
      ],
      [
        "स्वास्थ",
        "्य"
      ],
      [
        "ं",
        "ता"
      ],
      [
        "अ",
        "त्य"
      ],
      [
        "आ",
        "ग"
      ],
      [
        "आ",
        "त्म"
      ],
      [
        "क",
        "हाँ"
      ],
      [
        "च",
        "ंद"
      ],
      [
        "ज",
        "मा"
      ],
      [
        "ड",
        "ू"
      ],
      [
        "त",
        "ृ"
      ],
      [
        "ब",
        "ई"
      ],
      [
        "म",
        "री"
      ],
      [
        "स",
        "च्"
      ],
      [
        "ह",
        "ल"
      ],
      [
        "े",
        "क"
      ],
      [
        "ौ",
        "ल"
      ],
      [
        "स्",
        "ती"
      ],
      [
        "स्",
        "त्री"
      ],
      [
        "भी",
        "ड़"
      ],
      [
        "क्",
        "ट"
      ],
      [
        "रा",
        "हु"
      ],
      [
        "न्",
        "तु"
      ],
      [
        "ति",
        "क"
      ],
      [
        "दि",
        "यों"
      ],
      [
        "सं",
        "ख्या"
      ],
      [
        "मु",
        "ं"
      ],
      [
        "ंग",
        "ी"
      ],
      [
        "क्ष",
        "क"
      ],
      [
        "दो",
        "स्त"
      ],
      [
        "पू",
        "र"
      ],
      [
        "फि",
        "ल"
      ],
      [
        "च्",
        "छा"
      ],
      [
        "गु",
        "ण"
      ],
      [
        "देख",
        "ते"
      ],
      [
        "सू",
        "स"
      ],
      [
        "ष्ट",
        "ा"
      ],
      [
        "चल",
        "ता"
      ],
      [
        "मह",
        "सूस"
      ],
      [
        "कम",
        "रे"
      ],
      [
        "बै",
        "ंक"
      ],
      [
        "जरू",
        "री"
      ],
      [
        "त्म",
        "क"
      ],
      [
        "व्या",
        "पार"
      ],
      [
        "साह",
        "ब"
      ],
      [
        "बच",
        "पन"
      ],
      [
        "आन",
        "ंद"
      ],
      [
        "अमेरि",
        "का"
      ],
      [
        "गं",
        "भीर"
      ],
      [
        "मद",
        "द"
      ],
      [
        "परिणा",
        "म"
      ],
      [
        "अ",
        "ला"
      ],
      [
        "अ",
        "चान"
      ],
      [
        "आ",
        "कर"
      ],
      [
        "क",
        "म्"
      ],
      [
        "घ",
        "ू"
      ],
      [
        "झ",
        "ु"
      ],
      [
        "ट",
        "न"
      ],
      [
        "ट",
        "ों"
      ],
      [
        "न",
        "ज"
      ],
      [
        "ब",
        "ल्"
      ],
      [
        "म",
        "ल"
      ],
      [
        "म",
        "जब"
      ],
      [
        "श",
        "व"
      ],
      [
        "स",
        "त्य"
      ],
      [
        "्र",
        "ो"
      ],
      [
        "ना",
        "ग"
      ],
      [
        "र्",
        "ति"
      ],
      [
        "कि",
        "स्"
      ],
      [
        "ला",
        "या"
      ],
      [
        "जा",
        "ओ"
      ],
      [
        "प्र",
        "ार"
      ],
      [
        "प्र",
        "काश"
      ],
      [
        "वि",
        "ज्ञान"
      ],
      [
        "ते",
        "ज"
      ],
      [
        "बा",
        "की"
      ],
      [
        "मि",
        "क"
      ],
      [
        "सं",
        "घ"
      ],
      [
        "उस",
        "में"
      ],
      [
        "जी",
        "त"
      ],
      [
        "जि",
        "क"
      ],
      [
        "सु",
        "धार"
      ],
      [
        "वे",
        "द"
      ],
      [
        "मान",
        "व"
      ],
      [
        "टी",
        "वी"
      ],
      [
        "क्र",
        "ो"
      ],
      [
        "देख",
        "कर"
      ],
      [
        "ब्",
        "ला"
      ],
      [
        "वर",
        "ण"
      ],
      [
        "अनु",
        "भव"
      ],
      [
        "पै",
        "दा"
      ],
      [
        "दिखा",
        "ई"
      ],
      [
        "विष",
        "य"
      ],
      [
        "आवश्य",
        "कता"
      ],
      [
        "शिका",
        "यत"
      ],
      [
        "पाकि",
        "स्तान"
      ],
      [
        "अचान",
        "क"
      ],
      [
        "मजब",
        "ू"
      ],
      [
        "ँ",
        "व"
      ],
      [
        "ं",
        "दा"
      ],
      [
        "अ",
        "क्"
      ],
      [
        "इ",
        "ंड"
      ],
      [
        "उ",
        "ल"
      ],
      [
        "उ",
        "तर"
      ],
      [
        "ए",
        "न"
      ],
      [
        "ख",
        "ें"
      ],
      [
        "ग",
        "म"
      ],
      [
        "प",
        "ण"
      ],
      [
        "प",
        "ड़ी"
      ],
      [
        "ब",
        "ढ"
      ],
      [
        "ब",
        "त"
      ],
      [
        "ब",
        "र्"
      ],
      [
        "म",
        "न्"
      ],
      [
        "म",
        "ंड"
      ],
      [
        "ल",
        "क्ष"
      ],
      [
        "श",
        "्रे"
      ],
      [
        "स",
        "मु"
      ],
      [
        "स",
        "दा"
      ],
      [
        "या",
        "लय"
      ],
      [
        "कि",
        "त्"
      ],
      [
        "कि",
        "तने"
      ],
      [
        "सा",
        "मा"
      ],
      [
        "प्र",
        "दान"
      ],
      [
        "प्र",
        "धान"
      ],
      [
        "प्र",
        "क्रिया"
      ],
      [
        "ते",
        "ल"
      ],
      [
        "्य",
        "ता"
      ],
      [
        "बा",
        "व"
      ],
      [
        "नि",
        "का"
      ],
      [
        "त्",
        "ति"
      ],
      [
        "चा",
        "य"
      ],
      [
        "क्ष",
        "ि"
      ],
      [
        "दी",
        "प"
      ],
      [
        "दा",
        "य"
      ],
      [
        "ल्",
        "ड"
      ],
      [
        "सि",
        "द्ध"
      ],
      [
        "शि",
        "त"
      ],
      [
        "बि",
        "ल"
      ],
      [
        "चु",
        "प"
      ],
      [
        "चार",
        "ों"
      ],
      [
        "मिल",
        "ती"
      ],
      [
        "खु",
        "शी"
      ],
      [
        "चि",
        "कित्"
      ],
      [
        "शी",
        "ल"
      ],
      [
        "स्व",
        "रूप"
      ],
      [
        "खो",
        "ल"
      ],
      [
        "कान",
        "ून"
      ],
      [
        "नौ",
        "करी"
      ],
      [
        "आं",
        "दोलन"
      ],
      [
        "मूल",
        "्य"
      ],
      [
        "पहुं",
        "चे"
      ],
      [
        "आरो",
        "पी"
      ],
      [
        "प्रभा",
        "वित"
      ],
      [
        "उम",
        "्र"
      ],
      [
        "अला",
        "वा"
      ],
      [
        "अ",
        "ंग"
      ],
      [
        "अ",
        "परा"
      ],
      [
        "आ",
        "इ"
      ],
      [
        "च",
        "र"
      ],
      [
        "ज",
        "हाँ"
      ],
      [
        "ठ",
        "न"
      ],
      [
        "ठ",
        "े"
      ],
      [
        "ध",
        "ो"
      ],
      [
        "न",
        "दी"
      ],
      [
        "ब",
        "जे"
      ],
      [
        "य",
        "दा"
      ],
      [
        "र",
        "ोग"
      ],
      [
        "श",
        "ू"
      ],
      [
        "ि",
        "न"
      ],
      [
        "ि",
        "ता"
      ],
      [
        "कर",
        "नी"
      ],
      [
        "को",
        "र्ट"
      ],
      [
        "ान",
        "ि"
      ],
      [
        "ला",
        "ने"
      ],
      [
        "सा",
        "ं"
      ],
      [
        "सा",
        "ई"
      ],
      [
        "लि",
        "यों"
      ],
      [
        "प्र",
        "स्तु"
      ],
      [
        "रा",
        "जा"
      ],
      [
        "रा",
        "स्ता"
      ],
      [
        "वि",
        "देश"
      ],
      [
        "दे",
        "वी"
      ],
      [
        "गा",
        "ड़ी"
      ],
      [
        "तो",
        "ड़"
      ],
      [
        "मि",
        "त्र"
      ],
      [
        "पा",
        "या"
      ],
      [
        "मु",
        "ला"
      ],
      [
        "मु",
        "श्"
      ],
      [
        "मु",
        "सलमान"
      ],
      [
        "सि",
        "त"
      ],
      [
        "खा",
        "ली"
      ],
      [
        "तु",
        "र"
      ],
      [
        "ज़",
        "ी"
      ],
      [
        "इन",
        "की"
      ],
      [
        "क्र",
        "ी"
      ],
      [
        "गु",
        "ज"
      ],
      [
        "कह",
        "ना"
      ],
      [
        "शु",
        "भ"
      ],
      [
        "मिल",
        "ता"
      ],
      [
        "प्रा",
        "ण"
      ],
      [
        "अं",
        "तर"
      ],
      [
        "बैठ",
        "क"
      ],
      [
        "लड़",
        "की"
      ],
      [
        "भो",
        "जन"
      ],
      [
        "विद्या",
        "लय"
      ],
      [
        "इंत",
        "जार"
      ],
      [
        "घं",
        "टे"
      ],
      [
        "राहु",
        "ल"
      ],
      [
        "ं",
        "तर"
      ],
      [
        "अ",
        "द्"
      ],
      [
        "इ",
        "क"
      ],
      [
        "उ",
        "पा"
      ],
      [
        "ऊ",
        "ँ"
      ],
      [
        "ख",
        "ड़ा"
      ],
      [
        "ग",
        "ार"
      ],
      [
        "च",
        "रण"
      ],
      [
        "ट",
        "का"
      ],
      [
        "त",
        "ारी"
      ],
      [
        "थ",
        "म"
      ],
      [
        "न",
        "व"
      ],
      [
        "ब",
        "धा"
      ],
      [
        "म",
        "ंगल"
      ],
      [
        "व",
        "ती"
      ],
      [
        "स",
        "ारा"
      ],
      [
        "्",
        "त"
      ],
      [
        "की",
        "मत"
      ],
      [
        "से",
        "ना"
      ],
      [
        "कि",
        "ये"
      ],
      [
        "कि",
        "यों"
      ],
      [
        "सा",
        "ंस"
      ],
      [
        "जा",
        "म"
      ],
      [
        "ले",
        "ना"
      ],
      [
        "वा",
        "पस"
      ],
      [
        "प्र",
        "का"
      ],
      [
        "प्र",
        "माण"
      ],
      [
        "रा",
        "शि"
      ],
      [
        "ते",
        "रे"
      ],
      [
        "न्",
        "त"
      ],
      [
        "न्",
        "यू"
      ],
      [
        "दे",
        "ती"
      ],
      [
        "ति",
        "म"
      ],
      [
        "पा",
        "ई"
      ],
      [
        "मु",
        "ंह"
      ],
      [
        "मे",
        "ल"
      ],
      [
        "सम",
        "ी"
      ],
      [
        "क्ष",
        "मता"
      ],
      [
        "रो",
        "ज"
      ],
      [
        "वी",
        "र"
      ],
      [
        "देख",
        "ी"
      ],
      [
        "परि",
        "वर्"
      ],
      [
        "चि",
        "ंता"
      ],
      [
        "मो",
        "बा"
      ],
      [
        "मन",
        "ो"
      ],
      [
        "पे",
        "ट"
      ],
      [
        "चाहि",
        "ये"
      ],
      [
        "पहु",
        "ँच"
      ],
      [
        "जिस",
        "से"
      ],
      [
        "धार",
        "ण"
      ],
      [
        "अन्",
        "ना"
      ],
      [
        "करा",
        "या"
      ],
      [
        "श्र",
        "द्धा"
      ],
      [
        "मिले",
        "गा"
      ],
      [
        "बेह",
        "तर"
      ],
      [
        "आस",
        "ान"
      ],
      [
        "मृ",
        "त्य"
      ],
      [
        "अके",
        "ले"
      ],
      [
        "प्रि",
        "य"
      ],
      [
        "ं",
        "ज"
      ],
      [
        "इ",
        "तनी"
      ],
      [
        "ई",
        "श्वर"
      ],
      [
        "ऊ",
        "ं"
      ],
      [
        "ए",
        "क्"
      ],
      [
        "ख",
        "त्म"
      ],
      [
        "ट",
        "ने"
      ],
      [
        "त",
        "ें"
      ],
      [
        "प",
        "र्य"
      ],
      [
        "प",
        "न्न"
      ],
      [
        "फ",
        "्र"
      ],
      [
        "म",
        "ध्य"
      ],
      [
        "स",
        "ान"
      ],
      [
        "ह",
        "ॉ"
      ],
      [
        "ह",
        "त्या"
      ],
      [
        "ि",
        "का"
      ],
      [
        "ू",
        "ं"
      ],
      [
        "का",
        "त"
      ],
      [
        "सा",
        "ध"
      ],
      [
        "ले",
        "ते"
      ],
      [
        "प्र",
        "कृति"
      ],
      [
        "रा",
        "ह"
      ],
      [
        "मा",
        "ता"
      ],
      [
        "बा",
        "जी"
      ],
      [
        "नि",
        "जी"
      ],
      [
        "नि",
        "काल"
      ],
      [
        "नि",
        "श्च"
      ],
      [
        "पा",
        "ठ"
      ],
      [
        "दा",
        "स"
      ],
      [
        "जि",
        "से"
      ],
      [
        "उन",
        "में"
      ],
      [
        "सु",
        "ख"
      ],
      [
        "पू",
        "जा"
      ],
      [
        "पु",
        "स्तक"
      ],
      [
        "ज़",
        "रू"
      ],
      [
        "बे",
        "टा"
      ],
      [
        "सर",
        "कारी"
      ],
      [
        "चार",
        "ण"
      ],
      [
        "कृ",
        "ष्ण"
      ],
      [
        "अनु",
        "सार"
      ],
      [
        "रख",
        "ने"
      ],
      [
        "जिस",
        "के"
      ],
      [
        "हाथ",
        "ों"
      ],
      [
        "बैठ",
        "े"
      ],
      [
        "किस",
        "ान"
      ],
      [
        "विष",
        "्य"
      ],
      [
        "अध्य",
        "यन"
      ],
      [
        "गिर",
        "फ्"
      ],
      [
        "पुरा",
        "ने"
      ],
      [
        "अधिकार",
        "ियों"
      ],
      [
        "पत्थ",
        "र"
      ],
      [
        "सामा",
        "जिक"
      ],
      [
        "मुश्",
        "किल"
      ],
      [
        "बधा",
        "ई"
      ],
      [
        "मृत्य",
        "ु"
      ],
      [
        "आ",
        "शा"
      ],
      [
        "इ",
        "यों"
      ],
      [
        "इ",
        "च्छा"
      ],
      [
        "उ",
        "ड़"
      ],
      [
        "क",
        "ही"
      ],
      [
        "क",
        "दम"
      ],
      [
        "ग",
        "ें"
      ],
      [
        "ज",
        "ता"
      ],
      [
        "ज",
        "हां"
      ],
      [
        "ढ",
        "े"
      ],
      [
        "द",
        "ों"
      ],
      [
        "द",
        "वा"
      ],
      [
        "ध",
        "ारा"
      ],
      [
        "न",
        "ल"
      ],
      [
        "ब",
        "यान"
      ],
      [
        "भ",
        "क्ति"
      ],
      [
        "भ",
        "विष्य"
      ],
      [
        "ल",
        "ड"
      ],
      [
        "स",
        "न्"
      ],
      [
        "ह",
        "ं"
      ],
      [
        "ह",
        "क"
      ],
      [
        "े",
        "श"
      ],
      [
        "ता",
        "कत"
      ],
      [
        "ना",
        "क"
      ],
      [
        "सा",
        "फ"
      ],
      [
        "हा",
        "ई"
      ],
      [
        "वा",
        "सी"
      ],
      [
        "प्र",
        "स्ता"
      ],
      [
        "प्र",
        "बंधन"
      ],
      [
        "गा",
        "ँव"
      ],
      [
        "दि",
        "वस"
      ],
      [
        "नि",
        "यों"
      ],
      [
        "नि",
        "यम"
      ],
      [
        "सं",
        "चा"
      ],
      [
        "सं",
        "तु"
      ],
      [
        "रो",
        "क"
      ],
      [
        "श्",
        "न"
      ],
      [
        "बि",
        "ज"
      ],
      [
        "बे",
        "टी"
      ],
      [
        "इन",
        "के"
      ],
      [
        "गई",
        "ं"
      ],
      [
        "लग",
        "ती"
      ],
      [
        "वी",
        "ं"
      ],
      [
        "लगा",
        "या"
      ],
      [
        "टा",
        "इ"
      ],
      [
        "खु",
        "ल"
      ],
      [
        "खु",
        "ला"
      ],
      [
        "मो",
        "हन"
      ],
      [
        "बना",
        "ए"
      ],
      [
        "मह",
        "ान"
      ],
      [
        "यु",
        "ग"
      ],
      [
        "फ़",
        "ा"
      ],
      [
        "मौ",
        "सम"
      ],
      [
        "जे",
        "ल"
      ],
      [
        "रख",
        "ें"
      ],
      [
        "चाह",
        "े"
      ],
      [
        "यं",
        "त्र"
      ],
      [
        "सह",
        "योग"
      ],
      [
        "करे",
        "गी"
      ],
      [
        "तुम्ह",
        "ारे"
      ],
      [
        "्यू",
        "टर"
      ],
      [
        "फै",
        "सला"
      ],
      [
        "कृति",
        "क"
      ],
      [
        "इं",
        "टर"
      ],
      [
        "मार्",
        "ग"
      ],
      [
        "श्च",
        "र्य"
      ],
      [
        "युव",
        "क"
      ],
      [
        "परी",
        "क्षा"
      ],
      [
        "खरी",
        "द"
      ],
      [
        "सहा",
        "यता"
      ],
      [
        "उच्",
        "चारण"
      ],
      [
        "ज्य",
        "ो"
      ],
      [
        "जमी",
        "न"
      ],
      [
        "वास्त",
        "व"
      ],
      [
        "नज़",
        "र"
      ],
      [
        "फिल",
        "हाल"
      ],
      [
        "ष्टा",
        "चार"
      ],
      [
        "बाव",
        "जूद"
      ],
      [
        "अ",
        "स"
      ],
      [
        "अ",
        "सल"
      ],
      [
        "आ",
        "देश"
      ],
      [
        "आ",
        "श्चर्य"
      ],
      [
        "इ",
        "तने"
      ],
      [
        "ख",
        "ड़े"
      ],
      [
        "च",
        "य"
      ],
      [
        "ज",
        "ंग"
      ],
      [
        "झ",
        "ू"
      ],
      [
        "झ",
        "े"
      ],
      [
        "द",
        "ेंगे"
      ],
      [
        "न",
        "ती"
      ],
      [
        "न",
        "ये"
      ],
      [
        "ब",
        "ज"
      ],
      [
        "भ",
        "ै"
      ],
      [
        "भ",
        "री"
      ],
      [
        "भ",
        "रो"
      ],
      [
        "भ",
        "ूल"
      ],
      [
        "र",
        "वि"
      ],
      [
        "श",
        "ल"
      ],
      [
        "स",
        "जा"
      ],
      [
        "स",
        "न्न"
      ],
      [
        "ह",
        "ें"
      ],
      [
        "ह",
        "रि"
      ],
      [
        "ि",
        "ए"
      ],
      [
        "्र",
        "वाई"
      ],
      [
        "कि",
        "तना"
      ],
      [
        "हो",
        "नी"
      ],
      [
        "ला",
        "स"
      ],
      [
        "सा",
        "स"
      ],
      [
        "प्र",
        "ी"
      ],
      [
        "वि",
        "वे"
      ],
      [
        "मा",
        "त्र"
      ],
      [
        "नि",
        "वार"
      ],
      [
        "रह",
        "ना"
      ],
      [
        "रह",
        "ेंगे"
      ],
      [
        "त्",
        "कार"
      ],
      [
        "सं",
        "त"
      ],
      [
        "सं",
        "सार"
      ],
      [
        "मु",
        "द्"
      ],
      [
        "मै",
        "च"
      ],
      [
        "कार",
        "्रवाई"
      ],
      [
        "जि",
        "ए"
      ],
      [
        "पु",
        "त्र"
      ],
      [
        "मान",
        "ी"
      ],
      [
        "शि",
        "कार"
      ],
      [
        "हर",
        "ण"
      ],
      [
        "बि",
        "क"
      ],
      [
        "बि",
        "त"
      ],
      [
        "बि",
        "हार"
      ],
      [
        "ज़",
        "ार"
      ],
      [
        "सब",
        "के"
      ],
      [
        "बात",
        "ची"
      ],
      [
        "ंड",
        "े"
      ],
      [
        "दु",
        "ख"
      ],
      [
        "शु",
        "क्र"
      ],
      [
        "मं",
        "च"
      ],
      [
        "मं",
        "त्र"
      ],
      [
        "बन",
        "ने"
      ],
      [
        "बद",
        "ला"
      ],
      [
        "उत्",
        "पा"
      ],
      [
        "जिस",
        "में"
      ],
      [
        "चाह",
        "ती"
      ],
      [
        "अव",
        "सर"
      ],
      [
        "हे",
        "तु"
      ],
      [
        "हाल",
        "त"
      ],
      [
        "पर्",
        "क"
      ],
      [
        "श्र",
        "म"
      ],
      [
        "पत्",
        "नी"
      ],
      [
        "फो",
        "टो"
      ],
      [
        "नेता",
        "ओं"
      ],
      [
        "ब्र",
        "ह्"
      ],
      [
        "वृ",
        "द्धि"
      ],
      [
        "दृ",
        "श्य"
      ],
      [
        "भु",
        "त"
      ],
      [
        "अग",
        "ले"
      ],
      [
        "ज्ञा",
        "पन"
      ],
      [
        "शर्",
        "मा"
      ],
      [
        "सफल",
        "ता"
      ],
      [
        "माह",
        "ौल"
      ],
      [
        "गरी",
        "ब"
      ],
      [
        "अदा",
        "लत"
      ],
      [
        "क्रि",
        "केट"
      ],
      [
        "ब्लॉ",
        "ग"
      ],
      [
        "परिवर्",
        "तन"
      ],
      [
        "बातची",
        "त"
      ],
      [
        "अ",
        "जी"
      ],
      [
        "अ",
        "ंक"
      ],
      [
        "ख",
        "र"
      ],
      [
        "ख",
        "र्"
      ],
      [
        "ख",
        "राब"
      ],
      [
        "ज",
        "म"
      ],
      [
        "ट",
        "्"
      ],
      [
        "ड",
        "्"
      ],
      [
        "ण",
        "य"
      ],
      [
        "त",
        "स्वी"
      ],
      [
        "द",
        "क्षि"
      ],
      [
        "ध",
        "ानी"
      ],
      [
        "ध",
        "न्य"
      ],
      [
        "प",
        "ें"
      ],
      [
        "प",
        "ैसे"
      ],
      [
        "फ",
        "्ट"
      ],
      [
        "फ",
        "ूल"
      ],
      [
        "ब",
        "ारी"
      ],
      [
        "व",
        "री"
      ],
      [
        "ष",
        "ि"
      ],
      [
        "ष",
        "ित"
      ],
      [
        "स",
        "ृ"
      ],
      [
        "स",
        "वार"
      ],
      [
        "ह",
        "ल्"
      ],
      [
        "्र",
        "ि"
      ],
      [
        "ार",
        "ोह"
      ],
      [
        "स्",
        "से"
      ],
      [
        "कि",
        "तनी"
      ],
      [
        "क्",
        "का"
      ],
      [
        "क्",
        "लिक"
      ],
      [
        "सा",
        "द"
      ],
      [
        "सा",
        "गर"
      ],
      [
        "लि",
        "खा"
      ],
      [
        "प्र",
        "चार"
      ],
      [
        "प्र",
        "दर्शन"
      ],
      [
        "प्र",
        "शासन"
      ],
      [
        "प्र",
        "थम"
      ],
      [
        "प्र",
        "श्न"
      ],
      [
        "प्र",
        "सन्न"
      ],
      [
        "वि",
        "स्त"
      ],
      [
        "बा",
        "ल"
      ],
      [
        "बा",
        "बा"
      ],
      [
        "ति",
        "यों"
      ],
      [
        "नी",
        "ंद"
      ],
      [
        "रे",
        "ल"
      ],
      [
        "हि",
        "र"
      ],
      [
        "ल्",
        "स"
      ],
      [
        "शा",
        "ल"
      ],
      [
        "उन",
        "को"
      ],
      [
        "सु",
        "न्दर"
      ],
      [
        "दो",
        "नो"
      ],
      [
        "खा",
        "ना"
      ],
      [
        "मी",
        "ण"
      ],
      [
        "शि",
        "या"
      ],
      [
        "सर",
        "ल"
      ],
      [
        "बी",
        "र"
      ],
      [
        "बार",
        "िश"
      ],
      [
        "ंड",
        "ा"
      ],
      [
        "देख",
        "ें"
      ],
      [
        "देख",
        "ना"
      ],
      [
        "काम",
        "ना"
      ],
      [
        "चल",
        "ती"
      ],
      [
        "रख",
        "ना"
      ],
      [
        "निर्",
        "णय"
      ],
      [
        "पै",
        "सा"
      ],
      [
        "जग",
        "त"
      ],
      [
        "जै",
        "सी"
      ],
      [
        "लेख",
        "क"
      ],
      [
        "लेख",
        "न"
      ],
      [
        "अं",
        "तिम"
      ],
      [
        "तैया",
        "री"
      ],
      [
        "उठा",
        "या"
      ],
      [
        "महिला",
        "ओं"
      ],
      [
        "शब्द",
        "ों"
      ],
      [
        "ग्रा",
        "म"
      ],
      [
        "पहुं",
        "चा"
      ],
      [
        "फ़ि",
        "र"
      ],
      [
        "वार्",
        "ता"
      ],
      [
        "वेब",
        "साइट"
      ],
      [
        "मुं",
        "बई"
      ],
      [
        "मोबा",
        "इल"
      ],
      [
        "ज्यो",
        "ति"
      ],
      [
        "ं",
        "बर"
      ],
      [
        "आ",
        "योग"
      ],
      [
        "आ",
        "त्मा"
      ],
      [
        "उ",
        "तार"
      ],
      [
        "ख",
        "ान"
      ],
      [
        "ग",
        "ौर"
      ],
      [
        "ग",
        "ंगा"
      ],
      [
        "च",
        "क"
      ],
      [
        "च",
        "ारी"
      ],
      [
        "छ",
        "ह"
      ],
      [
        "ट",
        "िक"
      ],
      [
        "त",
        "माम"
      ],
      [
        "प",
        "श्"
      ],
      [
        "प",
        "ंच"
      ],
      [
        "म",
        "धु"
      ],
      [
        "र",
        "ान"
      ],
      [
        "स",
        "त्ता"
      ],
      [
        "ृ",
        "ह"
      ],
      [
        "े",
        "क्षा"
      ],
      [
        "ै",
        "ली"
      ],
      [
        "ें",
        "गी"
      ],
      [
        "ता",
        "छ"
      ],
      [
        "ना",
        "न"
      ],
      [
        "स्",
        "प"
      ],
      [
        "क्",
        "शन"
      ],
      [
        "लि",
        "ंग"
      ],
      [
        "वा",
        "णी"
      ],
      [
        "रा",
        "स्ते"
      ],
      [
        "ती",
        "नों"
      ],
      [
        "वि",
        "न"
      ],
      [
        "वि",
        "वाद"
      ],
      [
        "वि",
        "धान"
      ],
      [
        "बा",
        "बू"
      ],
      [
        "दि",
        "ये"
      ],
      [
        "नि",
        "शा"
      ],
      [
        "एक",
        "दम"
      ],
      [
        "पा",
        "ए"
      ],
      [
        "सी",
        "बी"
      ],
      [
        "सं",
        "स्था"
      ],
      [
        "सं",
        "सद"
      ],
      [
        "सं",
        "गीत"
      ],
      [
        "क्ष",
        "ित"
      ],
      [
        "हम",
        "ला"
      ],
      [
        "ल्",
        "म"
      ],
      [
        "जि",
        "ले"
      ],
      [
        "वह",
        "ार"
      ],
      [
        "तु",
        "ल"
      ],
      [
        "ढ़",
        "ी"
      ],
      [
        "मान",
        "ते"
      ],
      [
        "क्र",
        "े"
      ],
      [
        "गु",
        "ला"
      ],
      [
        "स्थ",
        "ानी"
      ],
      [
        "दू",
        "री"
      ],
      [
        "वी",
        "डियो"
      ],
      [
        "देख",
        "े"
      ],
      [
        "रु",
        "क"
      ],
      [
        "दु",
        "कान"
      ],
      [
        "सो",
        "चा"
      ],
      [
        "परि",
        "ष"
      ],
      [
        "यो",
        "गी"
      ],
      [
        "बु",
        "ध"
      ],
      [
        "न्द",
        "गी"
      ],
      [
        "प्रा",
        "चीन"
      ],
      [
        "बो",
        "र्ड"
      ],
      [
        "जु",
        "ड़े"
      ],
      [
        "निर्",
        "देश"
      ],
      [
        "पहु",
        "ँ"
      ],
      [
        "जिस",
        "का"
      ],
      [
        "यू",
        "ँ"
      ],
      [
        "छो",
        "टी"
      ],
      [
        "सम्",
        "बन्"
      ],
      [
        "स्वा",
        "गत"
      ],
      [
        "पर्",
        "व"
      ],
      [
        "लिख",
        "ने"
      ],
      [
        "दर",
        "वा"
      ],
      [
        "धु",
        "निक"
      ],
      [
        "ब्र",
        "ि"
      ],
      [
        "कार्",
        "यालय"
      ],
      [
        "भे",
        "ज"
      ],
      [
        "ग्रा",
        "मीण"
      ],
      [
        "राजनीति",
        "क"
      ],
      [
        "आवश्य",
        "क"
      ],
      [
        "भ्र",
        "ष्टाचार"
      ],
      [
        "आयो",
        "जित"
      ],
      [
        "बं",
        "धित"
      ],
      [
        "सिल",
        "सि"
      ],
      [
        "डॉ",
        "क्टर"
      ],
      [
        "बिल्",
        "कुल"
      ],
      [
        "कम्",
        "प"
      ],
      [
        "अक्",
        "सर"
      ],
      [
        "अद्",
        "भुत"
      ],
      [
        "दक्षि",
        "ण"
      ],
      [
        "ँ",
        "स"
      ],
      [
        "अ",
        "ख"
      ],
      [
        "अ",
        "ल"
      ],
      [
        "अ",
        "सर"
      ],
      [
        "उ",
        "ड़ा"
      ],
      [
        "ए",
        "का"
      ],
      [
        "ग",
        "हरा"
      ],
      [
        "ज",
        "नों"
      ],
      [
        "झ",
        "ी"
      ],
      [
        "ड",
        "्रा"
      ],
      [
        "द",
        "्रा"
      ],
      [
        "प",
        "ौ"
      ],
      [
        "प",
        "हर"
      ],
      [
        "फ",
        "ू"
      ],
      [
        "भ",
        "क्त"
      ],
      [
        "य",
        "ण"
      ],
      [
        "र",
        "स"
      ],
      [
        "ल",
        "र"
      ],
      [
        "ल",
        "ेंगे"
      ],
      [
        "व",
        "रि"
      ],
      [
        "व",
        "स्तु"
      ],
      [
        "श",
        "र"
      ],
      [
        "श",
        "नी"
      ],
      [
        "स",
        "का"
      ],
      [
        "स",
        "ें"
      ],
      [
        "ह",
        "ट"
      ],
      [
        "ह",
        "टा"
      ],
      [
        "ि",
        "की"
      ],
      [
        "का",
        "ली"
      ],
      [
        "ता",
        "ल"
      ],
      [
        "ना",
        "यक"
      ],
      [
        "र्",
        "क"
      ],
      [
        "र्",
        "जा"
      ],
      [
        "जा",
        "ग"
      ],
      [
        "वि",
        "जय"
      ],
      [
        "न्",
        "स"
      ],
      [
        "दि",
        "शा"
      ],
      [
        "नि",
        "र"
      ],
      [
        "नि",
        "भा"
      ],
      [
        "त्",
        "न"
      ],
      [
        "उस",
        "को"
      ],
      [
        "चा",
        "प"
      ],
      [
        "अप",
        "ेक्षा"
      ],
      [
        "सम",
        "ारोह"
      ],
      [
        "जि",
        "द"
      ],
      [
        "सि",
        "यों"
      ],
      [
        "शा",
        "ंति"
      ],
      [
        "सु",
        "नी"
      ],
      [
        "सु",
        "ंदर"
      ],
      [
        "दो",
        "पहर"
      ],
      [
        "पू",
        "ं"
      ],
      [
        "पू",
        "छा"
      ],
      [
        "रि",
        "क"
      ],
      [
        "तक",
        "नी"
      ],
      [
        "म्",
        "भ"
      ],
      [
        "क्र",
        "ा"
      ],
      [
        "स्ट",
        "्रे"
      ],
      [
        "बार",
        "ा"
      ],
      [
        "लग",
        "ते"
      ],
      [
        "राज",
        "स्थान"
      ],
      [
        "मं",
        "जू"
      ],
      [
        "आज",
        "कल"
      ],
      [
        "जाए",
        "ंगे"
      ],
      [
        "खि",
        "ल"
      ],
      [
        "बै",
        "ठी"
      ],
      [
        "योग",
        "्य"
      ],
      [
        "बु",
        "रा"
      ],
      [
        "उत्",
        "साह"
      ],
      [
        "टि",
        "ल"
      ],
      [
        "छो",
        "टे"
      ],
      [
        "बह",
        "न"
      ],
      [
        "पै",
        "र"
      ],
      [
        "भाग",
        "्य"
      ],
      [
        "ज्ञान",
        "िक"
      ],
      [
        "जरू",
        "र"
      ],
      [
        "पर्",
        "या"
      ],
      [
        "वै",
        "ज्ञानिक"
      ],
      [
        "शो",
        "क"
      ],
      [
        "शो",
        "र"
      ],
      [
        "पत्र",
        "कार"
      ],
      [
        "आस",
        "पास"
      ],
      [
        "मृ",
        "त"
      ],
      [
        "पक",
        "ड़"
      ],
      [
        "हाला",
        "त"
      ],
      [
        "रुप",
        "ये"
      ],
      [
        "जल्",
        "द"
      ],
      [
        "जल्",
        "दी"
      ],
      [
        "हजार",
        "ों"
      ],
      [
        "पूछ",
        "ताछ"
      ],
      [
        "सामान",
        "्य"
      ],
      [
        "आवा",
        "ज"
      ],
      [
        "उदा",
        "हरण"
      ],
      [
        "तला",
        "श"
      ],
      [
        "सूर",
        "ज"
      ],
      [
        "सदस्",
        "य"
      ],
      [
        "कठ",
        "िन"
      ],
      [
        "परं",
        "परा"
      ],
      [
        "प्रत्य",
        "ेक"
      ],
      [
        "मुला",
        "कात"
      ],
      [
        "प्रका",
        "शित"
      ],
      [
        "प्रस्ता",
        "व"
      ],
      [
        "संचा",
        "लन"
      ],
      [
        "स्थानी",
        "य"
      ],
      [
        "ँ",
        "ग"
      ],
      [
        "ं",
        "सी"
      ],
      [
        "ं",
        "तु"
      ],
      [
        "अ",
        "थ"
      ],
      [
        "अ",
        "र"
      ],
      [
        "आ",
        "र्थ"
      ],
      [
        "इ",
        "ंस"
      ],
      [
        "इ",
        "धर"
      ],
      [
        "उ",
        "ल्"
      ],
      [
        "ए",
        "च"
      ],
      [
        "ए",
        "फ"
      ],
      [
        "ए",
        "ंड"
      ],
      [
        "ग",
        "हरी"
      ],
      [
        "ज",
        "त"
      ],
      [
        "ज",
        "रु"
      ],
      [
        "ट",
        "्रा"
      ],
      [
        "ड",
        "ो"
      ],
      [
        "ध",
        "क"
      ],
      [
        "न",
        "ृ"
      ],
      [
        "प",
        "थ"
      ],
      [
        "प",
        "ॉ"
      ],
      [
        "प",
        "हा"
      ],
      [
        "ब",
        "ौ"
      ],
      [
        "ब",
        "ला"
      ],
      [
        "भ",
        "य"
      ],
      [
        "म",
        "क"
      ],
      [
        "र",
        "ता"
      ],
      [
        "ल",
        "म्"
      ],
      [
        "ल",
        "ड़ा"
      ],
      [
        "ह",
        "द"
      ],
      [
        "ह",
        "ृ"
      ],
      [
        "ह",
        "रिया"
      ],
      [
        "इस",
        "को"
      ],
      [
        "ले",
        "ज"
      ],
      [
        "वा",
        "यु"
      ],
      [
        "प्र",
        "णा"
      ],
      [
        "प्र",
        "शं"
      ],
      [
        "प्र",
        "साद"
      ],
      [
        "वि",
        "ध"
      ],
      [
        "मा",
        "या"
      ],
      [
        "मा",
        "स्टर"
      ],
      [
        "बा",
        "ग"
      ],
      [
        "नि",
        "ंग"
      ],
      [
        "नि",
        "वेश"
      ],
      [
        "मि",
        "यों"
      ],
      [
        "पा",
        "प"
      ],
      [
        "पा",
        "ता"
      ],
      [
        "पा",
        "ती"
      ],
      [
        "सं",
        "कट"
      ],
      [
        "सं",
        "बंधित"
      ],
      [
        "मु",
        "ना"
      ],
      [
        "मे",
        "हन"
      ],
      [
        "सम",
        "ू"
      ],
      [
        "सम",
        "र्"
      ],
      [
        "रे",
        "ट"
      ],
      [
        "कार",
        "ो"
      ],
      [
        "हम",
        "ले"
      ],
      [
        "सि",
        "या"
      ],
      [
        "सि",
        "खा"
      ],
      [
        "शा",
        "ह"
      ],
      [
        "शा",
        "ली"
      ],
      [
        "सु",
        "विधा"
      ],
      [
        "वे",
        "दन"
      ],
      [
        "रू",
        "म"
      ],
      [
        "शि",
        "क्षण"
      ],
      [
        "शि",
        "क्षक"
      ],
      [
        "बी",
        "त"
      ],
      [
        "स्थ",
        "ल"
      ],
      [
        "िया",
        "न"
      ],
      [
        "कह",
        "े"
      ],
      [
        "कह",
        "ने"
      ],
      [
        "खु",
        "ले"
      ],
      [
        "सो",
        "म"
      ],
      [
        "प्",
        "ति"
      ],
      [
        "ची",
        "ज"
      ],
      [
        "लो",
        "ड"
      ],
      [
        "वर्",
        "त"
      ],
      [
        "पि",
        "क"
      ],
      [
        "बु",
        "ला"
      ],
      [
        "शी",
        "र्ष"
      ],
      [
        "बढ़",
        "ती"
      ],
      [
        "वो",
        "ट"
      ],
      [
        "उप",
        "चार"
      ],
      [
        "बद",
        "ले"
      ],
      [
        "टि",
        "प्"
      ],
      [
        "स्था",
        "पित"
      ],
      [
        "खो",
        "ज"
      ],
      [
        "तना",
        "व"
      ],
      [
        "फिल्म",
        "ों"
      ],
      [
        "लिख",
        "ी"
      ],
      [
        "मू",
        "र्ति"
      ],
      [
        "तुम्ह",
        "ारी"
      ],
      [
        "धर",
        "ती"
      ],
      [
        "वृ",
        "त्ति"
      ],
      [
        "चो",
        "ट"
      ],
      [
        "पं",
        "जा"
      ],
      [
        "घा",
        "यल"
      ],
      [
        "जाये",
        "गा"
      ],
      [
        "संग",
        "ठन"
      ],
      [
        "सला",
        "ह"
      ],
      [
        "पुरा",
        "ना"
      ],
      [
        "आँ",
        "खों"
      ],
      [
        "आयो",
        "जन"
      ],
      [
        "स्वी",
        "कार"
      ],
      [
        "आत",
        "ंक"
      ],
      [
        "आवा",
        "ज़"
      ],
      [
        "पृ",
        "थ"
      ],
      [
        "पृ",
        "ष्ठ"
      ],
      [
        "सप",
        "ने"
      ],
      [
        "कल्प",
        "ना"
      ],
      [
        "सचि",
        "व"
      ],
      [
        "जिम्मे",
        "दार"
      ],
      [
        "तृ",
        "त्व"
      ],
      [
        "प्रार",
        "ंभ"
      ],
      [
        "संघ",
        "र्ष"
      ],
      [
        "तुर",
        "ंत"
      ],
      [
        "साध",
        "ना"
      ],
      [
        "ज़रू",
        "रत"
      ],
      [
        "मेहन",
        "त"
      ],
      [
        "ँ",
        "गा"
      ],
      [
        "अ",
        "नि"
      ],
      [
        "अ",
        "हम"
      ],
      [
        "आ",
        "ठ"
      ],
      [
        "आ",
        "ना"
      ],
      [
        "आ",
        "भार"
      ],
      [
        "आ",
        "काश"
      ],
      [
        "आ",
        "धुनिक"
      ],
      [
        "इ",
        "ंग"
      ],
      [
        "उ",
        "द्योग"
      ],
      [
        "ए",
        "ह"
      ],
      [
        "क",
        "पड़े"
      ],
      [
        "ख",
        "ण्ड"
      ],
      [
        "ग",
        "न"
      ],
      [
        "ग",
        "ै"
      ],
      [
        "च",
        "क्र"
      ],
      [
        "च",
        "लित"
      ],
      [
        "ज",
        "ला"
      ],
      [
        "त",
        "ट"
      ],
      [
        "प",
        "ान"
      ],
      [
        "फ",
        "ार्"
      ],
      [
        "ब",
        "रा"
      ],
      [
        "भ",
        "ला"
      ],
      [
        "म",
        "ज"
      ],
      [
        "म",
        "ॉ"
      ],
      [
        "म",
        "जा"
      ],
      [
        "म",
        "ती"
      ],
      [
        "म",
        "ति"
      ],
      [
        "र",
        "क्षा"
      ],
      [
        "व",
        "ली"
      ],
      [
        "ष",
        "ा"
      ],
      [
        "स",
        "मि"
      ],
      [
        "स",
        "मे"
      ],
      [
        "स",
        "हम"
      ],
      [
        "स",
        "ार्"
      ],
      [
        "स",
        "ड़क"
      ],
      [
        "ह",
        "ड़"
      ],
      [
        "ु",
        "क"
      ],
      [
        "ही",
        "न"
      ],
      [
        "कि",
        "न्तु"
      ],
      [
        "कि",
        "ंतु"
      ],
      [
        "हो",
        "ली"
      ],
      [
        "सा",
        "धारण"
      ],
      [
        "प्र",
        "सार"
      ],
      [
        "प्र",
        "कट"
      ],
      [
        "रा",
        "ग"
      ],
      [
        "वि",
        "द्य"
      ],
      [
        "ते",
        "जी"
      ],
      [
        "मा",
        "श"
      ],
      [
        "गा",
        "य"
      ],
      [
        "दि",
        "क"
      ],
      [
        "था",
        "ने"
      ],
      [
        "मि",
        "ट्टी"
      ],
      [
        "पा",
        "ये"
      ],
      [
        "त्",
        "सव"
      ],
      [
        "सं",
        "वाद"
      ],
      [
        "मु",
        "ँ"
      ],
      [
        "हि",
        "ंद"
      ],
      [
        "दा",
        "ई"
      ],
      [
        "ल्",
        "या"
      ],
      [
        "सु",
        "पर"
      ],
      [
        "दो",
        "ष"
      ],
      [
        "धि",
        "यों"
      ],
      [
        "बि",
        "ता"
      ],
      [
        "बे",
        "च"
      ],
      [
        "ंद",
        "न"
      ],
      [
        "जो",
        "ड़"
      ],
      [
        "बी",
        "स"
      ],
      [
        "परि",
        "स्थिति"
      ],
      [
        "परि",
        "चय"
      ],
      [
        "सू",
        "ची"
      ],
      [
        "जन",
        "क"
      ],
      [
        "छा",
        "त्र"
      ],
      [
        "बना",
        "ई"
      ],
      [
        "बना",
        "ना"
      ],
      [
        "व्य",
        "स्त"
      ],
      [
        "व्य",
        "वहार"
      ]
    ]
  }
}