{
  "version": "1.0",
  "truncation": null,
  "padding": null,
  "added_tokens": [
    {
      "id": 0,
      "content": "[PAD]",
      "single_word": false,
      "lstrip": false,
      "rstrip": false,
      "normalized": false,
      "special": true
    },
    {
      "id": 1,
      "content": "[UNK]",
      "single_word": false,
      "lstrip": false,
      "rstrip": false,
      "normalized": false,
      "special": true
    },
    {
      "id": 2,
      "content": "[BOS]",
      "single_word": false,
      "lstrip": false,
      "rstrip": false,
      "normalized": false,
      "special": true
    },
    {
      "id": 3,
      "content": "[EOS]",
      "single_word": false,
      "lstrip": false,
      "rstrip": false,
      "normalized": false,
      "special": true
    }
  ],
  "normalizer": null,
  "pre_tokenizer": {
    "type": "Whitespace"
  },
  "post_processor": null,
  "decoder": null,
  "model": {
    "type": "BPE",
    "dropout": null,
    "unk_token": "[UNK]",
    "continuing_subword_prefix": null,
    "end_of_word_suffix": null,
    "fuse_unk": false,
    "byte_fallback": false,
    "ignore_merges": false,
    "vocab": {
      "[PAD]": 0,
      "[UNK]": 1,
      "[BOS]": 2,
      "[EOS]": 3,
      "!": 4,
      "\"": 5,
      "'": 6,
      "(": 7,
      ")": 8,
      "+": 9,
      "-": 10,
      ".": 11,
      "/": 12,
      "0": 13,
      "1": 14,
      "2": 15,
      "3": 16,
      "4": 17,
      "5": 18,
      "7": 19,
      "8": 20,
      "9": 21,
      ":": 22,
      ";": 23,
      "<": 24,
      "=": 25,
      ">": 26,
      "?": 27,
      "\\": 28,
      "]": 29,
      "{": 30,
      "}": 31,
      "ª": 32,
      "Б": 33,
      "Г": 34,
      "а": 35,
      "в": 36,
      "е": 37,
      "з": 38,
      "и": 39,
      "к": 40,
      "р": 41,
      "у": 42,
      "ш": 43,
      "я": 44,
      "ا": 45,
      "س": 46,
      "ن": 47,
      "ک": 48,
      "ی": 49,
      "ँ": 50,
      "ं": 51,
      "ः": 52,
      "अ": 53,
      "आ": 54,
      "इ": 55,
      "ई": 56,
      "उ": 57,
      "ऊ": 58,
      "ऋ": 59,
      "ए": 60,
      "ऐ": 61,
      "ऑ": 62,
      "ओ": 63,
      "औ": 64,
      "क": 65,
      "ख": 66,
      "ग": 67,
      "घ": 68,
      "ङ": 69,
      "च": 70,
      "छ": 71,
      "ज": 72,
      "झ": 73,
      "ञ": 74,
      "ट": 75,
      "ठ": 76,
      "ड": 77,
      "ढ": 78,
      "ण": 79,
      "त": 80,
      "थ": 81,
      "द": 82,
      "ध": 83,
      "न": 84,
      "प": 85,
      "फ": 86,
      "ब": 87,
      "भ": 88,
      "म": 89,
      "य": 90,
      "र": 91,
      "ऱ": 92,
      "ल": 93,
      "व": 94,
      "श": 95,
      "ष": 96,
      "स": 97,
      "ह": 98,
      "ऺ": 99,
      "़": 100,
      "ा": 101,
      "ि": 102,
      "ी": 103,
      "ु": 104,
      "ू": 105,
      "ृ": 106,
      "ॅ": 107,
      "े": 108,
      "ै": 109,
      "ॉ": 110,
      "ॊ": 111,
      "ो": 112,
      "ौ": 113,
      "्": 114,
      "ॐ": 115,
      "क़": 116,
      "ख़": 117,
      "ग़": 118,
      "ज़": 119,
      "ड़": 120,
      "ढ़": 121,
      "फ़": 122,
      "।": 123,
      "‌": 124,
      "‍": 125,
      "’": 126,
      "ना": 127,
      "रे": 128,
      "का": 129,
      "को": 130,
      "ता": 131,
      "ते": 132,
      "रा": 133,
      "के": 134,
      "ने": 135,
      "जा": 136,
      "बा": 137,
      "ड़": 138,
      "दा": 139,
      "मे": 140,
      "ंग": 141,
      "नि": 142,
      "हो": 143,
      "ले": 144,
      "मा": 145,
      "गे": 146,
      "ला": 147,
      "या": 148,
      "सा": 149,
      "गा": 150,
      "रि": 151,
      "ति": 152,
      "दो": 153,
      "मि": 154,
      "से": 155,
      "आः": 156,
      "चि": 157,
      "सि": 158,
      "बे": 159,
      "ोः": 160,
      "अः": 161,
      "कु": 162,
      "ताइ": 163,
      "पा": 164,
      "्र": 165,
      "नेआ": 166,
      "सो": 167,
      "केना": 168,
      "इनि": 169,
      "मेना": 170,
      "वा": 171,
      "जि": 172,
      "कि": 173,
      "जाना": 174,
      "सु": 175,
      "र्": 176,
      "हा": 177,
      "एः": 178,
      "स्": 179,
      "मो": 180,
      "यो": 181,
      "दु": 182,
      "केदा": 183,
      "दि": 184,
      "इन": 185,
      "मेन": 186,
      "राः": 187,
      "पु": 188,
      "चा": 189,
      "टा": 190,
      "ताइकेना": 191,
      "होबा": 192,
      "लि": 193,
      "ड़ा": 194,
      "गो": 195,
      "लो": 196,
      "ड़ो": 197,
      "तु": 198,
      "बु": 199,
      "हि": 200,
      "नो": 201,
      "तान": 202,
      "ताना": 203,
      "लेका": 204,
      "रो": 205,
      "आञ": 206,
      "द्": 207,
      "वि": 208,
      "क्": 209,
      "रिका": 210,
      "नु": 211,
      "रआः": 212,
      "जु": 213,
      "जो": 214,
      "पे": 215,
      "सोबे": 216,
      "ड़ि": 217,
      "जी": 218,
      "ड़ा": 219,
      "इनिः": 220,
      "ओः": 221,
      "एन": 222,
      "रेआ": 223,
      "रेन": 224,
      "सोबेन": 225,
      "बि": 226,
      "गि": 227,
      "टे": 228,
      "री": 229,
      "आते": 230,
      "हु": 231,
      "मु": 232,
      "ड़ि": 233,
      "मेनाः": 234,
      "इंग": 235,
      "रू": 236,
      "तना": 237,
      "जना": 238,
      "प्र": 239,
      "एना": 240,
      "न्": 241,
      "बो": 242,
      "तन": 243,
      "कान": 244,
      "दे": 245,
      "कोआ": 246,
      "डि": 247,
      "भा": 248,
      "कन": 249,
      "गु": 250,
      "ंगा": 251,
      "हिजु": 252,
      "गर": 253,
      "काना": 254,
      "मेनते": 255,
      "ओड़": 256,
      "ड़ु": 257,
      ":।": 258,
      "बाइ": 259,
      "लेल": 260,
      "नी": 261,
      "ओड़ो": 262,
      "डा": 263,
      "रेअः": 264,
      "आद": 265,
      "जे": 266,
      "केआते": 267,
      "सेन": 268,
      "आर": 269,
      "तइ": 270,
      "ली": 271,
      "डो": 272,
      "नेया": 273,
      "होड़ो": 274,
      "मेनदो": 275,
      "त्": 276,
      "कार": 277,
      "मिआद": 278,
      "गार": 279,
      "ती": 280,
      "टि": 281,
      "यु": 282,
      "ल्": 283,
      "कजि": 284,
      "मी": 285,
      "पि": 286,
      "टो": 287,
      "योम": 288,
      "ओड़ोः": 289,
      "सं": 290,
      "ताः": 291,
      "रु": 292,
      "ड़ो": 293,
      "सिदा": 294,
      "किन": 295,
      "सी": 296,
      "कामि": 297,
      "जान": 298,
      "त्र": 299,
      "नाति": 300,
      "्य": 301,
      "बेसे": 302,
      "ओआ": 303,
      "टी": 304,
      "काजि": 305,
      "होन": 306,
      "तो": 307,
      "म्": 308,
      "जन": 309,
      "होड़ो": 310,
      "सर": 311,
      "गेन": 312,
      "नाः": 313,
      "लोः": 314,
      "दी": 315,
      "ओको": 316,
      "पो": 317,
      "क्ष": 318,
      "ब्": 319,
      "अर": 320,
      "इनकु": 321,
      "धा": 322,
      "नेका": 323,
      "निः": 324,
      "लेना": 325,
      "आए": 326,
      "ताइना": 327,
      "एटा": 328,
      "आम": 329,
      "अम": 330,
      "ंड": 331,
      "गी": 332,
      "पान": 333,
      "चे": 334,
      "कमि": 335,
      "उड़ु": 336,
      "होरा": 337,
      "गाति": 338,
      "शा": 339,
      "ताइन": 340,
      "ङा": 341,
      "रेगे": 342,
      "आपान": 343,
      "इसु": 344,
      "ओम": 345,
      "मं": 346,
      "हे": 347,
      "कना": 348,
      "एटे": 349,
      "राङ": 350,
      "मान": 351,
      "कोआः": 352,
      "अइंग": 353,
      "रेओ": 354,
      "जागार": 355,
      "वे": 356,
      "एआ": 357,
      "रअ": 358,
      "जगर": 359,
      "प्": 360,
      "तइन": 361,
      "केद": 362,
      "सन": 363,
      "टु": 364,
      "सम": 365,
      "ड़ु": 366,
      "ंगि": 367,
      "राज": 368,
      "पी": 369,
      "इतु": 370,
      "इनिआः": 371,
      "नाम": 372,
      "हिजुः": 373,
      "ओडो": 374,
      "तायोम": 375,
      "आञा": 376,
      "तइकेना": 377,
      "टर": 378,
      "लका": 379,
      "दाड़ि": 380,
      "तर": 381,
      "बर": 382,
      "आउ": 383,
      "ष्": 384,
      "कोरे": 385,
      "उदु": 386,
      "आले": 387,
      "शि": 388,
      "सुम": 389,
      "बइ": 390,
      "कर": 391,
      "दिसुम": 392,
      "ची": 393,
      "सोमा": 394,
      "भार": 395,
      "गेआ": 396,
      "तेगे": 397,
      "नातिन": 398,
      "चिलका": 399,
      "माजा": 400,
      "पुर": 401,
      "सोमाए": 402,
      "सिङ": 403,
      "ड़े": 404,
      "श्": 405,
      "तार": 406,
      "होड़ोको": 407,
      "लागाति": 408,
      "खा": 409,
      "ओड़ा": 410,
      "तइना": 411,
      "वी": 412,
      "साना": 413,
      "था": 414,
      "बी": 415,
      "फि": 416,
      "यर": 417,
      "की": 418,
      "पुरा": 419,
      "फा": 420,
      "सिर": 421,
      "सुकु": 422,
      "बान": 423,
      "ओःआ": 424,
      "इदि": 425,
      "रंग": 426,
      "नेता": 427,
      "मिय": 428,
      "आन": 429,
      "ज्": 430,
      "पुराः": 431,
      "ञा": 432,
      "बुगि": 433,
      "आं": 434,
      "जां": 435,
      "तानाः": 436,
      "नगेन": 437,
      "ड़े": 438,
      "जोगा": 439,
      "ंद": 440,
      "सेनोः": 441,
      "नम": 442,
      "गोनो": 443,
      "सिका": 444,
      "्रे": 445,
      "धि": 446,
      "्री": 447,
      "ओड़": 448,
      "नगा": 449,
      "तुम": 450,
      "ंगे": 451,
      "आया": 452,
      "काए": 453,
      "काएः": 454,
      "भारत": 455,
      "हर": 456,
      "केद्": 457,
      "आमा": 458,
      "नअः": 459,
      "डी": 460,
      "गोटा": 461,
      "डु": 462,
      "सार": 463,
      "सिरमा": 464,
      "ड़ी": 465,
      "पुलि": 466,
      "ओड़ोः": 467,
      "केदाए": 468,
      "हुड़ि": 469,
      "लागातिङा": 470,
      "तादा": 471,
      "स्ट": 472,
      "ओल": 473,
      "चु": 474,
      "डे": 475,
      "चिम": 476,
      "रोम": 477,
      "चेतान": 478,
      "रेदो": 479,
      "दाड़ि": 480,
      "मोयो": 481,
      "इं": 482,
      "शन": 483,
      "लु": 484,
      "आञाः": 485,
      "पुलिस": 486,
      "नागेन": 487,
      "मिन": 488,
      "बिनगा": 489,
      "आकाना": 490,
      "इम": 491,
      "पू": 492,
      "कोम": 493,
      "बार": 494,
      "ओकोए": 495,
      "उनु": 496,
      "रिया": 497,
      "केदाएः": 498,
      "इनी": 499,
      "उड़ु": 500,
      "खि": 501,
      "मला": 502,
      "सेनो": 503,
      "नुतुम": 504,
      "खो": 505,
      "काको": 506,
      "लाः": 507,
      "तयोम": 508,
      "पर": 509,
      "बै": 510,
      "लाए": 511,
      "सेसेन": 512,
      "सिंग": 513,
      "एटेः": 514,
      "फो": 515,
      "जादा": 516,
      "साः": 517,
      "तिसिङ": 518,
      "एस": 519,
      "ही": 520,
      "राम": 521,
      "कोअः": 522,
      "यना": 523,
      "हारा": 524,
      "जाकेद": 525,
      "चार": 526,
      "युम": 527,
      "तेबा": 528,
      "निया": 529,
      "किना": 530,
      "मेनअः": 531,
      "एटाः": 532,
      "अप": 533,
      "बारा": 534,
      "डिया": 535,
      "त्री": 536,
      "आएः": 537,
      "कुड़ि": 538,
      "नवा": 539,
      "नेताः": 540,
      "इनु": 541,
      "चानाः": 542,
      "उदुब": 543,
      "आकान": 544,
      "चो": 545,
      "ट्": 546,
      "कारी": 547,
      "आइंग": 548,
      "ओकोआ": 549,
      "दड़ि": 550,
      "माराङ": 551,
      "वर": 552,
      "लेकाते": 553,
      "बानोः": 554,
      "मोयोद": 555,
      "होबाओआ": 556,
      "आना": 557,
      "सें": 558,
      "इआ": 559,
      "कम": 560,
      "परि": 561,
      "यू": 562,
      "लाङ": 563,
      "जोम": 564,
      "कू": 565,
      "समा": 566,
      "वार": 567,
      "ङगि": 568,
      "थि": 569,
      "शु": 570,
      "नेल": 571,
      "लेकान": 572,
      "्या": 573,
      "देंगा": 574,
      "बुगिन": 575,
      "तिंग": 576,
      "देश": 577,
      "ंदा": 578,
      "तअः": 579,
      "बद": 580,
      "बोरो": 581,
      "अबु": 582,
      "ठा": 583,
      "बल": 584,
      "मू": 585,
      "नावा": 586,
      "बारि": 587,
      "हातु": 588,
      "होनको": 589,
      "समय": 590,
      "चना": 591,
      "मेद": 592,
      "गाड़ा": 593,
      "मोने": 594,
      "हुड़ि": 595,
      "सानाङ": 596,
      "अले": 597,
      "सिं": 598,
      "दिन": 599,
      "आमाः": 600,
      "मजा": 601,
      "होडो": 602,
      "सरा": 603,
      "नाआः": 604,
      "जानाएः": 605,
      "मोय": 606,
      "होड़ोको": 607,
      "तायोमते": 608,
      "ओमा": 609,
      "ओनो": 610,
      "कला": 611,
      "लाई": 612,
      "योग": 613,
      "हुड़िङ": 614,
      "ँग": 615,
      "जपा": 616,
      "दाः": 617,
      "साइ": 618,
      "किः": 619,
      "र्ट": 620,
      "स्था": 621,
      "उड़ुः": 622,
      "ंध": 623,
      "दुकु": 624,
      "तोबे": 625,
      "सरकार": 626,
      "कृ": 627,
      "जापा": 628,
      "मामला": 629,
      "कुल": 630,
      "ड़ाओ": 631,
      "हुल": 632,
      "पं": 633,
      "सेना": 634,
      "आपि": 635,
      "दड़ि": 636,
      "मानाति": 637,
      "न्द": 638,
      "ओड़ाः": 639,
      "मियद": 640,
      "ंग्रे": 641,
      "मंत्री": 642,
      "कादा": 643,
      "याते": 644,
      "कुलि": 645,
      "किरि": 646,
      "टाका": 647,
      "ंक": 648,
      "आको": 649,
      "वर्": 650,
      "चिमिन": 651,
      "र्य": 652,
      "ताइकेनाएः": 653,
      "एनका": 654,
      "अमा": 655,
      "ठो": 656,
      "कामी": 657,
      "बेस": 658,
      "टोओ": 659,
      "आयुम": 660,
      "मन": 661,
      "सू": 662,
      "दुब": 663,
      "तानको": 664,
      "तनअः": 665,
      "ताला": 666,
      "होनो": 667,
      "लाओ": 668,
      "ोःआ": 669,
      "जिनि": 670,
      "बोंगा": 671,
      "ष्ट": 672,
      "ओनोल": 673,
      "आबु": 674,
      "णा": 675,
      "बू": 676,
      "शी": 677,
      "रासिका": 678,
      "बाद": 679,
      "पार": 680,
      "दुला": 681,
      "भाव": 682,
      "भो": 683,
      "सोबेनको": 684,
      "ज्ञा": 685,
      "एम": 686,
      "ओते": 687,
      "कदा": 688,
      "बन": 689,
      "व्य": 690,
      "बाल": 691,
      "साङगि": 692,
      "पेड़े": 693,
      "क्षा": 694,
      "ंट": 695,
      "ठी": 696,
      "काम": 697,
      "जाआं": 698,
      "नेआते": 699,
      "ड़ाः": 700,
      "आई": 701,
      "टका": 702,
      "दू": 703,
      "ताङ": 704,
      "लागा": 705,
      "मिसा": 706,
      "दुराङ": 707,
      "होबाओः": 708,
      "पेरे": 709,
      "सोबेना": 710,
      "टेः": 711,
      "हुलाङ": 712,
      "कं": 713,
      "कल": 714,
      "क्र": 715,
      "ग्": 716,
      "लय": 717,
      "दान": 718,
      "केदाको": 719,
      "बुजा": 720,
      "फिल्": 721,
      "तारा": 722,
      "तानिः": 723,
      "होबाव": 724,
      "रुड़ु": 725,
      "एंगा": 726,
      "ढ़": 727,
      "बनो": 728,
      "रसिका": 729,
      "रेको": 730,
      "लेकन": 731,
      "सोमोय": 732,
      "होबाजाना": 733,
      "बरन": 734,
      "सिंह": 735,
      "फिल्म": 736,
      "जरू": 737,
      "मर": 738,
      "संग": 739,
      "लेलो": 740,
      "एनता": 741,
      "आलो": 742,
      "उप": 743,
      "दन": 744,
      "पति": 745,
      "काञ": 746,
      "केयाते": 747,
      "जोनो": 748,
      "मियद्": 749,
      "बारान": 750,
      "उतर": 751,
      "उतार": 752,
      "फ्": 753,
      "लगाति": 754,
      "नेन": 755,
      "बालाए": 756,
      "जोगाओ": 757,
      "ंस": 758,
      "मत": 759,
      "यद्": 760,
      "जार": 761,
      "नीति": 762,
      "गोनोङ": 763,
      "समाज": 764,
      "तिंगु": 765,
      "हुड़िङ": 766,
      "आइ": 767,
      "इया": 768,
      "एने": 769,
      "जय": 770,
      "महा": 771,
      "नामो": 772,
      "राइ": 773,
      "सांगि": 774,
      "किआ": 775,
      "दुनिया": 776,
      "दिर": 777,
      "चाना": 778,
      "होबाओ": 779,
      "एनताः": 780,
      "ंडु": 781,
      "ङगा": 782,
      "डू": 783,
      "कोड़ा": 784,
      "बानो": 785,
      "लाइ": 786,
      "याद": 787,
      "लोओः": 788,
      "जोर": 789,
      "ल्ली": 790,
      "सारते": 791,
      "गल": 792,
      "वन": 793,
      "श्री": 794,
      "कारेदो": 795,
      "नेकान": 796,
      "र्ड": 797,
      "पुरअः": 798,
      "जांए": 799,
      "जोगाव": 800,
      "इति": 801,
      "कै": 802,
      "सला": 803,
      "नाङ": 804,
      "तेआ": 805,
      "सिंगि": 806,
      "पाति": 807,
      "क्स": 808,
      "ड़ां": 809,
      "गिड़ि": 810,
      "बोर": 811,
      "डिंग": 812,
      "आयार": 813,
      "अए": 814,
      "लू": 815,
      "लगा": 816,
      "मोचा": 817,
      "दिल्ली": 818,
      "किःआ": 819,
      "टोओर": 820,
      "छा": 821,
      "तेओ": 822,
      "मार": 823,
      "केदाञ": 824,
      "इनुङ": 825,
      "अइ": 826,
      "अट": 827,
      "अया": 828,
      "अधि": 829,
      "उत्": 830,
      "जकेद्": 831,
      "मै": 832,
      "मरंग": 833,
      "ड़ी": 834,
      "निकु": 835,
      "लेन": 836,
      "जिला": 837,
      "किर": 838,
      "हार": 839,
      "स्वा": 840,
      "ड़ाव": 841,
      "मुख": 842,
      "एनाते": 843,
      "कजी": 844,
      "जमा": 845,
      "तं": 846,
      "यन": 847,
      "बागे": 848,
      "उड़ुः": 849,
      "ओमे": 850,
      "ओड़ाः": 851,
      "कद": 852,
      "खु": 853,
      "टयद्": 854,
      "नमा": 855,
      "शे": 856,
      "कोते": 857,
      "जारुड़ु": 858,
      "बादि": 859,
      "पाल": 860,
      "र्म": 861,
      "गोआ": 862,
      "जनाए": 863,
      "घा": 864,
      "तरा": 865,
      "धो": 866,
      "नमो": 867,
      "पै": 868,
      "केते": 869,
      "बारे": 870,
      "गेल": 871,
      "तिसिंग": 872,
      "स्व": 873,
      "गोपो": 874,
      "विश्": 875,
      "रूआ": 876,
      "अनु": 877,
      "होयो": 878,
      "कुड़ि": 879,
      "पाड़ाओ": 880,
      "जानाए": 881,
      "गोए": 882,
      "गोम": 883,
      "डियो": 884,
      "दाड़िआ": 885,
      "तेबाः": 886,
      "किरिङ": 887,
      "अपि": 888,
      "आगु": 889,
      "जू": 890,
      "ण्": 891,
      "तू": 892,
      "तकिना": 893,
      "भि": 894,
      "वो": 895,
      "षा": 896,
      "हरा": 897,
      "राष्ट": 898,
      "जाः": 899,
      "निक": 900,
      "होका": 901,
      "वाद": 902,
      "मोन": 903,
      "रिकाएआ": 904,
      "चेतन": 905,
      "मंदिर": 906,
      "मानातिङ": 907,
      "बादिलि": 908,
      "कको": 909,
      "बई": 910,
      "काआ": 911,
      "ताल": 912,
      "जामा": 913,
      "निर": 914,
      "लाव": 915,
      "चिना": 916,
      "नेआरे": 917,
      "र्थ": 918,
      "गोएः": 919,
      "तानताइकेना": 920,
      "पेड़े": 921,
      "टिंग": 922,
      "आएआः": 923,
      "फोटो": 924,
      "होनोर": 925,
      "तंग": 926,
      "नू": 927,
      "मौ": 928,
      "लन": 929,
      "सां": 930,
      "साम": 931,
      "दोहो": 932,
      "चिनअः": 933,
      "स्तान": 934,
      "तानाएः": 935,
      "गं": 936,
      "तला": 937,
      "ताको": 938,
      "साल": 939,
      "मिद": 940,
      "बेगार": 941,
      "सुगाड़ा": 942,
      "लोक": 943,
      "क्टर": 944,
      "इनिःअ": 945,
      "रेनको": 946,
      "देव": 947,
      "जेतान": 948,
      "एद": 949,
      "नडु": 950,
      "सद": 951,
      "कांग्रे": 952,
      "जारू": 953,
      "दार": 954,
      "निदा": 955,
      "सोंगे": 956,
      "दुनु": 957,
      "तुङ": 958,
      "क्ति": 959,
      "इतुआना": 960,
      "उकु": 961,
      "उपु": 962,
      "उयु": 963,
      "एपे": 964,
      "जाए": 965,
      "बेगर": 966,
      "होडोको": 967,
      "काआनि": 968,
      "अं": 969,
      "अन": 970,
      "अदि": 971,
      "अयर": 972,
      "एते": 973,
      "ध्य": 974,
      "बंध": 975,
      "भग": 976,
      "यम": 977,
      "वै": 978,
      "कोआते": 979,
      "जाद": 980,
      "पार्": 981,
      "हिन्": 982,
      "ओड़ो": 983,
      "राज्य": 984,
      "ंडि": 985,
      "अस्": 986,
      "नंग": 987,
      "रअः": 988,
      "रेआः": 989,
      "काब": 990,
      "काटा": 991,
      "तेको": 992,
      "याको": 993,
      "सान": 994,
      "साब": 995,
      "वान": 996,
      "मेनाःइ": 997,
      "तनाए": 998,
      "धान": 999,
      "धार": 1000,
      "प्रे": 1001,
      "सनंग": 1002,
      "राजनीति": 1003,
      "जोनोम": 1004,
      "ओला": 1005,
      "मह": 1006,
      "रानु": 1007,
      "्रो": 1008,
      "नुङ": 1009,
      "एनामेनते": 1010,
      "क्षे": 1011,
      "गोमके": 1012,
      "कांग्रेस": 1013,
      "अदिका": 1014,
      "ंडा": 1015,
      "ऐना": 1016,
      "दर्": 1017,
      "पह": 1018,
      "पड़": 1019,
      "मनाति": 1020,
      "सम्": 1021,
      "कोवा": 1022,
      "दां": 1023,
      "निर्": 1024,
      "याय": 1025,
      "बेड़ा": 1026,
      "कुमु": 1027,
      "पाम": 1028,
      "सुर": 1029,
      "रोग": 1030,
      "जोआर": 1031,
      "ओःताना": 1032,
      "रूप": 1033,
      "रूम": 1034,
      "भाग": 1035,
      "जेता": 1036,
      "मीडिया": 1037,
      "बानचा": 1038,
      "चुना": 1039,
      "बारिआ": 1040,
      "पेड़ेः": 1041,
      "बुजाओ": 1042,
      "टना": 1043,
      "टोः": 1044,
      "तदा": 1045,
      "सब": 1046,
      "जाति": 1047,
      "लेले": 1048,
      "साला": 1049,
      "सायो": 1050,
      "रिंग": 1051,
      "मेनाइ": 1052,
      "हाना": 1053,
      "दिशु": 1054,
      "बितार": 1055,
      "त्य": 1056,
      "तोम": 1057,
      "हुलंग": 1058,
      "कंप": 1059,
      "झा": 1060,
      "नगर": 1061,
      "माइन": 1062,
      "ोःताना": 1063,
      "चाबा": 1064,
      "बोन": 1065,
      "राइज": 1066,
      "दिशुम": 1067,
      "आपु": 1068,
      "इपा": 1069,
      "भी": 1070,
      "मगर": 1071,
      "लब": 1072,
      "सल": 1073,
      "माङ": 1074,
      "लान": 1075,
      "सेवा": 1076,
      "सुन": 1077,
      "दिरि": 1078,
      "बुरू": 1079,
      "गिन": 1080,
      "प्रति": 1081,
      "उड़ुङ": 1082,
      "बैसे": 1083,
      "व्यव": 1084,
      "जारूड़ु": 1085,
      "दुनुब": 1086,
      "एट": 1087,
      "तम": 1088,
      "तको": 1089,
      "ध्या": 1090,
      "हन": 1091,
      "काल": 1092,
      "सुनु": 1093,
      "रोध": 1094,
      "हुडिंग": 1095,
      "ष्ण": 1096,
      "ठोर": 1097,
      "ज्ञान": 1098,
      "चुनाव": 1099,
      "आपे": 1100,
      "जै": 1101,
      "जदा": 1102,
      "णी": 1103,
      "भू": 1104,
      "कार्य": 1105,
      "राव": 1106,
      "केट": 1107,
      "माना": 1108,
      "हापे": 1109,
      "स्टर": 1110,
      "लिङ": 1111,
      "मेनाःकोआ": 1112,
      "गुरु": 1113,
      "त्व": 1114,
      "अपन": 1115,
      "अभि": 1116,
      "ग्र": 1117,
      "थी": 1118,
      "ौर": 1119,
      "रेयो": 1120,
      "कारे": 1121,
      "केन": 1122,
      "केटेः": 1123,
      "नेतअः": 1124,
      "यालय": 1125,
      "सेता": 1126,
      "दुबा": 1127,
      "हिं": 1128,
      "रोकोम": 1129,
      "द्ध": 1130,
      "बिल": 1131,
      "पोर्ट": 1132,
      "प्रा": 1133,
      "सनते": 1134,
      "हिन्दी": 1135,
      "जर": 1136,
      "ड्": 1137,
      "दल": 1138,
      "फे": 1139,
      "फै": 1140,
      "शो": 1141,
      "शहर": 1142,
      "सरि": 1143,
      "काय": 1144,
      "कागे": 1145,
      "याए": 1146,
      "यार": 1147,
      "तिङ": 1148,
      "सेके": 1149,
      "पारोम": 1150,
      "इनितु": 1151,
      "स्टे": 1152,
      "मोदी": 1153,
      "दुरंग": 1154,
      "विष": 1155,
      "विद्": 1156,
      "विरोध": 1157,
      "न्ना": 1158,
      "्यू": 1159,
      "आएआ": 1160,
      "चिमताङ": 1161,
      "खोबोर": 1162,
      "एसे": 1163,
      "ओडा": 1164,
      "कॉ": 1165,
      "कड़ा": 1166,
      "करी": 1167,
      "टन": 1168,
      "नौ": 1169,
      "बस": 1170,
      "ब्र": 1171,
      "लव": 1172,
      "लै": 1173,
      "ाव": 1174,
      "कानि": 1175,
      "लेम": 1176,
      "माइ": 1177,
      "सेसेना": 1178,
      "जानाव": 1179,
      "क्त": 1180,
      "ओःगे": 1181,
      "मुनु": 1182,
      "गुन": 1183,
      "होड़ोमो": 1184,
      "इनकुआ": 1185,
      "चिलकाते": 1186,
      "पुरना": 1187,
      "्रीय": 1188,
      "न्द्र": 1189,
      "मुख्य": 1190,
      "गोपोएः": 1191,
      "क्षेत्र": 1192,
      "ंव": 1193,
      "ंटा": 1194,
      "आकादा": 1195,
      "जग": 1196,
      "धु": 1197,
      "बरा": 1198,
      "श्र": 1199,
      "सर्": 1200,
      "रेंगे": 1201,
      "काजी": 1202,
      "कोओ": 1203,
      "राय": 1204,
      "लेआ": 1205,
      "वाल": 1206,
      "सुसुन": 1207,
      "स्थ": 1208,
      "योजना": 1209,
      "लिम": 1210,
      "जोमे": 1211,
      "जीदन": 1212,
      "गिति": 1213,
      "भाषा": 1214,
      "जेतन": 1215,
      "तीय": 1216,
      "क्षण": 1217,
      "ताइनोः": 1218,
      "इतुन": 1219,
      "ंद्र": 1220,
      "दाड़िओःआ": 1221,
      "फोन": 1222,
      "सेंड़ा": 1223,
      "लोओःते": 1224,
      "पार्टी": 1225,
      "आरि": 1226,
      "कर्": 1227,
      "चै": 1228,
      "पताल": 1229,
      "बत": 1230,
      "यक": 1231,
      "यदा": 1232,
      "राबाल": 1233,
      "राकाब": 1234,
      "नेलेका": 1235,
      "बाग": 1236,
      "सामा": 1237,
      "पाकि": 1238,
      "हाल": 1239,
      "मोद": 1240,
      "रोआ": 1241,
      "क्रि": 1242,
      "जुल": 1243,
      "बिरि": 1244,
      "बितर": 1245,
      "न्य": 1246,
      "बोलो": 1247,
      "ओड़अः": 1248,
      "टिङ": 1249,
      "रुड़ा": 1250,
      "टीम": 1251,
      "होड़ोमो": 1252,
      "वेब": 1253,
      "करण": 1254,
      "सानामाङ": 1255,
      "गोनोंग": 1256,
      "इमतंग": 1257,
      "खिला": 1258,
      "दड़िया": 1259,
      "जापागार": 1260,
      "सोबेनाते": 1261,
      "तंत्र": 1262,
      "सायोब": 1263,
      "अव": 1264,
      "अइं": 1265,
      "आयु": 1266,
      "एल": 1267,
      "खी": 1268,
      "ज़": 1269,
      "तनि": 1270,
      "धे": 1271,
      "पत्र": 1272,
      "बं": 1273,
      "यद": 1274,
      "लगिन": 1275,
      "नाइ": 1276,
      "कोः": 1277,
      "होसो": 1278,
      "लेरे": 1279,
      "गाते": 1280,
      "किता": 1281,
      "र्चा": 1282,
      "स्त": 1283,
      "पुल": 1284,
      "टायाद": 1285,
      "बुल": 1286,
      "ओःअ": 1287,
      "हिजुगा": 1288,
      "त्रा": 1289,
      "कारण": 1290,
      "ब्ला": 1291,
      "अमअः": 1292,
      "हिजुःजाना": 1293,
      "जांच": 1294,
      "जापाः": 1295,
      "ठीक": 1296,
      "पेरेः": 1297,
      "इपाएः": 1298,
      "ंत": 1299,
      "अना": 1300,
      "अमे": 1301,
      "एमे": 1302,
      "चर": 1303,
      "जगार": 1304,
      "तकिन": 1305,
      "नर": 1306,
      "पड़ाव": 1307,
      "मबा": 1308,
      "लग": 1309,
      "हू": 1310,
      "काद": 1311,
      "निमि": 1312,
      "रिक": 1313,
      "तिन": 1314,
      "चिका": 1315,
      "कुनु": 1316,
      "र्क": 1317,
      "हागा": 1318,
      "हासु": 1319,
      "स्ता": 1320,
      "टुङ": 1321,
      "तादाएः": 1322,
      "दाड़िआः": 1323,
      "पूरा": 1324,
      "लाःए": 1325,
      "विश्व": 1326,
      "मनातिंग": 1327,
      "पाकिस्तान": 1328,
      "इला": 1329,
      "कहा": 1330,
      "गअः": 1331,
      "दंग": 1332,
      "बग": 1333,
      "बरिया": 1334,
      "यअः": 1335,
      "संगि": 1336,
      "कार्": 1337,
      "राओ": 1338,
      "नेट": 1339,
      "मेद्": 1340,
      "लेनेका": 1341,
      "गेया": 1342,
      "लाइन": 1343,
      "यान": 1344,
      "साकाम": 1345,
      "सिया": 1346,
      "नेआको": 1347,
      "केनाए": 1348,
      "हास": 1349,
      "मोसा": 1350,
      "होबालेना": 1351,
      "प्रदेश": 1352,
      "भाजपा": 1353,
      "म्प": 1354,
      "दाड़िओःआ": 1355,
      "शिव": 1356,
      "अबुआ": 1357,
      "अधिकारी": 1358,
      "धोरोम": 1359,
      "अस्पताल": 1360,
      "कुनुलि": 1361,
      "आट": 1362,
      "पन": 1363,
      "बना": 1364,
      "मरा": 1365,
      "सौ": 1366,
      "हजार": 1367,
      "नाला": 1368,
      "तेआः": 1369,
      "राजा": 1370,
      "मेआ": 1371,
      "लेदा": 1372,
      "लातार": 1373,
      "चिमी": 1374,
      "जेताना": 1375,
      "सरते": 1376,
      "पोस्ट": 1377,
      "ंडे": 1378,
      "आलेआः": 1379,
      "एसकर": 1380,
      "बदली": 1381,
      "इतिहास": 1382,
      "पैसा": 1383,
      "राष्ट्रीय": 1384,
      "ंति": 1385,
      "अच": 1386,
      "अद्": 1387,
      "अंग्रे": 1388,
      "आरो": 1389,
      "आधा": 1390,
      "इः": 1391,
      "कअ": 1392,
      "चौ": 1393,
      "दर": 1394,
      "फर": 1395,
      "मंग": 1396,
      "व्या": 1397,
      "नापाम": 1398,
      "रेः": 1399,
      "जागर": 1400,
      "लेनेल": 1401,
      "रिय": 1402,
      "केदाय": 1403,
      "दिल": 1404,
      "इन्": 1405,
      "लोन": 1406,
      "तानाञ": 1407,
      "बिर": 1408,
      "टिक": 1409,
      "संस्": 1410,
      "रुम": 1411,
      "काजिकामि": 1412,
      "होराते": 1413,
      "वेन": 1414,
      "इनुंग": 1415,
      "साइट": 1416,
      "जरूड़ु": 1417,
      "लगातिंगा": 1418,
      "एनेटेः": 1419,
      "कोःआते": 1420,
      "ंङ": 1421,
      "उद्": 1422,
      "च्": 1423,
      "टक": 1424,
      "तोः": 1425,
      "धी": 1426,
      "षि": 1427,
      "सभा": 1428,
      "कोएः": 1429,
      "कोड़ा": 1430,
      "जागा": 1431,
      "बाबा": 1432,
      "निआ": 1433,
      "रिआ": 1434,
      "वास": 1435,
      "किल": 1436,
      "स्थि": 1437,
      "टाइ": 1438,
      "हिसि": 1439,
      "विचार": 1440,
      "विभाग": 1441,
      "तनको": 1442,
      "जानरे": 1443,
      "अमके": 1444,
      "अइंगा": 1445,
      "बइया": 1446,
      "फिलिम": 1447,
      "उड़ुङ": 1448,
      "तालारे": 1449,
      "क्रम": 1450,
      "आलोम": 1451,
      "नामोगा": 1452,
      "स्वामी": 1453,
      "रूआड़ा": 1454,
      "पहम": 1455,
      "मानाराङ": 1456,
      "मुख्यमंत्री": 1457,
      "आटकार": 1458,
      "ंका": 1459,
      "अड़": 1460,
      "अयुम": 1461,
      "आड़ा": 1462,
      "इकिर": 1463,
      "कमी": 1464,
      "दड़ां": 1465,
      "नअ": 1466,
      "पद": 1467,
      "परी": 1468,
      "लअः": 1469,
      "शर्": 1470,
      "सह": 1471,
      "सै": 1472,
      "सचि": 1473,
      "सकम": 1474,
      "ह्": 1475,
      "नान": 1476,
      "कोरा": 1477,
      "तानि": 1478,
      "दाडिया": 1479,
      "गेको": 1480,
      "साहि": 1481,
      "तिक": 1482,
      "सेकड़ा": 1483,
      "सिनमा": 1484,
      "कुम": 1485,
      "कुडि": 1486,
      "पाः": 1487,
      "नेआरा": 1488,
      "मेनागा": 1489,
      "दुर": 1490,
      "लिंग": 1491,
      "लिया": 1492,
      "लोम": 1493,
      "विज्ञान": 1494,
      "न्त": 1495,
      "गुरू": 1496,
      "ओकोना": 1497,
      "शासन": 1498,
      "उदुबे": 1499,
      "उनुदुब": 1500,
      "दड़िआ": 1501,
      "जिनिद": 1502,
      "जिनिस": 1503,
      "दुलाड़ा": 1504,
      "ण्ड": 1505,
      "भगवान": 1506,
      "व्यवस्था": 1507,
      "थीमबा": 1508,
      "अक": 1509,
      "अगु": 1510,
      "ओअ": 1511,
      "करो": 1512,
      "गोः": 1513,
      "जल": 1514,
      "तकन": 1515,
      "द्र": 1516,
      "धन": 1517,
      "नतिन": 1518,
      "पढ": 1519,
      "परे": 1520,
      "पढ़": 1521,
      "फी": 1522,
      "रआ": 1523,
      "है": 1524,
      "हमला": 1525,
      "नामा": 1526,
      "काओ": 1527,
      "काव": 1528,
      "कोए": 1529,
      "कोता": 1530,
      "केटे": 1531,
      "बाइन": 1532,
      "लेला": 1533,
      "माल": 1534,
      "माने": 1535,
      "गांध": 1536,
      "दोलन": 1537,
      "मिद्": 1538,
      "जिबोन": 1539,
      "किनाः": 1540,
      "हाला": 1541,
      "दुल": 1542,
      "दुआर": 1543,
      "लोलो": 1544,
      "विका": 1545,
      "नुबा": 1546,
      "मुं": 1547,
      "न्या": 1548,
      "न्डु": 1549,
      "बाइजाना": 1550,
      "बाइआकाना": 1551,
      "लेलरिका": 1552,
      "जानकारी": 1553,
      "जनव": 1554,
      "ब्रा": 1555,
      "हेन": 1556,
      "तइनोः": 1557,
      "उदुबा": 1558,
      "भारतीय": 1559,
      "चिमतुङ": 1560,
      "पूर्": 1561,
      "बदलि": 1562,
      "आपिआ": 1563,
      "दुलाड़ा": 1564,
      "लागाओ": 1565,
      "अटकर": 1566,
      "ध्यक्ष": 1567,
      "कंपनी": 1568,
      "एटअः": 1569,
      "अमेरिका": 1570,
      "निमिर": 1571,
      "अख": 1572,
      "अल": 1573,
      "एम्": 1574,
      "कद्": 1575,
      "कवि": 1576,
      "छबा": 1577,
      "तई": 1578,
      "धर": 1579,
      "पर्": 1580,
      "बगे": 1581,
      "मना": 1582,
      "नाआ": 1583,
      "रेनिः": 1584,
      "ताई": 1585,
      "नेः": 1586,
      "बाहर": 1587,
      "दास": 1588,
      "दासा": 1589,
      "मेंट": 1590,
      "होनाङ": 1591,
      "मास्टर": 1592,
      "चिआः": 1593,
      "बेडा": 1594,
      "किया": 1595,
      "स्य": 1596,
      "चांडु": 1597,
      "विक": 1598,
      "जुगु": 1599,
      "हुला": 1600,
      "ओड़ोःगे": 1601,
      "जनय": 1602,
      "ंडी": 1603,
      "वेद": 1604,
      "टुंग": 1605,
      "सेनोःजाना": 1606,
      "अपनअः": 1607,
      "हुड़िंग": 1608,
      "ध्यान": 1609,
      "सेकेड़ा": 1610,
      "गांधी": 1611,
      "अदा": 1612,
      "इस्": 1613,
      "ओन": 1614,
      "कटा": 1615,
      "घटना": 1616,
      "तनिः": 1617,
      "यत": 1618,
      "रेल": 1619,
      "रेया": 1620,
      "काले": 1621,
      "कोरआः": 1622,
      "कोटो": 1623,
      "कोताः": 1624,
      "कोतो": 1625,
      "राँग": 1626,
      "बाङ": 1627,
      "में": 1628,
      "लाल": 1629,
      "बेड़ा": 1630,
      "कुर": 1631,
      "कुमार": 1632,
      "कुपुल": 1633,
      "नेआगे": 1634,
      "स्सा": 1635,
      "मोड़े": 1636,
      "पुथि": 1637,
      "टान": 1638,
      "रूड़ा": 1639,
      "प्रो": 1640,
      "नेकागे": 1641,
      "शाह": 1642,
      "अइंगअः": 1643,
      "फायदा": 1644,
      "आंदोलन": 1645,
      "बैंक": 1646,
      "चोलोन": 1647,
      "ठाउ": 1648,
      "ठांव": 1649,
      "मूल": 1650,
      "स्थान": 1651,
      "जाआंए": 1652,
      "आसे": 1653,
      "आड़ा": 1654,
      "इदु": 1655,
      "इमिन": 1656,
      "उमि": 1657,
      "उडू": 1658,
      "ओवा": 1659,
      "गड़": 1660,
      "फल": 1661,
      "भर": 1662,
      "लॉ": 1663,
      "हरि": 1664,
      "काश": 1665,
      "काकला": 1666,
      "कोके": 1667,
      "कोलो": 1668,
      "कोशि": 1669,
      "ताम": 1670,
      "रासि": 1671,
      "होड़": 1672,
      "मार्": 1673,
      "साँ": 1674,
      "साय": 1675,
      "गाड़ा": 1676,
      "रिपोर्ट": 1677,
      "तिर": 1678,
      "वाला": 1679,
      "र्स": 1680,
      "स्कू": 1681,
      "ताइकेनाञ": 1682,
      "लिक": 1683,
      "द्धा": 1684,
      "पेल": 1685,
      "बिज": 1686,
      "एनारे": 1687,
      "जेल": 1688,
      "टीवी": 1689,
      "दीप": 1690,
      "ङाकाना": 1691,
      "उदुब्": 1692,
      "गोनोएः": 1693,
      "बरनकिन": 1694,
      "जरूड़ी": 1695,
      "संगी": 1696,
      "राष्ट्र": 1697,
      "उपुन": 1698,
      "सुनुम": 1699,
      "हिंदी": 1700,
      "विषय": 1701,
      "चिमीन": 1702,
      "अंग्रेजी": 1703,
      "ंडो": 1704,
      "अफ": 1705,
      "आकोआ": 1706,
      "आसरा": 1707,
      "इदी": 1708,
      "उद": 1709,
      "उर": 1710,
      "उपा": 1711,
      "एरा": 1712,
      "खबर": 1713,
      "गण": 1714,
      "छु": 1715,
      "जरा": 1716,
      "टल": 1717,
      "नोः": 1718,
      "पअः": 1719,
      "बड़ा": 1720,
      "बरी": 1721,
      "भे": 1722,
      "भ्र": 1723,
      "मनो": 1724,
      "लक्ष": 1725,
      "लतर": 1726,
      "हड़": 1727,
      "नाता": 1728,
      "तांगि": 1729,
      "तेया": 1730,
      "रान": 1731,
      "राना": 1732,
      "राचा": 1733,
      "माण": 1734,
      "याञ": 1735,
      "सामान": 1736,
      "गाकान": 1737,
      "सेटे": 1738,
      "सेताः": 1739,
      "पाना": 1740,
      "हाड़ा": 1741,
      "चाही": 1742,
      "चालाओ": 1743,
      "ताइकेनाए": 1744,
      "तुर": 1745,
      "क्ट": 1746,
      "लेलोः": 1747,
      "जेटे": 1748,
      "युर": 1749,
      "पिल": 1750,
      "नाःदो": 1751,
      "इनकुआः": 1752,
      "ताइनजाना": 1753,
      "टुनडु": 1754,
      "चीन": 1755,
      "नमोः": 1756,
      "मोयोद्": 1757,
      "इमतुङ": 1758,
      "सेसेनताना": 1759,
      "अएअः": 1760,
      "अइङ": 1761,
      "एदका": 1762,
      "विकास": 1763,
      "अकन": 1764,
      "उम्": 1765,
      "उडु": 1766,
      "उतारा": 1767,
      "गंगा": 1768,
      "चोः": 1769,
      "चलाव": 1770,
      "जन्": 1771,
      "जकेद": 1772,
      "नल": 1773,
      "नदि": 1774,
      "फु": 1775,
      "मक": 1776,
      "वस": 1777,
      "वती": 1778,
      "हपे": 1779,
      "जाय": 1780,
      "जाआन": 1781,
      "ड़व": 1782,
      "दाङ": 1783,
      "दाडि": 1784,
      "दाडियो": 1785,
      "लांदा": 1786,
      "कुम्": 1787,
      "सोम": 1788,
      "जिद": 1789,
      "हान": 1790,
      "दुब्": 1791,
      "टाव": 1792,
      "गोमान": 1793,
      "जीवन": 1794,
      "गिया": 1795,
      "मुद": 1796,
      "प्रभा": 1797,
      "प्रभाव": 1798,
      "प्रबंध": 1799,
      "देआ": 1800,
      "बाइआ": 1801,
      "होड़ोकोआः": 1802,
      "त्ता": 1803,
      "सरकारी": 1804,
      "लोःते": 1805,
      "शान": 1806,
      "एआएः": 1807,
      "पीटि": 1808,
      "खास": 1809,
      "खाने": 1810,
      "लुतुम": 1811,
      "सेनोगा": 1812,
      "मतलब": 1813,
      "शेष": 1814,
      "सदस्य": 1815,
      "दर्शन": 1816,
      "दांड़ा": 1817,
      "गितिः": 1818,
      "किताब": 1819,
      "बनाई": 1820,
      "ठाउका": 1821,
      "अु": 1822,
      "अतोम": 1823,
      "अन्ना": 1824,
      "इङ": 1825,
      "कय": 1826,
      "कम्प": 1827,
      "खर": 1828,
      "ङगे": 1829,
      "चबा": 1830,
      "पल": 1831,
      "लड़ा": 1832,
      "नाथ": 1833,
      "काका": 1834,
      "नेरे": 1835,
      "बानाइ": 1836,
      "निआः": 1837,
      "होना": 1838,
      "मारी": 1839,
      "लास": 1840,
      "दोः": 1841,
      "सेंगे": 1842,
      "चिकि": 1843,
      "सिक": 1844,
      "कुआ": 1845,
      "वादी": 1846,
      "जिदान": 1847,
      "जानाञ": 1848,
      "चाव": 1849,
      "चानडु": 1850,
      "लित": 1851,
      "तानकेना": 1852,
      "तानाको": 1853,
      "लेकागे": 1854,
      "विधा": 1855,
      "क्रिया": 1856,
      "इनिःआ": 1857,
      "इनिःके": 1858,
      "देङगा": 1859,
      "बाइओ": 1860,
      "होड़ोकोआः": 1861,
      "लोःगे": 1862,
      "गीन": 1863,
      "उड़ुंग": 1864,
      "टुंडु": 1865,
      "ष्टा": 1866,
      "हुड़िंग": 1867,
      "चेतानरे": 1868,
      "इमताङ": 1869,
      "एटेःजाना": 1870,
      "अपना": 1871,
      "बारानकिन": 1872,
      "लगातिंग": 1873,
      "बागेकेआते": 1874,
      "पेड़ेः": 1875,
      "बानचाओ": 1876,
      "फैसला": 1877,
      "विद्यालय": 1878,
      "क्रिकेट": 1879,
      "बिरिद": 1880,
      "वेबसाइट": 1881,
      "अकरिंग": 1882,
      "सेंगेल": 1883,
      "ंबर": 1884,
      "अल्": 1885,
      "अध्यक्ष": 1886,
      "आइन": 1887,
      "ओचो": 1888,
      "कल्": 1889,
      "खंड": 1890,
      "गपा": 1891,
      "चव": 1892,
      "दड़ी": 1893,
      "नरे": 1894,
      "पढ़": 1895,
      "बहा": 1896,
      "यं": 1897,
      "रम": 1898,
      "रसा": 1899,
      "लंदा": 1900,
      "षण": 1901,
      "सअ": 1902,
      "सत": 1903,
      "नाटक": 1904,
      "कोगे": 1905,
      "कोर्ट": 1906,
      "तेयअः": 1907,
      "राहुल": 1908,
      "नेते": 1909,
      "बाई": 1910,
      "ंगड़ा": 1911,
      "निंग": 1912,
      "होला": 1913,
      "माया": 1914,
      "गाड़ी": 1915,
      "तिकिन": 1916,
      "मिसि": 1917,
      "सेरेओ": 1918,
      "कुं": 1919,
      "कुला": 1920,
      "कुरू": 1921,
      "सोआन": 1922,
      "सोतोः": 1923,
      "जानाः": 1924,
      "जानाको": 1925,
      "लिआ": 1926,
      "रिकाकेदा": 1927,
      "बिहार": 1928,
      "हुडि": 1929,
      "मुटु": 1930,
      "प्रधान": 1931,
      "देः": 1932,
      "देन": 1933,
      "ल्ड": 1934,
      "संत": 1935,
      "ओआकाना": 1936,
      "काजिआ": 1937,
      "हेड़ा": 1938,
      "नामोः": 1939,
      "दाड़िओआ": 1940,
      "लागातिंगा": 1941,
      "वीर": 1942,
      "थाना": 1943,
      "चिमनुङ": 1944,
      "जादाएः": 1945,
      "ट्टी": 1946,
      "मूध": 1947,
      "कृत": 1948,
      "कृति": 1949,
      "कृष्ण": 1950,
      "आबुआः": 1951,
      "आइञ": 1952,
      "पातिआ": 1953,
      "वोट": 1954,
      "ओड़ोंग": 1955,
      "प्रेम": 1956,
      "धेआन": 1957,
      "अचका": 1958,
      "स्थिति": 1959,
      "साहित्य": 1960,
      "न्डुः": 1961,
      "लड़ाई": 1962,
      "चानडुः": 1963,
      "ंदे": 1964,
      "ंड़ु": 1965,
      "अएः": 1966,
      "अयु": 1967,
      "आकिरिङ": 1968,
      "उल": 1969,
      "एसा": 1970,
      "कौ": 1971,
      "जवा": 1972,
      "जद्": 1973,
      "ट्रे": 1974,
      "डॉ": 1975,
      "तक": 1976,
      "थो": 1977,
      "बोः": 1978,
      "बजे": 1979,
      "बंद": 1980,
      "मस": 1981,
      "मन्": 1982,
      "रण": 1983,
      "रंगा": 1984,
      "ित": 1985,
      "ैर": 1986,
      "रेअ": 1987,
      "काउ": 1988,
      "कारो": 1989,
      "काइंग": 1990,
      "कोडा": 1991,
      "राग": 1992,
      "केसे": 1993,
      "केआद": 1994,
      "जाँ": 1995,
      "मेया": 1996,
      "मेसा": 1997,
      "निम": 1998,
      "निस": 1999,
      "रिड़ि": 2000,
      "मिल": 2001,
      "नेआमेनते": 2002,
      "सों": 2003,
      "इनिआ": 2004,
      "जिक": 2005,
      "सुकू": 2006,
      "हासा": 2007,
      "स्या": 2008,
      "स्टा": 2009,
      "मोबाइ": 2010,
      "मोहन": 2011,
      "पुद": 2012,
      "हिनि": 2013,
      "तानाए": 2014,
      "जीव": 2015,
      "जीआः": 2016,
      "सोबेनअः": 2017,
      "प्रयोग": 2018,
      "प्रकाश": 2019,
      "गुजरा": 2020,
      "नेयाते": 2021,
      "त्रि": 2022,
      "टोर": 2023,
      "रुआ": 2024,
      "पोसा": 2025,
      "शिक्षा": 2026,
      "चीना": 2027,
      "खिल": 2028,
      "तिसिङो": 2029,
      "बाराबारि": 2030,
      "सेंड़ा": 2031,
      "सेंड़ां": 2032,
      "मोयद्": 2033,
      "णाम": 2034,
      "पारका": 2035,
      "बुजाव": 2036,
      "नामोआ": 2037,
      "अपिया": 2038,
      "मौका": 2039,
      "एसेकार": 2040,
      "सामाजिक": 2041,
      "शर्मा": 2042,
      "कविता": 2043,
      "रासिकान": 2044,
      "बिजली": 2045,
      "दाडियोआ": 2046,
      "ष्टाचार": 2047,
      "मोबाइल": 2048,
      "ँडा": 2049,
      "आक": 2050,
      "आदि": 2051,
      "इर": 2052,
      "इल": 2053,
      "इस": 2054,
      "ओव": 2055,
      "गू": 2056,
      "घो": 2057,
      "घंटा": 2058,
      "ठन": 2059,
      "बअः": 2060,
      "बंगा": 2061,
      "भव": 2062,
      "मइन": 2063,
      "यल": 2064,
      "रबल": 2065,
      "लगीन": 2066,
      "सवाल": 2067,
      "हरी": 2068,
      "कोन": 2069,
      "जाइ": 2070,
      "जाम": 2071,
      "बां": 2072,
      "बाआरि": 2073,
      "दारी": 2074,
      "निका": 2075,
      "लाभ": 2076,
      "लापाः": 2077,
      "साई": 2078,
      "साद": 2079,
      "चिउ": 2080,
      "बेन": 2081,
      "कुटु": 2082,
      "जिलिङ": 2083,
      "हाम": 2084,
      "मों": 2085,
      "यों": 2086,
      "दुर्": 2087,
      "इनतु": 2088,
      "चान": 2089,
      "होबाकाना": 2090,
      "लिकिन": 2091,
      "बुरु": 2092,
      "हिर": 2093,
      "हिला": 2094,
      "रिकाए": 2095,
      "नुतु": 2096,
      "जुः": 2097,
      "बिनि": 2098,
      "मुर": 2099,
      "इंगअः": 2100,
      "प्रचार": 2101,
      "बोओ": 2102,
      "तनय": 2103,
      "गुसिया": 2104,
      "डाव": 2105,
      "त्मा": 2106,
      "संसद": 2107,
      "सिदारे": 2108,
      "सीबी": 2109,
      "सरती": 2110,
      "ओकोन": 2111,
      "धानी": 2112,
      "इसुपुराः": 2113,
      "खान": 2114,
      "तादाञ": 2115,
      "इंटर": 2116,
      "उनुड़ु": 2117,
      "खोन": 2118,
      "दड़िओःअ": 2119,
      "परिवार": 2120,
      "परिणाम": 2121,
      "सानाङताना": 2122,
      "सराव": 2123,
      "साइति": 2124,
      "जिनिसि": 2125,
      "दुलाड़": 2126,
      "गलती": 2127,
      "लगाव": 2128,
      "छापा": 2129,
      "उत्तर": 2130,
      "विश्वास": 2131,
      "आरोपी": 2132,
      "पढाव": 2133,
      "हुलांग": 2134,
      "कोशिश": 2135,
      "स्कूल": 2136,
      "कुरूमुटु": 2137,
      "ःइआ": 2138,
      "अमि": 2139,
      "अपु": 2140,
      "अपे": 2141,
      "असर": 2142,
      "आमे": 2143,
      "आइं": 2144,
      "आयोग": 2145,
      "इग": 2146,
      "ओले": 2147,
      "ओमो": 2148,
      "ओचोः": 2149,
      "कपा": 2150,
      "घु": 2151,
      "जदि": 2152,
      "टै": 2153,
      "तब": 2154,
      "तरी": 2155,
      "धर्म": 2156,
      "पत्": 2157,
      "बंग": 2158,
      "बधा": 2159,
      "वड़": 2160,
      "शक": 2161,
      "शनि": 2162,
      "हल": 2163,
      "िक": 2164,
      "ून": 2165,
      "नाते": 2166,
      "कां": 2167,
      "काॅ": 2168,
      "कोठ": 2169,
      "ताकिना": 2170,
      "नियम": 2171,
      "लेज": 2172,
      "माकाना": 2173,
      "मायोम": 2174,
      "माराँग": 2175,
      "साड़ि": 2176,
      "गामु": 2177,
      "गाकाना": 2178,
      "रिज": 2179,
      "मिआ": 2180,
      "चिआ": 2181,
      "चिर": 2182,
      "चित्र": 2183,
      "सित": 2184,
      "सिबिल": 2185,
      "नेआओ": 2186,
      "सोना": 2187,
      "मेनाइया": 2188,
      "हां": 2189,
      "हाटिङ": 2190,
      "इनकिन": 2191,
      "लिजा": 2192,
      "हिस्सा": 2193,
      "विवे": 2194,
      "विदेश": 2195,
      "विधान": 2196,
      "विशेष": 2197,
      "रआःते": 2198,
      "जुदि": 2199,
      "जोका": 2200,
      "जोड़े": 2201,
      "मुङ": 2202,
      "मुसिङ": 2203,
      "बों": 2204,
      "तनी": 2205,
      "कजिआ": 2206,
      "सिदाउतार": 2207,
      "ओआकान": 2208,
      "म्बा": 2209,
      "ओकोय": 2210,
      "कनाए": 2211,
      "इतुआन": 2212,
      "बीर": 2213,
      "ज्ञ": 2214,
      "ड़ेः": 2215,
      "ंगेन": 2216,
      "सारतेगे": 2217,
      "तादाको": 2218,
      "स्ट्रे": 2219,
      "पूर": 2220,
      "जादाको": 2221,
      "बलय": 2222,
      "वर्ग": 2223,
      "होनोबा": 2224,
      "भोरसा": 2225,
      "ज्ञानिक": 2226,
      "कदाए": 2227,
      "फ्ट": 2228,
      "जारगि": 2229,
      "मैच": 2230,
      "नमोगा": 2231,
      "तूम": 2232,
      "उकुता": 2233,
      "उयुः": 2234,
      "वैज्ञानिक": 2235,
      "जेताए": 2236,
      "स्टेशन": 2237,
      "आड़ानदि": 2238,
      "परीक्षा": 2239,
      "पूर्ण": 2240,
      "जुगुतु": 2241,
      "आसराए": 2242,
      "सेटेर": 2243,
      "हिनिजुः": 2244,
      "चिउलाओ": 2245,
      "बधाई": 2246,
      "ंआ": 2247,
      "ंपि": 2248,
      "ःआ": 2249,
      "अद": 2250,
      "अगर": 2251,
      "अकना": 2252,
      "अर्थ": 2253,
      "अलोम": 2254,
      "अपाना": 2255,
      "आत": 2256,
      "आचु": 2257,
      "उरू": 2258,
      "एक": 2259,
      "कने": 2260,
      "कले": 2261,
      "कटी": 2262,
      "खे": 2263,
      "गढ़": 2264,
      "गति": 2265,
      "चन": 2266,
      "टू": 2267,
      "ट्र": 2268,
      "तै": 2269,
      "दअः": 2270,
      "नै": 2271,
      "पता": 2272,
      "पक्ष": 2273,
      "परोम": 2274,
      "बज": 2275,
      "बढ़": 2276,
      "बलाए": 2277,
      "यी": 2278,
      "रै": 2279,
      "रजि": 2280,
      "वृ": 2281,
      "शू": 2282,
      "शक्ति": 2283,
      "षी": 2284,
      "सरे": 2285,
      "सन्": 2286,
      "हला": 2287,
      "ेआ": 2288,
      "रेम": 2289,
      "रेगी": 2290,
      "तेद": 2291,
      "तेयो": 2292,
      "नेलेकन": 2293,
      "जारा": 2294,
      "बारी": 2295,
      "बालु": 2296,
      "बाबू": 2297,
      "दारु": 2298,
      "निमत": 2299,
      "मां": 2300,
      "लाख": 2301,
      "लाञ": 2302,
      "लाम": 2303,
      "सारे": 2304,
      "सागाते": 2305,
      "रिश्": 2306,
      "चिमि": 2307,
      "चिल्": 2308,
      "वाय": 2309,
      "जानाओ": 2310,
      "सुल": 2311,
      "योवा": 2312,
      "योगि": 2313,
      "दुड़ु": 2314,
      "पुलाइ": 2315,
      "लिका": 2316,
      "लिजाः": 2317,
      "तानकोआः": 2318,
      "तानताइकेनाएः": 2319,
      "तानाम": 2320,
      "लेकानाः": 2321,
      "आञे": 2322,
      "आञो": 2323,
      "विधि": 2324,
      "पें": 2325,
      "पेन": 2326,
      "जीत": 2327,
      "गियु": 2328,
      "मुटान": 2329,
      "न्दि": 2330,
      "बोओः": 2331,
      "बोतो": 2332,
      "बोर्ड": 2333,
      "लेलकेआते": 2334,
      "सेनकेना": 2335,
      "कजिको": 2336,
      "पिड़ि": 2337,
      "रुप": 2338,
      "कामिको": 2339,
      "काजिओःआ": 2340,
      "ओकोएः": 2341,
      "लेनाएः": 2342,
      "ओमकेदा": 2343,
      "राजस्थान": 2344,
      "नामजाना": 2345,
      "शिया": 2346,
      "चीज": 2347,
      "लागातिङ": 2348,
      "ज्यो": 2349,
      "नअःदो": 2350,
      "खोब्": 2351,
      "सेसेनतान": 2352,
      "परिष": 2353,
      "पंजा": 2354,
      "सूर": 2355,
      "सोबेनकोआते": 2356,
      "बनोः": 2357,
      "मरङ": 2358,
      "जोरते": 2359,
      "अइञ": 2360,
      "अधिकार": 2361,
      "कदम": 2362,
      "लोकतंत्र": 2363,
      "लानदा": 2364,
      "ग्रह": 2365,
      "दुबाकान": 2366,
      "्यूटर": 2367,
      "बराबरी": 2368,
      "रेंगेः": 2369,
      "होसोड़ो": 2370,
      "सचिव": 2371,
      "बाइओगा": 2372,
      "गुजरात": 2373,
      "..": 2374,
      "अउ": 2375,
      "अको": 2376,
      "आऊ": 2377,
      "आस": 2378,
      "आबा": 2379,
      "आपा": 2380,
      "आयो": 2381,
      "आकन": 2382,
      "आतोम": 2383,
      "इत": 2384,
      "इपिल": 2385,
      "एच": 2386,
      "एफ": 2387,
      "ओता": 2388,
      "ओटा": 2389,
      "खन": 2390,
      "ख्या": 2391,
      "गत": 2392,
      "ग्रे": 2393,
      "ग्री": 2394,
      "चलव": 2395,
      "जमान": 2396,
      "नई": 2397,
      "पड़ा": 2398,
      "बॉ": 2399,
      "बहु": 2400,
      "भु": 2401,
      "भक्ति": 2402,
      "रवि": 2403,
      "लअ": 2404,
      "वत": 2405,
      "समि": 2406,
      "सब्": 2407,
      "सहर": 2408,
      "हगा": 2409,
      "नांगेन": 2410,
      "रेट": 2411,
      "काइ": 2412,
      "कारि": 2413,
      "कोयो": 2414,
      "राशि": 2415,
      "केम": 2416,
      "नेमा": 2417,
      "नेपेल": 2418,
      "मेला": 2419,
      "होड": 2420,
      "होरो": 2421,
      "लेद": 2422,
      "माः": 2423,
      "गेञ": 2424,
      "यात्रा": 2425,
      "साफा": 2426,
      "दोर": 2427,
      "सिनेमा": 2428,
      "ताइनो": 2429,
      "पाटी": 2430,
      "पाएसा": 2431,
      "सोज": 2432,
      "इनिअ": 2433,
      "सुध": 2434,
      "स्तु": 2435,
      "स्कार": 2436,
      "मोका": 2437,
      "मोड़े": 2438,
      "योआ": 2439,
      "दुकान": 2440,
      "पुड़ि": 2441,
      "टाओ": 2442,
      "होबाओःआ": 2443,
      "बुटा": 2444,
      "बुड़ु": 2445,
      "रोब": 2446,
      "द्दा": 2447,
      "रिकाया": 2448,
      "जीद": 2449,
      "ओःतान": 2450,
      "सोबेनते": 2451,
      "रूद": 2452,
      "प्री": 2453,
      "प्रया": 2454,
      "प्रकृति": 2455,
      "प्रसाद": 2456,
      "देवी": 2457,
      "गुण": 2458,
      "गुना": 2459,
      "लेलकेदा": 2460,
      "डाक्टर": 2461,
      "जेपी": 2462,
      "होड़ोकोआ": 2463,
      "त्या": 2464,
      "संड": 2465,
      "संबंध": 2466,
      "सीमा": 2467,
      "ब्रि": 2468,
      "अरजि": 2469,
      "इनकुको": 2470,
      "मंच": 2471,
      "मंजू": 2472,
      "समस्या": 2473,
      "दाड़िजाना": 2474,
      "वीडियो": 2475,
      "दाड़िजाना": 2476,
      "इमनुङ": 2477,
      "उनुबार": 2478,
      "उनुरूम": 2479,
      "पंचा": 2480,
      "किरिंग": 2481,
      "आबुआ": 2482,
      "भोगोमान": 2483,
      "लागाव": 2484,
      "होबाओःताना": 2485,
      "आलोपे": 2486,
      "पतिया": 2487,
      "तिंगुन": 2488,
      "बोरसा": 2489,
      "ओमेआ": 2490,
      "बानचाव": 2491,
      "सलमान": 2492,
      "भूमि": 2493,
      "तिङगु": 2494,
      "ब्रह्": 2495,
      "माइनान": 2496,
      "खिलाफ": 2497,
      "होसोड़ो": 2498,
      "ब्लाग": 2499,
      "विश्वविद्यालय": 2500,
      "इलाका": 2501,
      "तकनी": 2502,
      "चांडुः": 2503,
      "ओनमान": 2504,
      "भ्रष्टाचार": 2505,
      "जवाब": 2506,
      "दुड़ुम": 2507,
      "ज्योति": 2508,
      "परिषद": 2509,
      "ंजी": 2510,
      "असि": 2511,
      "असरा": 2512,
      "आसि": 2513,
      "आकना": 2514,
      "उन": 2515,
      "उड़": 2516,
      "उल्": 2517,
      "उदू": 2518,
      "ओज": 2519,
      "ओका": 2520,
      "ओताना": 2521,
      "करा": 2522,
      "गढ़": 2523,
      "जंग": 2524,
      "ठे": 2525,
      "थे": 2526,
      "दस": 2527,
      "नंबर": 2528,
      "पम": 2529,
      "बड़": 2530,
      "बल्": 2531,
      "मण": 2532,
      "मही": 2533,
      "रक": 2534,
      "लते": 2535,
      "वं": 2536,
      "शर": 2537,
      "समु": 2538,
      "सनाम": 2539,
      "सत्ता": 2540,
      "हक": 2541,
      "हना": 2542,
      "हपा": 2543,
      "हरिया": 2544,
      "।।": 2545,
      "नाग": 2546,
      "नायक": 2547,
      "रेपे": 2548,
      "काग": 2549,
      "तेञ": 2550,
      "राबाङ": 2551,
      "केश": 2552,
      "केन्द्र": 2553,
      "नेला": 2554,
      "नेसा": 2555,
      "नेसाः": 2556,
      "जाला": 2557,
      "जारी": 2558,
      "बाब": 2559,
      "दारू": 2560,
      "नितिर": 2561,
      "यां": 2562,
      "साङ": 2563,
      "गाम": 2564,
      "गाल": 2565,
      "मिक": 2566,
      "कुन": 2567,
      "कुड़": 2568,
      "पाइ": 2569,
      "नेआराः": 2570,
      "सोनो": 2571,
      "इनिलोः": 2572,
      "वार्ड": 2573,
      "वाणी": 2574,
      "सुपर": 2575,
      "सुगाड़ा": 2576,
      "हाका": 2577,
      "हाड़ा": 2578,
      "हाटि": 2579,
      "स्तर": 2580,
      "मोए": 2581,
      "दुड़ु": 2582,
      "दुकू": 2583,
      "दिवस": 2584,
      "चाओ": 2585,
      "चासा": 2586,
      "टाआं": 2587,
      "लिंगि": 2588,
      "तुका": 2589,
      "तुला": 2590,
      "बुध": 2591,
      "हित": 2592,
      "हिसब": 2593,
      "विस": 2594,
      "विजय": 2595,
      "क्शन": 2596,
      "सोबेनाः": 2597,
      "बिङ": 2598,
      "बियुर": 2599,
      "टेल": 2600,
      "प्रस्ता": 2601,
      "प्रशासन": 2602,
      "न्याय": 2603,
      "बोङा": 2604,
      "कानून": 2605,
      "कोआएः": 2606,
      "डित": 2607,
      "कानाजि": 2608,
      "केआतेगे": 2609,
      "त्मक": 2610,
      "तीस": 2611,
      "युक्त": 2612,
      "संसार": 2613,
      "संजय": 2614,
      "कामिरे": 2615,
      "काजिकेदा": 2616,
      "काजिकेदाएः": 2617,
      "तोवा": 2618,
      "पोड़ो": 2619,
      "ब्लॉ": 2620,
      "ताइनाएः": 2621,
      "चें": 2622,
      "शास्": 2623,
      "हेड़े": 2624,
      "एटेगोआ": 2625,
      "अइंगके": 2626,
      "एआको": 2627,
      "प्रिय": 2628,
      "राजधानी": 2629,
      "हिजुःयना": 2630,
      "आउकेआते": 2631,
      "खाना": 2632,
      "तइनाय": 2633,
      "सुकुआ": 2634,
      "आंव": 2635,
      "धिया": 2636,
      "इंडिया": 2637,
      "उनुदुब्": 2638,
      "एसकार": 2639,
      "उदुबकेदा": 2640,
      "सूचना": 2641,
      "भावना": 2642,
      "बनोःआ": 2643,
      "होबाओःअ": 2644,
      "ग्राम": 2645,
      "पुरअःगे": 2646,
      "सलाह": 2647,
      "मारसाल": 2648,
      "घाटि": 2649,
      "गोपोए": 2650,
      "हानाटिङ": 2651,
      "आपुते": 2652,
      "ष्णु": 2653,
      "कार्यक्रम": 2654,
      "अइंआ": 2655,
      "पत्रकार": 2656,
      "दंगड़ी": 2657,
      "संस्कृत": 2658,
      "पढ़ाव": 2659,
      "मुंबई": 2660,
      "लक्ष्": 2661,
      "जन्म": 2662,
      "प्रबंधन": 2663,
      "मुरतु": 2664,
      "उनुड़ुः": 2665,
      "चिआचि": 2666,
      "चिल्का": 2667,
      "ंच": 2668,
      "ंदि": 2669,
      "ंबु": 2670,
      "ंसी": 2671,
      "अय": 2672,
      "अह": 2673,
      "अएआ": 2674,
      "आग": 2675,
      "आधार": 2676,
      "उस": 2677,
      "उदा": 2678,
      "एजे": 2679,
      "एकला": 2680,
      "एङगा": 2681,
      "एकदम": 2682,
      "कते": 2683,
      "खर्चा": 2684,
      "जोः": 2685,
      "जहा": 2686,
      "झी": 2687,
      "ट्रो": 2688,
      "तअ": 2689,
      "दै": 2690,
      "नती": 2691,
      "नपाम": 2692,
      "पसराव": 2693,
      "भक्त": 2694,
      "मद": 2695,
      "मड़ि": 2696,
      "यते": 2697,
      "रति": 2698,
      "रसि": 2699,
      "रचना": 2700,
      "लत": 2701,
      "लम": 2702,
      "लर": 2703,
      "सपा": 2704,
      "हमि": 2705,
      "ृष्": 2706,
      "ड़व": 2707,
      "नामे": 2708,
      "ताकिन": 2709,
      "तेदो": 2710,
      "तेबअः": 2711,
      "राकाना": 2712,
      "नेस": 2713,
      "नेआः": 2714,
      "नेकन": 2715,
      "बाजार": 2716,
      "मेल": 2717,
      "निजी": 2718,
      "निवे": 2719,
      "नियर": 2720,
      "होड़": 2721,
      "होंका": 2722,
      "लेपे": 2723,
      "मांडि": 2724,
      "याम": 2725,
      "साध": 2726,
      "साह": 2727,
      "साड़ा": 2728,
      "रिङ": 2729,
      "चिऊ": 2730,
      "बेदा": 2731,
      "ताइजाना": 2732,
      "सोबोन": 2733,
      "सोङगे": 2734,
      "सोओज": 2735,
      "इनिया": 2736,
      "इनिगा": 2737,
      "वारी": 2738,
      "वाकान": 2739,
      "वाकाना": 2740,
      "जिन": 2741,
      "जिनी": 2742,
      "जिदन": 2743,
      "किसान": 2744,
      "कितब": 2745,
      "र्फ": 2746,
      "र्व": 2747,
      "र्जी": 2748,
      "हाइ": 2749,
      "हाबि": 2750,
      "हारिआ": 2751,
      "स्ति": 2752,
      "मोटो": 2753,
      "चाहे": 2754,
      "गोट": 2755,
      "गोजो": 2756,
      "हिसाब": 2757,
      "वित": 2758,
      "विष्णु": 2759,
      "क्का": 2760,
      "जुड़ा": 2761,
      "ओःका": 2762,
      "सोबेनकोआः": 2763,
      "मुल": 2764,
      "न्ध": 2765,
      "न्हा": 2766,
      "देर": 2767,
      "हिजुआ": 2768,
      "बाइरि": 2769,
      "बाइआकान": 2770,
      "जेतना": 2771,
      "पिटि": 2772,
      "टोगो": 2773,
      "संघ": 2774,
      "सिदाते": 2775,
      "ओकोता": 2776,
      "ंडर": 2777,
      "हेए": 2778,
      "प्त": 2779,
      "सनमंग": 2780,
      "हिजुःताना": 2781,
      "सिङबोंगा": 2782,
      "श्वर": 2783,
      "पुराःगे": 2784,
      "हुड़िग": 2785,
      "खिर": 2786,
      "तयोमते": 2787,
      "सिंगी": 2788,
      "एसपी": 2789,
      "अपरा": 2790,
      "ट्स": 2791,
      "वरण": 2792,
      "परियोजना": 2793,
      "मानातिंग": 2794,
      "बादली": 2795,
      "दूर": 2796,
      "ग्रा": 2797,
      "संगठन": 2798,
      "लेलोगा": 2799,
      "फ्ता": 2800,
      "होबाओताना": 2801,
      "छात्र": 2802,
      "निकुआ": 2803,
      "खुरजि": 2804,
      "अंतर": 2805,
      "धारण": 2806,
      "सुरक्षा": 2807,
      "लेलेमे": 2808,
      "झार": 2809,
      "नौकरी": 2810,
      "आयुब": 2811,
      "कार्यालय": 2812,
      "सचिन": 2813,
      "रेलवे": 2814,
      "साँगि": 2815,
      "उदम": 2816,
      "उडुंग": 2817,
      "लगातिंगअः": 2818,
      "यंत्र": 2819,
      "हुडिङ": 2820,
      "प्रधानमंत्री": 2821,
      "रिड़िङ": 2822,
      "सीबीआई": 2823,
      "इंटरनेट": 2824,
      "आतंक": 2825,
      "पंजाब": 2826,
      "समिति": 2827,
      "प्रयास": 2828,
      "महीना": 2829,
      "जालाकार": 2830,
      "टाआंओ": 2831,
      "हाबिः": 2832,
      "ँगा": 2833,
      "ंज": 2834,
      "अनि": 2835,
      "अबू": 2836,
      "अशो": 2837,
      "अकाद": 2838,
      "आखिर": 2839,
      "एं": 2840,
      "एया": 2841,
      "ओं": 2842,
      "कर्म": 2843,
      "गमा": 2844,
      "गमु": 2845,
      "चू": 2846,
      "चंद": 2847,
      "चक्र": 2848,
      "चर्चा": 2849,
      "छे": 2850,
      "छपा": 2851,
      "जपअः": 2852,
      "ञमे": 2853,
      "डल": 2854,
      "ढा": 2855,
      "तय": 2856,
      "तद्": 2857,
      "तत्व": 2858,
      "नव": 2859,
      "नडा": 2860,
      "पट": 2861,
      "पौ": 2862,
      "बकं": 2863,
      "मशी": 2864,
      "मखिल": 2865,
      "शं": 2866,
      "शब्": 2867,
      "सव": 2868,
      "सहा": 2869,
      "सही": 2870,
      "हम्": 2871,
      "्स": 2872,
      "ड़म": 2873,
      "ढ़ी": 2874,
      "नामेआ": 2875,
      "नाड़ेः": 2876,
      "रेञ": 2877,
      "रेंग": 2878,
      "रेलगा": 2879,
      "कोट": 2880,
      "कोरेआ": 2881,
      "कोलोः": 2882,
      "तां": 2883,
      "ताद": 2884,
      "तानेः": 2885,
      "तेम": 2886,
      "रानी": 2887,
      "राजे": 2888,
      "बाव": 2889,
      "बाला": 2890,
      "बाजी": 2891,
      "बाबत": 2892,
      "लेकेआते": 2893,
      "लेनाः": 2894,
      "माँ": 2895,
      "याकन": 2896,
      "सारा": 2897,
      "सासाङ": 2898,
      "तिः": 2899,
      "तिहा": 2900,
      "दोम": 2901,
      "दोकान": 2902,
      "सेड़ा": 2903,
      "चित": 2904,
      "चिल": 2905,
      "चिमुङ": 2906,
      "चिलिका": 2907,
      "सिद्धा": 2908,
      "ोःका": 2909,
      "सोबन": 2910,
      "सोमोए": 2911,
      "वासी": 2912,
      "किला": 2913,
      "सुगड़": 2914,
      "र्ष": 2915,
      "र्जा": 2916,
      "हालि": 2917,
      "स्टो": 2918,
      "चाय": 2919,
      "चारी": 2920,
      "चार्य": 2921,
      "होबाजान": 2922,
      "होबायना": 2923,
      "लिपि": 2924,
      "गोवा": 2925,
      "लोअ": 2926,
      "बुआ": 2927,
      "बुड़ु": 2928,
      "हिसा": 2929,
      "रोह": 2930,
      "रोका": 2931,
      "द्रा": 2932,
      "क्रा": 2933,
      "जोला": 2934,
      "जोतो": 2935,
      "इनिःको": 2936,
      "एनतअः": 2937,
      "बिपि": 2938,
      "गिड़ि": 2939,
      "टेन": 2940,
      "हुकुम": 2941,
      "मुन": 2942,
      "मुना": 2943,
      "प्रमाण": 2944,
      "प्रक्रिया": 2945,
      "एनाद": 2946,
      "बोङगा": 2947,
      "देड़े": 2948,
      "लेलजाना": 2949,
      "त्त": 2950,
      "त्कार": 2951,
      "मीद": 2952,
      "मीर": 2953,
      "पिति": 2954,
      "संस": 2955,
      "म्ब": 2956,
      "सरति": 2957,
      "इनकुः": 2958,
      "ङान": 2959,
      "हेंदे": 2960,
      "मानडि": 2961,
      "प्या": 2962,
      "सनरति": 2963,
      "तइकेनाय": 2964,
      "चीनी": 2965,
      "वीं": 2966,
      "बीजेपी": 2967,
      "फाइल": 2968,
      "सुकुआन": 2969,
      "नेताको": 2970,
      "आनंद": 2971,
      "सेनोःतान": 2972,
      "आयागा": 2973,
      "तादाए": 2974,
      "लुतूम": 2975,
      "उनुड़ु": 2976,
      "साःते": 2977,
      "हारातिङ": 2978,
      "कुड़िको": 2979,
      "दड़िओः": 2980,
      "देशक": 2981,
      "जपागर": 2982,
      "पंच": 2983,
      "आपिर": 2984,
      "वर्ण": 2985,
      "शील": 2986,
      "भोग": 2987,
      "ज्ञापन": 2988,
      "क्रो": 2989,
      "लाइः": 2990,
      "अटकरो": 2991,
      "उत्तरा": 2992,
      "स्वास्थ": 2993,
      "सामपोड़ो": 2994,
      "एदकान": 2995,
      "तदाए": 2996,
      "जैन": 2997,
      "सरिन": 2998,
      "विद्या": 2999,
      "लैंड": 3000,
      "जोमेआः": 3001,
      "कहानी": 3002,
      "बगड़व": 3003,
      "उद्योग": 3004,
      "दुलडा": 3005,
      "चिआःचि": 3006,
      "मोड़ेआ": 3007,
      "हड़म": 3008,
      "राचाः": 3009,
      "रमल": 3010,
      "जाँच": 3011,
      "स्ट्रेलिया": 3012,
      "निमतंग": 3013,
      "होडमो": 3014,
      "कागज": 3015,
      "कुड़म": 3016,
      "प्रस्ताव": 3017,
      "झील": 3018,
      "जिनीद": 3019,
      "अशोक": 3020,
      "बिपिनगा": 3021,
      "अइन": 3022,
      "अड़ा": 3023,
      "आज": 3024,
      "आय": 3025,
      "आसा": 3026,
      "आर्": 3027,
      "आराः": 3028,
      "आगाम": 3029,
      "इञ": 3030,
      "इरि": 3031,
      "उपि": 3032,
      "एप": 3033,
      "एय": 3034,
      "एमा": 3035,
      "कप": 3036,
      "कबु": 3037,
      "कम्": 3038,
      "कथा": 3039,
      "क्री": 3040,
      "ककला": 3041,
      "गव": 3042,
      "गौ": 3043,
      "गरी": 3044,
      "घड़ी": 3045,
      "चपा": 3046,
      "चन्द्र": 3047,
      "चन्डुः": 3048,
      "चंड़ु": 3049,
      "छत्": 3050,
      "झव": 3051,
      "डर": 3052,
      "दक्ष": 3053,
      "दशा": 3054,
      "द्रो": 3055,
      "नक्स": 3056,
      "नपम": 3057,
      "पसे": 3058,
      "बकल": 3059,
      "मृ": 3060,
      "मॉ": 3061,
      "मस्": 3062,
      "मंड": 3063,
      "महे": 3064,
      "रचा": 3065,
      "वल": 3066,
      "सजा": 3067,
      "सबु": 3068,
      "सफा": 3069,
      "सफल": 3070,
      "हौ": 3071,
      "हनु": 3072,
      "ूना": 3073,
      "ृत": 3074,
      "नाराय": 3075,
      "रेबु": 3076,
      "काबु": 3077,
      "तेला": 3078,
      "राकान": 3079,
      "केस": 3080,
      "केंद्र": 3081,
      "जाआना": 3082,
      "बाज": 3083,
      "बाॅ": 3084,
      "बारो": 3085,
      "बागाड़ा": 3086,
      "दाइ": 3087,
      "दाना": 3088,
      "हों": 3089,
      "होनाः": 3090,
      "होटोः": 3091,
      "लेख": 3092,
      "माकन": 3093,
      "मारंग": 3094,
      "लाएः": 3095,
      "लाड़ा": 3096,
      "लाचो": 3097,
      "लालू": 3098,
      "सात": 3099,
      "साजा": 3100,
      "साड़ि": 3101,
      "गान": 3102,
      "गाड़ि": 3103,
      "गाड़ि": 3104,
      "रिं": 3105,
      "दोष": 3106,
      "मिस": 3107,
      "चिद": 3108,
      "बेपार": 3109,
      "कुड़ा": 3110,
      "कुली": 3111,
      "पारो": 3112,
      "पासरा": 3113,
      "सोनिया": 3114,
      "सोंगड़ा": 3115,
      "मेनाञा": 3116,
      "वाई": 3117,
      "वारा": 3118,
      "वास्त": 3119,
      "जिलि": 3120,
      "जिम्": 3121,
      "जिलु": 3122,
      "किनो": 3123,
      "हाई": 3124,
      "हासुर": 3125,
      "मोद्": 3126,
      "योन": 3127,
      "केदाम": 3128,
      "चापा": 3129,
      "चापु": 3130,
      "होबालेन": 3131,
      "लिस्ट": 3132,
      "लोआ": 3133,
      "लोड": 3134,
      "लोब": 3135,
      "आञके": 3136,
      "एन्": 3137,
      "एनते": 3138,
      "एनरेओ": 3139,
      "बिरूद": 3140,
      "आतेआ": 3141,
      "मुसलमान": 3142,
      "एनाको": 3143,
      "न्स": 3144,
      "देपे": 3145,
      "कोआको": 3146,
      "गुटु": 3147,
      "हिजुजाना": 3148,
      "बाइरिका": 3149,
      "बाइकेआते": 3150,
      "डाॅ": 3151,
      "त्सा": 3152,
      "टिया": 3153,
      "कजिया": 3154,
      "मीयद": 3155,
      "टोला": 3156,
      "संस्था": 3157,
      "ताःरे": 3158,
      "सींग": 3159,
      "सीआई": 3160,
      "जनता": 3161,
      "सरका": 3162,
      "ओकोआते": 3163,
      "पोकोतो": 3164,
      "निःआ": 3165,
      "लेनाए": 3166,
      "शास": 3167,
      "मंत्रा": 3168,
      "मानव": 3169,
      "जागारको": 3170,
      "प्ले": 3171,
      "समर्थ": 3172,
      "शिकाय": 3173,
      "बइरि": 3174,
      "दिसुमरे": 3175,
      "सिङगि": 3176,
      "कीन": 3177,
      "इदिओः": 3178,
      "ंदन": 3179,
      "सेनोःजानाएः": 3180,
      "गोनोङान": 3181,
      "धिकार": 3182,
      "लुतुर": 3183,
      "बारसा": 3184,
      "ओकोएआः": 3185,
      "इनीजा": 3186,
      "लाःको": 3187,
      "जादाञ": 3188,
      "आएःगे": 3189,
      "ट्ट": 3190,
      "सेंडा": 3191,
      "यूपी": 3192,
      "ंदान": 3193,
      "बोरोआन": 3194,
      "साइकिल": 3195,
      "दड़िओ": 3196,
      "एनकागे": 3197,
      "ठोरो": 3198,
      "भोपाल": 3199,
      "साङगिन": 3200,
      "तारालेका": 3201,
      "लेलोआ": 3202,
      "उपयोग": 3203,
      "कोड़ाको": 3204,
      "अटकार": 3205,
      "गोआरि": 3206,
      "धोन": 3207,
      "स्वस्थ": 3208,
      "रूआड़": 3209,
      "अनुभव": 3210,
      "कुड़िहोन": 3211,
      "मौसम": 3212,
      "उपुनिआ": 3213,
      "जाएं": 3214,
      "ओलाकन": 3215,
      "भीर": 3216,
      "अभियान": 3217,
      "श्रम": 3218,
      "चैनल": 3219,
      "अवसर": 3220,
      "लगव": 3221,
      "दंगड़ा": 3222,
      "संगिन": 3223,
      "मंगल": 3224,
      "व्यापार": 3225,
      "टिकट": 3226,
      "करोड़": 3227,
      "तईकेना": 3228,
      "अदालत": 3229,
      "कोटोंग": 3230,
      "आड़ान्दि": 3231,
      "होड़मो": 3232,
      "छुट्टी": 3233,
      "उताराकाना": 3234,
      "काकाला": 3235,
      "चिकिसा": 3236,
      "मसकल": 3237,
      "निमनुङ": 3238,
      "आकरिङ": 3239,
      "कुटुरि": 3240,
      "बजट": 3241,
      "रिश्ता": 3242,
      "बहुत": 3243,
      "संडका": 3244,
      "उल्टा": 3245,
      "जहाज": 3246,
      "बकंड़": 3247,
      "मशीन": 3248,
      "सासाङकिर": 3249,
      "स्वास्थ्य": 3250,
      "छत्तीस": 3251,
      "हनुमान": 3252,
      "लाड़ाइ": 3253,
      "कुड़ाम": 3254,
      "मंत्रालय": 3255,
      "ँकि": 3256,
      "अस": 3257,
      "अते": 3258,
      "अंग": 3259,
      "अलो": 3260,
      "अंक": 3261,
      "अकल": 3262,
      "आख": 3263,
      "आङ": 3264,
      "आठ": 3265,
      "आव": 3266,
      "आॅ": 3267,
      "आरा": 3268,
      "आमो": 3269,
      "आयर": 3270,
      "इले": 3271,
      "उब": 3272,
      "उरुम": 3273,
      "एद्": 3274,
      "एक्": 3275,
      "एक्स": 3276,
      "एतकन": 3277,
      "एशिया": 3278,
      "ओट": 3279,
      "ओगे": 3280,
      "ओएः": 3281,
      "ओरो": 3282,
      "कट": 3283,
      "कमा": 3284,
      "कपूर": 3285,
      "खण्ड": 3286,
      "गन": 3287,
      "गम": 3288,
      "गै": 3289,
      "गड़ा": 3290,
      "गौर": 3291,
      "चम": 3292,
      "चलन": 3293,
      "जए": 3294,
      "जअः": 3295,
      "जर्": 3296,
      "झु": 3297,
      "ट्यू": 3298,
      "तद": 3299,
      "दरू": 3300,
      "दडि": 3301,
      "धंटा": 3302,
      "नड़े": 3303,
      "नहला": 3304,
      "पहिला": 3305,
      "फ्रे": 3306,
      "बौ": 3307,
      "बगी": 3308,
      "भइर": 3309,
      "मई": 3310,
      "मय": 3311,
      "मको": 3312,
      "मता": 3313,
      "मध्य": 3314,
      "मधु": 3315,
      "रं": 3316,
      "रङ": 3317,
      "रल": 3318,
      "रस": 3319,
      "वरी": 3320,
      "सः": 3321,
      "सस": 3322,
      "हफ्ता": 3323,
      "ेश": 3324,
      "ोआ": 3325,
      "नापा": 3326,
      "नाँग": 3327,
      "रेनि": 3328,
      "कोलका": 3329,
      "ताव": 3330,
      "राबा": 3331,
      "रांस": 3332,
      "रापुद": 3333,
      "राजीव": 3334,
      "केओ": 3335,
      "केचा": 3336,
      "नेअ": 3337,
      "नेद": 3338,
      "नेडा": 3339,
      "नेपाल": 3340,
      "जाल": 3341,
      "जादी": 3342,
      "जामान": 3343,
      "बाउ": 3344,
      "बाहिर": 3345,
      "दाकान": 3346,
      "दाडी": 3347,
      "दारोम": 3348,
      "दांगड़ा": 3349,
      "नियु": 3350,
      "निमिन": 3351,
      "निमन": 3352,
      "होली": 3353,
      "होटल": 3354,
      "लेकिन": 3355,
      "मास": 3356,
      "लाकान": 3357,
      "साव": 3358,
      "सागर": 3359,
      "सांस": 3360,
      "सायाद": 3361,
      "साधारण": 3362,
      "गालेद": 3363,
      "रित": 3364,
      "रिद्": 3365,
      "रियर": 3366,
      "सिंगा": 3367,
      "कुट": 3368,
      "कुड़ी": 3369,
      "ताइकेन": 3370,
      "पाठ": 3371,
      "पाप": 3372,
      "पारी": 3373,
      "वाली": 3374,
      "किंग": 3375,
      "किसां": 3376,
      "सुरु": 3377,
      "सुधार": 3378,
      "सुआस": 3379,
      "र्ति": 3380,
      "र्ती": 3381,
      "हाद": 3382,
      "हारी": 3383,
      "स्को": 3384,
      "स्टी": 3385,
      "स्कर": 3386,
      "मोत": 3387,
      "मोती": 3388,
      "मोर्चा": 3389,
      "योगा": 3390,
      "दुरा": 3391,
      "दुसि": 3392,
      "इनई": 3393,
      "चारा": 3394,
      "चासि": 3395,
      "होबाआकाना": 3396,
      "होबालेनाः": 3397,
      "लिश": 3398,
      "लिंक": 3399,
      "गोल": 3400,
      "गोली": 3401,
      "तुल": 3402,
      "तुसिंग": 3403,
      "नोल": 3404,
      "तानलोः": 3405,
      "द्य": 3406,
      "क्लास": 3407,
      "रिकाकेदाएः": 3408,
      "रिकाकेदाको": 3409,
      "रिकाएमे": 3410,
      "जुग": 3411,
      "जुड़ा": 3412,
      "रेन्": 3413,
      "बित": 3414,
      "बिचार": 3415,
      "बिसुआस": 3416,
      "हुंडि": 3417,
      "हुपुड़ि": 3418,
      "मुसिंग": 3419,
      "मुटन": 3420,
      "मुद्दा": 3421,
      "मेनाःञा": 3422,
      "रूअड़": 3423,
      "जनाव": 3424,
      "जनाको": 3425,
      "प्रती": 3426,
      "प्रसार": 3427,
      "प्रणा": 3428,
      "न्यू": 3429,
      "देद": 3430,
      "कोआए": 3431,
      "डिप्": 3432,
      "गुलान": 3433,
      "नीय": 3434,
      "डाटा": 3435,
      "डाउन": 3436,
      "आरजि": 3437,
      "तीश": 3438,
      "टिल": 3439,
      "ल्स": 3440,
      "पित": 3441,
      "पिड़ि": 3442,
      "जानते": 3443,
      "काजिकेआते": 3444,
      "तोल": 3445,
      "म्बर": 3446,
      "जनचि": 3447,
      "होड़ोआः": 3448,
      "होड़ोकोअः": 3449,
      "सरदार": 3450,
      "पोरोब": 3451,
      "क्षक": 3452,
      "ब्लो": 3453,
      "गीता": 3454,
      "होरारे": 3455,
      "मंडि": 3456,
      "मंदिल": 3457,
      "हेता": 3458,
      "वेज": 3459,
      "प्ला": 3460,
      "टुन्डुः": 3461,
      "समझ": 3462,
      "पीट": 3463,
      "दाड़िआम": 3464,
      "आलेया": 3465,
      "शिका": 3466,
      "बइओः": 3467,
      "पुरस्कार": 3468,
      "ड़ें": 3469,
      "बुगिनअः": 3470,
      "ंदरा": 3471,
      "सेनोःताना": 3472,
      "नमयना": 3473,
      "नमूना": 3474,
      "धिकारी": 3475,
      "ंगे्र": 3476,
      "चुटि": 3477,
      "डेबे": 3478,
      "चिमन": 3479,
      "शनल": 3480,
      "आकानाएः": 3481,
      "पूंजी": 3482,
      "इनीः": 3483,
      "खिंस": 3484,
      "लाःञ": 3485,
      "हीरो": 3486,
      "इनुग": 3487,
      "ट्रेन": 3488,
      "अबुअः": 3489,
      "होनकोड़ा": 3490,
      "अलेआ": 3491,
      "ओमाकाना": 3492,
      "कलाकार": 3493,
      "पंडित": 3494,
      "टोओरेआ": 3495,
      "मनमोहन": 3496,
      "बादलि": 3497,
      "पारतेद": 3498,
      "भोट": 3499
    },
    "merges": [
      [
        "न",
        "ा"
      ],
      [
        "र",
        "े"
      ],
      [
        "क",
        "ा"
      ],
      [
        "क",
        "ो"
      ],
      [
        "त",
        "ा"
      ],
      [
        "त",
        "े"
      ],
      [
        "र",
        "ा"
      ],
      [
        "क",
        "े"
      ],
      [
        "न",
        "े"
      ],
      [
        "ज",
        "ा"
      ],
      [
        "ब",
        "ा"
      ],
      [
        "ड",
        "़"
      ],
      [
        "द",
        "ा"
      ],
      [
        "म",
        "े"
      ],
      [
        "ं",
        "ग"
      ],
      [
        "न",
        "ि"
      ],
      [
        "ह",
        "ो"
      ],
      [
        "ल",
        "े"
      ],
      [
        "म",
        "ा"
      ],
      [
        "ग",
        "े"
      ],
      [
        "ल",
        "ा"
      ],
      [
        "य",
        "ा"
      ],
      [
        "स",
        "ा"
      ],
      [
        "ग",
        "ा"
      ],
      [
        "र",
        "ि"
      ],
      [
        "त",
        "ि"
      ],
      [
        "द",
        "ो"
      ],
      [
        "म",
        "ि"
      ],
      [
        "स",
        "े"
      ],
      [
        "आ",
        "ः"
      ],
      [
        "च",
        "ि"
      ],
      [
        "स",
        "ि"
      ],
      [
        "ब",
        "े"
      ],
      [
        "ो",
        "ः"
      ],
      [
        "अ",
        "ः"
      ],
      [
        "क",
        "ु"
      ],
      [
        "ता",
        "इ"
      ],
      [
        "प",
        "ा"
      ],
      [
        "्",
        "र"
      ],
      [
        "ने",
        "आ"
      ],
      [
        "स",
        "ो"
      ],
      [
        "के",
        "ना"
      ],
      [
        "इ",
        "नि"
      ],
      [
        "मे",
        "ना"
      ],
      [
        "व",
        "ा"
      ],
      [
        "ज",
        "ि"
      ],
      [
        "क",
        "ि"
      ],
      [
        "जा",
        "ना"
      ],
      [
        "स",
        "ु"
      ],
      [
        "र",
        "्"
      ],
      [
        "ह",
        "ा"
      ],
      [
        "ए",
        "ः"
      ],
      [
        "स",
        "्"
      ],
      [
        "म",
        "ो"
      ],
      [
        "य",
        "ो"
      ],
      [
        "द",
        "ु"
      ],
      [
        "के",
        "दा"
      ],
      [
        "द",
        "ि"
      ],
      [
        "इ",
        "न"
      ],
      [
        "मे",
        "न"
      ],
      [
        "रा",
        "ः"
      ],
      [
        "प",
        "ु"
      ],
      [
        "च",
        "ा"
      ],
      [
        "ट",
        "ा"
      ],
      [
        "ताइ",
        "केना"
      ],
      [
        "हो",
        "बा"
      ],
      [
        "ल",
        "ि"
      ],
      [
        "ड़",
        "ा"
      ],
      [
        "ग",
        "ो"
      ],
      [
        "ल",
        "ो"
      ],
      [
        "ड़",
        "ो"
      ],
      [
        "त",
        "ु"
      ],
      [
        "ब",
        "ु"
      ],
      [
        "ह",
        "ि"
      ],
      [
        "न",
        "ो"
      ],
      [
        "ता",
        "न"
      ],
      [
        "ता",
        "ना"
      ],
      [
        "ले",
        "का"
      ],
      [
        "र",
        "ो"
      ],
      [
        "आ",
        "ञ"
      ],
      [
        "द",
        "्"
      ],
      [
        "व",
        "ि"
      ],
      [
        "क",
        "्"
      ],
      [
        "रि",
        "का"
      ],
      [
        "न",
        "ु"
      ],
      [
        "र",
        "आः"
      ],
      [
        "ज",
        "ु"
      ],
      [
        "ज",
        "ो"
      ],
      [
        "प",
        "े"
      ],
      [
        "सो",
        "बे"
      ],
      [
        "ड़",
        "ि"
      ],
      [
        "ज",
        "ी"
      ],
      [
        "ड़",
        "ा"
      ],
      [
        "इनि",
        "ः"
      ],
      [
        "ओ",
        "ः"
      ],
      [
        "ए",
        "न"
      ],
      [
        "रे",
        "आ"
      ],
      [
        "रे",
        "न"
      ],
      [
        "सोबे",
        "न"
      ],
      [
        "ब",
        "ि"
      ],
      [
        "ग",
        "ि"
      ],
      [
        "ट",
        "े"
      ],
      [
        "र",
        "ी"
      ],
      [
        "आ",
        "ते"
      ],
      [
        "ह",
        "ु"
      ],
      [
        "म",
        "ु"
      ],
      [
        "ड़",
        "ि"
      ],
      [
        "मेना",
        "ः"
      ],
      [
        "इ",
        "ंग"
      ],
      [
        "र",
        "ू"
      ],
      [
        "त",
        "ना"
      ],
      [
        "ज",
        "ना"
      ],
      [
        "प",
        "्र"
      ],
      [
        "ए",
        "ना"
      ],
      [
        "न",
        "्"
      ],
      [
        "ब",
        "ो"
      ],
      [
        "त",
        "न"
      ],
      [
        "का",
        "न"
      ],
      [
        "द",
        "े"
      ],
      [
        "को",
        "आ"
      ],
      [
        "ड",
        "ि"
      ],
      [
        "भ",
        "ा"
      ],
      [
        "क",
        "न"
      ],
      [
        "ग",
        "ु"
      ],
      [
        "ंग",
        "ा"
      ],
      [
        "हि",
        "जु"
      ],
      [
        "ग",
        "र"
      ],
      [
        "का",
        "ना"
      ],
      [
        "मेन",
        "ते"
      ],
      [
        "ओ",
        "ड़"
      ],
      [
        "ड़",
        "ु"
      ],
      [
        ":",
        "।"
      ],
      [
        "बा",
        "इ"
      ],
      [
        "ले",
        "ल"
      ],
      [
        "न",
        "ी"
      ],
      [
        "ओ",
        "ड़ो"
      ],
      [
        "ड",
        "ा"
      ],
      [
        "रे",
        "अः"
      ],
      [
        "आ",
        "द"
      ],
      [
        "ज",
        "े"
      ],
      [
        "के",
        "आते"
      ],
      [
        "से",
        "न"
      ],
      [
        "आ",
        "र"
      ],
      [
        "त",
        "इ"
      ],
      [
        "ल",
        "ी"
      ],
      [
        "ड",
        "ो"
      ],
      [
        "ने",
        "या"
      ],
      [
        "हो",
        "ड़ो"
      ],
      [
        "मेन",
        "दो"
      ],
      [
        "त",
        "्"
      ],
      [
        "का",
        "र"
      ],
      [
        "मि",
        "आद"
      ],
      [
        "गा",
        "र"
      ],
      [
        "त",
        "ी"
      ],
      [
        "ट",
        "ि"
      ],
      [
        "य",
        "ु"
      ],
      [
        "ल",
        "्"
      ],
      [
        "क",
        "जि"
      ],
      [
        "म",
        "ी"
      ],
      [
        "प",
        "ि"
      ],
      [
        "ट",
        "ो"
      ],
      [
        "यो",
        "म"
      ],
      [
        "ओड़",
        "ोः"
      ],
      [
        "स",
        "ं"
      ],
      [
        "ता",
        "ः"
      ],
      [
        "र",
        "ु"
      ],
      [
        "ड़",
        "ो"
      ],
      [
        "सि",
        "दा"
      ],
      [
        "कि",
        "न"
      ],
      [
        "स",
        "ी"
      ],
      [
        "का",
        "मि"
      ],
      [
        "जा",
        "न"
      ],
      [
        "त",
        "्र"
      ],
      [
        "ना",
        "ति"
      ],
      [
        "्",
        "य"
      ],
      [
        "बे",
        "से"
      ],
      [
        "ओ",
        "आ"
      ],
      [
        "ट",
        "ी"
      ],
      [
        "का",
        "जि"
      ],
      [
        "हो",
        "न"
      ],
      [
        "त",
        "ो"
      ],
      [
        "म",
        "्"
      ],
      [
        "ज",
        "न"
      ],
      [
        "हो",
        "ड़ो"
      ],
      [
        "स",
        "र"
      ],
      [
        "गे",
        "न"
      ],
      [
        "ना",
        "ः"
      ],
      [
        "ल",
        "ोः"
      ],
      [
        "द",
        "ी"
      ],
      [
        "ओ",
        "को"
      ],
      [
        "प",
        "ो"
      ],
      [
        "क्",
        "ष"
      ],
      [
        "ब",
        "्"
      ],
      [
        "अ",
        "र"
      ],
      [
        "इन",
        "कु"
      ],
      [
        "ध",
        "ा"
      ],
      [
        "ने",
        "का"
      ],
      [
        "नि",
        "ः"
      ],
      [
        "ले",
        "ना"
      ],
      [
        "आ",
        "ए"
      ],
      [
        "ताइ",
        "ना"
      ],
      [
        "ए",
        "टा"
      ],
      [
        "आ",
        "म"
      ],
      [
        "अ",
        "म"
      ],
      [
        "ं",
        "ड"
      ],
      [
        "ग",
        "ी"
      ],
      [
        "पा",
        "न"
      ],
      [
        "च",
        "े"
      ],
      [
        "क",
        "मि"
      ],
      [
        "उ",
        "ड़ु"
      ],
      [
        "हो",
        "रा"
      ],
      [
        "गा",
        "ति"
      ],
      [
        "श",
        "ा"
      ],
      [
        "ताइ",
        "न"
      ],
      [
        "ङ",
        "ा"
      ],
      [
        "रे",
        "गे"
      ],
      [
        "आ",
        "पान"
      ],
      [
        "इ",
        "सु"
      ],
      [
        "ओ",
        "म"
      ],
      [
        "म",
        "ं"
      ],
      [
        "ह",
        "े"
      ],
      [
        "क",
        "ना"
      ],
      [
        "ए",
        "टे"
      ],
      [
        "रा",
        "ङ"
      ],
      [
        "मा",
        "न"
      ],
      [
        "को",
        "आः"
      ],
      [
        "अ",
        "इंग"
      ],
      [
        "रे",
        "ओ"
      ],
      [
        "जा",
        "गार"
      ],
      [
        "व",
        "े"
      ],
      [
        "ए",
        "आ"
      ],
      [
        "र",
        "अ"
      ],
      [
        "ज",
        "गर"
      ],
      [
        "प",
        "्"
      ],
      [
        "त",
        "इन"
      ],
      [
        "के",
        "द"
      ],
      [
        "स",
        "न"
      ],
      [
        "ट",
        "ु"
      ],
      [
        "स",
        "म"
      ],
      [
        "ड़",
        "ु"
      ],
      [
        "ंग",
        "ि"
      ],
      [
        "रा",
        "ज"
      ],
      [
        "प",
        "ी"
      ],
      [
        "इ",
        "तु"
      ],
      [
        "इनि",
        "आः"
      ],
      [
        "ना",
        "म"
      ],
      [
        "हिजु",
        "ः"
      ],
      [
        "ओ",
        "डो"
      ],
      [
        "ता",
        "योम"
      ],
      [
        "आञ",
        "ा"
      ],
      [
        "तइ",
        "केना"
      ],
      [
        "ट",
        "र"
      ],
      [
        "ल",
        "का"
      ],
      [
        "दा",
        "ड़ि"
      ],
      [
        "त",
        "र"
      ],
      [
        "ब",
        "र"
      ],
      [
        "आ",
        "उ"
      ],
      [
        "ष",
        "्"
      ],
      [
        "को",
        "रे"
      ],
      [
        "उ",
        "दु"
      ],
      [
        "आ",
        "ले"
      ],
      [
        "श",
        "ि"
      ],
      [
        "सु",
        "म"
      ],
      [
        "ब",
        "इ"
      ],
      [
        "क",
        "र"
      ],
      [
        "दि",
        "सुम"
      ],
      [
        "च",
        "ी"
      ],
      [
        "सो",
        "मा"
      ],
      [
        "भा",
        "र"
      ],
      [
        "गे",
        "आ"
      ],
      [
        "ते",
        "गे"
      ],
      [
        "नाति",
        "न"
      ],
      [
        "चि",
        "लका"
      ],
      [
        "मा",
        "जा"
      ],
      [
        "पु",
        "र"
      ],
      [
        "सोमा",
        "ए"
      ],
      [
        "सि",
        "ङ"
      ],
      [
        "ड़",
        "े"
      ],
      [
        "श",
        "्"
      ],
      [
        "ता",
        "र"
      ],
      [
        "होड़ो",
        "को"
      ],
      [
        "ला",
        "गाति"
      ],
      [
        "ख",
        "ा"
      ],
      [
        "ओ",
        "ड़ा"
      ],
      [
        "तइ",
        "ना"
      ],
      [
        "व",
        "ी"
      ],
      [
        "सा",
        "ना"
      ],
      [
        "थ",
        "ा"
      ],
      [
        "ब",
        "ी"
      ],
      [
        "फ",
        "ि"
      ],
      [
        "य",
        "र"
      ],
      [
        "क",
        "ी"
      ],
      [
        "पु",
        "रा"
      ],
      [
        "फ",
        "ा"
      ],
      [
        "सि",
        "र"
      ],
      [
        "सु",
        "कु"
      ],
      [
        "बा",
        "न"
      ],
      [
        "ओः",
        "आ"
      ],
      [
        "इ",
        "दि"
      ],
      [
        "र",
        "ंग"
      ],
      [
        "ने",
        "ता"
      ],
      [
        "मि",
        "य"
      ],
      [
        "आ",
        "न"
      ],
      [
        "ज",
        "्"
      ],
      [
        "पु",
        "राः"
      ],
      [
        "ञ",
        "ा"
      ],
      [
        "बु",
        "गि"
      ],
      [
        "आ",
        "ं"
      ],
      [
        "जा",
        "ं"
      ],
      [
        "ताना",
        "ः"
      ],
      [
        "न",
        "गेन"
      ],
      [
        "ड़",
        "े"
      ],
      [
        "जो",
        "गा"
      ],
      [
        "ं",
        "द"
      ],
      [
        "सेन",
        "ोः"
      ],
      [
        "न",
        "म"
      ],
      [
        "गो",
        "नो"
      ],
      [
        "सि",
        "का"
      ],
      [
        "्",
        "रे"
      ],
      [
        "ध",
        "ि"
      ],
      [
        "्र",
        "ी"
      ],
      [
        "ओ",
        "ड़"
      ],
      [
        "न",
        "गा"
      ],
      [
        "तु",
        "म"
      ],
      [
        "ंग",
        "े"
      ],
      [
        "आ",
        "या"
      ],
      [
        "का",
        "ए"
      ],
      [
        "का",
        "एः"
      ],
      [
        "भार",
        "त"
      ],
      [
        "ह",
        "र"
      ],
      [
        "के",
        "द्"
      ],
      [
        "आ",
        "मा"
      ],
      [
        "न",
        "अः"
      ],
      [
        "ड",
        "ी"
      ],
      [
        "गो",
        "टा"
      ],
      [
        "ड",
        "ु"
      ],
      [
        "सा",
        "र"
      ],
      [
        "सिर",
        "मा"
      ],
      [
        "ड़",
        "ी"
      ],
      [
        "पु",
        "लि"
      ],
      [
        "ओड़",
        "ोः"
      ],
      [
        "केदा",
        "ए"
      ],
      [
        "हु",
        "ड़ि"
      ],
      [
        "लागाति",
        "ङा"
      ],
      [
        "ता",
        "दा"
      ],
      [
        "स्",
        "ट"
      ],
      [
        "ओ",
        "ल"
      ],
      [
        "च",
        "ु"
      ],
      [
        "ड",
        "े"
      ],
      [
        "चि",
        "म"
      ],
      [
        "रो",
        "म"
      ],
      [
        "चे",
        "तान"
      ],
      [
        "रे",
        "दो"
      ],
      [
        "दा",
        "ड़ि"
      ],
      [
        "मो",
        "यो"
      ],
      [
        "इ",
        "ं"
      ],
      [
        "श",
        "न"
      ],
      [
        "ल",
        "ु"
      ],
      [
        "आञा",
        "ः"
      ],
      [
        "पुलि",
        "स"
      ],
      [
        "ना",
        "गेन"
      ],
      [
        "मि",
        "न"
      ],
      [
        "बि",
        "नगा"
      ],
      [
        "आ",
        "काना"
      ],
      [
        "इ",
        "म"
      ],
      [
        "प",
        "ू"
      ],
      [
        "को",
        "म"
      ],
      [
        "बा",
        "र"
      ],
      [
        "ओको",
        "ए"
      ],
      [
        "उ",
        "नु"
      ],
      [
        "रि",
        "या"
      ],
      [
        "केदा",
        "एः"
      ],
      [
        "इन",
        "ी"
      ],
      [
        "उ",
        "ड़ु"
      ],
      [
        "ख",
        "ि"
      ],
      [
        "म",
        "ला"
      ],
      [
        "से",
        "नो"
      ],
      [
        "नु",
        "तुम"
      ],
      [
        "ख",
        "ो"
      ],
      [
        "का",
        "को"
      ],
      [
        "ला",
        "ः"
      ],
      [
        "त",
        "योम"
      ],
      [
        "प",
        "र"
      ],
      [
        "ब",
        "ै"
      ],
      [
        "ला",
        "ए"
      ],
      [
        "से",
        "सेन"
      ],
      [
        "सि",
        "ंग"
      ],
      [
        "एटे",
        "ः"
      ],
      [
        "फ",
        "ो"
      ],
      [
        "जा",
        "दा"
      ],
      [
        "सा",
        "ः"
      ],
      [
        "ति",
        "सिङ"
      ],
      [
        "ए",
        "स"
      ],
      [
        "ह",
        "ी"
      ],
      [
        "रा",
        "म"
      ],
      [
        "को",
        "अः"
      ],
      [
        "य",
        "ना"
      ],
      [
        "हा",
        "रा"
      ],
      [
        "जा",
        "केद"
      ],
      [
        "चा",
        "र"
      ],
      [
        "यु",
        "म"
      ],
      [
        "ते",
        "बा"
      ],
      [
        "नि",
        "या"
      ],
      [
        "कि",
        "ना"
      ],
      [
        "मेन",
        "अः"
      ],
      [
        "एटा",
        "ः"
      ],
      [
        "अ",
        "प"
      ],
      [
        "बा",
        "रा"
      ],
      [
        "डि",
        "या"
      ],
      [
        "त्र",
        "ी"
      ],
      [
        "आ",
        "एः"
      ],
      [
        "कु",
        "ड़ि"
      ],
      [
        "न",
        "वा"
      ],
      [
        "ने",
        "ताः"
      ],
      [
        "इन",
        "ु"
      ],
      [
        "चा",
        "नाः"
      ],
      [
        "उदु",
        "ब"
      ],
      [
        "आ",
        "कान"
      ],
      [
        "च",
        "ो"
      ],
      [
        "ट",
        "्"
      ],
      [
        "का",
        "री"
      ],
      [
        "आ",
        "इंग"
      ],
      [
        "ओ",
        "कोआ"
      ],
      [
        "द",
        "ड़ि"
      ],
      [
        "मा",
        "राङ"
      ],
      [
        "व",
        "र"
      ],
      [
        "लेका",
        "ते"
      ],
      [
        "बान",
        "ोः"
      ],
      [
        "मोयो",
        "द"
      ],
      [
        "होबा",
        "ओआ"
      ],
      [
        "आ",
        "ना"
      ],
      [
        "से",
        "ं"
      ],
      [
        "इ",
        "आ"
      ],
      [
        "क",
        "म"
      ],
      [
        "प",
        "रि"
      ],
      [
        "य",
        "ू"
      ],
      [
        "ला",
        "ङ"
      ],
      [
        "जो",
        "म"
      ],
      [
        "क",
        "ू"
      ],
      [
        "स",
        "मा"
      ],
      [
        "वा",
        "र"
      ],
      [
        "ङ",
        "गि"
      ],
      [
        "थ",
        "ि"
      ],
      [
        "श",
        "ु"
      ],
      [
        "ने",
        "ल"
      ],
      [
        "लेका",
        "न"
      ],
      [
        "्",
        "या"
      ],
      [
        "दे",
        "ंगा"
      ],
      [
        "बुगि",
        "न"
      ],
      [
        "ति",
        "ंग"
      ],
      [
        "दे",
        "श"
      ],
      [
        "ं",
        "दा"
      ],
      [
        "त",
        "अः"
      ],
      [
        "ब",
        "द"
      ],
      [
        "बो",
        "रो"
      ],
      [
        "अ",
        "बु"
      ],
      [
        "ठ",
        "ा"
      ],
      [
        "ब",
        "ल"
      ],
      [
        "म",
        "ू"
      ],
      [
        "ना",
        "वा"
      ],
      [
        "बा",
        "रि"
      ],
      [
        "हा",
        "तु"
      ],
      [
        "होन",
        "को"
      ],
      [
        "सम",
        "य"
      ],
      [
        "च",
        "ना"
      ],
      [
        "मे",
        "द"
      ],
      [
        "गा",
        "ड़ा"
      ],
      [
        "मो",
        "ने"
      ],
      [
        "हु",
        "ड़ि"
      ],
      [
        "साना",
        "ङ"
      ],
      [
        "अ",
        "ले"
      ],
      [
        "सि",
        "ं"
      ],
      [
        "दि",
        "न"
      ],
      [
        "आमा",
        "ः"
      ],
      [
        "म",
        "जा"
      ],
      [
        "हो",
        "डो"
      ],
      [
        "स",
        "रा"
      ],
      [
        "ना",
        "आः"
      ],
      [
        "जाना",
        "एः"
      ],
      [
        "मो",
        "य"
      ],
      [
        "होड़ो",
        "को"
      ],
      [
        "तायोम",
        "ते"
      ],
      [
        "ओ",
        "मा"
      ],
      [
        "ओ",
        "नो"
      ],
      [
        "क",
        "ला"
      ],
      [
        "ला",
        "ई"
      ],
      [
        "यो",
        "ग"
      ],
      [
        "हुड़ि",
        "ङ"
      ],
      [
        "ँ",
        "ग"
      ],
      [
        "ज",
        "पा"
      ],
      [
        "दा",
        "ः"
      ],
      [
        "सा",
        "इ"
      ],
      [
        "कि",
        "ः"
      ],
      [
        "र्",
        "ट"
      ],
      [
        "स्",
        "था"
      ],
      [
        "उड़ु",
        "ः"
      ],
      [
        "ं",
        "ध"
      ],
      [
        "दु",
        "कु"
      ],
      [
        "तो",
        "बे"
      ],
      [
        "सर",
        "कार"
      ],
      [
        "क",
        "ृ"
      ],
      [
        "जा",
        "पा"
      ],
      [
        "मा",
        "मला"
      ],
      [
        "कु",
        "ल"
      ],
      [
        "ड़ा",
        "ओ"
      ],
      [
        "हु",
        "ल"
      ],
      [
        "प",
        "ं"
      ],
      [
        "से",
        "ना"
      ],
      [
        "आ",
        "पि"
      ],
      [
        "द",
        "ड़ि"
      ],
      [
        "मा",
        "नाति"
      ],
      [
        "न्",
        "द"
      ],
      [
        "ओड़ा",
        "ः"
      ],
      [
        "मिय",
        "द"
      ],
      [
        "ंग",
        "्रे"
      ],
      [
        "मं",
        "त्री"
      ],
      [
        "का",
        "दा"
      ],
      [
        "या",
        "ते"
      ],
      [
        "कु",
        "लि"
      ],
      [
        "कि",
        "रि"
      ],
      [
        "टा",
        "का"
      ],
      [
        "ं",
        "क"
      ],
      [
        "आ",
        "को"
      ],
      [
        "व",
        "र्"
      ],
      [
        "चि",
        "मिन"
      ],
      [
        "र्",
        "य"
      ],
      [
        "ताइकेना",
        "एः"
      ],
      [
        "एन",
        "का"
      ],
      [
        "अ",
        "मा"
      ],
      [
        "ठ",
        "ो"
      ],
      [
        "का",
        "मी"
      ],
      [
        "बे",
        "स"
      ],
      [
        "टो",
        "ओ"
      ],
      [
        "आ",
        "युम"
      ],
      [
        "म",
        "न"
      ],
      [
        "स",
        "ू"
      ],
      [
        "दु",
        "ब"
      ],
      [
        "तान",
        "को"
      ],
      [
        "तन",
        "अः"
      ],
      [
        "ता",
        "ला"
      ],
      [
        "हो",
        "नो"
      ],
      [
        "ला",
        "ओ"
      ],
      [
        "ोः",
        "आ"
      ],
      [
        "जि",
        "नि"
      ],
      [
        "बो",
        "ंगा"
      ],
      [
        "ष्",
        "ट"
      ],
      [
        "ओनो",
        "ल"
      ],
      [
        "आ",
        "बु"
      ],
      [
        "ण",
        "ा"
      ],
      [
        "ब",
        "ू"
      ],
      [
        "श",
        "ी"
      ],
      [
        "रा",
        "सिका"
      ],
      [
        "बा",
        "द"
      ],
      [
        "पा",
        "र"
      ],
      [
        "दु",
        "ला"
      ],
      [
        "भा",
        "व"
      ],
      [
        "भ",
        "ो"
      ],
      [
        "सोबेन",
        "को"
      ],
      [
        "ज्",
        "ञा"
      ],
      [
        "ए",
        "म"
      ],
      [
        "ओ",
        "ते"
      ],
      [
        "क",
        "दा"
      ],
      [
        "ब",
        "न"
      ],
      [
        "व",
        "्य"
      ],
      [
        "बा",
        "ल"
      ],
      [
        "सा",
        "ङगि"
      ],
      [
        "पे",
        "ड़े"
      ],
      [
        "क्ष",
        "ा"
      ],
      [
        "ं",
        "ट"
      ],
      [
        "ठ",
        "ी"
      ],
      [
        "का",
        "म"
      ],
      [
        "जा",
        "आं"
      ],
      [
        "नेआ",
        "ते"
      ],
      [
        "ड़ा",
        "ः"
      ],
      [
        "आ",
        "ई"
      ],
      [
        "ट",
        "का"
      ],
      [
        "द",
        "ू"
      ],
      [
        "ता",
        "ङ"
      ],
      [
        "ला",
        "गा"
      ],
      [
        "मि",
        "सा"
      ],
      [
        "दु",
        "राङ"
      ],
      [
        "होबा",
        "ओः"
      ],
      [
        "पे",
        "रे"
      ],
      [
        "सोबे",
        "ना"
      ],
      [
        "टे",
        "ः"
      ],
      [
        "हु",
        "लाङ"
      ],
      [
        "क",
        "ं"
      ],
      [
        "क",
        "ल"
      ],
      [
        "क",
        "्र"
      ],
      [
        "ग",
        "्"
      ],
      [
        "ल",
        "य"
      ],
      [
        "दा",
        "न"
      ],
      [
        "केदा",
        "को"
      ],
      [
        "बु",
        "जा"
      ],
      [
        "फि",
        "ल्"
      ],
      [
        "ता",
        "रा"
      ],
      [
        "ता",
        "निः"
      ],
      [
        "होबा",
        "व"
      ],
      [
        "रु",
        "ड़ु"
      ],
      [
        "ए",
        "ंगा"
      ],
      [
        "ढ",
        "़"
      ],
      [
        "ब",
        "नो"
      ],
      [
        "र",
        "सिका"
      ],
      [
        "रे",
        "को"
      ],
      [
        "ले",
        "कन"
      ],
      [
        "सो",
        "मोय"
      ],
      [
        "होबा",
        "जाना"
      ],
      [
        "बर",
        "न"
      ],
      [
        "सिं",
        "ह"
      ],
      [
        "फिल्",
        "म"
      ],
      [
        "ज",
        "रू"
      ],
      [
        "म",
        "र"
      ],
      [
        "स",
        "ंग"
      ],
      [
        "ले",
        "लो"
      ],
      [
        "एन",
        "ता"
      ],
      [
        "आ",
        "लो"
      ],
      [
        "उ",
        "प"
      ],
      [
        "द",
        "न"
      ],
      [
        "प",
        "ति"
      ],
      [
        "का",
        "ञ"
      ],
      [
        "के",
        "याते"
      ],
      [
        "जो",
        "नो"
      ],
      [
        "मिय",
        "द्"
      ],
      [
        "बारा",
        "न"
      ],
      [
        "उ",
        "तर"
      ],
      [
        "उ",
        "तार"
      ],
      [
        "फ",
        "्"
      ],
      [
        "ल",
        "गाति"
      ],
      [
        "ने",
        "न"
      ],
      [
        "बा",
        "लाए"
      ],
      [
        "जोगा",
        "ओ"
      ],
      [
        "ं",
        "स"
      ],
      [
        "म",
        "त"
      ],
      [
        "य",
        "द्"
      ],
      [
        "जा",
        "र"
      ],
      [
        "नी",
        "ति"
      ],
      [
        "गोनो",
        "ङ"
      ],
      [
        "समा",
        "ज"
      ],
      [
        "तिंग",
        "ु"
      ],
      [
        "हुड़ि",
        "ङ"
      ],
      [
        "आ",
        "इ"
      ],
      [
        "इ",
        "या"
      ],
      [
        "ए",
        "ने"
      ],
      [
        "ज",
        "य"
      ],
      [
        "म",
        "हा"
      ],
      [
        "ना",
        "मो"
      ],
      [
        "रा",
        "इ"
      ],
      [
        "सा",
        "ंगि"
      ],
      [
        "कि",
        "आ"
      ],
      [
        "दु",
        "निया"
      ],
      [
        "दि",
        "र"
      ],
      [
        "चा",
        "ना"
      ],
      [
        "होबा",
        "ओ"
      ],
      [
        "एन",
        "ताः"
      ],
      [
        "ंड",
        "ु"
      ],
      [
        "ङ",
        "गा"
      ],
      [
        "ड",
        "ू"
      ],
      [
        "को",
        "ड़ा"
      ],
      [
        "बा",
        "नो"
      ],
      [
        "ला",
        "इ"
      ],
      [
        "या",
        "द"
      ],
      [
        "लो",
        "ओः"
      ],
      [
        "जो",
        "र"
      ],
      [
        "ल्",
        "ली"
      ],
      [
        "सार",
        "ते"
      ],
      [
        "ग",
        "ल"
      ],
      [
        "व",
        "न"
      ],
      [
        "श",
        "्री"
      ],
      [
        "का",
        "रेदो"
      ],
      [
        "ने",
        "कान"
      ],
      [
        "र्",
        "ड"
      ],
      [
        "पुर",
        "अः"
      ],
      [
        "जां",
        "ए"
      ],
      [
        "जोगा",
        "व"
      ],
      [
        "इ",
        "ति"
      ],
      [
        "क",
        "ै"
      ],
      [
        "स",
        "ला"
      ],
      [
        "ना",
        "ङ"
      ],
      [
        "ते",
        "आ"
      ],
      [
        "सि",
        "ंगि"
      ],
      [
        "पा",
        "ति"
      ],
      [
        "क्",
        "स"
      ],
      [
        "ड़ा",
        "ं"
      ],
      [
        "गि",
        "ड़ि"
      ],
      [
        "बो",
        "र"
      ],
      [
        "डि",
        "ंग"
      ],
      [
        "आया",
        "र"
      ],
      [
        "अ",
        "ए"
      ],
      [
        "ल",
        "ू"
      ],
      [
        "ल",
        "गा"
      ],
      [
        "मो",
        "चा"
      ],
      [
        "दि",
        "ल्ली"
      ],
      [
        "किः",
        "आ"
      ],
      [
        "टोओ",
        "र"
      ],
      [
        "छ",
        "ा"
      ],
      [
        "ते",
        "ओ"
      ],
      [
        "मा",
        "र"
      ],
      [
        "केदा",
        "ञ"
      ],
      [
        "इनु",
        "ङ"
      ],
      [
        "अ",
        "इ"
      ],
      [
        "अ",
        "ट"
      ],
      [
        "अ",
        "या"
      ],
      [
        "अ",
        "धि"
      ],
      [
        "उ",
        "त्"
      ],
      [
        "ज",
        "केद्"
      ],
      [
        "म",
        "ै"
      ],
      [
        "म",
        "रंग"
      ],
      [
        "ड़",
        "ी"
      ],
      [
        "नि",
        "कु"
      ],
      [
        "ले",
        "न"
      ],
      [
        "जि",
        "ला"
      ],
      [
        "कि",
        "र"
      ],
      [
        "हा",
        "र"
      ],
      [
        "स्",
        "वा"
      ],
      [
        "ड़ा",
        "व"
      ],
      [
        "मु",
        "ख"
      ],
      [
        "एना",
        "ते"
      ],
      [
        "क",
        "जी"
      ],
      [
        "ज",
        "मा"
      ],
      [
        "त",
        "ं"
      ],
      [
        "य",
        "न"
      ],
      [
        "बा",
        "गे"
      ],
      [
        "उड़ु",
        "ः"
      ],
      [
        "ओ",
        "मे"
      ],
      [
        "ओ",
        "ड़ाः"
      ],
      [
        "क",
        "द"
      ],
      [
        "ख",
        "ु"
      ],
      [
        "ट",
        "यद्"
      ],
      [
        "न",
        "मा"
      ],
      [
        "श",
        "े"
      ],
      [
        "को",
        "ते"
      ],
      [
        "जा",
        "रुड़ु"
      ],
      [
        "बा",
        "दि"
      ],
      [
        "पा",
        "ल"
      ],
      [
        "र्",
        "म"
      ],
      [
        "गो",
        "आ"
      ],
      [
        "जना",
        "ए"
      ],
      [
        "घ",
        "ा"
      ],
      [
        "त",
        "रा"
      ],
      [
        "ध",
        "ो"
      ],
      [
        "न",
        "मो"
      ],
      [
        "प",
        "ै"
      ],
      [
        "के",
        "ते"
      ],
      [
        "बा",
        "रे"
      ],
      [
        "गे",
        "ल"
      ],
      [
        "ति",
        "सिंग"
      ],
      [
        "स्",
        "व"
      ],
      [
        "गो",
        "पो"
      ],
      [
        "वि",
        "श्"
      ],
      [
        "रू",
        "आ"
      ],
      [
        "अ",
        "नु"
      ],
      [
        "हो",
        "यो"
      ],
      [
        "कु",
        "ड़ि"
      ],
      [
        "पा",
        "ड़ाओ"
      ],
      [
        "जाना",
        "ए"
      ],
      [
        "गो",
        "ए"
      ],
      [
        "गो",
        "म"
      ],
      [
        "डि",
        "यो"
      ],
      [
        "दाड़ि",
        "आ"
      ],
      [
        "तेबा",
        "ः"
      ],
      [
        "किरि",
        "ङ"
      ],
      [
        "अ",
        "पि"
      ],
      [
        "आ",
        "गु"
      ],
      [
        "ज",
        "ू"
      ],
      [
        "ण",
        "्"
      ],
      [
        "त",
        "ू"
      ],
      [
        "त",
        "किना"
      ],
      [
        "भ",
        "ि"
      ],
      [
        "व",
        "ो"
      ],
      [
        "ष",
        "ा"
      ],
      [
        "ह",
        "रा"
      ],
      [
        "रा",
        "ष्ट"
      ],
      [
        "जा",
        "ः"
      ],
      [
        "नि",
        "क"
      ],
      [
        "हो",
        "का"
      ],
      [
        "वा",
        "द"
      ],
      [
        "मो",
        "न"
      ],
      [
        "रिका",
        "एआ"
      ],
      [
        "चे",
        "तन"
      ],
      [
        "मं",
        "दिर"
      ],
      [
        "मानाति",
        "ङ"
      ],
      [
        "बादि",
        "लि"
      ],
      [
        "क",
        "को"
      ],
      [
        "ब",
        "ई"
      ],
      [
        "का",
        "आ"
      ],
      [
        "ता",
        "ल"
      ],
      [
        "जा",
        "मा"
      ],
      [
        "नि",
        "र"
      ],
      [
        "ला",
        "व"
      ],
      [
        "चि",
        "ना"
      ],
      [
        "नेआ",
        "रे"
      ],
      [
        "र्",
        "थ"
      ],
      [
        "गो",
        "एः"
      ],
      [
        "तान",
        "ताइकेना"
      ],
      [
        "पे",
        "ड़े"
      ],
      [
        "टि",
        "ंग"
      ],
      [
        "आए",
        "आः"
      ],
      [
        "फो",
        "टो"
      ],
      [
        "होनो",
        "र"
      ],
      [
        "त",
        "ंग"
      ],
      [
        "न",
        "ू"
      ],
      [
        "म",
        "ौ"
      ],
      [
        "ल",
        "न"
      ],
      [
        "सा",
        "ं"
      ],
      [
        "सा",
        "म"
      ],
      [
        "दो",
        "हो"
      ],
      [
        "चि",
        "नअः"
      ],
      [
        "स्",
        "तान"
      ],
      [
        "ताना",
        "एः"
      ],
      [
        "ग",
        "ं"
      ],
      [
        "त",
        "ला"
      ],
      [
        "ता",
        "को"
      ],
      [
        "सा",
        "ल"
      ],
      [
        "मि",
        "द"
      ],
      [
        "बे",
        "गार"
      ],
      [
        "सु",
        "गाड़ा"
      ],
      [
        "लो",
        "क"
      ],
      [
        "क्",
        "टर"
      ],
      [
        "इनिः",
        "अ"
      ],
      [
        "रेन",
        "को"
      ],
      [
        "दे",
        "व"
      ],
      [
        "जे",
        "तान"
      ],
      [
        "ए",
        "द"
      ],
      [
        "न",
        "डु"
      ],
      [
        "स",
        "द"
      ],
      [
        "का",
        "ंग्रे"
      ],
      [
        "जा",
        "रू"
      ],
      [
        "दा",
        "र"
      ],
      [
        "नि",
        "दा"
      ],
      [
        "सो",
        "ंगे"
      ],
      [
        "दु",
        "नु"
      ],
      [
        "तु",
        "ङ"
      ],
      [
        "क्",
        "ति"
      ],
      [
        "इतु",
        "आना"
      ],
      [
        "उ",
        "कु"
      ],
      [
        "उ",
        "पु"
      ],
      [
        "उ",
        "यु"
      ],
      [
        "ए",
        "पे"
      ],
      [
        "जा",
        "ए"
      ],
      [
        "बे",
        "गर"
      ],
      [
        "होडो",
        "को"
      ],
      [
        "काआ",
        "नि"
      ],
      [
        "अ",
        "ं"
      ],
      [
        "अ",
        "न"
      ],
      [
        "अ",
        "दि"
      ],
      [
        "अ",
        "यर"
      ],
      [
        "ए",
        "ते"
      ],
      [
        "ध",
        "्य"
      ],
      [
        "ब",
        "ंध"
      ],
      [
        "भ",
        "ग"
      ],
      [
        "य",
        "म"
      ],
      [
        "व",
        "ै"
      ],
      [
        "को",
        "आते"
      ],
      [
        "जा",
        "द"
      ],
      [
        "पा",
        "र्"
      ],
      [
        "हि",
        "न्"
      ],
      [
        "ओड़",
        "ो"
      ],
      [
        "राज",
        "्य"
      ],
      [
        "ं",
        "डि"
      ],
      [
        "अ",
        "स्"
      ],
      [
        "न",
        "ंग"
      ],
      [
        "र",
        "अः"
      ],
      [
        "रे",
        "आः"
      ],
      [
        "का",
        "ब"
      ],
      [
        "का",
        "टा"
      ],
      [
        "ते",
        "को"
      ],
      [
        "या",
        "को"
      ],
      [
        "सा",
        "न"
      ],
      [
        "सा",
        "ब"
      ],
      [
        "वा",
        "न"
      ],
      [
        "मेनाः",
        "इ"
      ],
      [
        "तना",
        "ए"
      ],
      [
        "धा",
        "न"
      ],
      [
        "धा",
        "र"
      ],
      [
        "प्",
        "रे"
      ],
      [
        "सन",
        "ंग"
      ],
      [
        "राज",
        "नीति"
      ],
      [
        "जोनो",
        "म"
      ],
      [
        "ओ",
        "ला"
      ],
      [
        "म",
        "ह"
      ],
      [
        "रा",
        "नु"
      ],
      [
        "्र",
        "ो"
      ],
      [
        "नु",
        "ङ"
      ],
      [
        "एना",
        "मेनते"
      ],
      [
        "क्ष",
        "े"
      ],
      [
        "गोम",
        "के"
      ],
      [
        "कांग्रे",
        "स"
      ],
      [
        "अदि",
        "का"
      ],
      [
        "ं",
        "डा"
      ],
      [
        "ऐ",
        "ना"
      ],
      [
        "द",
        "र्"
      ],
      [
        "प",
        "ह"
      ],
      [
        "प",
        "ड़"
      ],
      [
        "म",
        "नाति"
      ],
      [
        "स",
        "म्"
      ],
      [
        "को",
        "वा"
      ],
      [
        "दा",
        "ं"
      ],
      [
        "नि",
        "र्"
      ],
      [
        "या",
        "य"
      ],
      [
        "बे",
        "ड़ा"
      ],
      [
        "कु",
        "मु"
      ],
      [
        "पा",
        "म"
      ],
      [
        "सु",
        "र"
      ],
      [
        "रो",
        "ग"
      ],
      [
        "जो",
        "आर"
      ],
      [
        "ओः",
        "ताना"
      ],
      [
        "रू",
        "प"
      ],
      [
        "रू",
        "म"
      ],
      [
        "भा",
        "ग"
      ],
      [
        "जे",
        "ता"
      ],
      [
        "मी",
        "डिया"
      ],
      [
        "बान",
        "चा"
      ],
      [
        "चु",
        "ना"
      ],
      [
        "बारि",
        "आ"
      ],
      [
        "पेड़े",
        "ः"
      ],
      [
        "बुजा",
        "ओ"
      ],
      [
        "ट",
        "ना"
      ],
      [
        "ट",
        "ोः"
      ],
      [
        "त",
        "दा"
      ],
      [
        "स",
        "ब"
      ],
      [
        "जा",
        "ति"
      ],
      [
        "ले",
        "ले"
      ],
      [
        "सा",
        "ला"
      ],
      [
        "सा",
        "यो"
      ],
      [
        "रि",
        "ंग"
      ],
      [
        "मेना",
        "इ"
      ],
      [
        "हा",
        "ना"
      ],
      [
        "दि",
        "शु"
      ],
      [
        "बि",
        "तार"
      ],
      [
        "त्",
        "य"
      ],
      [
        "तो",
        "म"
      ],
      [
        "हुल",
        "ंग"
      ],
      [
        "कं",
        "प"
      ],
      [
        "झ",
        "ा"
      ],
      [
        "न",
        "गर"
      ],
      [
        "मा",
        "इन"
      ],
      [
        "ोः",
        "ताना"
      ],
      [
        "चा",
        "बा"
      ],
      [
        "बो",
        "न"
      ],
      [
        "राइ",
        "ज"
      ],
      [
        "दिशु",
        "म"
      ],
      [
        "आ",
        "पु"
      ],
      [
        "इ",
        "पा"
      ],
      [
        "भ",
        "ी"
      ],
      [
        "म",
        "गर"
      ],
      [
        "ल",
        "ब"
      ],
      [
        "स",
        "ल"
      ],
      [
        "मा",
        "ङ"
      ],
      [
        "ला",
        "न"
      ],
      [
        "से",
        "वा"
      ],
      [
        "सु",
        "न"
      ],
      [
        "दि",
        "रि"
      ],
      [
        "बु",
        "रू"
      ],
      [
        "गि",
        "न"
      ],
      [
        "प्र",
        "ति"
      ],
      [
        "उड़ु",
        "ङ"
      ],
      [
        "बै",
        "से"
      ],
      [
        "व्य",
        "व"
      ],
      [
        "जारू",
        "ड़ु"
      ],
      [
        "दुनु",
        "ब"
      ],
      [
        "ए",
        "ट"
      ],
      [
        "त",
        "म"
      ],
      [
        "त",
        "को"
      ],
      [
        "ध",
        "्या"
      ],
      [
        "ह",
        "न"
      ],
      [
        "का",
        "ल"
      ],
      [
        "सु",
        "नु"
      ],
      [
        "रो",
        "ध"
      ],
      [
        "हु",
        "डिंग"
      ],
      [
        "ष्",
        "ण"
      ],
      [
        "ठो",
        "र"
      ],
      [
        "ज्ञा",
        "न"
      ],
      [
        "चुना",
        "व"
      ],
      [
        "आ",
        "पे"
      ],
      [
        "ज",
        "ै"
      ],
      [
        "ज",
        "दा"
      ],
      [
        "ण",
        "ी"
      ],
      [
        "भ",
        "ू"
      ],
      [
        "का",
        "र्य"
      ],
      [
        "रा",
        "व"
      ],
      [
        "के",
        "ट"
      ],
      [
        "मा",
        "ना"
      ],
      [
        "हा",
        "पे"
      ],
      [
        "स्",
        "टर"
      ],
      [
        "लि",
        "ङ"
      ],
      [
        "मेनाः",
        "कोआ"
      ],
      [
        "गु",
        "रु"
      ],
      [
        "त्",
        "व"
      ],
      [
        "अप",
        "न"
      ],
      [
        "अ",
        "भि"
      ],
      [
        "ग",
        "्र"
      ],
      [
        "थ",
        "ी"
      ],
      [
        "ौ",
        "र"
      ],
      [
        "रे",
        "यो"
      ],
      [
        "का",
        "रे"
      ],
      [
        "के",
        "न"
      ],
      [
        "के",
        "टेः"
      ],
      [
        "ने",
        "तअः"
      ],
      [
        "या",
        "लय"
      ],
      [
        "से",
        "ता"
      ],
      [
        "दु",
        "बा"
      ],
      [
        "हि",
        "ं"
      ],
      [
        "रो",
        "कोम"
      ],
      [
        "द्",
        "ध"
      ],
      [
        "बि",
        "ल"
      ],
      [
        "पो",
        "र्ट"
      ],
      [
        "प्",
        "रा"
      ],
      [
        "सन",
        "ते"
      ],
      [
        "हिन्",
        "दी"
      ],
      [
        "ज",
        "र"
      ],
      [
        "ड",
        "्"
      ],
      [
        "द",
        "ल"
      ],
      [
        "फ",
        "े"
      ],
      [
        "फ",
        "ै"
      ],
      [
        "श",
        "ो"
      ],
      [
        "श",
        "हर"
      ],
      [
        "स",
        "रि"
      ],
      [
        "का",
        "य"
      ],
      [
        "का",
        "गे"
      ],
      [
        "या",
        "ए"
      ],
      [
        "या",
        "र"
      ],
      [
        "ति",
        "ङ"
      ],
      [
        "से",
        "के"
      ],
      [
        "पा",
        "रोम"
      ],
      [
        "इनि",
        "तु"
      ],
      [
        "स्",
        "टे"
      ],
      [
        "मो",
        "दी"
      ],
      [
        "दु",
        "रंग"
      ],
      [
        "वि",
        "ष"
      ],
      [
        "वि",
        "द्"
      ],
      [
        "वि",
        "रोध"
      ],
      [
        "न्",
        "ना"
      ],
      [
        "्य",
        "ू"
      ],
      [
        "आए",
        "आ"
      ],
      [
        "चिम",
        "ताङ"
      ],
      [
        "खो",
        "बोर"
      ],
      [
        "ए",
        "से"
      ],
      [
        "ओ",
        "डा"
      ],
      [
        "क",
        "ॉ"
      ],
      [
        "क",
        "ड़ा"
      ],
      [
        "क",
        "री"
      ],
      [
        "ट",
        "न"
      ],
      [
        "न",
        "ौ"
      ],
      [
        "ब",
        "स"
      ],
      [
        "ब",
        "्र"
      ],
      [
        "ल",
        "व"
      ],
      [
        "ल",
        "ै"
      ],
      [
        "ा",
        "व"
      ],
      [
        "का",
        "नि"
      ],
      [
        "ले",
        "म"
      ],
      [
        "मा",
        "इ"
      ],
      [
        "से",
        "सेना"
      ],
      [
        "जाना",
        "व"
      ],
      [
        "क्",
        "त"
      ],
      [
        "ओः",
        "गे"
      ],
      [
        "मु",
        "नु"
      ],
      [
        "गु",
        "न"
      ],
      [
        "होड़ो",
        "मो"
      ],
      [
        "इनकु",
        "आ"
      ],
      [
        "चिलका",
        "ते"
      ],
      [
        "पुर",
        "ना"
      ],
      [
        "्री",
        "य"
      ],
      [
        "न्द",
        "्र"
      ],
      [
        "मुख",
        "्य"
      ],
      [
        "गोपो",
        "एः"
      ],
      [
        "क्षे",
        "त्र"
      ],
      [
        "ं",
        "व"
      ],
      [
        "ं",
        "टा"
      ],
      [
        "आ",
        "कादा"
      ],
      [
        "ज",
        "ग"
      ],
      [
        "ध",
        "ु"
      ],
      [
        "ब",
        "रा"
      ],
      [
        "श",
        "्र"
      ],
      [
        "स",
        "र्"
      ],
      [
        "रे",
        "ंगे"
      ],
      [
        "का",
        "जी"
      ],
      [
        "को",
        "ओ"
      ],
      [
        "रा",
        "य"
      ],
      [
        "ले",
        "आ"
      ],
      [
        "वा",
        "ल"
      ],
      [
        "सु",
        "सुन"
      ],
      [
        "स्",
        "थ"
      ],
      [
        "यो",
        "जना"
      ],
      [
        "लि",
        "म"
      ],
      [
        "जो",
        "मे"
      ],
      [
        "जी",
        "दन"
      ],
      [
        "गि",
        "ति"
      ],
      [
        "भा",
        "षा"
      ],
      [
        "जे",
        "तन"
      ],
      [
        "ती",
        "य"
      ],
      [
        "क्ष",
        "ण"
      ],
      [
        "ताइन",
        "ोः"
      ],
      [
        "इतु",
        "न"
      ],
      [
        "ंद",
        "्र"
      ],
      [
        "दाड़ि",
        "ओःआ"
      ],
      [
        "फो",
        "न"
      ],
      [
        "सें",
        "ड़ा"
      ],
      [
        "लोओः",
        "ते"
      ],
      [
        "पार्",
        "टी"
      ],
      [
        "आ",
        "रि"
      ],
      [
        "क",
        "र्"
      ],
      [
        "च",
        "ै"
      ],
      [
        "प",
        "ताल"
      ],
      [
        "ब",
        "त"
      ],
      [
        "य",
        "क"
      ],
      [
        "य",
        "दा"
      ],
      [
        "रा",
        "बाल"
      ],
      [
        "रा",
        "काब"
      ],
      [
        "ने",
        "लेका"
      ],
      [
        "बा",
        "ग"
      ],
      [
        "सा",
        "मा"
      ],
      [
        "पा",
        "कि"
      ],
      [
        "हा",
        "ल"
      ],
      [
        "मो",
        "द"
      ],
      [
        "रो",
        "आ"
      ],
      [
        "क्",
        "रि"
      ],
      [
        "जु",
        "ल"
      ],
      [
        "बि",
        "रि"
      ],
      [
        "बि",
        "तर"
      ],
      [
        "न्",
        "य"
      ],
      [
        "बो",
        "लो"
      ],
      [
        "ओड़",
        "अः"
      ],
      [
        "टि",
        "ङ"
      ],
      [
        "रु",
        "ड़ा"
      ],
      [
        "टी",
        "म"
      ],
      [
        "होड़ो",
        "मो"
      ],
      [
        "वे",
        "ब"
      ],
      [
        "कर",
        "ण"
      ],
      [
        "साना",
        "माङ"
      ],
      [
        "गोनो",
        "ंग"
      ],
      [
        "इम",
        "तंग"
      ],
      [
        "खि",
        "ला"
      ],
      [
        "दड़ि",
        "या"
      ],
      [
        "जापा",
        "गार"
      ],
      [
        "सोबेना",
        "ते"
      ],
      [
        "तं",
        "त्र"
      ],
      [
        "सायो",
        "ब"
      ],
      [
        "अ",
        "व"
      ],
      [
        "अ",
        "इं"
      ],
      [
        "आ",
        "यु"
      ],
      [
        "ए",
        "ल"
      ],
      [
        "ख",
        "ी"
      ],
      [
        "ज",
        "़"
      ],
      [
        "त",
        "नि"
      ],
      [
        "ध",
        "े"
      ],
      [
        "प",
        "त्र"
      ],
      [
        "ब",
        "ं"
      ],
      [
        "य",
        "द"
      ],
      [
        "ल",
        "गिन"
      ],
      [
        "ना",
        "इ"
      ],
      [
        "को",
        "ः"
      ],
      [
        "हो",
        "सो"
      ],
      [
        "ले",
        "रे"
      ],
      [
        "गा",
        "ते"
      ],
      [
        "कि",
        "ता"
      ],
      [
        "र्",
        "चा"
      ],
      [
        "स्",
        "त"
      ],
      [
        "पु",
        "ल"
      ],
      [
        "टा",
        "याद"
      ],
      [
        "बु",
        "ल"
      ],
      [
        "ओः",
        "अ"
      ],
      [
        "हिजु",
        "गा"
      ],
      [
        "त्",
        "रा"
      ],
      [
        "कार",
        "ण"
      ],
      [
        "ब्",
        "ला"
      ],
      [
        "अम",
        "अः"
      ],
      [
        "हिजुः",
        "जाना"
      ],
      [
        "जां",
        "च"
      ],
      [
        "जापा",
        "ः"
      ],
      [
        "ठी",
        "क"
      ],
      [
        "पेरे",
        "ः"
      ],
      [
        "इपा",
        "एः"
      ],
      [
        "ं",
        "त"
      ],
      [
        "अ",
        "ना"
      ],
      [
        "अ",
        "मे"
      ],
      [
        "ए",
        "मे"
      ],
      [
        "च",
        "र"
      ],
      [
        "ज",
        "गार"
      ],
      [
        "त",
        "किन"
      ],
      [
        "न",
        "र"
      ],
      [
        "प",
        "ड़ाव"
      ],
      [
        "म",
        "बा"
      ],
      [
        "ल",
        "ग"
      ],
      [
        "ह",
        "ू"
      ],
      [
        "का",
        "द"
      ],
      [
        "नि",
        "मि"
      ],
      [
        "रि",
        "क"
      ],
      [
        "ति",
        "न"
      ],
      [
        "चि",
        "का"
      ],
      [
        "कु",
        "नु"
      ],
      [
        "र्",
        "क"
      ],
      [
        "हा",
        "गा"
      ],
      [
        "हा",
        "सु"
      ],
      [
        "स्",
        "ता"
      ],
      [
        "टु",
        "ङ"
      ],
      [
        "तादा",
        "एः"
      ],
      [
        "दाड़ि",
        "आः"
      ],
      [
        "पू",
        "रा"
      ],
      [
        "लाः",
        "ए"
      ],
      [
        "विश्",
        "व"
      ],
      [
        "मनाति",
        "ंग"
      ],
      [
        "पाकि",
        "स्तान"
      ],
      [
        "इ",
        "ला"
      ],
      [
        "क",
        "हा"
      ],
      [
        "ग",
        "अः"
      ],
      [
        "द",
        "ंग"
      ],
      [
        "ब",
        "ग"
      ],
      [
        "ब",
        "रिया"
      ],
      [
        "य",
        "अः"
      ],
      [
        "स",
        "ंगि"
      ],
      [
        "का",
        "र्"
      ],
      [
        "रा",
        "ओ"
      ],
      [
        "ने",
        "ट"
      ],
      [
        "मे",
        "द्"
      ],
      [
        "ले",
        "नेका"
      ],
      [
        "गे",
        "या"
      ],
      [
        "ला",
        "इन"
      ],
      [
        "या",
        "न"
      ],
      [
        "सा",
        "काम"
      ],
      [
        "सि",
        "या"
      ],
      [
        "नेआ",
        "को"
      ],
      [
        "केना",
        "ए"
      ],
      [
        "हा",
        "स"
      ],
      [
        "मो",
        "सा"
      ],
      [
        "होबा",
        "लेना"
      ],
      [
        "प्र",
        "देश"
      ],
      [
        "भा",
        "जपा"
      ],
      [
        "म्",
        "प"
      ],
      [
        "दाड़ि",
        "ओःआ"
      ],
      [
        "शि",
        "व"
      ],
      [
        "अबु",
        "आ"
      ],
      [
        "अधि",
        "कारी"
      ],
      [
        "धो",
        "रोम"
      ],
      [
        "अस्",
        "पताल"
      ],
      [
        "कुनु",
        "लि"
      ],
      [
        "आ",
        "ट"
      ],
      [
        "प",
        "न"
      ],
      [
        "ब",
        "ना"
      ],
      [
        "म",
        "रा"
      ],
      [
        "स",
        "ौ"
      ],
      [
        "ह",
        "जार"
      ],
      [
        "ना",
        "ला"
      ],
      [
        "ते",
        "आः"
      ],
      [
        "रा",
        "जा"
      ],
      [
        "मे",
        "आ"
      ],
      [
        "ले",
        "दा"
      ],
      [
        "ला",
        "तार"
      ],
      [
        "चि",
        "मी"
      ],
      [
        "जे",
        "ताना"
      ],
      [
        "सर",
        "ते"
      ],
      [
        "पो",
        "स्ट"
      ],
      [
        "ंड",
        "े"
      ],
      [
        "आले",
        "आः"
      ],
      [
        "एस",
        "कर"
      ],
      [
        "बद",
        "ली"
      ],
      [
        "इति",
        "हास"
      ],
      [
        "पै",
        "सा"
      ],
      [
        "राष्ट",
        "्रीय"
      ],
      [
        "ं",
        "ति"
      ],
      [
        "अ",
        "च"
      ],
      [
        "अ",
        "द्"
      ],
      [
        "अ",
        "ंग्रे"
      ],
      [
        "आ",
        "रो"
      ],
      [
        "आ",
        "धा"
      ],
      [
        "इ",
        "ः"
      ],
      [
        "क",
        "अ"
      ],
      [
        "च",
        "ौ"
      ],
      [
        "द",
        "र"
      ],
      [
        "फ",
        "र"
      ],
      [
        "म",
        "ंग"
      ],
      [
        "व",
        "्या"
      ],
      [
        "ना",
        "पाम"
      ],
      [
        "रे",
        "ः"
      ],
      [
        "जा",
        "गर"
      ],
      [
        "ले",
        "नेल"
      ],
      [
        "रि",
        "य"
      ],
      [
        "केदा",
        "य"
      ],
      [
        "दि",
        "ल"
      ],
      [
        "इन",
        "्"
      ],
      [
        "लो",
        "न"
      ],
      [
        "ताना",
        "ञ"
      ],
      [
        "बि",
        "र"
      ],
      [
        "टि",
        "क"
      ],
      [
        "सं",
        "स्"
      ],
      [
        "रु",
        "म"
      ],
      [
        "काजि",
        "कामि"
      ],
      [
        "होरा",
        "ते"
      ],
      [
        "वे",
        "न"
      ],
      [
        "इनु",
        "ंग"
      ],
      [
        "साइ",
        "ट"
      ],
      [
        "जरू",
        "ड़ु"
      ],
      [
        "लगाति",
        "ंगा"
      ],
      [
        "एने",
        "टेः"
      ],
      [
        "कोः",
        "आते"
      ],
      [
        "ं",
        "ङ"
      ],
      [
        "उ",
        "द्"
      ],
      [
        "च",
        "्"
      ],
      [
        "ट",
        "क"
      ],
      [
        "त",
        "ोः"
      ],
      [
        "ध",
        "ी"
      ],
      [
        "ष",
        "ि"
      ],
      [
        "स",
        "भा"
      ],
      [
        "को",
        "एः"
      ],
      [
        "को",
        "ड़ा"
      ],
      [
        "जा",
        "गा"
      ],
      [
        "बा",
        "बा"
      ],
      [
        "नि",
        "आ"
      ],
      [
        "रि",
        "आ"
      ],
      [
        "वा",
        "स"
      ],
      [
        "कि",
        "ल"
      ],
      [
        "स्",
        "थि"
      ],
      [
        "टा",
        "इ"
      ],
      [
        "हि",
        "सि"
      ],
      [
        "वि",
        "चार"
      ],
      [
        "वि",
        "भाग"
      ],
      [
        "तन",
        "को"
      ],
      [
        "जान",
        "रे"
      ],
      [
        "अम",
        "के"
      ],
      [
        "अइंग",
        "ा"
      ],
      [
        "बइ",
        "या"
      ],
      [
        "फि",
        "लिम"
      ],
      [
        "उड़ु",
        "ङ"
      ],
      [
        "ताला",
        "रे"
      ],
      [
        "क्र",
        "म"
      ],
      [
        "आलो",
        "म"
      ],
      [
        "नामो",
        "गा"
      ],
      [
        "स्वा",
        "मी"
      ],
      [
        "रूआ",
        "ड़ा"
      ],
      [
        "पह",
        "म"
      ],
      [
        "माना",
        "राङ"
      ],
      [
        "मुख्य",
        "मंत्री"
      ],
      [
        "आट",
        "कार"
      ],
      [
        "ं",
        "का"
      ],
      [
        "अ",
        "ड़"
      ],
      [
        "अ",
        "युम"
      ],
      [
        "आ",
        "ड़ा"
      ],
      [
        "इ",
        "किर"
      ],
      [
        "क",
        "मी"
      ],
      [
        "द",
        "ड़ां"
      ],
      [
        "न",
        "अ"
      ],
      [
        "प",
        "द"
      ],
      [
        "प",
        "री"
      ],
      [
        "ल",
        "अः"
      ],
      [
        "श",
        "र्"
      ],
      [
        "स",
        "ह"
      ],
      [
        "स",
        "ै"
      ],
      [
        "स",
        "चि"
      ],
      [
        "स",
        "कम"
      ],
      [
        "ह",
        "्"
      ],
      [
        "ना",
        "न"
      ],
      [
        "को",
        "रा"
      ],
      [
        "ता",
        "नि"
      ],
      [
        "दा",
        "डिया"
      ],
      [
        "गे",
        "को"
      ],
      [
        "सा",
        "हि"
      ],
      [
        "ति",
        "क"
      ],
      [
        "से",
        "कड़ा"
      ],
      [
        "सि",
        "नमा"
      ],
      [
        "कु",
        "म"
      ],
      [
        "कु",
        "डि"
      ],
      [
        "पा",
        "ः"
      ],
      [
        "नेआ",
        "रा"
      ],
      [
        "मेना",
        "गा"
      ],
      [
        "दु",
        "र"
      ],
      [
        "लि",
        "ंग"
      ],
      [
        "लि",
        "या"
      ],
      [
        "लो",
        "म"
      ],
      [
        "वि",
        "ज्ञान"
      ],
      [
        "न्",
        "त"
      ],
      [
        "गु",
        "रू"
      ],
      [
        "ओको",
        "ना"
      ],
      [
        "शा",
        "सन"
      ],
      [
        "उदु",
        "बे"
      ],
      [
        "उनु",
        "दुब"
      ],
      [
        "दड़ि",
        "आ"
      ],
      [
        "जिनि",
        "द"
      ],
      [
        "जिनि",
        "स"
      ],
      [
        "दुला",
        "ड़ा"
      ],
      [
        "ण्",
        "ड"
      ],
      [
        "भग",
        "वान"
      ],
      [
        "व्यव",
        "स्था"
      ],
      [
        "थी",
        "मबा"
      ],
      [
        "अ",
        "क"
      ],
      [
        "अ",
        "गु"
      ],
      [
        "ओ",
        "अ"
      ],
      [
        "क",
        "रो"
      ],
      [
        "ग",
        "ोः"
      ],
      [
        "ज",
        "ल"
      ],
      [
        "त",
        "कन"
      ],
      [
        "द",
        "्र"
      ],
      [
        "ध",
        "न"
      ],
      [
        "न",
        "तिन"
      ],
      [
        "प",
        "ढ"
      ],
      [
        "प",
        "रे"
      ],
      [
        "प",
        "ढ़"
      ],
      [
        "फ",
        "ी"
      ],
      [
        "र",
        "आ"
      ],
      [
        "ह",
        "ै"
      ],
      [
        "ह",
        "मला"
      ],
      [
        "ना",
        "मा"
      ],
      [
        "का",
        "ओ"
      ],
      [
        "का",
        "व"
      ],
      [
        "को",
        "ए"
      ],
      [
        "को",
        "ता"
      ],
      [
        "के",
        "टे"
      ],
      [
        "बा",
        "इन"
      ],
      [
        "ले",
        "ला"
      ],
      [
        "मा",
        "ल"
      ],
      [
        "मा",
        "ने"
      ],
      [
        "गा",
        "ंध"
      ],
      [
        "दो",
        "लन"
      ],
      [
        "मि",
        "द्"
      ],
      [
        "जि",
        "बोन"
      ],
      [
        "कि",
        "नाः"
      ],
      [
        "हा",
        "ला"
      ],
      [
        "दु",
        "ल"
      ],
      [
        "दु",
        "आर"
      ],
      [
        "लो",
        "लो"
      ],
      [
        "वि",
        "का"
      ],
      [
        "नु",
        "बा"
      ],
      [
        "मु",
        "ं"
      ],
      [
        "न्",
        "या"
      ],
      [
        "न्",
        "डु"
      ],
      [
        "बाइ",
        "जाना"
      ],
      [
        "बाइ",
        "आकाना"
      ],
      [
        "लेल",
        "रिका"
      ],
      [
        "जान",
        "कारी"
      ],
      [
        "जन",
        "व"
      ],
      [
        "ब्",
        "रा"
      ],
      [
        "हे",
        "न"
      ],
      [
        "तइन",
        "ोः"
      ],
      [
        "उदु",
        "बा"
      ],
      [
        "भार",
        "तीय"
      ],
      [
        "चिम",
        "तुङ"
      ],
      [
        "पू",
        "र्"
      ],
      [
        "बद",
        "लि"
      ],
      [
        "आपि",
        "आ"
      ],
      [
        "दुला",
        "ड़ा"
      ],
      [
        "लागा",
        "ओ"
      ],
      [
        "अट",
        "कर"
      ],
      [
        "ध्य",
        "क्ष"
      ],
      [
        "कंप",
        "नी"
      ],
      [
        "एट",
        "अः"
      ],
      [
        "अमे",
        "रिका"
      ],
      [
        "निमि",
        "र"
      ],
      [
        "अ",
        "ख"
      ],
      [
        "अ",
        "ल"
      ],
      [
        "ए",
        "म्"
      ],
      [
        "क",
        "द्"
      ],
      [
        "क",
        "वि"
      ],
      [
        "छ",
        "बा"
      ],
      [
        "त",
        "ई"
      ],
      [
        "ध",
        "र"
      ],
      [
        "प",
        "र्"
      ],
      [
        "ब",
        "गे"
      ],
      [
        "म",
        "ना"
      ],
      [
        "ना",
        "आ"
      ],
      [
        "रे",
        "निः"
      ],
      [
        "ता",
        "ई"
      ],
      [
        "ने",
        "ः"
      ],
      [
        "बा",
        "हर"
      ],
      [
        "दा",
        "स"
      ],
      [
        "दा",
        "सा"
      ],
      [
        "मे",
        "ंट"
      ],
      [
        "हो",
        "नाङ"
      ],
      [
        "मा",
        "स्टर"
      ],
      [
        "चि",
        "आः"
      ],
      [
        "बे",
        "डा"
      ],
      [
        "कि",
        "या"
      ],
      [
        "स्",
        "य"
      ],
      [
        "चा",
        "ंडु"
      ],
      [
        "वि",
        "क"
      ],
      [
        "जु",
        "गु"
      ],
      [
        "हु",
        "ला"
      ],
      [
        "ओड़ोः",
        "गे"
      ],
      [
        "जन",
        "य"
      ],
      [
        "ंड",
        "ी"
      ],
      [
        "वे",
        "द"
      ],
      [
        "टु",
        "ंग"
      ],
      [
        "सेनोः",
        "जाना"
      ],
      [
        "अप",
        "नअः"
      ],
      [
        "हुड़ि",
        "ंग"
      ],
      [
        "ध्या",
        "न"
      ],
      [
        "सेके",
        "ड़ा"
      ],
      [
        "गांध",
        "ी"
      ],
      [
        "अ",
        "दा"
      ],
      [
        "इ",
        "स्"
      ],
      [
        "ओ",
        "न"
      ],
      [
        "क",
        "टा"
      ],
      [
        "घ",
        "टना"
      ],
      [
        "त",
        "निः"
      ],
      [
        "य",
        "त"
      ],
      [
        "रे",
        "ल"
      ],
      [
        "रे",
        "या"
      ],
      [
        "का",
        "ले"
      ],
      [
        "को",
        "रआः"
      ],
      [
        "को",
        "टो"
      ],
      [
        "को",
        "ताः"
      ],
      [
        "को",
        "तो"
      ],
      [
        "रा",
        "ँग"
      ],
      [
        "बा",
        "ङ"
      ],
      [
        "मे",
        "ं"
      ],
      [
        "ला",
        "ल"
      ],
      [
        "बे",
        "ड़ा"
      ],
      [
        "कु",
        "र"
      ],
      [
        "कु",
        "मार"
      ],
      [
        "कु",
        "पुल"
      ],
      [
        "नेआ",
        "गे"
      ],
      [
        "स्",
        "सा"
      ],
      [
        "मो",
        "ड़े"
      ],
      [
        "पु",
        "थि"
      ],
      [
        "टा",
        "न"
      ],
      [
        "रू",
        "ड़ा"
      ],
      [
        "प्र",
        "ो"
      ],
      [
        "नेका",
        "गे"
      ],
      [
        "शा",
        "ह"
      ],
      [
        "अइंग",
        "अः"
      ],
      [
        "फा",
        "यदा"
      ],
      [
        "आं",
        "दोलन"
      ],
      [
        "बै",
        "ंक"
      ],
      [
        "चो",
        "लोन"
      ],
      [
        "ठा",
        "उ"
      ],
      [
        "ठा",
        "ंव"
      ],
      [
        "मू",
        "ल"
      ],
      [
        "स्था",
        "न"
      ],
      [
        "जाआं",
        "ए"
      ],
      [
        "आ",
        "से"
      ],
      [
        "आ",
        "ड़ा"
      ],
      [
        "इ",
        "दु"
      ],
      [
        "इ",
        "मिन"
      ],
      [
        "उ",
        "मि"
      ],
      [
        "उ",
        "डू"
      ],
      [
        "ओ",
        "वा"
      ],
      [
        "ग",
        "ड़"
      ],
      [
        "फ",
        "ल"
      ],
      [
        "भ",
        "र"
      ],
      [
        "ल",
        "ॉ"
      ],
      [
        "ह",
        "रि"
      ],
      [
        "का",
        "श"
      ],
      [
        "का",
        "कला"
      ],
      [
        "को",
        "के"
      ],
      [
        "को",
        "लो"
      ],
      [
        "को",
        "शि"
      ],
      [
        "ता",
        "म"
      ],
      [
        "रा",
        "सि"
      ],
      [
        "हो",
        "ड़"
      ],
      [
        "मा",
        "र्"
      ],
      [
        "सा",
        "ँ"
      ],
      [
        "सा",
        "य"
      ],
      [
        "गा",
        "ड़ा"
      ],
      [
        "रि",
        "पोर्ट"
      ],
      [
        "ति",
        "र"
      ],
      [
        "वा",
        "ला"
      ],
      [
        "र्",
        "स"
      ],
      [
        "स्",
        "कू"
      ],
      [
        "ताइकेना",
        "ञ"
      ],
      [
        "लि",
        "क"
      ],
      [
        "द्",
        "धा"
      ],
      [
        "पे",
        "ल"
      ],
      [
        "बि",
        "ज"
      ],
      [
        "एना",
        "रे"
      ],
      [
        "जे",
        "ल"
      ],
      [
        "टी",
        "वी"
      ],
      [
        "दी",
        "प"
      ],
      [
        "ङा",
        "काना"
      ],
      [
        "उदु",
        "ब्"
      ],
      [
        "गोनो",
        "एः"
      ],
      [
        "बरन",
        "किन"
      ],
      [
        "जरू",
        "ड़ी"
      ],
      [
        "संग",
        "ी"
      ],
      [
        "राष्ट",
        "्र"
      ],
      [
        "उपु",
        "न"
      ],
      [
        "सुनु",
        "म"
      ],
      [
        "हिं",
        "दी"
      ],
      [
        "विष",
        "य"
      ],
      [
        "चिमी",
        "न"
      ],
      [
        "अंग्रे",
        "जी"
      ],
      [
        "ं",
        "डो"
      ],
      [
        "अ",
        "फ"
      ],
      [
        "आ",
        "कोआ"
      ],
      [
        "आ",
        "सरा"
      ],
      [
        "इ",
        "दी"
      ],
      [
        "उ",
        "द"
      ],
      [
        "उ",
        "र"
      ],
      [
        "उ",
        "पा"
      ],
      [
        "ए",
        "रा"
      ],
      [
        "ख",
        "बर"
      ],
      [
        "ग",
        "ण"
      ],
      [
        "छ",
        "ु"
      ],
      [
        "ज",
        "रा"
      ],
      [
        "ट",
        "ल"
      ],
      [
        "न",
        "ोः"
      ],
      [
        "प",
        "अः"
      ],
      [
        "ब",
        "ड़ा"
      ],
      [
        "ब",
        "री"
      ],
      [
        "भ",
        "े"
      ],
      [
        "भ",
        "्र"
      ],
      [
        "म",
        "नो"
      ],
      [
        "ल",
        "क्ष"
      ],
      [
        "ल",
        "तर"
      ],
      [
        "ह",
        "ड़"
      ],
      [
        "ना",
        "ता"
      ],
      [
        "ता",
        "ंगि"
      ],
      [
        "ते",
        "या"
      ],
      [
        "रा",
        "न"
      ],
      [
        "रा",
        "ना"
      ],
      [
        "रा",
        "चा"
      ],
      [
        "मा",
        "ण"
      ],
      [
        "या",
        "ञ"
      ],
      [
        "सा",
        "मान"
      ],
      [
        "गा",
        "कान"
      ],
      [
        "से",
        "टे"
      ],
      [
        "से",
        "ताः"
      ],
      [
        "पा",
        "ना"
      ],
      [
        "हा",
        "ड़ा"
      ],
      [
        "चा",
        "ही"
      ],
      [
        "चा",
        "लाओ"
      ],
      [
        "ताइकेना",
        "ए"
      ],
      [
        "तु",
        "र"
      ],
      [
        "क्",
        "ट"
      ],
      [
        "लेल",
        "ोः"
      ],
      [
        "जे",
        "टे"
      ],
      [
        "यु",
        "र"
      ],
      [
        "पि",
        "ल"
      ],
      [
        "नाः",
        "दो"
      ],
      [
        "इनकु",
        "आः"
      ],
      [
        "ताइन",
        "जाना"
      ],
      [
        "टु",
        "नडु"
      ],
      [
        "ची",
        "न"
      ],
      [
        "नम",
        "ोः"
      ],
      [
        "मोयो",
        "द्"
      ],
      [
        "इम",
        "तुङ"
      ],
      [
        "सेसेन",
        "ताना"
      ],
      [
        "अए",
        "अः"
      ],
      [
        "अइ",
        "ङ"
      ],
      [
        "एद",
        "का"
      ],
      [
        "विका",
        "स"
      ],
      [
        "अ",
        "कन"
      ],
      [
        "उ",
        "म्"
      ],
      [
        "उ",
        "डु"
      ],
      [
        "उ",
        "तारा"
      ],
      [
        "ग",
        "ंगा"
      ],
      [
        "च",
        "ोः"
      ],
      [
        "च",
        "लाव"
      ],
      [
        "ज",
        "न्"
      ],
      [
        "ज",
        "केद"
      ],
      [
        "न",
        "ल"
      ],
      [
        "न",
        "दि"
      ],
      [
        "फ",
        "ु"
      ],
      [
        "म",
        "क"
      ],
      [
        "व",
        "स"
      ],
      [
        "व",
        "ती"
      ],
      [
        "ह",
        "पे"
      ],
      [
        "जा",
        "य"
      ],
      [
        "जा",
        "आन"
      ],
      [
        "ड़",
        "व"
      ],
      [
        "दा",
        "ङ"
      ],
      [
        "दा",
        "डि"
      ],
      [
        "दा",
        "डियो"
      ],
      [
        "ला",
        "ंदा"
      ],
      [
        "कु",
        "म्"
      ],
      [
        "सो",
        "म"
      ],
      [
        "जि",
        "द"
      ],
      [
        "हा",
        "न"
      ],
      [
        "दु",
        "ब्"
      ],
      [
        "टा",
        "व"
      ],
      [
        "गो",
        "मान"
      ],
      [
        "जी",
        "वन"
      ],
      [
        "गि",
        "या"
      ],
      [
        "मु",
        "द"
      ],
      [
        "प्र",
        "भा"
      ],
      [
        "प्र",
        "भाव"
      ],
      [
        "प्र",
        "बंध"
      ],
      [
        "दे",
        "आ"
      ],
      [
        "बाइ",
        "आ"
      ],
      [
        "होड़ो",
        "कोआः"
      ],
      [
        "त्",
        "ता"
      ],
      [
        "सर",
        "कारी"
      ],
      [
        "लोः",
        "ते"
      ],
      [
        "शा",
        "न"
      ],
      [
        "एआ",
        "एः"
      ],
      [
        "पी",
        "टि"
      ],
      [
        "खा",
        "स"
      ],
      [
        "खा",
        "ने"
      ],
      [
        "लु",
        "तुम"
      ],
      [
        "सेनो",
        "गा"
      ],
      [
        "मत",
        "लब"
      ],
      [
        "शे",
        "ष"
      ],
      [
        "सद",
        "स्य"
      ],
      [
        "दर्",
        "शन"
      ],
      [
        "दां",
        "ड़ा"
      ],
      [
        "गिति",
        "ः"
      ],
      [
        "किता",
        "ब"
      ],
      [
        "बना",
        "ई"
      ],
      [
        "ठाउ",
        "का"
      ],
      [
        "अ",
        "ु"
      ],
      [
        "अ",
        "तोम"
      ],
      [
        "अ",
        "न्ना"
      ],
      [
        "इ",
        "ङ"
      ],
      [
        "क",
        "य"
      ],
      [
        "क",
        "म्प"
      ],
      [
        "ख",
        "र"
      ],
      [
        "ङ",
        "गे"
      ],
      [
        "च",
        "बा"
      ],
      [
        "प",
        "ल"
      ],
      [
        "ल",
        "ड़ा"
      ],
      [
        "ना",
        "थ"
      ],
      [
        "का",
        "का"
      ],
      [
        "ने",
        "रे"
      ],
      [
        "बा",
        "नाइ"
      ],
      [
        "नि",
        "आः"
      ],
      [
        "हो",
        "ना"
      ],
      [
        "मा",
        "री"
      ],
      [
        "ला",
        "स"
      ],
      [
        "दो",
        "ः"
      ],
      [
        "से",
        "ंगे"
      ],
      [
        "चि",
        "कि"
      ],
      [
        "सि",
        "क"
      ],
      [
        "कु",
        "आ"
      ],
      [
        "वा",
        "दी"
      ],
      [
        "जि",
        "दान"
      ],
      [
        "जाना",
        "ञ"
      ],
      [
        "चा",
        "व"
      ],
      [
        "चा",
        "नडु"
      ],
      [
        "लि",
        "त"
      ],
      [
        "तान",
        "केना"
      ],
      [
        "ताना",
        "को"
      ],
      [
        "लेका",
        "गे"
      ],
      [
        "वि",
        "धा"
      ],
      [
        "क्",
        "रिया"
      ],
      [
        "इनिः",
        "आ"
      ],
      [
        "इनिः",
        "के"
      ],
      [
        "दे",
        "ङगा"
      ],
      [
        "बाइ",
        "ओ"
      ],
      [
        "होड़ो",
        "कोआः"
      ],
      [
        "लोः",
        "गे"
      ],
      [
        "गी",
        "न"
      ],
      [
        "उड़ु",
        "ंग"
      ],
      [
        "टु",
        "ंडु"
      ],
      [
        "ष्",
        "टा"
      ],
      [
        "हुड़ि",
        "ंग"
      ],
      [
        "चेतान",
        "रे"
      ],
      [
        "इम",
        "ताङ"
      ],
      [
        "एटेः",
        "जाना"
      ],
      [
        "अप",
        "ना"
      ],
      [
        "बारान",
        "किन"
      ],
      [
        "लगाति",
        "ंग"
      ],
      [
        "बागे",
        "केआते"
      ],
      [
        "पेड़े",
        "ः"
      ],
      [
        "बानचा",
        "ओ"
      ],
      [
        "फै",
        "सला"
      ],
      [
        "विद्",
        "यालय"
      ],
      [
        "क्रि",
        "केट"
      ],
      [
        "बिरि",
        "द"
      ],
      [
        "वेब",
        "साइट"
      ],
      [
        "अक",
        "रिंग"
      ],
      [
        "सेंगे",
        "ल"
      ],
      [
        "ं",
        "बर"
      ],
      [
        "अ",
        "ल्"
      ],
      [
        "अ",
        "ध्यक्ष"
      ],
      [
        "आ",
        "इन"
      ],
      [
        "ओ",
        "चो"
      ],
      [
        "क",
        "ल्"
      ],
      [
        "ख",
        "ंड"
      ],
      [
        "ग",
        "पा"
      ],
      [
        "च",
        "व"
      ],
      [
        "द",
        "ड़ी"
      ],
      [
        "न",
        "रे"
      ],
      [
        "प",
        "ढ़"
      ],
      [
        "ब",
        "हा"
      ],
      [
        "य",
        "ं"
      ],
      [
        "र",
        "म"
      ],
      [
        "र",
        "सा"
      ],
      [
        "ल",
        "ंदा"
      ],
      [
        "ष",
        "ण"
      ],
      [
        "स",
        "अ"
      ],
      [
        "स",
        "त"
      ],
      [
        "ना",
        "टक"
      ],
      [
        "को",
        "गे"
      ],
      [
        "को",
        "र्ट"
      ],
      [
        "ते",
        "यअः"
      ],
      [
        "रा",
        "हुल"
      ],
      [
        "ने",
        "ते"
      ],
      [
        "बा",
        "ई"
      ],
      [
        "ंग",
        "ड़ा"
      ],
      [
        "नि",
        "ंग"
      ],
      [
        "हो",
        "ला"
      ],
      [
        "मा",
        "या"
      ],
      [
        "गा",
        "ड़ी"
      ],
      [
        "ति",
        "किन"
      ],
      [
        "मि",
        "सि"
      ],
      [
        "से",
        "रेओ"
      ],
      [
        "कु",
        "ं"
      ],
      [
        "कु",
        "ला"
      ],
      [
        "कु",
        "रू"
      ],
      [
        "सो",
        "आन"
      ],
      [
        "सो",
        "तोः"
      ],
      [
        "जाना",
        "ः"
      ],
      [
        "जाना",
        "को"
      ],
      [
        "लि",
        "आ"
      ],
      [
        "रिका",
        "केदा"
      ],
      [
        "बि",
        "हार"
      ],
      [
        "हु",
        "डि"
      ],
      [
        "मु",
        "टु"
      ],
      [
        "प्र",
        "धान"
      ],
      [
        "दे",
        "ः"
      ],
      [
        "दे",
        "न"
      ],
      [
        "ल्",
        "ड"
      ],
      [
        "सं",
        "त"
      ],
      [
        "ओआ",
        "काना"
      ],
      [
        "काजि",
        "आ"
      ],
      [
        "हे",
        "ड़ा"
      ],
      [
        "नाम",
        "ोः"
      ],
      [
        "दाड़ि",
        "ओआ"
      ],
      [
        "लागाति",
        "ंगा"
      ],
      [
        "वी",
        "र"
      ],
      [
        "था",
        "ना"
      ],
      [
        "चिम",
        "नुङ"
      ],
      [
        "जादा",
        "एः"
      ],
      [
        "ट्",
        "टी"
      ],
      [
        "मू",
        "ध"
      ],
      [
        "कृ",
        "त"
      ],
      [
        "कृ",
        "ति"
      ],
      [
        "कृ",
        "ष्ण"
      ],
      [
        "आबु",
        "आः"
      ],
      [
        "आइ",
        "ञ"
      ],
      [
        "पाति",
        "आ"
      ],
      [
        "वो",
        "ट"
      ],
      [
        "ओड़ो",
        "ंग"
      ],
      [
        "प्रे",
        "म"
      ],
      [
        "धे",
        "आन"
      ],
      [
        "अच",
        "का"
      ],
      [
        "स्थि",
        "ति"
      ],
      [
        "साहि",
        "त्य"
      ],
      [
        "न्डु",
        "ः"
      ],
      [
        "लड़ा",
        "ई"
      ],
      [
        "चानडु",
        "ः"
      ],
      [
        "ं",
        "दे"
      ],
      [
        "ं",
        "ड़ु"
      ],
      [
        "अ",
        "एः"
      ],
      [
        "अ",
        "यु"
      ],
      [
        "आ",
        "किरिङ"
      ],
      [
        "उ",
        "ल"
      ],
      [
        "ए",
        "सा"
      ],
      [
        "क",
        "ौ"
      ],
      [
        "ज",
        "वा"
      ],
      [
        "ज",
        "द्"
      ],
      [
        "ट",
        "्रे"
      ],
      [
        "ड",
        "ॉ"
      ],
      [
        "त",
        "क"
      ],
      [
        "थ",
        "ो"
      ],
      [
        "ब",
        "ोः"
      ],
      [
        "ब",
        "जे"
      ],
      [
        "ब",
        "ंद"
      ],
      [
        "म",
        "स"
      ],
      [
        "म",
        "न्"
      ],
      [
        "र",
        "ण"
      ],
      [
        "र",
        "ंगा"
      ],
      [
        "ि",
        "त"
      ],
      [
        "ै",
        "र"
      ],
      [
        "रे",
        "अ"
      ],
      [
        "का",
        "उ"
      ],
      [
        "का",
        "रो"
      ],
      [
        "का",
        "इंग"
      ],
      [
        "को",
        "डा"
      ],
      [
        "रा",
        "ग"
      ],
      [
        "के",
        "से"
      ],
      [
        "के",
        "आद"
      ],
      [
        "जा",
        "ँ"
      ],
      [
        "मे",
        "या"
      ],
      [
        "मे",
        "सा"
      ],
      [
        "नि",
        "म"
      ],
      [
        "नि",
        "स"
      ],
      [
        "रि",
        "ड़ि"
      ],
      [
        "मि",
        "ल"
      ],
      [
        "नेआ",
        "मेनते"
      ],
      [
        "सो",
        "ं"
      ],
      [
        "इनि",
        "आ"
      ],
      [
        "जि",
        "क"
      ],
      [
        "सु",
        "कू"
      ],
      [
        "हा",
        "सा"
      ],
      [
        "स्",
        "या"
      ],
      [
        "स्",
        "टा"
      ],
      [
        "मो",
        "बाइ"
      ],
      [
        "मो",
        "हन"
      ],
      [
        "पु",
        "द"
      ],
      [
        "हि",
        "नि"
      ],
      [
        "ताना",
        "ए"
      ],
      [
        "जी",
        "व"
      ],
      [
        "जी",
        "आः"
      ],
      [
        "सोबेन",
        "अः"
      ],
      [
        "प्र",
        "योग"
      ],
      [
        "प्र",
        "काश"
      ],
      [
        "गु",
        "जरा"
      ],
      [
        "नेया",
        "ते"
      ],
      [
        "त्",
        "रि"
      ],
      [
        "टो",
        "र"
      ],
      [
        "रु",
        "आ"
      ],
      [
        "पो",
        "सा"
      ],
      [
        "शि",
        "क्षा"
      ],
      [
        "ची",
        "ना"
      ],
      [
        "खि",
        "ल"
      ],
      [
        "तिसिङ",
        "ो"
      ],
      [
        "बारा",
        "बारि"
      ],
      [
        "सें",
        "ड़ा"
      ],
      [
        "सें",
        "ड़ां"
      ],
      [
        "मोय",
        "द्"
      ],
      [
        "णा",
        "म"
      ],
      [
        "पार",
        "का"
      ],
      [
        "बुजा",
        "व"
      ],
      [
        "नामो",
        "आ"
      ],
      [
        "अपि",
        "या"
      ],
      [
        "मौ",
        "का"
      ],
      [
        "एसे",
        "कार"
      ],
      [
        "सामा",
        "जिक"
      ],
      [
        "शर्",
        "मा"
      ],
      [
        "कवि",
        "ता"
      ],
      [
        "रासि",
        "कान"
      ],
      [
        "बिज",
        "ली"
      ],
      [
        "दाडियो",
        "आ"
      ],
      [
        "ष्टा",
        "चार"
      ],
      [
        "मोबाइ",
        "ल"
      ],
      [
        "ँ",
        "डा"
      ],
      [
        "आ",
        "क"
      ],
      [
        "आ",
        "दि"
      ],
      [
        "इ",
        "र"
      ],
      [
        "इ",
        "ल"
      ],
      [
        "इ",
        "स"
      ],
      [
        "ओ",
        "व"
      ],
      [
        "ग",
        "ू"
      ],
      [
        "घ",
        "ो"
      ],
      [
        "घ",
        "ंटा"
      ],
      [
        "ठ",
        "न"
      ],
      [
        "ब",
        "अः"
      ],
      [
        "ब",
        "ंगा"
      ],
      [
        "भ",
        "व"
      ],
      [
        "म",
        "इन"
      ],
      [
        "य",
        "ल"
      ],
      [
        "र",
        "बल"
      ],
      [
        "ल",
        "गीन"
      ],
      [
        "स",
        "वाल"
      ],
      [
        "ह",
        "री"
      ],
      [
        "को",
        "न"
      ],
      [
        "जा",
        "इ"
      ],
      [
        "जा",
        "म"
      ],
      [
        "बा",
        "ं"
      ],
      [
        "बा",
        "आरि"
      ],
      [
        "दा",
        "री"
      ],
      [
        "नि",
        "का"
      ],
      [
        "ला",
        "भ"
      ],
      [
        "ला",
        "पाः"
      ],
      [
        "सा",
        "ई"
      ],
      [
        "सा",
        "द"
      ],
      [
        "चि",
        "उ"
      ],
      [
        "बे",
        "न"
      ],
      [
        "कु",
        "टु"
      ],
      [
        "जि",
        "लिङ"
      ],
      [
        "हा",
        "म"
      ],
      [
        "मो",
        "ं"
      ],
      [
        "यो",
        "ं"
      ],
      [
        "दु",
        "र्"
      ],
      [
        "इन",
        "तु"
      ],
      [
        "चा",
        "न"
      ],
      [
        "होबा",
        "काना"
      ],
      [
        "लि",
        "किन"
      ],
      [
        "बु",
        "रु"
      ],
      [
        "हि",
        "र"
      ],
      [
        "हि",
        "ला"
      ],
      [
        "रिका",
        "ए"
      ],
      [
        "नु",
        "तु"
      ],
      [
        "जु",
        "ः"
      ],
      [
        "बि",
        "नि"
      ],
      [
        "मु",
        "र"
      ],
      [
        "इंग",
        "अः"
      ],
      [
        "प्र",
        "चार"
      ],
      [
        "बो",
        "ओ"
      ],
      [
        "तन",
        "य"
      ],
      [
        "गु",
        "सिया"
      ],
      [
        "डा",
        "व"
      ],
      [
        "त्",
        "मा"
      ],
      [
        "सं",
        "सद"
      ],
      [
        "सिदा",
        "रे"
      ],
      [
        "सी",
        "बी"
      ],
      [
        "सर",
        "ती"
      ],
      [
        "ओको",
        "न"
      ],
      [
        "धा",
        "नी"
      ],
      [
        "इसु",
        "पुराः"
      ],
      [
        "खा",
        "न"
      ],
      [
        "तादा",
        "ञ"
      ],
      [
        "इं",
        "टर"
      ],
      [
        "उनु",
        "ड़ु"
      ],
      [
        "खो",
        "न"
      ],
      [
        "दड़ि",
        "ओःअ"
      ],
      [
        "परि",
        "वार"
      ],
      [
        "परि",
        "णाम"
      ],
      [
        "सानाङ",
        "ताना"
      ],
      [
        "सरा",
        "व"
      ],
      [
        "साइ",
        "ति"
      ],
      [
        "जिनि",
        "सि"
      ],
      [
        "दुला",
        "ड़"
      ],
      [
        "गल",
        "ती"
      ],
      [
        "लगा",
        "व"
      ],
      [
        "छा",
        "पा"
      ],
      [
        "उत्",
        "तर"
      ],
      [
        "विश्",
        "वास"
      ],
      [
        "आरो",
        "पी"
      ],
      [
        "पढ",
        "ाव"
      ],
      [
        "हुला",
        "ंग"
      ],
      [
        "कोशि",
        "श"
      ],
      [
        "स्कू",
        "ल"
      ],
      [
        "कुरू",
        "मुटु"
      ],
      [
        "ः",
        "इआ"
      ],
      [
        "अ",
        "मि"
      ],
      [
        "अ",
        "पु"
      ],
      [
        "अ",
        "पे"
      ],
      [
        "अ",
        "सर"
      ],
      [
        "आ",
        "मे"
      ],
      [
        "आ",
        "इं"
      ],
      [
        "आ",
        "योग"
      ],
      [
        "इ",
        "ग"
      ],
      [
        "ओ",
        "ले"
      ],
      [
        "ओ",
        "मो"
      ],
      [
        "ओ",
        "चोः"
      ],
      [
        "क",
        "पा"
      ],
      [
        "घ",
        "ु"
      ],
      [
        "ज",
        "दि"
      ],
      [
        "ट",
        "ै"
      ],
      [
        "त",
        "ब"
      ],
      [
        "त",
        "री"
      ],
      [
        "ध",
        "र्म"
      ],
      [
        "प",
        "त्"
      ],
      [
        "ब",
        "ंग"
      ],
      [
        "ब",
        "धा"
      ],
      [
        "व",
        "ड़"
      ],
      [
        "श",
        "क"
      ],
      [
        "श",
        "नि"
      ],
      [
        "ह",
        "ल"
      ],
      [
        "ि",
        "क"
      ],
      [
        "ू",
        "न"
      ],
      [
        "ना",
        "ते"
      ],
      [
        "का",
        "ं"
      ],
      [
        "का",
        "ॅ"
      ],
      [
        "को",
        "ठ"
      ],
      [
        "ता",
        "किना"
      ],
      [
        "नि",
        "यम"
      ],
      [
        "ले",
        "ज"
      ],
      [
        "मा",
        "काना"
      ],
      [
        "मा",
        "योम"
      ],
      [
        "मा",
        "राँग"
      ],
      [
        "सा",
        "ड़ि"
      ],
      [
        "गा",
        "मु"
      ],
      [
        "गा",
        "काना"
      ],
      [
        "रि",
        "ज"
      ],
      [
        "मि",
        "आ"
      ],
      [
        "चि",
        "आ"
      ],
      [
        "चि",
        "र"
      ],
      [
        "चि",
        "त्र"
      ],
      [
        "सि",
        "त"
      ],
      [
        "सि",
        "बिल"
      ],
      [
        "नेआ",
        "ओ"
      ],
      [
        "सो",
        "ना"
      ],
      [
        "मेना",
        "इया"
      ],
      [
        "हा",
        "ं"
      ],
      [
        "हा",
        "टिङ"
      ],
      [
        "इन",
        "किन"
      ],
      [
        "लि",
        "जा"
      ],
      [
        "हि",
        "स्सा"
      ],
      [
        "वि",
        "वे"
      ],
      [
        "वि",
        "देश"
      ],
      [
        "वि",
        "धान"
      ],
      [
        "वि",
        "शेष"
      ],
      [
        "रआः",
        "ते"
      ],
      [
        "जु",
        "दि"
      ],
      [
        "जो",
        "का"
      ],
      [
        "जो",
        "ड़े"
      ],
      [
        "मु",
        "ङ"
      ],
      [
        "मु",
        "सिङ"
      ],
      [
        "बो",
        "ं"
      ],
      [
        "तन",
        "ी"
      ],
      [
        "कजि",
        "आ"
      ],
      [
        "सिदा",
        "उतार"
      ],
      [
        "ओआ",
        "कान"
      ],
      [
        "म्",
        "बा"
      ],
      [
        "ओको",
        "य"
      ],
      [
        "कना",
        "ए"
      ],
      [
        "इतु",
        "आन"
      ],
      [
        "बी",
        "र"
      ],
      [
        "ज्",
        "ञ"
      ],
      [
        "ड़े",
        "ः"
      ],
      [
        "ंगे",
        "न"
      ],
      [
        "सार",
        "तेगे"
      ],
      [
        "तादा",
        "को"
      ],
      [
        "स्ट",
        "्रे"
      ],
      [
        "पू",
        "र"
      ],
      [
        "जादा",
        "को"
      ],
      [
        "बल",
        "य"
      ],
      [
        "वर्",
        "ग"
      ],
      [
        "होनो",
        "बा"
      ],
      [
        "भो",
        "रसा"
      ],
      [
        "ज्ञा",
        "निक"
      ],
      [
        "कदा",
        "ए"
      ],
      [
        "फ्",
        "ट"
      ],
      [
        "जार",
        "गि"
      ],
      [
        "मै",
        "च"
      ],
      [
        "नमो",
        "गा"
      ],
      [
        "तू",
        "म"
      ],
      [
        "उकु",
        "ता"
      ],
      [
        "उयु",
        "ः"
      ],
      [
        "वै",
        "ज्ञानिक"
      ],
      [
        "जेता",
        "ए"
      ],
      [
        "स्टे",
        "शन"
      ],
      [
        "आड़ा",
        "नदि"
      ],
      [
        "परी",
        "क्षा"
      ],
      [
        "पूर्",
        "ण"
      ],
      [
        "जुगु",
        "तु"
      ],
      [
        "आसरा",
        "ए"
      ],
      [
        "सेटे",
        "र"
      ],
      [
        "हिनि",
        "जुः"
      ],
      [
        "चिउ",
        "लाओ"
      ],
      [
        "बधा",
        "ई"
      ],
      [
        "ं",
        "आ"
      ],
      [
        "ं",
        "पि"
      ],
      [
        "ः",
        "आ"
      ],
      [
        "अ",
        "द"
      ],
      [
        "अ",
        "गर"
      ],
      [
        "अ",
        "कना"
      ],
      [
        "अ",
        "र्थ"
      ],
      [
        "अ",
        "लोम"
      ],
      [
        "अ",
        "पाना"
      ],
      [
        "आ",
        "त"
      ],
      [
        "आ",
        "चु"
      ],
      [
        "उ",
        "रू"
      ],
      [
        "ए",
        "क"
      ],
      [
        "क",
        "ने"
      ],
      [
        "क",
        "ले"
      ],
      [
        "क",
        "टी"
      ],
      [
        "ख",
        "े"
      ],
      [
        "ग",
        "ढ़"
      ],
      [
        "ग",
        "ति"
      ],
      [
        "च",
        "न"
      ],
      [
        "ट",
        "ू"
      ],
      [
        "ट",
        "्र"
      ],
      [
        "त",
        "ै"
      ],
      [
        "द",
        "अः"
      ],
      [
        "न",
        "ै"
      ],
      [
        "प",
        "ता"
      ],
      [
        "प",
        "क्ष"
      ],
      [
        "प",
        "रोम"
      ],
      [
        "ब",
        "ज"
      ],
      [
        "ब",
        "ढ़"
      ],
      [
        "ब",
        "लाए"
      ],
      [
        "य",
        "ी"
      ],
      [
        "र",
        "ै"
      ],
      [
        "र",
        "जि"
      ],
      [
        "व",
        "ृ"
      ],
      [
        "श",
        "ू"
      ],
      [
        "श",
        "क्ति"
      ],
      [
        "ष",
        "ी"
      ],
      [
        "स",
        "रे"
      ],
      [
        "स",
        "न्"
      ],
      [
        "ह",
        "ला"
      ],
      [
        "े",
        "आ"
      ],
      [
        "रे",
        "म"
      ],
      [
        "रे",
        "गी"
      ],
      [
        "ते",
        "द"
      ],
      [
        "ते",
        "यो"
      ],
      [
        "ने",
        "लेकन"
      ],
      [
        "जा",
        "रा"
      ],
      [
        "बा",
        "री"
      ],
      [
        "बा",
        "लु"
      ],
      [
        "बा",
        "बू"
      ],
      [
        "दा",
        "रु"
      ],
      [
        "नि",
        "मत"
      ],
      [
        "मा",
        "ं"
      ],
      [
        "ला",
        "ख"
      ],
      [
        "ला",
        "ञ"
      ],
      [
        "ला",
        "म"
      ],
      [
        "सा",
        "रे"
      ],
      [
        "सा",
        "गाते"
      ],
      [
        "रि",
        "श्"
      ],
      [
        "चि",
        "मि"
      ],
      [
        "चि",
        "ल्"
      ],
      [
        "वा",
        "य"
      ],
      [
        "जाना",
        "ओ"
      ],
      [
        "सु",
        "ल"
      ],
      [
        "यो",
        "वा"
      ],
      [
        "यो",
        "गि"
      ],
      [
        "दु",
        "ड़ु"
      ],
      [
        "पु",
        "लाइ"
      ],
      [
        "लि",
        "का"
      ],
      [
        "लि",
        "जाः"
      ],
      [
        "तान",
        "कोआः"
      ],
      [
        "तान",
        "ताइकेनाएः"
      ],
      [
        "ताना",
        "म"
      ],
      [
        "लेका",
        "नाः"
      ],
      [
        "आञ",
        "े"
      ],
      [
        "आञ",
        "ो"
      ],
      [
        "वि",
        "धि"
      ],
      [
        "पे",
        "ं"
      ],
      [
        "पे",
        "न"
      ],
      [
        "जी",
        "त"
      ],
      [
        "गि",
        "यु"
      ],
      [
        "मु",
        "टान"
      ],
      [
        "न्",
        "दि"
      ],
      [
        "बो",
        "ओः"
      ],
      [
        "बो",
        "तो"
      ],
      [
        "बो",
        "र्ड"
      ],
      [
        "लेल",
        "केआते"
      ],
      [
        "सेन",
        "केना"
      ],
      [
        "कजि",
        "को"
      ],
      [
        "पि",
        "ड़ि"
      ],
      [
        "रु",
        "प"
      ],
      [
        "कामि",
        "को"
      ],
      [
        "काजि",
        "ओःआ"
      ],
      [
        "ओको",
        "एः"
      ],
      [
        "लेना",
        "एः"
      ],
      [
        "ओम",
        "केदा"
      ],
      [
        "राज",
        "स्थान"
      ],
      [
        "नाम",
        "जाना"
      ],
      [
        "शि",
        "या"
      ],
      [
        "ची",
        "ज"
      ],
      [
        "लागाति",
        "ङ"
      ],
      [
        "ज्",
        "यो"
      ],
      [
        "नअः",
        "दो"
      ],
      [
        "खो",
        "ब्"
      ],
      [
        "सेसेन",
        "तान"
      ],
      [
        "परि",
        "ष"
      ],
      [
        "पं",
        "जा"
      ],
      [
        "सू",
        "र"
      ],
      [
        "सोबेनको",
        "आते"
      ],
      [
        "बन",
        "ोः"
      ],
      [
        "मर",
        "ङ"
      ],
      [
        "जोर",
        "ते"
      ],
      [
        "अइ",
        "ञ"
      ],
      [
        "अधि",
        "कार"
      ],
      [
        "कद",
        "म"
      ],
      [
        "लोक",
        "तंत्र"
      ],
      [
        "लान",
        "दा"
      ],
      [
        "ग्र",
        "ह"
      ],
      [
        "दुबा",
        "कान"
      ],
      [
        "्यू",
        "टर"
      ],
      [
        "बरा",
        "बरी"
      ],
      [
        "रेंगे",
        "ः"
      ],
      [
        "होसो",
        "ड़ो"
      ],
      [
        "सचि",
        "व"
      ],
      [
        "बाइओ",
        "गा"
      ],
      [
        "गुजरा",
        "त"
      ],
      [
        ".",
        "."
      ],
      [
        "अ",
        "उ"
      ],
      [
        "अ",
        "को"
      ],
      [
        "आ",
        "ऊ"
      ],
      [
        "आ",
        "स"
      ],
      [
        "आ",
        "बा"
      ],
      [
        "आ",
        "पा"
      ],
      [
        "आ",
        "यो"
      ],
      [
        "आ",
        "कन"
      ],
      [
        "आ",
        "तोम"
      ],
      [
        "इ",
        "त"
      ],
      [
        "इ",
        "पिल"
      ],
      [
        "ए",
        "च"
      ],
      [
        "ए",
        "फ"
      ],
      [
        "ओ",
        "ता"
      ],
      [
        "ओ",
        "टा"
      ],
      [
        "ख",
        "न"
      ],
      [
        "ख",
        "्या"
      ],
      [
        "ग",
        "त"
      ],
      [
        "ग",
        "्रे"
      ],
      [
        "ग",
        "्री"
      ],
      [
        "च",
        "लव"
      ],
      [
        "ज",
        "मान"
      ],
      [
        "न",
        "ई"
      ],
      [
        "प",
        "ड़ा"
      ],
      [
        "ब",
        "ॉ"
      ],
      [
        "ब",
        "हु"
      ],
      [
        "भ",
        "ु"
      ],
      [
        "भ",
        "क्ति"
      ],
      [
        "र",
        "वि"
      ],
      [
        "ल",
        "अ"
      ],
      [
        "व",
        "त"
      ],
      [
        "स",
        "मि"
      ],
      [
        "स",
        "ब्"
      ],
      [
        "स",
        "हर"
      ],
      [
        "ह",
        "गा"
      ],
      [
        "ना",
        "ंगेन"
      ],
      [
        "रे",
        "ट"
      ],
      [
        "का",
        "इ"
      ],
      [
        "का",
        "रि"
      ],
      [
        "को",
        "यो"
      ],
      [
        "रा",
        "शि"
      ],
      [
        "के",
        "म"
      ],
      [
        "ने",
        "मा"
      ],
      [
        "ने",
        "पेल"
      ],
      [
        "मे",
        "ला"
      ],
      [
        "हो",
        "ड"
      ],
      [
        "हो",
        "रो"
      ],
      [
        "ले",
        "द"
      ],
      [
        "मा",
        "ः"
      ],
      [
        "गे",
        "ञ"
      ],
      [
        "या",
        "त्रा"
      ],
      [
        "सा",
        "फा"
      ],
      [
        "दो",
        "र"
      ],
      [
        "सि",
        "नेमा"
      ],
      [
        "ताइ",
        "नो"
      ],
      [
        "पा",
        "टी"
      ],
      [
        "पा",
        "एसा"
      ],
      [
        "सो",
        "ज"
      ],
      [
        "इनि",
        "अ"
      ],
      [
        "सु",
        "ध"
      ],
      [
        "स्",
        "तु"
      ],
      [
        "स्",
        "कार"
      ],
      [
        "मो",
        "का"
      ],
      [
        "मो",
        "ड़े"
      ],
      [
        "यो",
        "आ"
      ],
      [
        "दु",
        "कान"
      ],
      [
        "पु",
        "ड़ि"
      ],
      [
        "टा",
        "ओ"
      ],
      [
        "होबा",
        "ओःआ"
      ],
      [
        "बु",
        "टा"
      ],
      [
        "बु",
        "ड़ु"
      ],
      [
        "रो",
        "ब"
      ],
      [
        "द्",
        "दा"
      ],
      [
        "रिका",
        "या"
      ],
      [
        "जी",
        "द"
      ],
      [
        "ओः",
        "तान"
      ],
      [
        "सोबेन",
        "ते"
      ],
      [
        "रू",
        "द"
      ],
      [
        "प्र",
        "ी"
      ],
      [
        "प्र",
        "या"
      ],
      [
        "प्र",
        "कृति"
      ],
      [
        "प्र",
        "साद"
      ],
      [
        "दे",
        "वी"
      ],
      [
        "गु",
        "ण"
      ],
      [
        "गु",
        "ना"
      ],
      [
        "लेल",
        "केदा"
      ],
      [
        "डा",
        "क्टर"
      ],
      [
        "जे",
        "पी"
      ],
      [
        "होड़ो",
        "कोआ"
      ],
      [
        "त्",
        "या"
      ],
      [
        "सं",
        "ड"
      ],
      [
        "सं",
        "बंध"
      ],
      [
        "सी",
        "मा"
      ],
      [
        "ब्",
        "रि"
      ],
      [
        "अर",
        "जि"
      ],
      [
        "इनकु",
        "को"
      ],
      [
        "मं",
        "च"
      ],
      [
        "मं",
        "जू"
      ],
      [
        "सम",
        "स्या"
      ],
      [
        "दाड़ि",
        "जाना"
      ],
      [
        "वी",
        "डियो"
      ],
      [
        "दाड़ि",
        "जाना"
      ],
      [
        "इम",
        "नुङ"
      ],
      [
        "उनु",
        "बार"
      ],
      [
        "उनु",
        "रूम"
      ],
      [
        "पं",
        "चा"
      ],
      [
        "किरि",
        "ंग"
      ],
      [
        "आबु",
        "आ"
      ],
      [
        "भो",
        "गोमान"
      ],
      [
        "लागा",
        "व"
      ],
      [
        "होबाओः",
        "ताना"
      ],
      [
        "आलो",
        "पे"
      ],
      [
        "पति",
        "या"
      ],
      [
        "तिंगु",
        "न"
      ],
      [
        "बोर",
        "सा"
      ],
      [
        "ओमे",
        "आ"
      ],
      [
        "बानचा",
        "व"
      ],
      [
        "सल",
        "मान"
      ],
      [
        "भू",
        "मि"
      ],
      [
        "तिङ",
        "गु"
      ],
      [
        "ब्र",
        "ह्"
      ],
      [
        "माइ",
        "नान"
      ],
      [
        "खिला",
        "फ"
      ],
      [
        "होसो",
        "ड़ो"
      ],
      [
        "ब्ला",
        "ग"
      ],
      [
        "विश्व",
        "विद्यालय"
      ],
      [
        "इला",
        "का"
      ],
      [
        "तकन",
        "ी"
      ],
      [
        "चांडु",
        "ः"
      ],
      [
        "ओन",
        "मान"
      ],
      [
        "भ्र",
        "ष्टाचार"
      ],
      [
        "जवा",
        "ब"
      ],
      [
        "दुड़ु",
        "म"
      ],
      [
        "ज्यो",
        "ति"
      ],
      [
        "परिष",
        "द"
      ],
      [
        "ं",
        "जी"
      ],
      [
        "अ",
        "सि"
      ],
      [
        "अ",
        "सरा"
      ],
      [
        "आ",
        "सि"
      ],
      [
        "आ",
        "कना"
      ],
      [
        "उ",
        "न"
      ],
      [
        "उ",
        "ड़"
      ],
      [
        "उ",
        "ल्"
      ],
      [
        "उ",
        "दू"
      ],
      [
        "ओ",
        "ज"
      ],
      [
        "ओ",
        "का"
      ],
      [
        "ओ",
        "ताना"
      ],
      [
        "क",
        "रा"
      ],
      [
        "ग",
        "ढ़"
      ],
      [
        "ज",
        "ंग"
      ],
      [
        "ठ",
        "े"
      ],
      [
        "थ",
        "े"
      ],
      [
        "द",
        "स"
      ],
      [
        "न",
        "ंबर"
      ],
      [
        "प",
        "म"
      ],
      [
        "ब",
        "ड़"
      ],
      [
        "ब",
        "ल्"
      ],
      [
        "म",
        "ण"
      ],
      [
        "म",
        "ही"
      ],
      [
        "र",
        "क"
      ],
      [
        "ल",
        "ते"
      ],
      [
        "व",
        "ं"
      ],
      [
        "श",
        "र"
      ],
      [
        "स",
        "मु"
      ],
      [
        "स",
        "नाम"
      ],
      [
        "स",
        "त्ता"
      ],
      [
        "ह",
        "क"
      ],
      [
        "ह",
        "ना"
      ],
      [
        "ह",
        "पा"
      ],
      [
        "ह",
        "रिया"
      ],
      [
        "।",
        "।"
      ],
      [
        "ना",
        "ग"
      ],
      [
        "ना",
        "यक"
      ],
      [
        "रे",
        "पे"
      ],
      [
        "का",
        "ग"
      ],
      [
        "ते",
        "ञ"
      ],
      [
        "रा",
        "बाङ"
      ],
      [
        "के",
        "श"
      ],
      [
        "के",
        "न्द्र"
      ],
      [
        "ने",
        "ला"
      ],
      [
        "ने",
        "सा"
      ],
      [
        "ने",
        "साः"
      ],
      [
        "जा",
        "ला"
      ],
      [
        "जा",
        "री"
      ],
      [
        "बा",
        "ब"
      ],
      [
        "दा",
        "रू"
      ],
      [
        "नि",
        "तिर"
      ],
      [
        "या",
        "ं"
      ],
      [
        "सा",
        "ङ"
      ],
      [
        "गा",
        "म"
      ],
      [
        "गा",
        "ल"
      ],
      [
        "मि",
        "क"
      ],
      [
        "कु",
        "न"
      ],
      [
        "कु",
        "ड़"
      ],
      [
        "पा",
        "इ"
      ],
      [
        "नेआ",
        "राः"
      ],
      [
        "सो",
        "नो"
      ],
      [
        "इनि",
        "लोः"
      ],
      [
        "वा",
        "र्ड"
      ],
      [
        "वा",
        "णी"
      ],
      [
        "सु",
        "पर"
      ],
      [
        "सु",
        "गाड़ा"
      ],
      [
        "हा",
        "का"
      ],
      [
        "हा",
        "ड़ा"
      ],
      [
        "हा",
        "टि"
      ],
      [
        "स्",
        "तर"
      ],
      [
        "मो",
        "ए"
      ],
      [
        "दु",
        "ड़ु"
      ],
      [
        "दु",
        "कू"
      ],
      [
        "दि",
        "वस"
      ],
      [
        "चा",
        "ओ"
      ],
      [
        "चा",
        "सा"
      ],
      [
        "टा",
        "आं"
      ],
      [
        "लि",
        "ंगि"
      ],
      [
        "तु",
        "का"
      ],
      [
        "तु",
        "ला"
      ],
      [
        "बु",
        "ध"
      ],
      [
        "हि",
        "त"
      ],
      [
        "हि",
        "सब"
      ],
      [
        "वि",
        "स"
      ],
      [
        "वि",
        "जय"
      ],
      [
        "क्",
        "शन"
      ],
      [
        "सोबे",
        "नाः"
      ],
      [
        "बि",
        "ङ"
      ],
      [
        "बि",
        "युर"
      ],
      [
        "टे",
        "ल"
      ],
      [
        "प्र",
        "स्ता"
      ],
      [
        "प्र",
        "शासन"
      ],
      [
        "न्",
        "याय"
      ],
      [
        "बो",
        "ङा"
      ],
      [
        "कान",
        "ून"
      ],
      [
        "कोआ",
        "एः"
      ],
      [
        "डि",
        "त"
      ],
      [
        "काना",
        "जि"
      ],
      [
        "केआते",
        "गे"
      ],
      [
        "त्",
        "मक"
      ],
      [
        "ती",
        "स"
      ],
      [
        "यु",
        "क्त"
      ],
      [
        "सं",
        "सार"
      ],
      [
        "सं",
        "जय"
      ],
      [
        "कामि",
        "रे"
      ],
      [
        "काजि",
        "केदा"
      ],
      [
        "काजि",
        "केदाएः"
      ],
      [
        "तो",
        "वा"
      ],
      [
        "पो",
        "ड़ो"
      ],
      [
        "ब्",
        "लॉ"
      ],
      [
        "ताइना",
        "एः"
      ],
      [
        "चे",
        "ं"
      ],
      [
        "शा",
        "स्"
      ],
      [
        "हे",
        "ड़े"
      ],
      [
        "एटे",
        "गोआ"
      ],
      [
        "अइंग",
        "के"
      ],
      [
        "एआ",
        "को"
      ],
      [
        "प्",
        "रिय"
      ],
      [
        "राज",
        "धानी"
      ],
      [
        "हिजुः",
        "यना"
      ],
      [
        "आउ",
        "केआते"
      ],
      [
        "खा",
        "ना"
      ],
      [
        "तइना",
        "य"
      ],
      [
        "सुकु",
        "आ"
      ],
      [
        "आं",
        "व"
      ],
      [
        "धि",
        "या"
      ],
      [
        "इं",
        "डिया"
      ],
      [
        "उनु",
        "दुब्"
      ],
      [
        "एस",
        "कार"
      ],
      [
        "उदुब",
        "केदा"
      ],
      [
        "सू",
        "चना"
      ],
      [
        "भाव",
        "ना"
      ],
      [
        "बन",
        "ोःआ"
      ],
      [
        "होबाओः",
        "अ"
      ],
      [
        "ग्",
        "राम"
      ],
      [
        "पुरअः",
        "गे"
      ],
      [
        "सला",
        "ह"
      ],
      [
        "मार",
        "साल"
      ],
      [
        "घा",
        "टि"
      ],
      [
        "गोपो",
        "ए"
      ],
      [
        "हाना",
        "टिङ"
      ],
      [
        "आपु",
        "ते"
      ],
      [
        "ष्ण",
        "ु"
      ],
      [
        "कार्य",
        "क्रम"
      ],
      [
        "अइं",
        "आ"
      ],
      [
        "पत्र",
        "कार"
      ],
      [
        "दंग",
        "ड़ी"
      ],
      [
        "संस्",
        "कृत"
      ],
      [
        "पढ़",
        "ाव"
      ],
      [
        "मुं",
        "बई"
      ],
      [
        "लक्ष",
        "्"
      ],
      [
        "जन्",
        "म"
      ],
      [
        "प्रबंध",
        "न"
      ],
      [
        "मुर",
        "तु"
      ],
      [
        "उनुड़ु",
        "ः"
      ],
      [
        "चिआ",
        "चि"
      ],
      [
        "चिल्",
        "का"
      ],
      [
        "ं",
        "च"
      ],
      [
        "ं",
        "दि"
      ],
      [
        "ं",
        "बु"
      ],
      [
        "ं",
        "सी"
      ],
      [
        "अ",
        "य"
      ],
      [
        "अ",
        "ह"
      ],
      [
        "अ",
        "एआ"
      ],
      [
        "आ",
        "ग"
      ],
      [
        "आ",
        "धार"
      ],
      [
        "उ",
        "स"
      ],
      [
        "उ",
        "दा"
      ],
      [
        "ए",
        "जे"
      ],
      [
        "ए",
        "कला"
      ],
      [
        "ए",
        "ङगा"
      ],
      [
        "ए",
        "कदम"
      ],
      [
        "क",
        "ते"
      ],
      [
        "ख",
        "र्चा"
      ],
      [
        "ज",
        "ोः"
      ],
      [
        "ज",
        "हा"
      ],
      [
        "झ",
        "ी"
      ],
      [
        "ट",
        "्रो"
      ],
      [
        "त",
        "अ"
      ],
      [
        "द",
        "ै"
      ],
      [
        "न",
        "ती"
      ],
      [
        "न",
        "पाम"
      ],
      [
        "प",
        "सराव"
      ],
      [
        "भ",
        "क्त"
      ],
      [
        "म",
        "द"
      ],
      [
        "म",
        "ड़ि"
      ],
      [
        "य",
        "ते"
      ],
      [
        "र",
        "ति"
      ],
      [
        "र",
        "सि"
      ],
      [
        "र",
        "चना"
      ],
      [
        "ल",
        "त"
      ],
      [
        "ल",
        "म"
      ],
      [
        "ल",
        "र"
      ],
      [
        "स",
        "पा"
      ],
      [
        "ह",
        "मि"
      ],
      [
        "ृ",
        "ष्"
      ],
      [
        "ड़",
        "व"
      ],
      [
        "ना",
        "मे"
      ],
      [
        "ता",
        "किन"
      ],
      [
        "ते",
        "दो"
      ],
      [
        "ते",
        "बअः"
      ],
      [
        "रा",
        "काना"
      ],
      [
        "ने",
        "स"
      ],
      [
        "ने",
        "आः"
      ],
      [
        "ने",
        "कन"
      ],
      [
        "बा",
        "जार"
      ],
      [
        "मे",
        "ल"
      ],
      [
        "नि",
        "जी"
      ],
      [
        "नि",
        "वे"
      ],
      [
        "नि",
        "यर"
      ],
      [
        "हो",
        "ड़"
      ],
      [
        "हो",
        "ंका"
      ],
      [
        "ले",
        "पे"
      ],
      [
        "मा",
        "ंडि"
      ],
      [
        "या",
        "म"
      ],
      [
        "सा",
        "ध"
      ],
      [
        "सा",
        "ह"
      ],
      [
        "सा",
        "ड़ा"
      ],
      [
        "रि",
        "ङ"
      ],
      [
        "चि",
        "ऊ"
      ],
      [
        "बे",
        "दा"
      ],
      [
        "ताइ",
        "जाना"
      ],
      [
        "सो",
        "बोन"
      ],
      [
        "सो",
        "ङगे"
      ],
      [
        "सो",
        "ओज"
      ],
      [
        "इनि",
        "या"
      ],
      [
        "इनि",
        "गा"
      ],
      [
        "वा",
        "री"
      ],
      [
        "वा",
        "कान"
      ],
      [
        "वा",
        "काना"
      ],
      [
        "जि",
        "न"
      ],
      [
        "जि",
        "नी"
      ],
      [
        "जि",
        "दन"
      ],
      [
        "कि",
        "सान"
      ],
      [
        "कि",
        "तब"
      ],
      [
        "र्",
        "फ"
      ],
      [
        "र्",
        "व"
      ],
      [
        "र्",
        "जी"
      ],
      [
        "हा",
        "इ"
      ],
      [
        "हा",
        "बि"
      ],
      [
        "हा",
        "रिआ"
      ],
      [
        "स्",
        "ति"
      ],
      [
        "मो",
        "टो"
      ],
      [
        "चा",
        "हे"
      ],
      [
        "गो",
        "ट"
      ],
      [
        "गो",
        "जो"
      ],
      [
        "हि",
        "साब"
      ],
      [
        "वि",
        "त"
      ],
      [
        "वि",
        "ष्णु"
      ],
      [
        "क्",
        "का"
      ],
      [
        "जु",
        "ड़ा"
      ],
      [
        "ओः",
        "का"
      ],
      [
        "सोबेन",
        "कोआः"
      ],
      [
        "मु",
        "ल"
      ],
      [
        "न्",
        "ध"
      ],
      [
        "न्",
        "हा"
      ],
      [
        "दे",
        "र"
      ],
      [
        "हिजु",
        "आ"
      ],
      [
        "बाइ",
        "रि"
      ],
      [
        "बाइ",
        "आकान"
      ],
      [
        "जे",
        "तना"
      ],
      [
        "पि",
        "टि"
      ],
      [
        "टो",
        "गो"
      ],
      [
        "सं",
        "घ"
      ],
      [
        "सिदा",
        "ते"
      ],
      [
        "ओको",
        "ता"
      ],
      [
        "ंड",
        "र"
      ],
      [
        "हे",
        "ए"
      ],
      [
        "प्",
        "त"
      ],
      [
        "सन",
        "मंग"
      ],
      [
        "हिजुः",
        "ताना"
      ],
      [
        "सिङ",
        "बोंगा"
      ],
      [
        "श्",
        "वर"
      ],
      [
        "पुराः",
        "गे"
      ],
      [
        "हुड़ि",
        "ग"
      ],
      [
        "खि",
        "र"
      ],
      [
        "तयोम",
        "ते"
      ],
      [
        "सिंग",
        "ी"
      ],
      [
        "एस",
        "पी"
      ],
      [
        "अप",
        "रा"
      ],
      [
        "ट्",
        "स"
      ],
      [
        "वर",
        "ण"
      ],
      [
        "परि",
        "योजना"
      ],
      [
        "मानाति",
        "ंग"
      ],
      [
        "बाद",
        "ली"
      ],
      [
        "दू",
        "र"
      ],
      [
        "ग्",
        "रा"
      ],
      [
        "संग",
        "ठन"
      ],
      [
        "लेलो",
        "गा"
      ],
      [
        "फ्",
        "ता"
      ],
      [
        "होबाओ",
        "ताना"
      ],
      [
        "छा",
        "त्र"
      ],
      [
        "निकु",
        "आ"
      ],
      [
        "खु",
        "रजि"
      ],
      [
        "अं",
        "तर"
      ],
      [
        "धार",
        "ण"
      ],
      [
        "सुर",
        "क्षा"
      ],
      [
        "लेले",
        "मे"
      ],
      [
        "झा",
        "र"
      ],
      [
        "नौ",
        "करी"
      ],
      [
        "आयु",
        "ब"
      ],
      [
        "कार्",
        "यालय"
      ],
      [
        "सचि",
        "न"
      ],
      [
        "रेल",
        "वे"
      ],
      [
        "साँ",
        "गि"
      ],
      [
        "उद",
        "म"
      ],
      [
        "उडु",
        "ंग"
      ],
      [
        "लगातिंग",
        "अः"
      ],
      [
        "यं",
        "त्र"
      ],
      [
        "हुडि",
        "ङ"
      ],
      [
        "प्रधान",
        "मंत्री"
      ],
      [
        "रिड़ि",
        "ङ"
      ],
      [
        "सीबी",
        "आई"
      ],
      [
        "इंटर",
        "नेट"
      ],
      [
        "आत",
        "ंक"
      ],
      [
        "पंजा",
        "ब"
      ],
      [
        "समि",
        "ति"
      ],
      [
        "प्रया",
        "स"
      ],
      [
        "मही",
        "ना"
      ],
      [
        "जाला",
        "कार"
      ],
      [
        "टाआं",
        "ओ"
      ],
      [
        "हाबि",
        "ः"
      ],
      [
        "ँ",
        "गा"
      ],
      [
        "ं",
        "ज"
      ],
      [
        "अ",
        "नि"
      ],
      [
        "अ",
        "बू"
      ],
      [
        "अ",
        "शो"
      ],
      [
        "अ",
        "काद"
      ],
      [
        "आ",
        "खिर"
      ],
      [
        "ए",
        "ं"
      ],
      [
        "ए",
        "या"
      ],
      [
        "ओ",
        "ं"
      ],
      [
        "क",
        "र्म"
      ],
      [
        "ग",
        "मा"
      ],
      [
        "ग",
        "मु"
      ],
      [
        "च",
        "ू"
      ],
      [
        "च",
        "ंद"
      ],
      [
        "च",
        "क्र"
      ],
      [
        "च",
        "र्चा"
      ],
      [
        "छ",
        "े"
      ],
      [
        "छ",
        "पा"
      ],
      [
        "ज",
        "पअः"
      ],
      [
        "ञ",
        "मे"
      ],
      [
        "ड",
        "ल"
      ],
      [
        "ढ",
        "ा"
      ],
      [
        "त",
        "य"
      ],
      [
        "त",
        "द्"
      ],
      [
        "त",
        "त्व"
      ],
      [
        "न",
        "व"
      ],
      [
        "न",
        "डा"
      ],
      [
        "प",
        "ट"
      ],
      [
        "प",
        "ौ"
      ],
      [
        "ब",
        "कं"
      ],
      [
        "म",
        "शी"
      ],
      [
        "म",
        "खिल"
      ],
      [
        "श",
        "ं"
      ],
      [
        "श",
        "ब्"
      ],
      [
        "स",
        "व"
      ],
      [
        "स",
        "हा"
      ],
      [
        "स",
        "ही"
      ],
      [
        "ह",
        "म्"
      ],
      [
        "्",
        "स"
      ],
      [
        "ड़",
        "म"
      ],
      [
        "ढ़",
        "ी"
      ],
      [
        "ना",
        "मेआ"
      ],
      [
        "ना",
        "ड़ेः"
      ],
      [
        "रे",
        "ञ"
      ],
      [
        "रे",
        "ंग"
      ],
      [
        "रे",
        "लगा"
      ],
      [
        "को",
        "ट"
      ],
      [
        "को",
        "रेआ"
      ],
      [
        "को",
        "लोः"
      ],
      [
        "ता",
        "ं"
      ],
      [
        "ता",
        "द"
      ],
      [
        "ता",
        "नेः"
      ],
      [
        "ते",
        "म"
      ],
      [
        "रा",
        "नी"
      ],
      [
        "रा",
        "जे"
      ],
      [
        "बा",
        "व"
      ],
      [
        "बा",
        "ला"
      ],
      [
        "बा",
        "जी"
      ],
      [
        "बा",
        "बत"
      ],
      [
        "ले",
        "केआते"
      ],
      [
        "ले",
        "नाः"
      ],
      [
        "मा",
        "ँ"
      ],
      [
        "या",
        "कन"
      ],
      [
        "सा",
        "रा"
      ],
      [
        "सा",
        "साङ"
      ],
      [
        "ति",
        "ः"
      ],
      [
        "ति",
        "हा"
      ],
      [
        "दो",
        "म"
      ],
      [
        "दो",
        "कान"
      ],
      [
        "से",
        "ड़ा"
      ],
      [
        "चि",
        "त"
      ],
      [
        "चि",
        "ल"
      ],
      [
        "चि",
        "मुङ"
      ],
      [
        "चि",
        "लिका"
      ],
      [
        "सि",
        "द्धा"
      ],
      [
        "ोः",
        "का"
      ],
      [
        "सो",
        "बन"
      ],
      [
        "सो",
        "मोए"
      ],
      [
        "वा",
        "सी"
      ],
      [
        "कि",
        "ला"
      ],
      [
        "सु",
        "गड़"
      ],
      [
        "र्",
        "ष"
      ],
      [
        "र्",
        "जा"
      ],
      [
        "हा",
        "लि"
      ],
      [
        "स्",
        "टो"
      ],
      [
        "चा",
        "य"
      ],
      [
        "चा",
        "री"
      ],
      [
        "चा",
        "र्य"
      ],
      [
        "होबा",
        "जान"
      ],
      [
        "होबा",
        "यना"
      ],
      [
        "लि",
        "पि"
      ],
      [
        "गो",
        "वा"
      ],
      [
        "लो",
        "अ"
      ],
      [
        "बु",
        "आ"
      ],
      [
        "बु",
        "ड़ु"
      ],
      [
        "हि",
        "सा"
      ],
      [
        "रो",
        "ह"
      ],
      [
        "रो",
        "का"
      ],
      [
        "द्",
        "रा"
      ],
      [
        "क्",
        "रा"
      ],
      [
        "जो",
        "ला"
      ],
      [
        "जो",
        "तो"
      ],
      [
        "इनिः",
        "को"
      ],
      [
        "एन",
        "तअः"
      ],
      [
        "बि",
        "पि"
      ],
      [
        "गि",
        "ड़ि"
      ],
      [
        "टे",
        "न"
      ],
      [
        "हु",
        "कुम"
      ],
      [
        "मु",
        "न"
      ],
      [
        "मु",
        "ना"
      ],
      [
        "प्र",
        "माण"
      ],
      [
        "प्र",
        "क्रिया"
      ],
      [
        "एना",
        "द"
      ],
      [
        "बो",
        "ङगा"
      ],
      [
        "दे",
        "ड़े"
      ],
      [
        "लेल",
        "जाना"
      ],
      [
        "त्",
        "त"
      ],
      [
        "त्",
        "कार"
      ],
      [
        "मी",
        "द"
      ],
      [
        "मी",
        "र"
      ],
      [
        "पि",
        "ति"
      ],
      [
        "सं",
        "स"
      ],
      [
        "म्",
        "ब"
      ],
      [
        "सर",
        "ति"
      ],
      [
        "इनकु",
        "ः"
      ],
      [
        "ङा",
        "न"
      ],
      [
        "हे",
        "ंदे"
      ],
      [
        "मान",
        "डि"
      ],
      [
        "प्",
        "या"
      ],
      [
        "सन",
        "रति"
      ],
      [
        "तइकेना",
        "य"
      ],
      [
        "ची",
        "नी"
      ],
      [
        "वी",
        "ं"
      ],
      [
        "बी",
        "जेपी"
      ],
      [
        "फा",
        "इल"
      ],
      [
        "सुकु",
        "आन"
      ],
      [
        "नेता",
        "को"
      ],
      [
        "आन",
        "ंद"
      ],
      [
        "सेनोः",
        "तान"
      ],
      [
        "आया",
        "गा"
      ],
      [
        "तादा",
        "ए"
      ],
      [
        "लु",
        "तूम"
      ],
      [
        "उनु",
        "ड़ु"
      ],
      [
        "साः",
        "ते"
      ],
      [
        "हारा",
        "तिङ"
      ],
      [
        "कुड़ि",
        "को"
      ],
      [
        "दड़ि",
        "ओः"
      ],
      [
        "देश",
        "क"
      ],
      [
        "जपा",
        "गर"
      ],
      [
        "पं",
        "च"
      ],
      [
        "आपि",
        "र"
      ],
      [
        "वर्",
        "ण"
      ],
      [
        "शी",
        "ल"
      ],
      [
        "भो",
        "ग"
      ],
      [
        "ज्ञा",
        "पन"
      ],
      [
        "क्र",
        "ो"
      ],
      [
        "लाइ",
        "ः"
      ],
      [
        "अट",
        "करो"
      ],
      [
        "उत्",
        "तरा"
      ],
      [
        "स्वा",
        "स्थ"
      ],
      [
        "साम",
        "पोड़ो"
      ],
      [
        "एद",
        "कान"
      ],
      [
        "तदा",
        "ए"
      ],
      [
        "जै",
        "न"
      ],
      [
        "सरि",
        "न"
      ],
      [
        "विद्",
        "या"
      ],
      [
        "लै",
        "ंड"
      ],
      [
        "जोमे",
        "आः"
      ],
      [
        "कहा",
        "नी"
      ],
      [
        "बग",
        "ड़व"
      ],
      [
        "उद्",
        "योग"
      ],
      [
        "दुल",
        "डा"
      ],
      [
        "चिआः",
        "चि"
      ],
      [
        "मोड़े",
        "आ"
      ],
      [
        "हड़",
        "म"
      ],
      [
        "राचा",
        "ः"
      ],
      [
        "रम",
        "ल"
      ],
      [
        "जाँ",
        "च"
      ],
      [
        "स्ट्रे",
        "लिया"
      ],
      [
        "निमत",
        "ंग"
      ],
      [
        "होड",
        "मो"
      ],
      [
        "काग",
        "ज"
      ],
      [
        "कुड़",
        "म"
      ],
      [
        "प्रस्ता",
        "व"
      ],
      [
        "झी",
        "ल"
      ],
      [
        "जिनी",
        "द"
      ],
      [
        "अशो",
        "क"
      ],
      [
        "बिपि",
        "नगा"
      ],
      [
        "अ",
        "इन"
      ],
      [
        "अ",
        "ड़ा"
      ],
      [
        "आ",
        "ज"
      ],
      [
        "आ",
        "य"
      ],
      [
        "आ",
        "सा"
      ],
      [
        "आ",
        "र्"
      ],
      [
        "आ",
        "राः"
      ],
      [
        "आ",
        "गाम"
      ],
      [
        "इ",
        "ञ"
      ],
      [
        "इ",
        "रि"
      ],
      [
        "उ",
        "पि"
      ],
      [
        "ए",
        "प"
      ],
      [
        "ए",
        "य"
      ],
      [
        "ए",
        "मा"
      ],
      [
        "क",
        "प"
      ],
      [
        "क",
        "बु"
      ],
      [
        "क",
        "म्"
      ],
      [
        "क",
        "था"
      ],
      [
        "क",
        "्री"
      ],
      [
        "क",
        "कला"
      ],
      [
        "ग",
        "व"
      ],
      [
        "ग",
        "ौ"
      ],
      [
        "ग",
        "री"
      ],
      [
        "घ",
        "ड़ी"
      ],
      [
        "च",
        "पा"
      ],
      [
        "च",
        "न्द्र"
      ],
      [
        "च",
        "न्डुः"
      ],
      [
        "च",
        "ंड़ु"
      ],
      [
        "छ",
        "त्"
      ],
      [
        "झ",
        "व"
      ],
      [
        "ड",
        "र"
      ],
      [
        "द",
        "क्ष"
      ],
      [
        "द",
        "शा"
      ],
      [
        "द",
        "्रो"
      ],
      [
        "न",
        "क्स"
      ],
      [
        "न",
        "पम"
      ],
      [
        "प",
        "से"
      ],
      [
        "ब",
        "कल"
      ],
      [
        "म",
        "ृ"
      ],
      [
        "म",
        "ॉ"
      ],
      [
        "म",
        "स्"
      ],
      [
        "म",
        "ंड"
      ],
      [
        "म",
        "हे"
      ],
      [
        "र",
        "चा"
      ],
      [
        "व",
        "ल"
      ],
      [
        "स",
        "जा"
      ],
      [
        "स",
        "बु"
      ],
      [
        "स",
        "फा"
      ],
      [
        "स",
        "फल"
      ],
      [
        "ह",
        "ौ"
      ],
      [
        "ह",
        "नु"
      ],
      [
        "ू",
        "ना"
      ],
      [
        "ृ",
        "त"
      ],
      [
        "ना",
        "राय"
      ],
      [
        "रे",
        "बु"
      ],
      [
        "का",
        "बु"
      ],
      [
        "ते",
        "ला"
      ],
      [
        "रा",
        "कान"
      ],
      [
        "के",
        "स"
      ],
      [
        "के",
        "ंद्र"
      ],
      [
        "जा",
        "आना"
      ],
      [
        "बा",
        "ज"
      ],
      [
        "बा",
        "ॅ"
      ],
      [
        "बा",
        "रो"
      ],
      [
        "बा",
        "गाड़ा"
      ],
      [
        "दा",
        "इ"
      ],
      [
        "दा",
        "ना"
      ],
      [
        "हो",
        "ं"
      ],
      [
        "हो",
        "नाः"
      ],
      [
        "हो",
        "टोः"
      ],
      [
        "ले",
        "ख"
      ],
      [
        "मा",
        "कन"
      ],
      [
        "मा",
        "रंग"
      ],
      [
        "ला",
        "एः"
      ],
      [
        "ला",
        "ड़ा"
      ],
      [
        "ला",
        "चो"
      ],
      [
        "ला",
        "लू"
      ],
      [
        "सा",
        "त"
      ],
      [
        "सा",
        "जा"
      ],
      [
        "सा",
        "ड़ि"
      ],
      [
        "गा",
        "न"
      ],
      [
[...]
